{
  "version": "1.0",
  "truncation": null,
  "padding": null,
  "added_tokens": [
    {
      "id": 0,
      "content": "<pad>",
      "single_word": false,
      "lstrip": false,
      "rstrip": false,
      "normalized": false,
      "special": true
    },
    {
      "id": 1,
      "content": "<s>",
      "single_word": false,
      "lstrip": false,
      "rstrip": false,
      "normalized": false,
      "special": true
    },
    {
      "id": 2,
      "content": "</s>",
      "single_word": false,
      "lstrip": false,
      "rstrip": false,
      "normalized": false,
      "special": true
    },
    {
      "id": 3,
      "content": "<unk>",
      "single_word": false,
      "lstrip": false,
      "rstrip": false,
      "normalized": false,
      "special": true
    },
    {
      "id": 4,
      "content": "<mask>",
      "single_word": false,
      "lstrip": false,
      "rstrip": false,
      "normalized": false,
      "special": true
    }
  ],
  "normalizer": {
    "type": "NFKC"
  },
  "pre_tokenizer": {
    "type": "ByteLevel",
    "add_prefix_space": false,
    "trim_offsets": true,
    "use_regex": true
  },
  "post_processor": null,
  "decoder": null,
  "model": {
    "type": "BPE",
    "dropout": null,
    "unk_token": null,
    "continuing_subword_prefix": null,
    "end_of_word_suffix": null,
    "fuse_unk": false,
    "byte_fallback": false,
    "ignore_merges": false,
    "vocab": {
      "<pad>": 0,
      "<s>": 1,
      "</s>": 2,
      "<unk>": 3,
      "<mask>": 4,
      "!": 5,
      "\"": 6,
      "#": 7,
      "$": 8,
      "%": 9,
      "&": 10,
      "'": 11,
      "(": 12,
      ")": 13,
      "*": 14,
      "+": 15,
      ",": 16,
      "-": 17,
      ".": 18,
      "/": 19,
      "0": 20,
      "1": 21,
      "2": 22,
      "3": 23,
      "4": 24,
      "5": 25,
      "6": 26,
      "7": 27,
      "8": 28,
      "9": 29,
      ":": 30,
      ";": 31,
      "<": 32,
      "=": 33,
      ">": 34,
      "?": 35,
      "@": 36,
      "A": 37,
      "B": 38,
      "C": 39,
      "D": 40,
      "E": 41,
      "F": 42,
      "G": 43,
      "H": 44,
      "I": 45,
      "J": 46,
      "K": 47,
      "L": 48,
      "M": 49,
      "N": 50,
      "O": 51,
      "P": 52,
      "Q": 53,
      "R": 54,
      "S": 55,
      "T": 56,
      "U": 57,
      "V": 58,
      "W": 59,
      "X": 60,
      "Y": 61,
      "Z": 62,
      "[": 63,
      "\\": 64,
      "]": 65,
      "^": 66,
      "_": 67,
      "`": 68,
      "a": 69,
      "b": 70,
      "c": 71,
      "d": 72,
      "e": 73,
      "f": 74,
      "g": 75,
      "h": 76,
      "i": 77,
      "j": 78,
      "k": 79,
      "l": 80,
      "m": 81,
      "n": 82,
      "o": 83,
      "p": 84,
      "q": 85,
      "r": 86,
      "s": 87,
      "t": 88,
      "u": 89,
      "v": 90,
      "w": 91,
      "x": 92,
      "y": 93,
      "z": 94,
      "{": 95,
      "|": 96,
      "}": 97,
      "~": 98,
      "¡": 99,
      "¢": 100,
      "£": 101,
      "¤": 102,
      "¥": 103,
      "¦": 104,
      "§": 105,
      "¨": 106,
      "©": 107,
      "ª": 108,
      "«": 109,
      "¬": 110,
      "®": 111,
      "¯": 112,
      "°": 113,
      "±": 114,
      "²": 115,
      "³": 116,
      "´": 117,
      "µ": 118,
      "¶": 119,
      "·": 120,
      "¸": 121,
      "¹": 122,
      "º": 123,
      "»": 124,
      "¼": 125,
      "½": 126,
      "¾": 127,
      "¿": 128,
      "À": 129,
      "Á": 130,
      "Â": 131,
      "Ã": 132,
      "Ä": 133,
      "Å": 134,
      "Æ": 135,
      "Ç": 136,
      "È": 137,
      "É": 138,
      "Ê": 139,
      "Ë": 140,
      "Ì": 141,
      "Í": 142,
      "Î": 143,
      "Ï": 144,
      "Ð": 145,
      "Ñ": 146,
      "Ò": 147,
      "Ó": 148,
      "Ô": 149,
      "Õ": 150,
      "Ö": 151,
      "×": 152,
      "Ø": 153,
      "Ù": 154,
      "Ú": 155,
      "Û": 156,
      "Ü": 157,
      "Ý": 158,
      "Þ": 159,
      "ß": 160,
      "à": 161,
      "á": 162,
      "â": 163,
      "ã": 164,
      "ä": 165,
      "å": 166,
      "æ": 167,
      "ç": 168,
      "è": 169,
      "é": 170,
      "ê": 171,
      "ë": 172,
      "ì": 173,
      "í": 174,
      "î": 175,
      "ï": 176,
      "ð": 177,
      "ñ": 178,
      "ò": 179,
      "ó": 180,
      "ô": 181,
      "õ": 182,
      "ö": 183,
      "÷": 184,
      "ø": 185,
      "ù": 186,
      "ú": 187,
      "û": 188,
      "ü": 189,
      "ý": 190,
      "þ": 191,
      "ÿ": 192,
      "Ā": 193,
      "ā": 194,
      "Ă": 195,
      "ă": 196,
      "Ą": 197,
      "ą": 198,
      "Ć": 199,
      "ć": 200,
      "Ĉ": 201,
      "ĉ": 202,
      "Ċ": 203,
      "ċ": 204,
      "Č": 205,
      "č": 206,
      "Ď": 207,
      "ď": 208,
      "Đ": 209,
      "đ": 210,
      "Ē": 211,
      "ē": 212,
      "Ĕ": 213,
      "ĕ": 214,
      "Ė": 215,
      "ė": 216,
      "Ę": 217,
      "ę": 218,
      "Ě": 219,
      "ě": 220,
      "Ĝ": 221,
      "ĝ": 222,
      "Ğ": 223,
      "ğ": 224,
      "Ġ": 225,
      "ġ": 226,
      "Ģ": 227,
      "ģ": 228,
      "Ĥ": 229,
      "ĥ": 230,
      "Ħ": 231,
      "ħ": 232,
      "Ĩ": 233,
      "ĩ": 234,
      "Ī": 235,
      "ī": 236,
      "Ĭ": 237,
      "ĭ": 238,
      "Į": 239,
      "į": 240,
      "İ": 241,
      "ı": 242,
      "Ĳ": 243,
      "ĳ": 244,
      "Ĵ": 245,
      "ĵ": 246,
      "Ķ": 247,
      "ķ": 248,
      "ĸ": 249,
      "Ĺ": 250,
      "ĺ": 251,
      "Ļ": 252,
      "ļ": 253,
      "Ľ": 254,
      "ľ": 255,
      "Ŀ": 256,
      "ŀ": 257,
      "Ł": 258,
      "ł": 259,
      "Ń": 260,
      "Ġt": 261,
      "he": 262,
      "Ġa": 263,
      "in": 264,
      "re": 265,
      "Ġw": 266,
      "Ġthe": 267,
      "on": 268,
      "ou": 269,
      "Ġs": 270,
      "is": 271,
      "at": 272,
      "er": 273,
      "an": 274,
      "Ġo": 275,
      "Ġc": 276,
      "it": 277,
      "en": 278,
      "Ġb": 279,
      "or": 280,
      "Ġth": 281,
      "es": 282,
      "Ġm": 283,
      "Ġf": 284,
      "Ġto": 285,
      "Ġp": 286,
      "ll": 287,
      "Ġh": 288,
      "âĢ": 289,
      "Ġof": 290,
      "ed": 291,
      "Ġin": 292,
      "Ġd": 293,
      "nd": 294,
      "ar": 295,
      "ing": 296,
      "Ġn": 297,
      "Ġy": 298,
      "Ġbe": 299,
      "ion": 300,
      "ve": 301,
      "le": 302,
      "as": 303,
      "om": 304,
      "al": 305,
      "Ġand": 306,
      "Ġyou": 307,
      "Ġis": 308,
      "ic": 309,
      "us": 310,
      "Ġl": 311,
      "ot": 312,
      "Ġe": 313,
      "Ġre": 314,
      "ow": 315,
      "Ġthat": 316,
      "ent": 317,
      "Ġwe": 318,
      "ay": 319,
      "ld": 320,
      "Ġha": 321,
      "ĠI": 322,
      "im": 323,
      "ly": 324,
      "Ġg": 325,
      "ill": 326,
      "ver": 327,
      "ct": 328,
      "ut": 329,
      "Ġfor": 330,
      "ro": 331,
      "Ġwh": 332,
      "Ġon": 333,
      "st": 334,
      "se": 335,
      "id": 336,
      "ce": 337,
      "Ġit": 338,
      "The": 339,
      "Ġhe": 340,
      "am": 341,
      "âĢĻ": 342,
      "et": 343,
      "ith": 344,
      "Ġhave": 345,
      "Ġthis": 346,
      "Ġare": 347,
      "ir": 348,
      "Ġwill": 349,
      "od": 350,
      "if": 351,
      "ation": 352,
      "Ġnot": 353,
      "Ġwith": 354,
      "our": 355,
      "ig": 356,
      "âĢľ": 357,
      "ould": 358,
      "all": 359,
      "her": 360,
      "Ġan": 361,
      "ch": 362,
      "âĢĿ": 363,
      "Ġal": 364,
      "ad": 365,
      "ur": 366,
      "Ġse": 367,
      "ĠA": 368,
      "Ġas": 369,
      "Ġne": 370,
      "Ġst": 371,
      "ter": 372,
      "ĠS": 373,
      "Ġdo": 374,
      "Ġcan": 375,
      "ore": 376,
      "ke": 377,
      "pe": 378,
      "ant": 379,
      "ĠC": 380,
      "ĠG": 381,
      "Ġwas": 382,
      "Ġcon": 383,
      "ĠM": 384,
      "ol": 385,
      "op": 386,
      "ra": 387,
      "em": 388,
      "Ġk": 389,
      "Ġpro": 390,
      "out": 391,
      "il": 392,
      "Ġor": 393,
      "ul": 394,
      "Ġthey": 395,
      "est": 396,
      "un": 397,
      "Ġwor": 398,
      "ri": 399,
      "Ġcom": 400,
      "th": 401,
      "ess": 402,
      "We": 403,
      "Ġex": 404,
      "ble": 405,
      "Ġus": 406,
      "Ġ1": 407,
      "ive": 408,
      "ate": 409,
      "Ġall": 410,
      "Th": 411,
      "ain": 412,
      "very": 413,
      "..": 414,
      "ers": 415,
      "Ġyour": 416,
      "ist": 417,
      "ĠE": 418,
      "ht": 419,
      "and": 420,
      "ust": 421,
      "Ġat": 422,
      "Ġour": 423,
      "ort": 424,
      "Ġde": 425,
      "ally": 426,
      "ge": 427,
      "ity": 428,
      "Ġme": 429,
      "Ġch": 430,
      "nt": 431,
      "os": 432,
      "ĠP": 433,
      ".âĢĿ": 434,
      "Ġsh": 435,
      "pp": 436,
      "Ġsu": 437,
      "art": 438,
      "so": 439,
      "Ġwhat": 440,
      "Ġhas": 441,
      "ĠB": 442,
      "ear": 443,
      "rom": 444,
      "Ġgo": 445,
      "Ġkn": 446,
      "ment": 447,
      "ĠH": 448,
      "el": 449,
      "Ġ(": 450,
      "ome": 451,
      "Ġ2": 452,
      "Ġli": 453,
      "Ġle": 454,
      "Ġalso": 455,
      "ĠâĢ": 456,
      "Ġab": 457,
      "Ġknow": 458,
      "ight": 459,
      "res": 460,
      "Ġwhe": 461,
      "ac": 462,
      "Ġpe": 463,
      "ven": 464,
      "ĠGod": 465,
      "ci": 466,
      "end": 467,
      "00": 468,
      "Ġso": 469,
      "ther": 470,
      "Ġby": 471,
      "Ġthere": 472,
      "Ġone": 473,
      "Ġmore": 474,
      "qu": 475,
      "ame": 476,
      "Ġwould": 477,
      "Ġwho": 478,
      "Ġyear": 479,
      "one": 480,
      "Ġv": 481,
      "ies": 482,
      "Ġtr": 483,
      "ople": 484,
      "um": 485,
      "Ġmy": 486,
      "Ġman": 487,
      "Ġfrom": 488,
      "Ġwant": 489,
      "Ġbec": 490,
      "Ġthem": 491,
      "ect": 492,
      "ans": 493,
      "You": 494,
      "ĠR": 495,
      "ie": 496,
      "Wh": 497,
      "Ġpeople": 498,
      "ere": 499,
      "And": 500,
      "Ġif": 501,
      "In": 502,
      "Ġlo": 503,
      "It": 504,
      "But": 505,
      "Ġim": 506,
      "ast": 507,
      "ions": 508,
      "Ġj": 509,
      "ĠF": 510,
      "Ġr": 511,
      "'s": 512,
      "ĠD": 513,
      "Ġsa": 514,
      "ĠJ": 515,
      "ime": 516,
      "use": 517,
      "ure": 518,
      "ĠL": 519,
      "Ġabout": 520,
      "Ġtheir": 521,
      "Ġbut": 522,
      "Ġother": 523,
      ".\"": 524,
      "ĠN": 525,
      "ĠT": 526,
      "Ġthese": 527,
      "Ġonly": 528,
      "ause": 529,
      "ays": 530,
      "Ġag": 531,
      "ong": 532,
      "ous": 533,
      "ĠâĢľ": 534,
      "Ġlike": 535,
      "This": 536,
      "reat": 537,
      "Ġpl": 538,
      "Ġwere": 539,
      "pt": 540,
      "ost": 541,
      "ose": 542,
      "Ġsee": 543,
      "Ġhis": 544,
      "Ġu": 545,
      "ber": 546,
      "Ġthan": 547,
      "oug": 548,
      "Ġhad": 549,
      "Ġtime": 550,
      "iv": 551,
      "ia": 552,
      "ĠâĢĵ": 553,
      "ake": 554,
      "ud": 555,
      "Ġnow": 556,
      "uro": 557,
      "ich": 558,
      "ok": 559,
      "ak": 560,
      "ount": 561,
      "ink": 562,
      "Ġevery": 563,
      "Ġneed": 564,
      "Ġwhen": 565,
      "Ġimp": 566,
      "ĠW": 567,
      "Ġbeen": 568,
      "Ġhow": 569,
      "Ġte": 570,
      "ree": 571,
      "act": 572,
      "ind": 573,
      "ace": 574,
      "ag": 575,
      "ab": 576,
      "Ġcont": 577,
      "are": 578,
      "ard": 579,
      "Ġun": 580,
      "hing": 581,
      "Ġyears": 582,
      "...": 583,
      "Ġbecause": 584,
      "irst": 585,
      "pl": 586,
      "Ġwork": 587,
      "Ġpr": 588,
      "ian": 589,
      "Ġpart": 590,
      "cc": 591,
      "urope": 592,
      "ice": 593,
      "Ġen": 594,
      "Ġad": 595,
      "ations": 596,
      "ue": 597,
      "ine": 598,
      "Ġno": 599,
      "Ġnew": 600,
      "Ġ\"": 601,
      "Ġthing": 602,
      "ap": 603,
      "ide": 604,
      "iz": 605,
      "Ġsome": 606,
      "Ġcould": 607,
      "Ġworld": 608,
      "They": 609,
      "Ġint": 610,
      "Ġvery": 611,
      "Ġtw": 612,
      "Ġhim": 613,
      "other": 614,
      "ĠU": 615,
      "He": 616,
      "Ġ-": 617,
      "ry": 618,
      "ult": 619,
      "ord": 620,
      "Ġsay": 621,
      "Ġshould": 622,
      "ĠEurope": 623,
      "ical": 624,
      "Ġres": 625,
      "ire": 626,
      "ild": 627,
      "Ġany": 628,
      "Ġam": 629,
      "Ġeven": 630,
      "og": 631,
      "ond": 632,
      "Ġthink": 633,
      "Ġwhich": 634,
      "Ġcomp": 635,
      "Ġfirst": 636,
      "Ġcount": 637,
      "How": 638,
      "sel": 639,
      "Ġwhy": 640,
      "ff": 641,
      "ance": 642,
      "Ġdid": 643,
      "Ġsaid": 644,
      "ary": 645,
      "age": 646,
      "Ġmany": 647,
      "fore": 648,
      "Ġits": 649,
      "ence": 650,
      "ew": 651,
      "ough": 652,
      "Ġtwo": 653,
      "ever": 654,
      "ĠO": 655,
      "ach": 656,
      "Ġqu": 657,
      "ĠCh": 658,
      "Ġsame": 659,
      "Ġjust": 660,
      "fter": 661,
      "Ġbet": 662,
      "Ġar": 663,
      "day": 664,
      "iff": 665,
      "Ġbel": 666,
      "able": 667,
      "ren": 668,
      "ife": 669,
      "si": 670,
      "Ġper": 671,
      "ack": 672,
      "vel": 673,
      "omet": 674,
      "Ġdiff": 675,
      "ĠIs": 676,
      "Ġact": 677,
      "Ġ3": 678,
      "There": 679,
      "Ġdis": 680,
      "du": 681,
      "per": 682,
      "ite": 683,
      "Ġhere": 684,
      "ady": 685,
      "ru": 686,
      "ated": 687,
      "Ġpos": 688,
      "Ġcl": 689,
      "ep": 690,
      "ĠK": 691,
      "tern": 692,
      "nder": 693,
      "ish": 694,
      "Ġspe": 695,
      "Ġpre": 696,
      "Ġthose": 697,
      "cial": 698,
      "If": 699,
      "ition": 700,
      "Ġcomm": 701,
      "Ġsomet": 702,
      "Ġco": 703,
      "ved": 704,
      "What": 705,
      "ang": 706,
      "orm": 707,
      "Ġbelie": 708,
      "ves": 709,
      "ase": 710,
      "Ġmust": 711,
      "Ġ19": 712,
      "Ġ20": 713,
      "Ġagain": 714,
      "Ġsp": 715,
      "oc": 716,
      "Ġday": 717,
      "Ġhapp": 718,
      "Ġ[": 719,
      "ign": 720,
      "ip": 721,
      "Ġpol": 722,
      "Ġtoday": 723,
      "Ġout": 724,
      "Ġunder": 725,
      "So": 726,
      "Ġgr": 727,
      "wn": 728,
      "Ġmay": 729,
      ").": 730,
      "Ġdoes": 731,
      "Ġlife": 732,
      "ious": 733,
      "Ġgood": 734,
      "cl": 735,
      "ound": 736,
      "ways": 737,
      "uch": 738,
      "Ġchild": 739,
      "Ġafter": 740,
      "Ġrec": 741,
      "ple": 742,
      "uth": 743,
      "Ġrem": 744,
      "Ġimport": 745,
      "mer": 746,
      "ob": 747,
      "itt": 748,
      "ade": 749,
      "Ġser": 750,
      "ens": 751,
      "Ġsec": 752,
      "Ġalways": 753,
      "Ġsomething": 754,
      "ents": 755,
      "ks": 756,
      "Ġhel": 757,
      "Ġmost": 758,
      "ors": 759,
      "rael": 760,
      "we": 761,
      "Ġup": 762,
      "Ġreally": 763,
      "Ġnever": 764,
      "ject": 765,
      "Ġthings": 766,
      "Ġhelp": 767,
      "Ġher": 768,
      "ĠThe": 769,
      "Ġcons": 770,
      "self": 771,
      "Ġ4": 772,
      "ec": 773,
      "ise": 774,
      "Ġright": 775,
      "ational": 776,
      "Ġshe": 777,
      "Ġpres": 778,
      "thing": 779,
      "Ġtoo": 780,
      "Ġcome": 781,
      "Ġreal": 782,
      "Ġreg": 783,
      "Ġacc": 784,
      "Ġind": 785,
      "On": 786,
      "Ġdiffere": 787,
      "ĠIsrael": 788,
      "pport": 789,
      "tain": 790,
      "Ġfo": 791,
      "Ġthree": 792,
      "hen": 793,
      "sible": 794,
      "Ġdon": 795,
      "Ġthen": 796,
      "Ġown": 797,
      "'t": 798,
      "Ġmuch": 799,
      "Ġsy": 800,
      "Ġmake": 801,
      "Ġwhere": 802,
      "ons": 803,
      "ass": 804,
      "Ġask": 805,
      "ready": 806,
      "Ġway": 807,
      "For": 808,
      "Ġ5": 809,
      "ub": 810,
      "get": 811,
      "ĠSt": 812,
      "ates": 813,
      "ince": 814,
      "Ġalready": 815,
      "red": 816,
      "alk": 817,
      "ily": 818,
      "Ġimportant": 819,
      "ces": 820,
      "ory": 821,
      "ater": 822,
      "That": 823,
      "Ġapp": 824,
      "ial": 825,
      "ful": 826,
      "ĠHe": 827,
      "Ġdec": 828,
      "ities": 829,
      "Ġgreat": 830,
      "uss": 831,
      "Ġlong": 832,
      "ĠEuropean": 833,
      "ric": 834,
      "Ġuse": 835,
      "Ġrel": 836,
      "However": 837,
      "ution": 838,
      "Ġbefore": 839,
      "stem": 840,
      "ied": 841,
      "ove": 842,
      "Ġbr": 843,
      "Ġdes": 844,
      "ĠY": 845,
      "oin": 846,
      "Ġcall": 847,
      "ries": 848,
      "Why": 849,
      "ning": 850,
      "Ġget": 851,
      "Ġprodu": 852,
      "As": 853,
      "Ġwom": 854,
      "ction": 855,
      "ark": 856,
      "av": 857,
      "Ġmon": 858,
      "xt": 859,
      "gy": 860,
      "cept": 861,
      "Ġanother": 862,
      "Ġlook": 863,
      "ember": 864,
      "iss": 865,
      "Ġbu": 866,
      "Ġoff": 867,
      "ident": 868,
      "Ġstart": 869,
      "Ġlast": 870,
      "pect": 871,
      "Ġbelieve": 872,
      "Ġfin": 873,
      "Ġpers": 874,
      "erm": 875,
      "Ġrep": 876,
      "Ġsuch": 877,
      "vers": 878,
      "Ġinv": 879,
      "Ġ200": 880,
      "ress": 881,
      "ments": 882,
      "ual": 883,
      "Ġsystem": 884,
      "Ġstill": 885,
      "ange": 886,
      "ook": 887,
      "ail": 888,
      "vern": 889,
      "Ġbl": 890,
      "Ġfact": 891,
      "form": 892,
      "Ġfind": 893,
      "Ġwr": 894,
      "ave": 895,
      "Ġob": 896,
      "Ġtake": 897,
      "ath": 898,
      "cess": 899,
      "Ġcountry": 900,
      "Ġword": 901,
      "Ġdifferent": 902,
      "lic": 903,
      "Ġfe": 904,
      "Ġadd": 905,
      "Ġcountries": 906,
      "ah": 907,
      "any": 908,
      "Ġsim": 909,
      "ween": 910,
      "riend": 911,
      "Ġchildren": 912,
      "Ġhum": 913,
      "Ġatt": 914,
      "Ġmade": 915,
      "blem": 916,
      "ĠâĢĶ": 917,
      "ts": 918,
      "gr": 919,
      "Ġtalk": 920,
      "imes": 921,
      "Ġquest": 922,
      "Ġreas": 923,
      "Ġent": 924,
      "ific": 925,
      "Ġ201": 926,
      "Ġbeg": 927,
      "meric": 928,
      "Ġfam": 929,
      "Ġgoing": 930,
      "Ġwell": 931,
      "urn": 932,
      "Do": 933,
      "te": 934,
      "Ġproblem": 935,
      "Ġinto": 936,
      "ĠYou": 937,
      "ile": 938,
      "ians": 939,
      "Ġstr": 940,
      "Ġunderst": 941,
      "Ġbetter": 942,
      "Ġbetween": 943,
      "ced": 944,
      "uture": 945,
      "Ġend": 946,
      "ather": 947,
      "ited": 948,
      "ention": 949,
      "Ġperson": 950,
      "Ġcontin": 951,
      "ually": 952,
      "ving": 953,
      "Ġlove": 954,
      "Ġcreat": 955,
      "ĠIn": 956,
      "ertain": 957,
      "Ġover": 958,
      "ĠV": 959,
      "Ġmin": 960,
      "ought": 961,
      "Ġgovern": 962,
      "oy": 963,
      "Ġthr": 964,
      "Ġinst": 965,
      "ody": 966,
      "li": 967,
      "ower": 968,
      "Ġph": 969,
      "als": 970,
      "ĠAmeric": 971,
      "Ġtell": 972,
      "ĠWe": 973,
      "Ġhappen": 974,
      "ars": 975,
      "hed": 976,
      "Ġpossible": 977,
      "Ġfuture": 978,
      "ands": 979,
      "Ġbecome": 980,
      "ug": 981,
      "Ġsupport": 982,
      "Ġac": 983,
      "Ġfriend": 984,
      "Ġgen": 985,
      "Ġfu": 986,
      "Ġpolit": 987,
      "cy": 988,
      "omm": 989,
      "Ġexam": 990,
      "000": 991,
      "ered": 992,
      "ists": 993,
      "ĠUn": 994,
      "Ġgive": 995,
      "Ġmonth": 996,
      "llow": 997,
      "lear": 998,
      "Ġseem": 999,
      "Ġev": 1000,
      "Ġgu": 1001,
      "Ġeach": 1002,
      "Ġro": 1003,
      "Ġmill": 1004,
      "Ġbeing": 1005,
      "ng": 1006,
      "Ġplace": 1007,
      "the": 1008,
      "Ġleast": 1009,
      "Ġla": 1010,
      "Ġwee": 1011,
      "Ġop": 1012,
      "Ġcour": 1013,
      "Ġthrough": 1014,
      "Ġvis": 1015,
      "ative": 1016,
      "Ġnum": 1017,
      "velop": 1018,
      "Ġable": 1019,
      "Ġsm": 1020,
      "Ġ10": 1021,
      "Ġtrans": 1022,
      "Ġlot": 1023,
      "uring": 1024,
      "Ġprot": 1025,
      "sw": 1026,
      "ility": 1027,
      "Ġwithout": 1028,
      "Ġsince": 1029,
      "Ġhuman": 1030,
      "When": 1031,
      "be": 1032,
      "Ġunderstand": 1033,
      "Ġ9": 1034,
      "con": 1035,
      "Ġplan": 1036,
      "Ġfour": 1037,
      "oup": 1038,
      "ism": 1039,
      "Ġcr": 1040,
      "ittle": 1041,
      "Ġback": 1042,
      "ĠCan": 1043,
      "Ġtruth": 1044,
      "Ġear": 1045,
      "âĢĶ": 1046,
      "Ġ6": 1047,
      "Ġcommun": 1048,
      "clud": 1049,
      "Ġconf": 1050,
      "Ġshow": 1051,
      "Ġcertain": 1052,
      "ood": 1053,
      "not": 1054,
      "Ġplay": 1055,
      "Ġeff": 1056,
      "ĠRuss": 1057,
      "ict": 1058,
      "Ġbest": 1059,
      "Ġho": 1060,
      "Ġdevelop": 1061,
      "ular": 1062,
      "Ġmight": 1063,
      "here": 1064,
      "ick": 1065,
      "Ġname": 1066,
      "Ġeverything": 1067,
      "Ġdisc": 1068,
      "Ġchange": 1069,
      "Ġdays": 1070,
      "ten": 1071,
      "Ġfollow": 1072,
      "ness": 1073,
      "ĠAf": 1074,
      "Ġexample": 1075,
      "Ġcre": 1076,
      "Ġfeel": 1077,
      "Ġlet": 1078,
      "Ġsol": 1079,
      "Ġref": 1080,
      "Ġfew": 1081,
      "Ġlittle": 1082,
      "Ġwanted": 1083,
      "ĠIt": 1084,
      "les": 1085,
      "Ġinc": 1086,
      "Ġsecond": 1087,
      "Ġ...": 1088,
      "Ġagainst": 1089,
      "Ġless": 1090,
      "Ġpartic": 1091,
      "Ġra": 1092,
      "Ġ7": 1093,
      "Ġtra": 1094,
      "ues": 1095,
      "Ġtrue": 1096,
      "Ġdef": 1097,
      "ina": 1098,
      "Ġpower": 1099,
      "Ġgener": 1100,
      "hip": 1101,
      "oney": 1102,
      "alth": 1103,
      "Ġsit": 1104,
      "Ġnumber": 1105,
      "olog": 1106,
      "ran": 1107,
      "Ġdone": 1108,
      "rib": 1109,
      "Ġwomen": 1110,
      "Ġgovernment": 1111,
      "ph": 1112,
      "Ġintern": 1113,
      "oint": 1114,
      "Ġansw": 1115,
      "Ġexpl": 1116,
      "uc": 1117,
      "Ġsur": 1118,
      "20": 1119,
      "gan": 1120,
      "ines": 1121,
      "Ġresp": 1122,
      "Ġbegin": 1123,
      "ives": 1124,
      "Ġquestion": 1125,
      "Ġserv": 1126,
      "Ġke": 1127,
      "Ġ8": 1128,
      "Ġused": 1129,
      "ĠâĢĺ": 1130,
      "arket": 1131,
      "Ġcannot": 1132,
      "ract": 1133,
      "Ġcourse": 1134,
      "Ġap": 1135,
      "Ġtak": 1136,
      "ys": 1137,
      "No": 1138,
      "Ġmeans": 1139,
      "chn": 1140,
      "Ġele": 1141,
      "Ġgroup": 1142,
      "ird": 1143,
      "ement": 1144,
      "Ġlevel": 1145,
      "Ġproduct": 1146,
      "Ġfive": 1147,
      "ably": 1148,
      "ize": 1149,
      "ately": 1150,
      "ty": 1151,
      "rist": 1152,
      "Ġfamily": 1153,
      "Now": 1154,
      "Ġret": 1155,
      "ĠAnd": 1156,
      "pr": 1157,
      "ner": 1158,
      "ings": 1159,
      "oth": 1160,
      "gram": 1161,
      "Ġsign": 1162,
      "erest": 1163,
      "Ġcur": 1164,
      "Ġmoney": 1165,
      "Ġnext": 1166,
      "igh": 1167,
      "Ġclear": 1168,
      "ute": 1169,
      "ib": 1170,
      "Ġdem": 1171,
      "Ġprop": 1172,
      "Ġprotect": 1173,
      "Ġmod": 1174,
      "Ġwar": 1175,
      "Ġtry": 1176,
      "ared": 1177,
      "Ġrece": 1178,
      "Ġduring": 1179,
      "Ġcomple": 1180,
      "most": 1181,
      "Ġexper": 1182,
      "Ġcar": 1183,
      "Ġrest": 1184,
      "conom": 1185,
      "oh": 1186,
      "Ġstud": 1187,
      "Ġel": 1188,
      "Ġwords": 1189,
      "Ġmen": 1190,
      "ically": 1191,
      "Ġremain": 1192,
      "Ġsmall": 1193,
      "Ġem": 1194,
      "ĠAfric": 1195,
      "Ġkill": 1196,
      "Ġreason": 1197,
      "ĠLord": 1198,
      "selves": 1199,
      "Ġopen": 1200,
      "ix": 1201,
      "Ġmillion": 1202,
      "Ġcase": 1203,
      "Ġconsid": 1204,
      "Ġpolitical": 1205,
      "ures": 1206,
      "hes": 1207,
      "Ġspeak": 1208,
      "ork": 1209,
      "Ġcho": 1210,
      "ublic": 1211,
      "Ġaw": 1212,
      "Ġproject": 1213,
      "An": 1214,
      "Ġmarket": 1215,
      "Ġunt": 1216,
      "Ġlive": 1217,
      "Ġweek": 1218,
      "own": 1219,
      "Ġfar": 1220,
      "Ġfound": 1221,
      "ised": 1222,
      "Ġinter": 1223,
      "ĠHis": 1224,
      "Ġexp": 1225,
      "Ġexist": 1226,
      "Ġold": 1227,
      "Ġprom": 1228,
      "Ġide": 1229,
      "Ġago": 1230,
      "Ġinclud": 1231,
      ".âĢĻ": 1232,
      "ister": 1233,
      "Ġwants": 1234,
      "Ġsub": 1235,
      "Is": 1236,
      "Ġseen": 1237,
      "ages": 1238,
      "ission": 1239,
      "Ġtechn": 1240,
      "nce": 1241,
      "Ġbig": 1242,
      "Ġinterest": 1243,
      "All": 1244,
      "ices": 1245,
      "ov": 1246,
      "Ġyoung": 1247,
      "Ġmeet": 1248,
      "ft": 1249,
      "iven": 1250,
      "ne": 1251,
      "Ġpeace": 1252,
      "Ġyes": 1253,
      "Ġorgan": 1254,
      "Ġpri": 1255,
      "Ġrequ": 1256,
      "ision": 1257,
      "She": 1258,
      "icult": 1259,
      "Ġprogram": 1260,
      "Ġnothing": 1261,
      "Ġothers": 1262,
      "ible": 1263,
      "err": 1264,
      "Ġsays": 1265,
      "Ġtimes": 1266,
      "Ġeconom": 1267,
      "Ġav": 1268,
      "Ġeas": 1269,
      "ait": 1270,
      "rent": 1271,
      "med": 1272,
      "Ġdest": 1273,
      "Ġdoing": 1274,
      "ĠChrist": 1275,
      "Then": 1276,
      "Ġshall": 1277,
      "ee": 1278,
      "Ġlist": 1279,
      "Ġchang": 1280,
      "Ġener": 1281,
      "Ġfriends": 1282,
      "ote": 1283,
      "With": 1284,
      "Ġleg": 1285,
      "Ġlater": 1286,
      "cially": 1287,
      "ward": 1288,
      "Ġsitu": 1289,
      "At": 1290,
      "bably": 1291,
      "ized": 1292,
      "Ġprov": 1293,
      "cer": 1294,
      "ating": 1295,
      "ety": 1296,
      "arch": 1297,
      "ĠSp": 1298,
      "ecause": 1299,
      "Ġdifficult": 1300,
      "Ġass": 1301,
      "Ġlead": 1302,
      "ank": 1303,
      "irect": 1304,
      "Ġcontinue": 1305,
      "ouse": 1306,
      "Ġneeds": 1307,
      "Ġlaw": 1308,
      "Ġheart": 1309,
      "Ġcreated": 1310,
      "Ġmak": 1311,
      "Ġhour": 1312,
      "Ġext": 1313,
      "ĠCanad": 1314,
      "Ġcor": 1315,
      "alest": 1316,
      "Ġgl": 1317,
      "Ġuntil": 1318,
      "ĠTh": 1319,
      "Ġord": 1320,
      "ority": 1321,
      "ural": 1322,
      "Ġcent": 1323,
      "Ġpresent": 1324,
      "Ġfore": 1325,
      "ĠBr": 1326,
      "Every": 1327,
      "Ġmean": 1328,
      "Ġfull": 1329,
      "Ġalmost": 1330,
      "eg": 1331,
      "land": 1332,
      "My": 1333,
      "Ġsc": 1334,
      "its": 1335,
      "Ġaccept": 1336,
      "Ġes": 1337,
      "Ġbook": 1338,
      "?âĢĿ": 1339,
      "Ġlear": 1340,
      "ĠMr": 1341,
      "ants": 1342,
      "Ġins": 1343,
      "Ġreturn": 1344,
      "Ġmed": 1345,
      "ĠComm": 1346,
      "ell": 1347,
      "Ġart": 1348,
      "Who": 1349,
      "Ġma": 1350,
      "Ġoften": 1351,
      "ĠEU": 1352,
      "Ġenergy": 1353,
      "urch": 1354,
      "less": 1355,
      "Ġboth": 1356,
      "âĢĿ.": 1357,
      "ĠAr": 1358,
      "Ġread": 1359,
      "Ġkind": 1360,
      "Ġmonths": 1361,
      "Ġmess": 1362,
      ".)": 1363,
      "Ġrespon": 1364,
      "emb": 1365,
      "ital": 1366,
      "Ġamong": 1367,
      "ament": 1368,
      "irl": 1369,
      "11": 1370,
      "oday": 1371,
      "ĠPalest": 1372,
      "Ġcoll": 1373,
      "Ġcurrent": 1374,
      "ried": 1375,
      "aps": 1376,
      "Ġappe": 1377,
      "Ġthous": 1378,
      "Ġform": 1379,
      "Ġeveryone": 1380,
      "Ġcontro": 1381,
      "Ġcalled": 1382,
      "ruct": 1383,
      "Ġsocial": 1384,
      "Ġadv": 1385,
      "Ġanswer": 1386,
      "ned": 1387,
      "ted": 1388,
      "Ġmain": 1389,
      "Ġtold": 1390,
      "Ġprobably": 1391,
      "Ġbuild": 1392,
      "Ġhope": 1393,
      "ording": 1394,
      "ics": 1395,
      "ified": 1396,
      "Ġpat": 1397,
      "Ġhealth": 1398,
      "Ġnecess": 1399,
      "Ġstate": 1400,
      "Ġsure": 1401,
      "Ġfa": 1402,
      "led": 1403,
      "Ġinternational": 1404,
      "vious": 1405,
      "ience": 1406,
      "ently": 1407,
      "ĠAs": 1408,
      "Ġseems": 1409,
      "pecially": 1410,
      "Ġenough": 1411,
      "Al": 1412,
      "Ġcame": 1413,
      "irit": 1414,
      "Ġknows": 1415,
      "Ġpolic": 1416,
      "10": 1417,
      "urity": 1418,
      "ĠFr": 1419,
      "Ġnat": 1420,
      "ased": 1421,
      "Ġelse": 1422,
      "Ġput": 1423,
      "und": 1424,
      "Ġasked": 1425,
      "ided": 1426,
      "Ġwhole": 1427,
      "ĠRussia": 1428,
      "ĠGerm": 1429,
      "Ġwoman": 1430,
      "eed": 1431,
      "ene": 1432,
      "Ġpo": 1433,
      "Ġsituation": 1434,
      "oun": 1435,
      "Ġdet": 1436,
      "iew": 1437,
      "Ġfree": 1438,
      "Ġresult": 1439,
      "Ġfinan": 1440,
      "Yes": 1441,
      "Our": 1442,
      "Ġpast": 1443,
      "'re": 1444,
      "Ġthought": 1445,
      "iron": 1446,
      "ished": 1447,
      "ĠAll": 1448,
      "olution": 1449,
      "ccess": 1450,
      "ĠPar": 1451,
      "These": 1452,
      "Ġstrate": 1453,
      "Ġpoint": 1454,
      "Ġmar": 1455,
      "Ġ199": 1456,
      "ĠStates": 1457,
      "To": 1458,
      "Ġcult": 1459,
      "Ġappro": 1460,
      "Ġinvest": 1461,
      "Ġmom": 1462,
      "az": 1463,
      "ral": 1464,
      "Ġworking": 1465,
      "ret": 1466,
      "ĠGo": 1467,
      "Ġ15": 1468,
      "osed": 1469,
      "Ġdeath": 1470,
      "itions": 1471,
      "Ġpay": 1472,
      "Ġrelations": 1473,
      "ont": 1474,
      "Ġspecial": 1475,
      "Ġeffect": 1476,
      "Ġever": 1477,
      "Ġcomplete": 1478,
      "Ġmention": 1479,
      "Ġlonger": 1480,
      "Ġparticular": 1481,
      "Ġcommunity": 1482,
      "!âĢĿ": 1483,
      "haps": 1484,
      "ger": 1485,
      "Ġhear": 1486,
      "God": 1487,
      "Ġnight": 1488,
      "uly": 1489,
      "Ġmat": 1490,
      "Ġanything": 1491,
      "Ġdr": 1492,
      "Ġthird": 1493,
      "amp": 1494,
      "iness": 1495,
      "ĠDe": 1496,
      "Ġinf": 1497,
      "Ġhist": 1498,
      "Today": 1499,
      "io": 1500,
      "Ġsaf": 1501,
      "ense": 1502,
      "veral": 1503,
      "ames": 1504,
      "Ġwithin": 1505,
      "Ġactually": 1506,
      "Ġtest": 1507,
      "Ġinform": 1508,
      "Not": 1509,
      "Ġsomeone": 1510,
      "Ġearth": 1511,
      "Ġprocess": 1512,
      "Ġteam": 1513,
      "alf": 1514,
      "Ġpass": 1515,
      "Ġseveral": 1516,
      "ĠDo": 1517,
      "ck": 1518,
      "Ġpar": 1519,
      "Ġhome": 1520,
      "Ġmor": 1521,
      "ĠChina": 1522,
      "Ġremember": 1523,
      "Ġagre": 1524,
      "Ġcreate": 1525,
      "utes": 1526,
      "Ġrepres": 1527,
      "Ġhappened": 1528,
      "Ġcare": 1529,
      "ĠHim": 1530,
      "Or": 1531,
      "ient": 1532,
      "Ġallow": 1533,
      "Ġgirl": 1534,
      "row": 1535,
      "Ġkeep": 1536,
      "where": 1537,
      "Ġfood": 1538,
      "Because": 1539,
      "Even": 1540,
      "Ġpublic": 1541,
      "arm": 1542,
      "ĠAn": 1543,
      "),": 1544,
      "itive": 1545,
      "ĠMy": 1546,
      "One": 1547,
      "ins": 1548,
      "Ġconst": 1549,
      "Ġhand": 1550,
      "Ġsaw": 1551,
      "Ġuni": 1552,
      "Ġcity": 1553,
      "viron": 1554,
      "atic": 1555,
      "Ġbeh": 1556,
      "Ġfight": 1557,
      "Ġaround": 1558,
      "ex": 1559,
      "Ġonce": 1560,
      "sib": 1561,
      "Ġexplain": 1562,
      "ĠAl": 1563,
      "Ġcomes": 1564,
      "Ġsuff": 1565,
      "ases": 1566,
      "Ġiss": 1567,
      "Ġexact": 1568,
      "Ġsix": 1569,
      "After": 1570,
      "ead": 1571,
      "gest": 1572,
      "Ġsuccess": 1573,
      "Ġhowever": 1574,
      "ogn": 1575,
      "Ġhouse": 1576,
      "arent": 1577,
      "Ġpray": 1578,
      "Ġmet": 1579,
      "Ġfre": 1580,
      "Ġtoget": 1581,
      "Ġtogether": 1582,
      "body": 1583,
      "apan": 1584,
      "esus": 1585,
      "ilit": 1586,
      "Ġcap": 1587,
      "ĠTr": 1588,
      "ters": 1589,
      "Ġmaj": 1590,
      "Ġlost": 1591,
      "Ġwhether": 1592,
      "ock": 1593,
      "vironment": 1594,
      "ĠAmerican": 1595,
      "Ġbuy": 1596,
      "Ġstarted": 1597,
      "Ġespecially": 1598,
      "ners": 1599,
      "Ġyet": 1600,
      "ctor": 1601,
      "man": 1602,
      "Ġdirect": 1603,
      "Ġgiven": 1604,
      "Ġsoon": 1605,
      "Ġnational": 1606,
      "Ġexpect": 1607,
      "orts": 1608,
      "dom": 1609,
      "ohn": 1610,
      "work": 1611,
      "19": 1612,
      "aug": 1613,
      "Ġloc": 1614,
      "Ġstrong": 1615,
      "ool": 1616,
      "Ġbody": 1617,
      "ĠFrance": 1618,
      "ier": 1619,
      "Ġlar": 1620,
      "ĠPres": 1621,
      "Ġnecessary": 1622,
      "utions": 1623,
      "embers": 1624,
      "ator": 1625,
      "Ġfl": 1626,
      "ify": 1627,
      "me": 1628,
      "Ġdou": 1629,
      "ĠUS": 1630,
      "Ġentire": 1631,
      "Ġfinancial": 1632,
      "Ġ$": 1633,
      "Ġty": 1634,
      "ĠUnited": 1635,
      "ĠPalestin": 1636,
      "\".": 1637,
      "Ch": 1638,
      "Ġtherefore": 1639,
      "ĠRe": 1640,
      "ĠNew": 1641,
      "Ġproblems": 1642,
      "ĠAfrica": 1643,
      "Ġreasons": 1644,
      "over": 1645,
      "Ġauth": 1646,
      "Ġknew": 1647,
      "ĠInd": 1648,
      "Ġrecogn": 1649,
      "Ġ:": 1650,
      "Ġheard": 1651,
      "Ġdist": 1652,
      "angu": 1653,
      "Ġjud": 1654,
      "Ġwait": 1655,
      "Ġhigh": 1656,
      "Ġthemselves": 1657,
      "Ġspec": 1658,
      "Ġsecurity": 1659,
      "Ġconcer": 1660,
      "Ġval": 1661,
      "ax": 1662,
      "Ġanim": 1663,
      "Ġaddition": 1664,
      "Ġwond": 1665,
      "avid": 1666,
      "Ġvisit": 1667,
      "15": 1668,
      "ĠJapan": 1669,
      "Ġbus": 1670,
      "ived": 1671,
      "up": 1672,
      "Ġfun": 1673,
      "ĠQ": 1674,
      "ither": 1675,
      "Ġbring": 1676,
      "Here": 1677,
      "Ġbrother": 1678,
      "Ġpract": 1679,
      "lease": 1680,
      "ĠSon": 1681,
      "Ġcond": 1682,
      "Ġ.": 1683,
      "Ġcontrol": 1684,
      "Ġrelig": 1685,
      "aut": 1686,
      "Ġocc": 1687,
      "ization": 1688,
      "ality": 1689,
      "ession": 1690,
      "orn": 1691,
      "Ġjob": 1692,
      "Ġindust": 1693,
      "chool": 1694,
      "ĠPro": 1695,
      "Ġdiscuss": 1696,
      "ton": 1697,
      "Ġprof": 1698,
      "Ġenvironment": 1699,
      "Ġserious": 1700,
      "pportun": 1701,
      "mber": 1702,
      "Ġche": 1703,
      "Ġleave": 1704,
      "orrow": 1705,
      "Ġ12": 1706,
      "Ġhimself": 1707,
      "ĠAmerica": 1708,
      "Ġorder": 1709,
      "Ġactiv": 1710,
      "Ġtreat": 1711,
      "Ġconsider": 1712,
      "Some": 1713,
      "Ġterr": 1714,
      "Ġstop": 1715,
      "Ġsoci": 1716,
      "Ġdidn": 1717,
      "ined": 1718,
      "Ġprin": 1719,
      "Be": 1720,
      "ply": 1721,
      "ike": 1722,
      "Ġterm": 1723,
      "Ġmoment": 1724,
      ",âĢĿ": 1725,
      "Ġconsum": 1726,
      "Ġexactly": 1727,
      "Ġeat": 1728,
      "ential": 1729,
      "cient": 1730,
      "ption": 1731,
      "Ġrepresent": 1732,
      "ĠCanada": 1733,
      "aven": 1734,
      "lim": 1735,
      "Ġopportun": 1736,
      "Can": 1737,
      "Ġsing": 1738,
      "icle": 1739,
      "Ġrev": 1740,
      "Ġgot": 1741,
      "que": 1742,
      "allen": 1743,
      "ison": 1744,
      "Ġmessage": 1745,
      "Ġhours": 1746,
      "aly": 1747,
      "ĠIran": 1748,
      "Ġ30": 1749,
      "Ġfaith": 1750,
      "Ġavail": 1751,
      "Ġlangu": 1752,
      "ired": 1753,
      "Only": 1754,
      "cent": 1755,
      "Ġage": 1756,
      "Ġaff": 1757,
      "Ġdep": 1758,
      "Ġtalking": 1759,
      "Ġready": 1760,
      "got": 1761,
      "ĠSo": 1762,
      "Therefore": 1763,
      "ples": 1764,
      "Ġquick": 1765,
      "itiz": 1766,
      "Ġpolicy": 1767,
      "Ġwin": 1768,
      "Ġstay": 1769,
      "Ġleft": 1770,
      "ination": 1771,
      "roy": 1772,
      "ulation": 1773,
      "iod": 1774,
      "ĠWhat": 1775,
      "kra": 1776,
      "Ġsent": 1777,
      "Ġsend": 1778,
      "Ġ'": 1779,
      "Ġshare": 1780,
      "Ġincre": 1781,
      "Ġlim": 1782,
      "Ġneeded": 1783,
      "Ġbeginning": 1784,
      "par": 1785,
      "Ġmembers": 1786,
      "Ġforget": 1787,
      "Ġstat": 1788,
      "Ġ18": 1789,
      "Ġ100": 1790,
      "Ġrepl": 1791,
      "ology": 1792,
      "Ġsimply": 1793,
      "outh": 1794,
      "Ġregard": 1795,
      "Ġhappy": 1796,
      "Ġmakes": 1797,
      "ration": 1798,
      "Ġwon": 1799,
      "Ġcost": 1800,
      "Ġmother": 1801,
      "Ġproducts": 1802,
      "oul": 1803,
      "ĠSy": 1804,
      "ĠBe": 1805,
      "?\"": 1806,
      "air": 1807,
      "Ġson": 1808,
      "ting": 1809,
      "iti": 1810,
      "Your": 1811,
      "vent": 1812,
      "Ġthough": 1813,
      "Ġfr": 1814,
      "ĠTur": 1815,
      "Ġimpro": 1816,
      "Ġeconomic": 1817,
      "ency": 1818,
      "Ġ11": 1819,
      "atch": 1820,
      "rench": 1821,
      "Ġdown": 1822,
      "Ġitself": 1823,
      "els": 1824,
      "Ġavailable": 1825,
      "Ġabs": 1826,
      "iter": 1827,
      "Ġstand": 1828,
      "liament": 1829,
      "Ġtaken": 1830,
      "ĠZ": 1831,
      "Ġwonder": 1832,
      "fect": 1833,
      "Ġhalf": 1834,
      "aster": 1835,
      "ull": 1836,
      "Ġey": 1837,
      "Ġoffer": 1838,
      "ides": 1839,
      "ilar": 1840,
      "Ġreport": 1841,
      "Ġelect": 1842,
      "inal": 1843,
      "ery": 1844,
      "Ġfund": 1845,
      "Ġdestroy": 1846,
      "yond": 1847,
      "Ġwhile": 1848,
      "ĠJesus": 1849,
      "ĠSe": 1850,
      "Ġadm": 1851,
      "Ġcompan": 1852,
      "fort": 1853,
      "ĠThis": 1854,
      "Ġsex": 1855,
      "rab": 1856,
      "side": 1857,
      "Ġwater": 1858,
      "Ġoper": 1859,
      "ĠPresident": 1860,
      "Ġabove": 1861,
      "].": 1862,
      "ploy": 1863,
      "bt": 1864,
      "Ġcitiz": 1865,
      "Ġsupp": 1866,
      "Ġcertainly": 1867,
      "Ġschool": 1868,
      "ĠBut": 1869,
      "Ġdevelopment": 1870,
      "Ġinformation": 1871,
      "ĠUkra": 1872,
      "Ġcompet": 1873,
      "Ġsurpr": 1874,
      "Ġmorning": 1875,
      "Let": 1876,
      "Ġgrow": 1877,
      "Ġfear": 1878,
      "Ġadop": 1879,
      "Ġrelationship": 1880,
      "my": 1881,
      "oud": 1882,
      "chie": 1883,
      "Ġregion": 1884,
      "Ġreceive": 1885,
      "Ġturn": 1886,
      "Ġmove": 1887,
      "Ġmentioned": 1888,
      "Ġspecific": 1889,
      "ale": 1890,
      "ĠSw": 1891,
      "ients": 1892,
      "Ġset": 1893,
      "Ġminutes": 1894,
      "Ġseven": 1895,
      "Ġlives": 1896,
      "Ġalone": 1897,
      "Ġchallen": 1898,
      "Ġexperience": 1899,
      "Ġidea": 1900,
      "old": 1901,
      "Ġident": 1902,
      "Ġperiod": 1903,
      "Of": 1904,
      "Ġcoming": 1905,
      "Ġyourself": 1906,
      "ĠPr": 1907,
      "Ġaccording": 1908,
      "Ġfinally": 1909,
      "Ġincluding": 1910,
      "edom": 1911,
      "Ġthank": 1912,
      "ĠUnion": 1913,
      "ĠRussian": 1914,
      "rect": 1915,
      "Ġhands": 1916,
      "ium": 1917,
      "ĠFrench": 1918,
      "Ġlisten": 1919,
      "Ġhard": 1920,
      "Ġequ": 1921,
      "Ġlearn": 1922,
      "ĠMar": 1923,
      "ream": 1924,
      "Ġattack": 1925,
      "Ġest": 1926,
      "Ġking": 1927,
      "Ġachie": 1928,
      "Ġlight": 1929,
      "Ġcompany": 1930,
      "Ġdecision": 1931,
      "ĠIntern": 1932,
      "uge": 1933,
      "Ġtot": 1934,
      "Ġnorm": 1935,
      "ĠJohn": 1936,
      "cil": 1937,
      "omp": 1938,
      "Ġquestions": 1939,
      "Ġmilit": 1940,
      "ama": 1941,
      "den": 1942,
      "Ġfather": 1943,
      "lement": 1944,
      "epend": 1945,
      "att": 1946,
      "ĠAb": 1947,
      "Ġusing": 1948,
      "ĠHow": 1949,
      "Ġliving": 1950,
      "Ġarri": 1951,
      "ata": 1952,
      "Ġbeaut": 1953,
      "ros": 1954,
      "Ġphys": 1955,
      "Ġshort": 1956,
      "Ġreality": 1957,
      "Ġservice": 1958,
      "Ġclose": 1959,
      "Ġspace": 1960,
      "Ġoffic": 1961,
      "12": 1962,
      "mb": 1963,
      "Ġpop": 1964,
      "âĢĺ": 1965,
      "son": 1966,
      "anks": 1967,
      "itution": 1968,
      "Ġnet": 1969,
      "obal": 1970,
      "Ġvers": 1971,
      "Ġsociety": 1972,
      "Ġcompanies": 1973,
      "Ġmaybe": 1974,
      "Ġaccess": 1975,
      "ĠGree": 1976,
      "Ġpur": 1977,
      "Ġdie": 1978,
      "ommend": 1979,
      "Ġaway": 1980,
      "medi": 1981,
      "imate": 1982,
      "aces": 1983,
      "Ġsoul": 1984,
      "ĠJew": 1985,
      "Ġcompletely": 1986,
      "aul": 1987,
      "Ġdi": 1988,
      "ilt": 1989,
      "Ġupon": 1990,
      "ĠMay": 1991,
      "come": 1992,
      "ony": 1993,
      "Ġdesc": 1994,
      "ules": 1995,
      "Ġprinci": 1996,
      "ern": 1997,
      "Ġbad": 1998,
      "ĠLe": 1999,
      "More": 2000,
      "ai": 2001,
      "gress": 2002,
      "Ġperfect": 2003,
      "Ġspirit": 2004,
      "Ġten": 2005,
      "Ġ50": 2006,
      "apt": 2007,
      "eople": 2008,
      "port": 2009,
      "Ġtruly": 2010,
      "Ġtook": 2011,
      "ĠAd": 2012,
      "Ġsl": 2013,
      "Ġsimilar": 2014,
      "Ġdiv": 2015,
      "Ġsimple": 2016,
      "ĠArab": 2017,
      "oses": 2018,
      "Ġ--": 2019,
      "ledge": 2020,
      "Ġhistory": 2021,
      "iful": 2022,
      "Ġpartners": 2023,
      "raph": 2024,
      "Ġlooking": 2025,
      "Ġparticip": 2026,
      "Ġair": 2027,
      "omes": 2028,
      "Ġclass": 2029,
      "'ll": 2030,
      "now": 2031,
      "Ġgave": 2032,
      "Ġ14": 2033,
      "ĠYour": 2034,
      "Many": 2035,
      "ĠSh": 2036,
      "Ġworks": 2037,
      "key": 2038,
      "Since": 2039,
      "Ġ25": 2040,
      "Ġtrying": 2041,
      "Ġchoose": 2042,
      "Ġdrink": 2043,
      "Ġdemoc": 2044,
      "aw": 2045,
      "atan": 2046,
      "eration": 2047,
      "'ve": 2048,
      "Ġview": 2049,
      "ises": 2050,
      "abl": 2051,
      "fer": 2052,
      "Ġmeas": 2053,
      "Ġthousands": 2054,
      "Ġtrad": 2055,
      "'m": 2056,
      "Qu": 2057,
      "ober": 2058,
      "Ġknown": 2059,
      "Ġquickly": 2060,
      "ĠWhy": 2061,
      "Ġbas": 2062,
      "ham": 2063,
      "ources": 2064,
      "Ġaut": 2065,
      "Ġsave": 2066,
      "agine": 2067,
      "Ġrespect": 2068,
      "anger": 2069,
      "ĠCommission": 2070,
      "Ġfreedom": 2071,
      "Will": 2072,
      "used": 2073,
      "Ġlarge": 2074,
      "Ġstates": 2075,
      "wh": 2076,
      "Ġ13": 2077,
      "Ġdoesn": 2078,
      "undred": 2079,
      "Ġvict": 2080,
      "Ġperhaps": 2081,
      "ges": 2082,
      "Ġthreat": 2083,
      "Ġbeyond": 2084,
      "ĠAust": 2085,
      "ĠWord": 2086,
      "Ġanyone": 2087,
      "gypt": 2088,
      "Ġservices": 2089,
      "Ġstudy": 2090,
      "Ġsw": 2091,
      "ese": 2092,
      "âĢ¢": 2093,
      "Ġtom": 2094,
      "rodu": 2095,
      "ĠCon": 2096,
      "Ġimmedi": 2097,
      "Ġenter": 2098,
      "Ġpot": 2099,
      "Ġfollowing": 2100,
      "Ġbusiness": 2101,
      "ĠMus": 2102,
      "ext": 2103,
      "ser": 2104,
      "Ġwife": 2105,
      "ances": 2106,
      "ites": 2107,
      "Ġhaving": 2108,
      "Ġimplement": 2109,
      "nect": 2110,
      "to": 2111,
      "Ġwish": 2112,
      "Ġface": 2113,
      "lect": 2114,
      "Ġmiss": 2115,
      "ogle": 2116,
      "Ġoutside": 2117,
      "Ġrecommend": 2118,
      "Ġsingle": 2119,
      "eral": 2120,
      "Ġiniti": 2121,
      "Ġchar": 2122,
      "Ġvar": 2123,
      "Ġlose": 2124,
      "Ġrole": 2125,
      "May": 2126,
      "Ġfail": 2127,
      "ĠBel": 2128,
      "Ġobject": 2129,
      "oice": 2130,
      "ĠPol": 2131,
      "ĠFor": 2132,
      "ĠMin": 2133,
      "ĠAllah": 2134,
      "Ġeasy": 2135,
      "Ġmilitary": 2136,
      "Ġed": 2137,
      "Ġwent": 2138,
      "Ġsolution": 2139,
      "Ġgame": 2140,
      "Ġindustry": 2141,
      "oke": 2142,
      "inese": 2143,
      "cu": 2144,
      "Ġmanag": 2145,
      "Ġris": 2146,
      "Ġplanet": 2147,
      "Ġcorrect": 2148,
      "18": 2149,
      "Ġevent": 2150,
      "Ġdata": 2151,
      "Ġstory": 2152,
      "14": 2153,
      "app": 2154,
      "ustom": 2155,
      "Ġstrategy": 2156,
      "Ġtomorrow": 2157,
      "ones": 2158,
      "orld": 2159,
      "ability": 2160,
      "Ġ198": 2161,
      "Ġhundred": 2162,
      "By": 2163,
      "Ġexcept": 2164,
      "clus": 2165,
      "sibility": 2166,
      "Ġaccount": 2167,
      "Ġmatter": 2168,
      "Ġann": 2169,
      "une": 2170,
      "Ġcitizens": 2171,
      "Ġpercent": 2172,
      "Ġhappens": 2173,
      "Ġreceived": 2174,
      "Ġkilled": 2175,
      "itness": 2176,
      "estion": 2177,
      "Ġsum": 2178,
      "Ġcontrib": 2179,
      "Ġdecided": 2180,
      "ators": 2181,
      "osp": 2182,
      "Are": 2183,
      "Ġmember": 2184,
      "ĠNow": 2185,
      "ivid": 2186,
      "Ġpriv": 2187,
      "Ġlocal": 2188,
      "Did": 2189,
      "orities": 2190,
      "Ġnear": 2191,
      "ĠKing": 2192,
      "Ġchanges": 2193,
      "Ġleaders": 2194,
      "unately": 2195,
      "Well": 2196,
      "Ġimm": 2197,
      "Ġopportunity": 2198,
      "Ġeyes": 2199,
      "Ġmag": 2200,
      "ĠMe": 2201,
      "ĠEgypt": 2202,
      "Ġrather": 2203,
      "rug": 2204,
      "ĠSyri": 2205,
      "Ġfav": 2206,
      "Ġindepend": 2207,
      "Ġculture": 2208,
      "Ġ?": 2209,
      "Ġcol": 2210,
      "Ġrights": 2211,
      "ross": 2212,
      "Ġsaying": 2213,
      "!\"": 2214,
      "isis": 2215,
      "Ġweeks": 2216,
      "Ġmis": 2217,
      "Ġden": 2218,
      "Ġorig": 2219,
      "ories": 2220,
      "Ġ17": 2221,
      "Ġchanged": 2222,
      "Ġdream": 2223,
      "Ġdog": 2224,
      "Ġagreement": 2225,
      "Ġopp": 2226,
      "ĠPh": 2227,
      "lam": 2228,
      "Ġheaven": 2229,
      "empt": 2230,
      "br": 2231,
      "Ġnation": 2232,
      "book": 2233,
      "Ġbo": 2234,
      "arth": 2235,
      "urther": 2236,
      "Ġestabl": 2237,
      "13": 2238,
      "sure": 2239,
      "Ġ16": 2240,
      "Ġbecame": 2241,
      "Ġill": 2242,
      "iting": 2243,
      "lex": 2244,
      "ĠNo": 2245,
      "Ġconsidered": 2246,
      "Ġdoubt": 2247,
      "17": 2248,
      "Ġside": 2249,
      "Ġdead": 2250,
      "ouncil": 2251,
      "ĠThey": 2252,
      "arget": 2253,
      "Ġsug": 2254,
      "cies": 2255,
      "Ġindivid": 2256,
      "Ġrese": 2257,
      "St": 2258,
      "Ġhon": 2259,
      "Ġsell": 2260,
      "Ġconv": 2261,
      "ively": 2262,
      "Ġaction": 2263,
      "Ġ40": 2264,
      "Ġchoice": 2265,
      "ĠWill": 2266,
      "Ġenem": 2267,
      "oon": 2268,
      "gel": 2269,
      "ĠDavid": 2270,
      "ĠChinese": 2271,
      "Ġcreation": 2272,
      "Ġwrong": 2273,
      "Ġlegal": 2274,
      "Ġdeal": 2275,
      "Ġthousand": 2276,
      "ĠGermany": 2277,
      "for": 2278,
      "Ġinn": 2279,
      "idence": 2280,
      "erence": 2281,
      "Ġclearly": 2282,
      "ĠMuslim": 2283,
      "iol": 2284,
      "oss": 2285,
      "iving": 2286,
      "Ġposition": 2287,
      "itten": 2288,
      "enef": 2289,
      "pite": 2290,
      "isions": 2291,
      "Ġdanger": 2292,
      "Ġreach": 2293,
      "ĠJan": 2294,
      "inally": 2295,
      "Ġtoward": 2296,
      "ource": 2297,
      "Ġstep": 2298,
      "Ġemploy": 2299,
      "Ġinteresting": 2300,
      "Ġrules": 2301,
      "udget": 2302,
      "Ġprep": 2303,
      "Ġdifference": 2304,
      "50": 2305,
      "ann": 2306,
      "ury": 2307,
      "Ġglobal": 2308,
      "arents": 2309,
      "Un": 2310,
      "Ġ/": 2311,
      "Ġland": 2312,
      "augh": 2313,
      "ron": 2314,
      "Ġpositive": 2315,
      "Ġcommon": 2316,
      "ĠPalestinian": 2317,
      "ully": 2318,
      "Ġmus": 2319,
      "Ġeight": 2320,
      "Ġthanks": 2321,
      "ĠWas": 2322,
      "viously": 2323,
      "Ġmist": 2324,
      "Ġsurv": 2325,
      "Question": 2326,
      "Ġconnect": 2327,
      "Ġimprove": 2328,
      "Ġamb": 2329,
      "Ġrecently": 2330,
      "Ġdesign": 2331,
      "Does": 2332,
      "Ġbehind": 2333,
      "aim": 2334,
      "ĠBl": 2335,
      "ĠWorld": 2336,
      "Ġteach": 2337,
      "Ġappear": 2338,
      "atives": 2339,
      "Ġce": 2340,
      "Ġcases": 2341,
      "irm": 2342,
      "ĠEarth": 2343,
      "Ġremains": 2344,
      "gic": 2345,
      "iet": 2346,
      "ats": 2347,
      "Ġsold": 2348,
      "ude": 2349,
      "Ġcontact": 2350,
      "Ġpersonal": 2351,
      "orth": 2352,
      "Thus": 2353,
      "Ġmyself": 2354,
      "Ġprice": 2355,
      "olute": 2356,
      "Ġprison": 2357,
      "Ġcrisis": 2358,
      "Ġgeneral": 2359,
      "Ġfil": 2360,
      "ards": 2361,
      "ky": 2362,
      "oid": 2363,
      "Ġwel": 2364,
      "ceed": 2365,
      "though": 2366,
      "Ġlanguage": 2367,
      "Ġcustom": 2368,
      "Ġsometimes": 2369,
      "Ġspend": 2370,
      "Ġsafe": 2371,
      "Ġnon": 2372,
      "ĠRep": 2373,
      "Ġbuilt": 2374,
      "Ġprotection": 2375,
      "Ġanimals": 2376,
      "ik": 2377,
      "Ġtarget": 2378,
      "ara": 2379,
      "Ġpropos": 2380,
      "Ġtried": 2381,
      "ivil": 2382,
      ",\"": 2383,
      "fully": 2384,
      "Ġphot": 2385,
      "Ġtravel": 2386,
      "Ġresults": 2387,
      "First": 2388,
      "His": 2389,
      "Ġphysical": 2390,
      "cle": 2391,
      "ĠÂ": 2392,
      "Ġtrust": 2393,
      "Ġgroups": 2394,
      "Ġmodel": 2395,
      "ĠUkraine": 2396,
      "ged": 2397,
      "way": 2398,
      "Ġchurch": 2399,
      "Ġmillions": 2400,
      "16": 2401,
      "Ġwatch": 2402,
      "Ġwitness": 2403,
      "Ġwhom": 2404,
      "Ġwritten": 2405,
      "hod": 2406,
      "ler": 2407,
      "Ġbudget": 2408,
      "acebook": 2409,
      "Ġwrite": 2410,
      "Ġsubject": 2411,
      "From": 2412,
      "aid": 2413,
      "uary": 2414,
      "Ġpresence": 2415,
      "ĠAfrican": 2416,
      "AT": 2417,
      "Ġmer": 2418,
      "Ġarea": 2419,
      "Ġfully": 2420,
      "Ġcurrently": 2421,
      "Ġbenef": 2422,
      "Ġnations": 2423,
      "Ġweap": 2424,
      "ĠPaul": 2425,
      "Ġfamil": 2426,
      "Ã©": 2427,
      "Ġeither": 2428,
      "Ġkid": 2429,
      "Ġnatural": 2430,
      "lu": 2431,
      "Ġhig": 2432,
      "ĠGoogle": 2433,
      "Ġbeautiful": 2434,
      "Ġtre": 2435,
      "Ġbre": 2436,
      "Ġreject": 2437,
      "Ġrad": 2438,
      "Ġbegan": 2439,
      "Ġpromise": 2440,
      "bs": 2441,
      "Ġdocu": 2442,
      "istic": 2443,
      "Ġjoin": 2444,
      "reng": 2445,
      "ots": 2446,
      "Ġreve": 2447,
      "ĠCl": 2448,
      "ung": 2449,
      "Ġsuper": 2450,
      "Ġprojects": 2451,
      "Like": 2452,
      "aur": 2453,
      "ising": 2454,
      "raq": 2455,
      "ĠBar": 2456,
      "ĠFather": 2457,
      "Yet": 2458,
      "cise": 2459,
      "onight": 2460,
      "ĠParliament": 2461,
      "Ġmajor": 2462,
      "Ġsuggest": 2463,
      "arian": 2464,
      "Ġvot": 2465,
      "oints": 2466,
      "Ġobser": 2467,
      "ĠTurkey": 2468,
      "Ġnormal": 2469,
      "ES": 2470,
      "ially": 2471,
      "ĠCouncil": 2472,
      "Ġknowledge": 2473,
      "Ġpresident": 2474,
      "Ġpotential": 2475,
      "Don": 2476,
      "ĠGerman": 2477,
      "Ġindividual": 2478,
      "Ġscient": 2479,
      "Ġforeign": 2480,
      "of": 2481,
      "reen": 2482,
      "Ġmult": 2483,
      "ĠAre": 2484,
      "olved": 2485,
      "ured": 2486,
      "Ġworked": 2487,
      "Ġ2015": 2488,
      "ĠChristian": 2489,
      "Ġ!": 2490,
      "ences": 2491,
      "Ġjustice": 2492,
      "itted": 2493,
      "Ġexpress": 2494,
      "Ġsuffer": 2495,
      "Ġbank": 2496,
      "Ġborn": 2497,
      "ĠSatan": 2498,
      "Ġourselves": 2499,
      "Ġpartner": 2500,
      "Ġactions": 2501,
      "econd": 2502,
      "Ġchance": 2503,
      "Ġenc": 2504,
      "Ġattention": 2505,
      "Ġmeeting": 2506,
      "ior": 2507,
      "Ġviol": 2508,
      "Ġjour": 2509,
      "ĠX": 2510,
      "Ġcamp": 2511,
      "Ġsaved": 2512,
      "ĠIslam": 2513,
      "Ġtype": 2514,
      "Ġsense": 2515,
      "verse": 2516,
      "Ġstreng": 2517,
      "Ġproper": 2518,
      "ĠPl": 2519,
      "aby": 2520,
      "hington": 2521,
      "Ġterror": 2522,
      "reme": 2523,
      "Ġsal": 2524,
      "Ġmind": 2525,
      "ason": 2526,
      "Ġgives": 2527,
      "Ġadded": 2528,
      "Ġimmediately": 2529,
      "Ġeuro": 2530,
      "ĠTo": 2531,
      "Ġmaking": 2532,
      "Ġpatients": 2533,
      "alse": 2534,
      "Ġproud": 2535,
      "Ġprophe": 2536,
      "Ġgirls": 2537,
      "Ġopt": 2538,
      "Ġcommunic": 2539,
      "Ġtechnology": 2540,
      "Ġconditions": 2541,
      "Ġaffect": 2542,
      "Ġ24": 2543,
      "Ġvoice": 2544,
      "Ġcoop": 2545,
      "Ġple": 2546,
      "ster": 2547,
      "ĠIsraeli": 2548,
      "ani": 2549,
      "Ġcivil": 2550,
      "raz": 2551,
      "Ġseek": 2552,
      "Ġnews": 2553,
      "Ġnam": 2554,
      "emember": 2555,
      "Ġquite": 2556,
      "atis": 2557,
      "Ġaspect": 2558,
      "ĠMan": 2559,
      "cing": 2560,
      "Ġcir": 2561,
      "Ġsystems": 2562,
      "ires": 2563,
      "aced": 2564,
      "ĠOne": 2565,
      "Ġve": 2566,
      "Ġsepar": 2567,
      "Ġconvers": 2568,
      "atever": 2569,
      "Ġsecret": 2570,
      "egr": 2571,
      "Ġtool": 2572,
      "usb": 2573,
      "Ġmedia": 2574,
      "Ġissue": 2575,
      "Ġbill": 2576,
      "Ġnetwork": 2577,
      "ĠIraq": 2578,
      "urd": 2579,
      "ĠSouth": 2580,
      "ements": 2581,
      "ension": 2582,
      "Ġdefin": 2583,
      "Ġabsolute": 2584,
      "Ġparents": 2585,
      "Ġpoints": 2586,
      "Ġbelong": 2587,
      "Ġmethod": 2588,
      "AN": 2589,
      "ON": 2590,
      "Ġnature": 2591,
      "Ġversion": 2592,
      "200": 2593,
      "zer": 2594,
      "âĢĵ": 2595,
      "ĠAm": 2596,
      "racy": 2597,
      "Those": 2598,
      "Ġeduc": 2599,
      "line": 2600,
      "Ġtri": 2601,
      "Ġones": 2602,
      "ossible": 2603,
      "ĠOr": 2604,
      "Ġdesire": 2605,
      "Ġinside": 2606,
      "Ġissues": 2607,
      "30": 2608,
      "ched": 2609,
      "estern": 2610,
      "ĠEx": 2611,
      "ĠYes": 2612,
      "ĠSpirit": 2613,
      "ER": 2614,
      "gent": 2615,
      "Ġprogress": 2616,
      "Ġopin": 2617,
      "atisf": 2618,
      "Ġboy": 2619,
      "Ġcompl": 2620,
      "gment": 2621,
      "Ġ#": 2622,
      "Ġtax": 2623,
      "Ġsac": 2624,
      "Ġimagine": 2625,
      "Ġtakes": 2626,
      "Maybe": 2627,
      "Per": 2628,
      "ilities": 2629,
      "ended": 2630,
      "Ġbless": 2631,
      "Ġrequest": 2632,
      "Ġachieve": 2633,
      "Ġpurp": 2634,
      "People": 2635,
      "Ġways": 2636,
      "erv": 2637,
      "irth": 2638,
      "Ġinflu": 2639,
      "goti": 2640,
      "ratic": 2641,
      "Ġcollect": 2642,
      "ĠWashington": 2643,
      "co": 2644,
      "arant": 2645,
      "ades": 2646,
      "Ġstruct": 2647,
      "Ġprovide": 2648,
      "Just": 2649,
      "Ġtonight": 2650,
      "usband": 2651,
      "Ġvide": 2652,
      "ĠFacebook": 2653,
      "Ġblood": 2654,
      "Ġdeterm": 2655,
      "Ġmajority": 2656,
      "Ġevents": 2657,
      "Ġrepe": 2658,
      "Ġreact": 2659,
      "Ġ2020": 2660,
      "Ġindeed": 2661,
      "Ġinstead": 2662,
      "ological": 2663,
      "Ġrequire": 2664,
      "ĠTruth": 2665,
      "Ġfif": 2666,
      "ode": 2667,
      "cember": 2668,
      "ĠHo": 2669,
      "Ġparticularly": 2670,
      "go": 2671,
      "ĠDr": 2672,
      "Ġlikely": 2673,
      "Ġunique": 2674,
      "Ind": 2675,
      "Ġlie": 2676,
      "ternal": 2677,
      "ubl": 2678,
      "Ġpractice": 2679,
      "Ġterms": 2680,
      "ches": 2681,
      "Ġtour": 2682,
      "Ġbit": 2683,
      "ored": 2684,
      "Ġintegr": 2685,
      "ĠBrit": 2686,
      "Ġresponse": 2687,
      "Ġforce": 2688,
      "Ġaltern": 2689,
      "ĠEng": 2690,
      "men": 2691,
      "Ġnegoti": 2692,
      "ached": 2693,
      "Ġbecomes": 2694,
      "ĠAustral": 2695,
      "Ġmodern": 2696,
      "Mr": 2697,
      "Ġthus": 2698,
      "Ġdecl": 2699,
      "Ġinstru": 2700,
      "Ġtradition": 2701,
      "Ġbased": 2702,
      "urs": 2703,
      "Ġdev": 2704,
      "Ġprefer": 2705,
      "uclear": 2706,
      "Ġsignific": 2707,
      "ĠParis": 2708,
      "Ġeffective": 2709,
      "Finally": 2710,
      "erve": 2711,
      "aled": 2712,
      "Ġagree": 2713,
      "Ġarticle": 2714,
      "Ġseriously": 2715,
      "fra": 2716,
      "Ġdri": 2717,
      "uted": 2718,
      "Ġgoal": 2719,
      "ĠOb": 2720,
      "Ġbrought": 2721,
      "__": 2722,
      "inary": 2723,
      "Ġgeneration": 2724,
      "Ġprofession": 2725,
      "ĠJanuary": 2726,
      "Europe": 2727,
      "Ġfalse": 2728,
      "soci": 2729,
      "ield": 2730,
      "ccording": 2731,
      "Ġpoor": 2732,
      "wo": 2733,
      "inist": 2734,
      "Ġgod": 2735,
      "appe": 2736,
      "Ġclaim": 2737,
      "ĠBelg": 2738,
      "Remember": 2739,
      "more": 2740,
      "Ġhusband": 2741,
      "ĠGr": 2742,
      "Ġlik": 2743,
      "Ġvision": 2744,
      "ert": 2745,
      "Ġredu": 2746,
      "ovember": 2747,
      "ĠAmericans": 2748,
      "fraid": 2749,
      "Ex": 2750,
      "Sh": 2751,
      "Ġhosp": 2752,
      "ban": 2753,
      "Ġforces": 2754,
      "ĠAt": 2755,
      "Ġeconomy": 2756,
      "Ġresearch": 2757,
      "rong": 2758,
      "icient": 2759,
      "acher": 2760,
      "ograph": 2761,
      "Ġfamilies": 2762,
      "ĠThere": 2763,
      "ĠWho": 2764,
      "Ġbord": 2765,
      "ush": 2766,
      "ĠJune": 2767,
      "Ġeng": 2768,
      "ĠItaly": 2769,
      "by": 2770,
      "Ġafraid": 2771,
      "ĠSc": 2772,
      "Ġlaws": 2773,
      "Ġapproach": 2774,
      "ĠMor": 2775,
      "Ġdeb": 2776,
      "cious": 2777,
      "Ġcolle": 2778,
      "25": 2779,
      "Ġsatisf": 2780,
      "ash": 2781,
      "abor": 2782,
      "Ġfinal": 2783,
      "ĠItal": 2784,
      "Ġeasily": 2785,
      "Ġassist": 2786,
      "Ġmusic": 2787,
      "Never": 2788,
      "ees": 2789,
      "reet": 2790,
      "Ġfoc": 2791,
      "osing": 2792,
      "Ġplaces": 2793,
      "Ġtext": 2794,
      "Ġcontext": 2795,
      "Ġhelped": 2796,
      "Ġappl": 2797,
      "Ġearly": 2798,
      "Ġadopted": 2799,
      "Where": 2800,
      "idd": 2801,
      "Ġexists": 2802,
      "ĠRome": 2803,
      "Ġtyp": 2804,
      "Ġtotal": 2805,
      "ĠWh": 2806,
      "ĠChurch": 2807,
      "Ġrecent": 2808,
      "Ġhold": 2809,
      "itor": 2810,
      "Ġbirth": 2811,
      "ĠPort": 2812,
      "Ġintrodu": 2813,
      "Ġ2008": 2814,
      "Ġguarant": 2815,
      "Ġtaking": 2816,
      "ĠDecember": 2817,
      "Ġhor": 2818,
      "ĠAg": 2819,
      "istan": 2820,
      "Ġdecisions": 2821,
      "Ġrespond": 2822,
      "Ġpath": 2823,
      "omb": 2824,
      "ĠIf": 2825,
      "amer": 2826,
      "elt": 2827,
      "Ġtrade": 2828,
      "Ġquality": 2829,
      "Ġremind": 2830,
      "Ġattempt": 2831,
      "like": 2832,
      "Ġreligion": 2833,
      "fortunately": 2834,
      "Ġofficial": 2835,
      "ĠMinister": 2836,
      "ael": 2837,
      "Ġess": 2838,
      "Ġtop": 2839,
      "Any": 2840,
      "Ġspiritual": 2841,
      "ule": 2842,
      "Ġisn": 2843,
      "Ġlived": 2844,
      "Ġimpossible": 2845,
      "Ġpolice": 2846,
      "ification": 2847,
      "Most": 2848,
      "inated": 2849,
      "itutions": 2850,
      "lev": 2851,
      "ĠCreat": 2852,
      "iles": 2853,
      "ĠRes": 2854,
      "Ġmir": 2855,
      "arily": 2856,
      "Ġhead": 2857,
      "Ġindic": 2858,
      "Ġgreater": 2859,
      "Ġmarri": 2860,
      "Ġtowards": 2861,
      "Ġcred": 2862,
      "Ġhot": 2863,
      "Ġdespite": 2864,
      "Ġproduction": 2865,
      "Ġminister": 2866,
      "Ġavoid": 2867,
      "Ġrevolution": 2868,
      "Ġrisk": 2869,
      "Ġsister": 2870,
      "Ġfire": 2871,
      "Ġappears": 2872,
      "itude": 2873,
      "Ġplease": 2874,
      "iger": 2875,
      "Ġaware": 2876,
      "ĠGreece": 2877,
      "ana": 2878,
      "Ġoil": 2879,
      "chan": 2880,
      "acy": 2881,
      "cience": 2882,
      "Ġdisappe": 2883,
      "oe": 2884,
      "Ġur": 2885,
      "....": 2886,
      "Ġbuilding": 2887,
      "Perhaps": 2888,
      "Ġca": 2889,
      "ctors": 2890,
      "Ġant": 2891,
      "ĠWest": 2892,
      "Ġ196": 2893,
      "Ġhappening": 2894,
      "attle": 2895,
      "na": 2896,
      "Ġsector": 2897,
      "Ġcrit": 2898,
      "Ġconflic": 2899,
      "Ġmaintain": 2900,
      "ĠNovember": 2901,
      "Ġgreatest": 2902,
      "Im": 2903,
      "Ġsource": 2904,
      "Ġfurther": 2905,
      "Ġresources": 2906,
      "Ġcars": 2907,
      "sequ": 2908,
      "ĠEuro": 2909,
      "Also": 2910,
      "Ġactivities": 2911,
      "ean": 2912,
      "Ġforg": 2913,
      "osen": 2914,
      "ney": 2915,
      "iddle": 2916,
      "Ġred": 2917,
      "ĠCo": 2918,
      "ĠMarch": 2919,
      "Ġusually": 2920,
      "ĠUN": 2921,
      "Ġbelieved": 2922,
      "Ġfilm": 2923,
      "ane": 2924,
      "Ġcities": 2925,
      "Ġphone": 2926,
      "Ġsafety": 2927,
      "sy": 2928,
      "Ġpain": 2929,
      "Ġhate": 2930,
      "Ġnames": 2931,
      "Ġdoll": 2932,
      "Ġvol": 2933,
      "Ġactive": 2934,
      "rict": 2935,
      "Ġdetail": 2936,
      "ĠPalestinians": 2937,
      "ĠJapanese": 2938,
      "Ġchallenge": 2939,
      "Ġvictim": 2940,
      "26": 2941,
      "ef": 2942,
      "Ġcal": 2943,
      "Ġareas": 2944,
      "ĠSa": 2945,
      "overed": 2946,
      "Ġlearned": 2947,
      "Ġdirectly": 2948,
      "According": 2949,
      "por": 2950,
      "Ġharm": 2951,
      "Ġweak": 2952,
      "Ġstudents": 2953,
      "ĠJews": 2954,
      "Would": 2955,
      "ued": 2956,
      "Ġtas": 2957,
      "onst": 2958,
      "Ġtown": 2959,
      "Ġarmy": 2960,
      "Ask": 2961,
      "Ġextreme": 2962,
      "eor": 2963,
      "mit": 2964,
      "Ġtem": 2965,
      "Ġnuclear": 2966,
      "leep": 2967,
      "ptember": 2968,
      "Ġcommand": 2969,
      "versity": 2970,
      "Ġroom": 2971,
      "Ġpowerful": 2972,
      "Ġhistor": 2973,
      "lation": 2974,
      "Ġoption": 2975,
      "ott": 2976,
      "utin": 2977,
      "Ġcommit": 2978,
      "Ġlimited": 2979,
      "Ġopinion": 2980,
      "Ġlack": 2981,
      "Ġperform": 2982,
      "Ġkey": 2983,
      "Ġforever": 2984,
      "oman": 2985,
      "Ġchosen": 2986,
      "Ġgoes": 2987,
      "ends": 2988,
      "Ġvalue": 2989,
      "Ġprivate": 2990,
      "Ġweapons": 2991,
      "Ġmission": 2992,
      "oming": 2993,
      "Ġneg": 2994,
      "Ġ197": 2995,
      "Ġwalk": 2996,
      "imum": 2997,
      "ĠMad": 2998,
      "Ġvote": 2999,
      "ĠDay": 3000,
      "ĠNorth": 3001,
      "Ġprevious": 3002,
      "Ġdecide": 3003,
      "Ġblack": 3004,
      "Ġvarious": 3005,
      "Ġsignificant": 3006,
      "Ġsite": 3007,
      "ĠJack": 3008,
      "Ġfavor": 3009,
      "Ġcolleag": 3010,
      "AM": 3011,
      "ĠThat": 3012,
      "Ġangel": 3013,
      "Ġ60": 3014,
      "Have": 3015,
      "Second": 3016,
      "ev": 3017,
      "ech": 3018,
      "Ġusers": 3019,
      "Ġinstitutions": 3020,
      "Ġfourth": 3021,
      "Ġprepared": 3022,
      "AR": 3023,
      "reci": 3024,
      "Ġcause": 3025,
      "Ġpost": 3026,
      "amas": 3027,
      "ichael": 3028,
      "Ġincrease": 3029,
      "ĠAdam": 3030,
      "icles": 3031,
      "cell": 3032,
      "irt": 3033,
      "Ġcontr": 3034,
      "Ġimportance": 3035,
      "Ġmisery": 3036,
      "Ġkids": 3037,
      "vere": 3038,
      "ruction": 3039,
      "Ġwrote": 3040,
      "Ġgovernments": 3041,
      "Ġlaun": 3042,
      "Ġallowed": 3043,
      "Ġmeasures": 3044,
      "ey": 3045,
      "vention": 3046,
      "enty": 3047,
      "Ġrich": 3048,
      "Ġpred": 3049,
      "Ġapplic": 3050,
      "Ġtechnical": 3051,
      "Ġreligious": 3052,
      "Ġwelcome": 3053,
      "Ġcle": 3054,
      "Ġbro": 3055,
      "ctober": 3056,
      "Ġcontain": 3057,
      "Ġworkers": 3058,
      "Ġdeveloped": 3059,
      "Ġwaiting": 3060,
      "ĠInternet": 3061,
      "Ġcele": 3062,
      "ya": 3063,
      "Ġdra": 3064,
      "ctions": 3065,
      "Ġworse": 3066,
      "Ġlevels": 3067,
      "Ġz": 3068,
      "Ġfru": 3069,
      "Ġnor": 3070,
      "Ġclimate": 3071,
      "ĠWell": 3072,
      "Ġkingdom": 3073,
      "ĠRepublic": 3074,
      "Somet": 3075,
      "US": 3076,
      "ift": 3077,
      "ateful": 3078,
      "Ġdiscover": 3079,
      "ĠInternational": 3080,
      "Ġeducation": 3081,
      ".'": 3082,
      "Ġcou": 3083,
      "Ġforgot": 3084,
      "Ġdel": 3085,
      "Ġliber": 3086,
      "Ġregul": 3087,
      "Ġbooks": 3088,
      "Ġresponsibility": 3089,
      "ĠCreator": 3090,
      "ny": 3091,
      "Ġ2012": 3092,
      "Ġ2013": 3093,
      "ĠChristians": 3094,
      "Ġcapital": 3095,
      "Ġinnov": 3096,
      "Ġwis": 3097,
      "Ġnone": 3098,
      "sec": 3099,
      "Ġassoci": 3100,
      "ustain": 3101,
      "Ġapply": 3102,
      "Ġresponsible": 3103,
      "ĠIndia": 3104,
      "ĠSeptember": 3105,
      "Ġdangerous": 3106,
      "atory": 3107,
      "Ġcy": 3108,
      "Ġdate": 3109,
      "terday": 3110,
      "Ġblog": 3111,
      "Ġhearts": 3112,
      "Ġanimal": 3113,
      "aughter": 3114,
      "Ġcirc": 3115,
      "uf": 3116,
      "Ġbaby": 3117,
      "cel": 3118,
      "ĠCar": 3119,
      "ĠDon": 3120,
      "Ġappreci": 3121,
      "Ġthroughout": 3122,
      "Ġauthorities": 3123,
      "Ġrecognize": 3124,
      "Ġprinciple": 3125,
      "Other": 3126,
      "ien": 3127,
      "nal": 3128,
      "Ġfelt": 3129,
      "ĠJuly": 3130,
      "ĠNot": 3131,
      "Ġgrateful": 3132,
      "Ġcontinues": 3133,
      "ĠObama": 3134,
      "Ġamount": 3135,
      "ĠSyria": 3136,
      "eb": 3137,
      "Ġpubl": 3138,
      "Ġreform": 3139,
      "Ġconcept": 3140,
      "Ġasking": 3141,
      "Ġprayer": 3142,
      "Ġveh": 3143,
      "val": 3144,
      "aries": 3145,
      "Ġrefuge": 3146,
      "Ġideas": 3147,
      "Ġcheck": 3148,
      "che": 3149,
      "eal": 3150,
      "Ġi": 3151,
      "igration": 3152,
      "Ġmechan": 3153,
      "Ġbelieves": 3154,
      "Ġ2014": 3155,
      "ighb": 3156,
      "Ġdemand": 3157,
      "ĠBrother": 3158,
      "Ġpurpose": 3159,
      "Oh": 3160,
      "uel": 3161,
      "Ġfast": 3162,
      "theless": 3163,
      "Ġcharact": 3164,
      "Ġindependent": 3165,
      "Ġnaming": 3166,
      "David": 3167,
      "Ġ&": 3168,
      "asure": 3169,
      "icro": 3170,
      "stances": 3171,
      "ĠState": 3172,
      "Ġswear": 3173,
      "ĠKingdom": 3174,
      "Ġmercy": 3175,
      "Indeed": 3176,
      "Ġmarriage": 3177,
      "ĠSu": 3178,
      "Ġdoctor": 3179,
      "Ġworth": 3180,
      "Ġevil": 3181,
      "pril": 3182,
      "Ġgrowth": 3183,
      "Ġpopulation": 3184,
      "Ġcustomers": 3185,
      "Ġalternative": 3186,
      "22": 3187,
      "Ġtable": 3188,
      "Ġdue": 3189,
      "uses": 3190,
      "igr": 3191,
      "ĠItalian": 3192,
      "pri": 3193,
      "anish": 3194,
      "Ġfac": 3195,
      "Ġ28": 3196,
      "Ġplans": 3197,
      "akes": 3198,
      "Ġrealize": 3199,
      "Ġ2010": 3200,
      "Ġmob": 3201,
      "ico": 3202,
      "Ġanal": 3203,
      "ĠKore": 3204,
      "iation": 3205,
      "atform": 3206,
      "ulf": 3207,
      "Ġship": 3208,
      "ume": 3209,
      "ondon": 3210,
      "Ġcentury": 3211,
      "ining": 3212,
      "Ġmach": 3213,
      "Ġdied": 3214,
      "aring": 3215,
      "Ġexch": 3216,
      "Ġseeing": 3217,
      "Ġshows": 3218,
      "aught": 3219,
      "Ġdemocracy": 3220,
      "Ġoriginal": 3221,
      "Ġvideo": 3222,
      "Ab": 3223,
      "Each": 3224,
      "omen": 3225,
      "Ġhumanity": 3226,
      "Everyone": 3227,
      "Ġchallenges": 3228,
      "rongly": 3229,
      "23": 3230,
      "oved": 3231,
      "ened": 3232,
      "Ġpun": 3233,
      "amb": 3234,
      "eth": 3235,
      "oph": 3236,
      "Ġimpact": 3237,
      "Ġprecise": 3238,
      "Ġinterested": 3239,
      "Ġdestroyed": 3240,
      "Ġport": 3241,
      "igital": 3242,
      "raham": 3243,
      "amework": 3244,
      "Ġteacher": 3245,
      "Ġ90": 3246,
      "Ġadminist": 3247,
      "Ġencour": 3248,
      "razil": 3249,
      "Ġsacr": 3250,
      "cceed": 3251,
      "eng": 3252,
      "imin": 3253,
      "Ġsucceed": 3254,
      "apter": 3255,
      "ogue": 3256,
      "Ġmovement": 3257,
      "Wrongly": 3258,
      "ma": 3259,
      "arity": 3260,
      "icians": 3261,
      "rible": 3262,
      "osition": 3263,
      "ĠPart": 3264,
      "Ġloves": 3265,
      "lier": 3266,
      "Ġsolid": 3267,
      "RA": 3268,
      "ape": 3269,
      "Ġtou": 3270,
      "Ġhuge": 3271,
      "Ġnote": 3272,
      "Ġneighb": 3273,
      "Ġ21": 3274,
      "ĠOn": 3275,
      "Ġpromised": 3276,
      "iveness": 3277,
      "Ġstrategic": 3278,
      "Ġconcern": 3279,
      "Ġdescrib": 3280,
      "Ġmirac": 3281,
      "!)": 3282,
      "year": 3283,
      "isation": 3284,
      "Ġpaid": 3285,
      "ari": 3286,
      "ĠEl": 3287,
      "Inst": 3288,
      "Ġloved": 3289,
      "ĠOur": 3290,
      "ĠOctober": 3291,
      "ensive": 3292,
      "Ġletter": 3293,
      "Ġorganiz": 3294,
      "Ġconstant": 3295,
      "Tr": 3296,
      "Ġmot": 3297,
      "Ġwasn": 3298,
      "abb": 3299,
      "Ġinvolved": 3300,
      "ressed": 3301,
      "Ġwriting": 3302,
      "Ġtalked": 3303,
      "ĠQur": 3304,
      "Ġcooperation": 3305,
      "28": 3306,
      "29": 3307,
      "itable": 3308,
      "Ġplatform": 3309,
      "ĠWestern": 3310,
      "sels": 3311,
      "Ġorganization": 3312,
      "Ġcelebr": 3313,
      "Ġsleep": 3314,
      "Ġlow": 3315,
      "ĠGu": 3316,
      "Ġrun": 3317,
      "iable": 3318,
      "Ġtotally": 3319,
      "Ġemer": 3320,
      "Ġwhite": 3321,
      "elie": 3322,
      "Ġbasis": 3323,
      "Ġtypes": 3324,
      "nces": 3325,
      "ying": 3326,
      "ĠII": 3327,
      "ĠTe": 3328,
      "ountain": 3329,
      "Ġdise": 3330,
      "Another": 3331,
      "Ġlanguages": 3332,
      "Ġbillion": 3333,
      "IN": 3334,
      "iam": 3335,
      "ĠâĢĿ": 3336,
      "Ġcru": 3337,
      "Ġliter": 3338,
      "Ġgra": 3339,
      "term": 3340,
      "Ġeverywhere": 3341,
      "Ġresolution": 3342,
      "Ġtransform": 3343,
      "Ġbrothers": 3344,
      "Ġsurprised": 3345,
      "Ġenemy": 3346,
      ".[": 3347,
      "uman": 3348,
      "Ġspoke": 3349,
      "Before": 3350,
      "CO": 3351,
      "ona": 3352,
      "Ġexc": 3353,
      "ĠPutin": 3354,
      "Ġpolicies": 3355,
      "ĠPortug": 3356,
      "Say": 3357,
      "han": 3358,
      "yle": 3359,
      "Ġ0": 3360,
      "Ġsus": 3361,
      "Ġbought": 3362,
      "Ġfed": 3363,
      "ets": 3364,
      "aper": 3365,
      "Ġoffered": 3366,
      "Ġrequired": 3367,
      "ĠSpain": 3368,
      "Ġvalues": 3369,
      "Ġwonderful": 3370,
      "Ġabsolutely": 3371,
      "joy": 3372,
      "Ġpurch": 3373,
      "ĠBill": 3374,
      "Ġregular": 3375,
      "Ġproduce": 3376,
      "Ġ2009": 3377,
      "Ġaccepted": 3378,
      "Ġreplace": 3379,
      "Ġsummer": 3380,
      "mp": 3381,
      "wise": 3382,
      "Ġreached": 3383,
      "ĠBrazil": 3384,
      "Ġserve": 3385,
      "Ġesc": 3386,
      "Ġterrit": 3387,
      "Ġdocument": 3388,
      "Ġinfluence": 3389,
      "],": 3390,
      "lig": 3391,
      "Ġter": 3392,
      "Ġsan": 3393,
      "Ġbattle": 3394,
      "owers": 3395,
      "ests": 3396,
      "ĠFirst": 3397,
      "Ġintell": 3398,
      "Ġgetting": 3399,
      "Ġinvent": 3400,
      "Ġlaug": 3401,
      "Ġpriority": 3402,
      "Ġsexual": 3403,
      "IS": 3404,
      "just": 3405,
      "ishing": 3406,
      "ider": 3407,
      "ĠApril": 3408,
      "ĠGeor": 3409,
      "ĠMember": 3410,
      "Ġdeep": 3411,
      "ĠBible": 3412,
      "Ġ2006": 3413,
      "Ġdiscovered": 3414,
      "Ġexistence": 3415,
      "Ġinclude": 3416,
      "Ġmeaning": 3417,
      "ĠPalestine": 3418,
      "Ġfunction": 3419,
      "Ġarrived": 3420,
      "Ġhigher": 3421,
      "ĠBritish": 3422,
      "Ġbur": 3423,
      "Ġfield": 3424,
      "omin": 3425,
      "Ġwhatever": 3426,
      "Ġvill": 3427,
      "ĠTom": 3428,
      "uck": 3429,
      "AS": 3430,
      "ĠMex": 3431,
      "Ġ22": 3432,
      "ocol": 3433,
      "egal": 3434,
      "Ġadopt": 3435,
      "Ġcross": 3436,
      "Ġmater": 3437,
      "Ġfulf": 3438,
      "ompl": 3439,
      "Ġunc": 3440,
      "Ġguess": 3441,
      "Ġconsumers": 3442,
      "Ġregional": 3443,
      "aniel": 3444,
      "ball": 3445,
      "Ġbra": 3446,
      "Ġwebs": 3447,
      "Ġwilling": 3448,
      "ĠSec": 3449,
      "acc": 3450,
      "Ġregime": 3451,
      "Ġ2011": 3452,
      "Ġroad": 3453,
      "Ġcultural": 3454,
      "Ġprinciples": 3455,
      "Go": 3456,
      "Ġonline": 3457,
      "idents": 3458,
      "Ġmarkets": 3459,
      "Ġyesterday": 3460,
      "Although": 3461,
      "Ġoptions": 3462,
      "Ġconflict": 3463,
      "OR": 3464,
      "Ġmass": 3465,
      "asing": 3466,
      "Ġline": 3467,
      "ĠGen": 3468,
      "ĠMart": 3469,
      "ĠWhen": 3470,
      "Ġparty": 3471,
      "Ġclos": 3472,
      "Ġprograms": 3473,
      "Ġleader": 3474,
      "Ġpatient": 3475,
      "Ġactivity": 3476,
      "ĠAustralia": 3477,
      "rely": 3478,
      "itarian": 3479,
      "Ġ80": 3480,
      "Ġprotected": 3481,
      "--": 3482,
      "33": 3483,
      "Look": 3484,
      "ray": 3485,
      "Ġ,": 3486,
      "rep": 3487,
      "ature": 3488,
      "Ġlat": 3489,
      "Ġseason": 3490,
      "Thank": 3491,
      "Ġthinking": 3492,
      "Ġproposed": 3493,
      "Ġspeaking": 3494,
      "Ġfront": 3495,
      "rugg": 3496,
      "24": 3497,
      "ux": 3498,
      "ĠSer": 3499,
      "ĠMoses": 3500,
      "Ġgoals": 3501,
      "Ġ26": 3502,
      "Ġ2007": 3503,
      "Ġinterp": 3504,
      "Ġlegis": 3505,
      "Ġmistake": 3506,
      "ufact": 3507,
      "with": 3508,
      "Ġign": 3509,
      "inian": 3510,
      "Ġ27": 3511,
      "ĠLondon": 3512,
      "ival": 3513,
      "Ġtells": 3514,
      "Ġefforts": 3515,
      "Ġoccur": 3516,
      "Ad": 3517,
      "Ġver": 3518,
      "itation": 3519,
      "imately": 3520,
      "rop": 3521,
      "Ġsea": 3522,
      "ĠCent": 3523,
      "ĠEast": 3524,
      "Ġwhose": 3525,
      "Ġarg": 3526,
      "Ġseries": 3527,
      "Ġmarried": 3528,
      "ĠHoly": 3529,
      "gies": 3530,
      "eter": 3531,
      "Ġprevent": 3532,
      "ĠSwed": 3533,
      "Ġhundreds": 3534,
      "Ġextremely": 3535,
      "Ġanalys": 3536,
      "Ġbanks": 3537,
      "Ġdark": 3538,
      "Ġforward": 3539,
      "Ġgold": 3540,
      "ĠUK": 3541,
      "Ġposs": 3542,
      "Ġunderstood": 3543,
      "Ġseemed": 3544,
      "Ġrevealed": 3545,
      "Ġhospital": 3546,
      "Instead": 3547,
      "nam": 3548,
      "Ġsun": 3549,
      "ici": 3550,
      "Ġdear": 3551,
      "ĠNiger": 3552,
      "irection": 3553,
      "ĠYork": 3554,
      "Ġsupported": 3555,
      "ĠArt": 3556,
      "Ġadvice": 3557,
      "Ġoccup": 3558,
      "Ġdemocratic": 3559,
      "aves": 3560,
      "then": 3561,
      "Ġgames": 3562,
      "Ġpret": 3563,
      "Ġearlier": 3564,
      "Ġ70": 3565,
      "Ġpopular": 3566,
      "view": 3567,
      "Ġfall": 3568,
      "Ġpict": 3569,
      "Ġloss": 3570,
      "Ġalive": 3571,
      "oseph": 3572,
      "ĠWar": 3573,
      "Ġpressure": 3574,
      "Ġeasier": 3575,
      "Ġdim": 3576,
      "Ġstrugg": 3577,
      "Ġuses": 3578,
      "ĠWith": 3579,
      "plom": 3580,
      "Ġuseful": 3581,
      "denly": 3582,
      "Ġfifth": 3583,
      "**": 3584,
      "AL": 3585,
      "Ar": 3586,
      "lf": 3587,
      "ped": 3588,
      "Ġwine": 3589,
      "Ġpage": 3590,
      "artment": 3591,
      "ĠHar": 3592,
      "Ġblock": 3593,
      "Ġbiggest": 3594,
      "new": 3595,
      "ox": 3596,
      "reland": 3597,
      "Ġwealth": 3598,
      "Ġge": 3599,
      "ĠMal": 3600,
      "olve": 3601,
      "Ġsud": 3602,
      "ĠChar": 3603,
      "Ġgrand": 3604,
      "Ġauthority": 3605,
      "rid": 3606,
      "Ġsustain": 3607,
      "Ġcat": 3608,
      "ĠMother": 3609,
      "ĠNet": 3610,
      "Ġprim": 3611,
      "Ġanswers": 3612,
      "Ġrestaur": 3613,
      "Ġincluded": 3614,
      "Am": 3615,
      "Please": 3616,
      "occ": 3617,
      "sh": 3618,
      "Ġdial": 3619,
      "illed": 3620,
      "ights": 3621,
      "Ġeverybody": 3622,
      "Ġenjoy": 3623,
      "Ġplaying": 3624,
      "Ġdemonst": 3625,
      "Ġjudgment": 3626,
      "ĠReg": 3627,
      "Ġaccompl": 3628,
      "aving": 3629,
      "Ġframework": 3630,
      "Moreover": 3631,
      "Ġprofessional": 3632,
      "40": 3633,
      "hest": 3634,
      "enator": 3635,
      "Ġdirection": 3636,
      "Ġlink": 3637,
      "Ġgone": 3638,
      "verage": 3639,
      "aged": 3640,
      "duct": 3641,
      "Ġbegins": 3642,
      "Ġinvestig": 3643,
      "Ġfundament": 3644,
      "Ġestablish": 3645,
      "Ġrejected": 3646,
      "Ġaspects": 3647,
      "sych": 3648,
      "Ġhost": 3649,
      "Ġwouldn": 3650,
      "Ġparts": 3651,
      "Ġ2005": 3652,
      "ression": 3653,
      "ĠJewish": 3654,
      "Ġbreak": 3655,
      "Ġdollars": 3656,
      "rection": 3657,
      "isc": 3658,
      "esides": 3659,
      "Ġself": 3660,
      "Ġmanufact": 3661,
      "Ġhumans": 3662,
      "swer": 3663,
      "Ġhealthy": 3664,
      "Ġparliament": 3665,
      "Ġcircum": 3666,
      "60": 3667,
      "aff": 3668,
      "Ġtal": 3669,
      "Ġreward": 3670,
      "Their": 3671,
      "...]": 3672,
      "Ġthinks": 3673,
      "Ġinstitution": 3674,
      "Ġshowed": 3675,
      "Ġestablished": 3676,
      "Ġtools": 3677,
      "rate": 3678,
      "hel": 3679,
      "Ġbal": 3680,
      "Ġda": 3681,
      "ĠSm": 3682,
      "Ġexisting": 3683,
      "Ġinitiative": 3684,
      "Ġconversation": 3685,
      "Nevertheless": 3686,
      "Ġcolleagues": 3687,
      "Two": 3688,
      "Ġsick": 3689,
      "icated": 3690,
      "Ġexcell": 3691,
      "Ġ23": 3692,
      "Ġcoord": 3693,
      "ĠSpanish": 3694,
      "Ġextra": 3695,
      "ĠCanadian": 3696,
      "Ġmessages": 3697,
      "Ġjournal": 3698,
      "Ġeuros": 3699,
      "Ġmurd": 3700,
      "Ġnine": 3701,
      "ussels": 3702,
      "Ġsho": 3703,
      "ittee": 3704,
      "ĠYear": 3705,
      "Ġlooks": 3706,
      "Ġadvant": 3707,
      "Ġjobs": 3708,
      "Ġconvin": 3709,
      "ĠBelgium": 3710,
      "Ġforgotten": 3711,
      "iers": 3712,
      "lish": 3713,
      "Ġmem": 3714,
      "Ġhell": 3715,
      "âĢĿ,": 3716,
      "Ġensure": 3717,
      "ounds": 3718,
      "Ġinternet": 3719,
      "Ġsigned": 3720,
      "Ġopened": 3721,
      "ĠAbraham": 3722,
      "Ġdiplom": 3723,
      "Ġstrength": 3724,
      "Ġmaterial": 3725,
      "Tom": 3726,
      "hood": 3727,
      "ĠSam": 3728,
      "rag": 3729,
      "Ġparties": 3730,
      "Ġ35": 3731,
      "Ġobtain": 3732,
      "Ġminute": 3733,
      "Ġjudge": 3734,
      "Ġsurprise": 3735,
      "):": 3736,
      "Br": 3737,
      "Ġconsequ": 3738,
      "Ġjoy": 3739,
      "Ġconsult": 3740,
      "Ġrace": 3741,
      "Ġcapable": 3742,
      "Ġenemies": 3743,
      "Ġessential": 3744,
      "eah": 3745,
      "Ġhy": 3746,
      "Ġdigital": 3747,
      "Ġgiving": 3748,
      "Ġproced": 3749,
      "ulg": 3750,
      "Ġshared": 3751,
      "ĠLi": 3752,
      "Ġobviously": 3753,
      "Ġguy": 3754,
      "Ġfollowed": 3755,
      "Ġexplained": 3756,
      "ĠGreek": 3757,
      "AD": 3758,
      "Pro": 3759,
      "lo": 3760,
      "rest": 3761,
      "Ġsons": 3762,
      "ĠMer": 3763,
      "ript": 3764,
      "ricult": 3765,
      "Ġsolve": 3766,
      "Ġfarm": 3767,
      "Ġfair": 3768,
      "Ġfrequ": 3769,
      "Ġfailed": 3770,
      "Ġnegative": 3771,
      "aign": 3772,
      "ris": 3773,
      "yr": 3774,
      "Ġban": 3775,
      "Ġhop": 3776,
      "Ġanaly": 3777,
      "Ġsees": 3778,
      "ĠNational": 3779,
      "Ġcontract": 3780,
      "Ġunderstanding": 3781,
      "Ġgenerations": 3782,
      "ĠCommun": 3783,
      "ĠMuslims": 3784,
      "Ġproposal": 3785,
      "Ġmountain": 3786,
      "urally": 3787,
      "ops": 3788,
      "Ġcomfort": 3789,
      "Ġdeg": 3790,
      "Ġrule": 3791,
      "Ġtwice": 3792,
      "Ġsolutions": 3793,
      "Ġmedical": 3794,
      "ĠArgent": 3795,
      "obert": 3796,
      "Ġassistance": 3797,
      "Ġvictims": 3798,
      "af": 3799,
      "Ġult": 3800,
      "Ġsong": 3801,
      "Ġsins": 3802,
      "Ġconclus": 3803,
      "Ġexer": 3804,
      "ĠJer": 3805,
      "Ġrob": 3806,
      "Ġplayed": 3807,
      "ibility": 3808,
      "Ġexperts": 3809,
      "ĠPoland": 3810,
      "ĠPhil": 3811,
      "gn": 3812,
      "onom": 3813,
      "Ġscience": 3814,
      "Ġcapt": 3815,
      "Ġmicro": 3816,
      "Ġfish": 3817,
      "hern": 3818,
      "Ġprove": 3819,
      "Ġcomb": 3820,
      "Ġmeant": 3821,
      "ĠHamas": 3822,
      "Ġanyway": 3823,
      "ĠThese": 3824,
      "Ġlooked": 3825,
      "Ġattract": 3826,
      "Ġinstance": 3827,
      "Ġdefend": 3828,
      "Ġelements": 3829,
      "Ġadditional": 3830,
      "Ġdebate": 3831,
      "IC": 3832,
      "Last": 3833,
      "Ġerr": 3834,
      "Ġtit": 3835,
      "olic": 3836,
      "ously": 3837,
      "Ġperman": 3838,
      "Ġ45": 3839,
      "vernment": 3840,
      "Ġcarry": 3841,
      "Ġmedic": 3842,
      "ĠAsia": 3843,
      "Ġunivers": 3844,
      "Ġconcerned": 3845,
      "Ġenvironmental": 3846,
      "Ġmanaged": 3847,
      "Ġsuffering": 3848,
      "'d": 3849,
      "27": 3850,
      "know": 3851,
      "lled": 3852,
      "Ġreb": 3853,
      "Ġformer": 3854,
      "ĠMed": 3855,
      "ĠMichael": 3856,
      "ilater": 3857,
      "ateg": 3858,
      "ĠJac": 3859,
      "Ġunless": 3860,
      "Ġ194": 3861,
      "Ġpolitics": 3862,
      "Ġfeeling": 3863,
      "Ġpresented": 3864,
      "Ġsurely": 3865,
      "Ġmagic": 3866,
      "Ġhonest": 3867,
      "Ġcouple": 3868,
      "Ġexchange": 3869,
      "Es": 3870,
      "Was": 3871,
      "encies": 3872,
      "Ġdoor": 3873,
      "Ġworst": 3874,
      "ildren": 3875,
      "Ġdisp": 3876,
      "Ġcalls": 3877,
      "ugust": 3878,
      "Ġreplied": 3879,
      "Ġstandard": 3880,
      "Ġsupposed": 3881,
      "ĠÂ»": 3882,
      "Ġfocus": 3883,
      "ĠWhite": 3884,
      "Ġcircumstances": 3885,
      "During": 3886,
      "bon": 3887,
      "irty": 3888,
      "ifest": 3889,
      "ĠGaz": 3890,
      "ĠMon": 3891,
      "Which": 3892,
      "udi": 3893,
      "Ġcontent": 3894,
      "Ġsomewhere": 3895,
      "Ġspent": 3896,
      "Ġstarting": 3897,
      "Ġplayers": 3898,
      "Ġfighting": 3899,
      "Ġrecognized": 3900,
      "Ġcosts": 3901,
      "Ġnearly": 3902,
      "Ġbar": 3903,
      "ĠIreland": 3904,
      "Ġdoctors": 3905,
      "unt": 3906,
      "Ġworry": 3907,
      "ĠLaw": 3908,
      "Ġund": 3909,
      "Ġnobody": 3910,
      "Ġarm": 3911,
      "Ġcold": 3912,
      "Ġtreated": 3913,
      "priate": 3914,
      "Ġsuddenly": 3915,
      "Ġdialogue": 3916,
      "37": 3917,
      "See": 3918,
      "hold": 3919,
      "Thanks": 3920,
      "ĠRoman": 3921,
      "ĠLove": 3922,
      "Ġpossib": 3923,
      "Ġfoot": 3924,
      "Ġacqu": 3925,
      "Ġconfirm": 3926,
      "Israel": 3927,
      "Ġconcerning": 3928,
      "Ġcampaign": 3929,
      "ĠEnglish": 3930,
      "Ġmechanism": 3931,
      "EC": 3932,
      "how": 3933,
      "Ġdrug": 3934,
      "âĢĻ.": 3935,
      "Ġpros": 3936,
      "erson": 3937,
      "Ġmanner": 3938,
      "Ġdecades": 3939,
      "ĠAfg": 3940,
      "Ġinvestment": 3941,
      "Ġopportunities": 3942,
      "Ġautom": 3943,
      "Ġcharacter": 3944,
      "vation": 3945,
      "iced": 3946,
      "Ġperm": 3947,
      "Ġdisci": 3948,
      "Ġeffort": 3949,
      "Ġinterests": 3950,
      "appoint": 3951,
      "celona": 3952,
      "Ġprecisely": 3953,
      "Ġterrible": 3954,
      "Ġlaugh": 3955,
      "ope": 3956,
      "het": 3957,
      "Ġwall": 3958,
      "enn": 3959,
      "ifice": 3960,
      "Ġsearch": 3961,
      "action": 3962,
      "Ġ2000": 3963,
      "Answer": 3964,
      "ĠMrs": 3965,
      "Ġinsp": 3966,
      "Ġsurvive": 3967,
      "Ġviolence": 3968,
      "EN": 3969,
      "cre": 3970,
      "Ġpil": 3971,
      "let": 3972,
      "Ġgain": 3973,
      "ĠEvery": 3974,
      "ĠPeople": 3975,
      "Ġ29": 3976,
      "Ġrate": 3977,
      "Ġclot": 3978,
      "Ġclub": 3979,
      "Ġsymb": 3980,
      "Ġguide": 3981,
      "Ġprovided": 3982,
      "Ġdiscussed": 3983,
      ")?": 3984,
      "lin": 3985,
      "Ġsin": 3986,
      "itzer": 3987,
      "Ġmov": 3988,
      "stitution": 3989,
      "Ġaren": 3990,
      "alled": 3991,
      "aint": 3992,
      "ĠFran": 3993,
      "ĠJust": 3994,
      "Ġcouldn": 3995,
      "itely": 3996,
      "Ġregions": 3997,
      "Ġbigger": 3998,
      "Ġregarding": 3999,
      "Ġelectric": 4000,
      "Unfortunately": 4001,
      "Ġcommunication": 4002,
      "Ġliterally": 4003,
      "35": 4004,
      "Act": 4005,
      "anced": 4006,
      "Ġcand": 4007,
      "aches": 4008,
      "ĠDaniel": 4009,
      "obody": 4010,
      "Ġobvious": 4011,
      "Ġincred": 4012,
      "Ġkept": 4013,
      "Ġauthor": 4014,
      "Ġlimit": 4015,
      "Ġmeasure": 4016,
      "ĠPlan": 4017,
      "Sometimes": 4018,
      "Ġwebsite": 4019,
      "Ġanalysis": 4020,
      "Con": 4021,
      "oo": 4022,
      "Â»": 4023,
      "Ġaid": 4024,
      "Ġsk": 4025,
      "ection": 4026,
      "While": 4027,
      "Ġemb": 4028,
      "Ġtechni": 4029,
      "Ġexception": 4030,
      "Ġvoted": 4031,
      "Ġseparate": 4032,
      "itzerland": 4033,
      "Ob": 4034,
      "Re": 4035,
      "com": 4036,
      "Ġtree": 4037,
      "Ġsort": 4038,
      "Ġsources": 4039,
      "Ġdaughter": 4040,
      "irmed": 4041,
      "ĠCub": 4042,
      "ulate": 4043,
      "istry": 4044,
      "ĠFin": 4045,
      "Ġcorru": 4046,
      "Ġstructure": 4047,
      "Â«": 4048,
      "read": 4049,
      "Ġwind": 4050,
      "Ġsil": 4051,
      "Ġfig": 4052,
      "odies": 4053,
      "ĠAir": 4054,
      "ĠAlex": 4055,
      "ĠMos": 4056,
      "ĠMary": 4057,
      "emoc": 4058,
      "Ġrid": 4059,
      "ĠEuropeans": 4060,
      "Ġglory": 4061,
      "Ġclean": 4062,
      "39": 4063,
      "Could": 4064,
      "OT": 4065,
      "bers": 4066,
      "uan": 4067,
      "you": 4068,
      "Ġstage": 4069,
      "Ġchose": 4070,
      "Ġprepar": 4071,
      "Ġguys": 4072,
      "ĠBrussels": 4073,
      "Everything": 4074,
      "Ġdistrib": 4075,
      "Ġtraditional": 4076,
      "Ġrefugees": 4077,
      "Ġconvinced": 4078,
      "ipp": 4079,
      "Ġcode": 4080,
      "iment": 4081,
      "idden": 4082,
      "ĠCity": 4083,
      "Ġdeli": 4084,
      "ĠHave": 4085,
      "ĠJud": 4086,
      "ĠTw": 4087,
      "Ġcommer": 4088,
      "Ġtransport": 4089,
      "Ġconference": 4090,
      "Ġshown": 4091,
      "Ġanswered": 4092,
      "Without": 4093,
      "Ġuniverse": 4094,
      "Ġchem": 4095,
      "Ġidentified": 4096,
      "Ġachieved": 4097,
      "Ġfruit": 4098,
      "Ag": 4099,
      "mes": 4100,
      "Ġcop": 4101,
      "Ġbase": 4102,
      "Ġlate": 4103,
      "semb": 4104,
      "iding": 4105,
      "ĠAct": 4106,
      "ĠSal": 4107,
      "ĠBer": 4108,
      "Ġagricult": 4109,
      "ffic": 4110,
      "Ġoffers": 4111,
      "Ġcreating": 4112,
      "Ġpoliticians": 4113,
      "Ġcareer": 4114,
      "Ġdescri": 4115,
      "Ġpretty": 4116,
      "Ġir": 4117,
      "Ġbed": 4118,
      "leg": 4119,
      "Ġisland": 4120,
      "Ġlab": 4121,
      "ĠBook": 4122,
      "ĠTV": 4123,
      "ffee": 4124,
      "Ġdisappoint": 4125,
      "Ġfamous": 4126,
      "Ġscientific": 4127,
      "Ġstrengthen": 4128,
      "Ġtask": 4129,
      "ĠKorea": 4130,
      "21": 4131,
      "Ġâ": 4132,
      "ino": 4133,
      "rew": 4134,
      "Ġled": 4135,
      "Ġeternal": 4136,
      "Ġability": 4137,
      "Ġbecoming": 4138,
      "ĠLife": 4139,
      "Ġcomput": 4140,
      "Ġpossibility": 4141,
      "Ġ500": 4142,
      "ĠUni": 4143,
      "Ġtransl": 4144,
      "Ġseconds": 4145,
      "Ġpromises": 4146,
      "Ġimplemented": 4147,
      "Ġangels": 4148,
      "Ġcateg": 4149,
      "iminal": 4150,
      "ĠMore": 4151,
      "ques": 4152,
      "rene": 4153,
      "Once": 4154,
      "Ġmeetings": 4155,
      "Ġextent": 4156,
      "Ġsuccessful": 4157,
      "Ġentirely": 4158,
      "Ġcompetition": 4159,
      "ĠBarcelona": 4160,
      "Ġsacrifice": 4161,
      "aj": 4162,
      "ze": 4163,
      "Ġment": 4164,
      "aria": 4165,
      "ĠCong": 4166,
      "Ġchann": 4167,
      "ruary": 4168,
      "Ġcontinued": 4169,
      "ĠQu": 4170,
      "Ġmanagement": 4171,
      "ĠMorocc": 4172,
      "ilateral": 4173,
      "orks": 4174,
      "Ġpsych": 4175,
      "Ġgift": 4176,
      "Ġstreet": 4177,
      "Ġstyle": 4178,
      "olit": 4179,
      "ĠFed": 4180,
      "ĠLib": 4181,
      "Ġholy": 4182,
      "Ġcentral": 4183,
      "Ġreturned": 4184,
      "ĠAss": 4185,
      "Ġstandards": 4186,
      "Ġemployees": 4187,
      "Ġorganizations": 4188,
      "ĠMartin": 4189,
      "Ġcloser": 4190,
      "Such": 4191,
      "hab": 4192,
      "lands": 4193,
      "uff": 4194,
      "Ġtaught": 4195,
      "asc": 4196,
      "ĠAugust": 4197,
      "Ġexclus": 4198,
      "ĠFeb": 4199,
      "agraph": 4200,
      "Ġcover": 4201,
      "ĠHeaven": 4202,
      "Ġstarts": 4203,
      "Ġ99": 4204,
      "Ġoccas": 4205,
      "Ġstatement": 4206,
      "ĠPrime": 4207,
      "lected": 4208,
      "ATO": 4209,
      "Ġprophet": 4210,
      "Ġpunish": 4211,
      "Note": 4212,
      "Ġaverage": 4213,
      "reg": 4214,
      "Ġpen": 4215,
      "Ġhaven": 4216,
      "ĠMess": 4217,
      "anda": 4218,
      "ĠHouse": 4219,
      "ĠJoseph": 4220,
      "Ġ300": 4221,
      "Ġrecord": 4222,
      "well": 4223,
      "Ġbrings": 4224,
      "Ġproduced": 4225,
      "Ġturned": 4226,
      "Ġobjective": 4227,
      "Ġdogs": 4228,
      "Ġbenefit": 4229,
      "Ġscientists": 4230,
      "ĠPortugal": 4231,
      "Ġfundamental": 4232,
      "Ġdaily": 4233,
      "Ġcandid": 4234,
      "ij": 4235,
      "mas": 4236,
      "Ġpill": 4237,
      "Ġancient": 4238,
      "Ġconclud": 4239,
      "Ġimage": 4240,
      "Ġcomplex": 4241,
      "ounter": 4242,
      "Ġagreements": 4243,
      "Ġjourney": 4244,
      "Ġanti": 4245,
      "Ġterritory": 4246,
      "mar": 4247,
      "yal": 4248,
      "Ġbodies": 4249,
      "ĠShe": 4250,
      "ĠSol": 4251,
      "rial": 4252,
      "Ġmanage": 4253,
      "ivity": 4254,
      "arden": 4255,
      "Ġoblig": 4256,
      "Ġforest": 4257,
      "alem": 4258,
      "Ġillegal": 4259,
      "Ġlosing": 4260,
      "antic": 4261,
      "ump": 4262,
      "ĠOf": 4263,
      "Ġoffice": 4264,
      "Ġsubst": 4265,
      "Ġreading": 4266,
      "Ġschools": 4267,
      "Ġsteps": 4268,
      "Ġdisease": 4269,
      "Ġexcellent": 4270,
      "ĠGaza": 4271,
      "nes": 4272,
      "nown": 4273,
      "ounce": 4274,
      "Ġmo": 4275,
      "urches": 4276,
      "Ġ2003": 4277,
      "Ġcontinent": 4278,
      "Ġtelling": 4279,
      "Ġcurren": 4280,
      "Ġpossess": 4281,
      "Dr": 4282,
      "Ġmid": 4283,
      "ĠIm": 4284,
      "Ġgreen": 4285,
      "unis": 4286,
      "ĠEn": 4287,
      "Ġ2004": 4288,
      "Ġinternal": 4289,
      "Ġtestim": 4290,
      "Ġexpected": 4291,
      "Ġhighest": 4292,
      "Ġguarantee": 4293,
      "Ġfederal": 4294,
      "ĠAfghan": 4295,
      "cers": 4296,
      "ha": 4297,
      "zuel": 4298,
      "Ġcry": 4299,
      "usalem": 4300,
      "ĠGreat": 4301,
      "Ġvirt": 4302,
      "ĠRus": 4303,
      "Ġstrange": 4304,
      "Ġevidence": 4305,
      "Ġideal": 4306,
      "enezuel": 4307,
      "Ġteams": 4308,
      "Ġmissing": 4309,
      "ĠIslamic": 4310,
      "Ġinstrument": 4311,
      "ĠMexico": 4312,
      "rated": 4313,
      "uild": 4314,
      "ada": 4315,
      "uries": 4316,
      "ĠBulg": 4317,
      "Ġsovere": 4318,
      "Ġrequires": 4319,
      "Ġpleasure": 4320,
      "Ġborders": 4321,
      "Ġappreciate": 4322,
      "Ġpublished": 4323,
      "EL": 4324,
      "oll": 4325,
      "Ġut": 4326,
      "atically": 4327,
      "Ġuser": 4328,
      "ĠBush": 4329,
      "izing": 4330,
      "sians": 4331,
      "Ġaccomp": 4332,
      "Ġacross": 4333,
      "Ġhumanitarian": 4334,
      "Ġconsumer": 4335,
      "Ġelections": 4336,
      "ĠSwitzerland": 4337,
      "Ġborder": 4338,
      "Ġpermanent": 4339,
      "AC": 4340,
      "Over": 4341,
      "after": 4342,
      "but": 4343,
      "Ġalong": 4344,
      "Ġalthough": 4345,
      "Ġarch": 4346,
      "Ġtransp": 4347,
      "Ġglor": 4348,
      "ounced": 4349,
      "Ġcondition": 4350,
      "Ġincreasing": 4351,
      "Ġstatus": 4352,
      "Ġlikes": 4353,
      "Ġsolidarity": 4354,
      "John": 4355,
      "hib": 4356,
      "urance": 4357,
      "Ġstars": 4358,
      "ĠCy": 4359,
      "ĠMill": 4360,
      "andon": 4361,
      "atively": 4362,
      "Ġprogramme": 4363,
      "ĠUkrainian": 4364,
      "Ġpartnership": 4365,
      "Ġparticipate": 4366,
      "Ġbasic": 4367,
      "Ġvictory": 4368,
      "Ġrepeat": 4369,
      "Ġdescribed": 4370,
      "Ġvillage": 4371,
      "Nobody": 4372,
      "kind": 4373,
      "erves": 4374,
      "Ġcamer": 4375,
      "see": 4376,
      "ourg": 4377,
      "Ġyours": 4378,
      "enda": 4379,
      "ĠNATO": 4380,
      "Ġtwenty": 4381,
      "Ġpress": 4382,
      "Ġgets": 4383,
      "Ġsimpl": 4384,
      "Ġpersonally": 4385,
      "Ġkinds": 4386,
      "Ġappropriate": 4387,
      "Ġdouble": 4388,
      "Ġdocuments": 4389,
      "Ġapplied": 4390,
      "Ġcritic": 4391,
      "igrants": 4392,
      "ĠFebruary": 4393,
      ".]": 4394,
      "uine": 4395,
      "Ġri": 4396,
      "itute": 4397,
      "Ġhous": 4398,
      "Ġqual": 4399,
      "Ġtreatment": 4400,
      "Ġinnoc": 4401,
      "reprene": 4402,
      "99": 4403,
      "OU": 4404,
      "gen": 4405,
      "mad": 4406,
      "pro": 4407,
      "Ġsession": 4408,
      "Ġcut": 4409,
      "Ġgas": 4410,
      "Ġnoted": 4411,
      "ĠComp": 4412,
      "aints": 4413,
      "ĠHung": 4414,
      "ĠNations": 4415,
      "itting": 4416,
      "ĠVenezuel": 4417,
      "Ġdeveloping": 4418,
      "Ġfavour": 4419,
      "Ġlaunched": 4420,
      "no": 4421,
      "Ġwat": 4422,
      "Ġbi": 4423,
      "alu": 4424,
      "Ġeating": 4425,
      "ĠBob": 4426,
      "Ġcommunities": 4427,
      "Ġexplan": 4428,
      "Ġsituations": 4429,
      "ĠGovernment": 4430,
      "Ġcapac": 4431,
      "Ġradio": 4432,
      "levision": 4433,
      "Ġstruggle": 4434,
      "Ġadvantage": 4435,
      "IT": 4436,
      "Ph": 4437,
      "ware": 4438,
      "Ġaim": 4439,
      "ĠMaster": 4440,
      "Ġchamp": 4441,
      "ĠBecause": 4442,
      "ĠBank": 4443,
      "resp": 4444,
      "ĠDirect": 4445,
      "ĠJames": 4446,
      "aking": 4447,
      "Ġresist": 4448,
      "Ġvisited": 4449,
      "Ġconfirmed": 4450,
      "Ġcollabor": 4451,
      "Ġagreed": 4452,
      "Ġsufficient": 4453,
      "Ġoperation": 4454,
      "Ġidentify": 4455,
      "Ġsoldiers": 4456,
      "Ġdetermined": 4457,
      "Ġforgiveness": 4458,
      "rast": 4459,
      "Ġsad": 4460,
      "itious": 4461,
      "otion": 4462,
      "Ġrein": 4463,
      "Ġhero": 4464,
      "Ġlies": 4465,
      "Ġhelps": 4466,
      "Ġaddress": 4467,
      "Ġnumbers": 4468,
      "Ġtraining": 4469,
      "Ġgenerally": 4470,
      "ologies": 4471,
      "Ġcarried": 4472,
      "Ġexpensive": 4473,
      "Ġmax": 4474,
      "Ġdiscussion": 4475,
      "ĠIranian": 4476,
      "Ġdepend": 4477,
      "European": 4478,
      "ĠGroup": 4479,
      "Ġlatest": 4480,
      "\",": 4481,
      "Des": 4482,
      "known": 4483,
      "light": 4484,
      "rough": 4485,
      "works": 4486,
      "ows": 4487,
      "adise": 4488,
      "ĠCol": 4489,
      "Ġconduct": 4490,
      "raft": 4491,
      "ĠRed": 4492,
      "Ġadult": 4493,
      "Ġarrest": 4494,
      "Ġacknow": 4495,
      "Ġbeings": 4496,
      "Ġcriminal": 4497,
      "Ġexisted": 4498,
      "Ġappeared": 4499,
      "ructure": 4500,
      "ĠIndian": 4501,
      "Ġspecifically": 4502,
      "Ġperfectly": 4503,
      "Ġliked": 4504,
      "ĠJerusalem": 4505,
      "Jesus": 4506,
      "de": 4507,
      "rance": 4508,
      "Ġaud": 4509,
      "Ġcell": 4510,
      "itors": 4511,
      "Ġbott": 4512,
      "icip": 4513,
      "ĠIr": 4514,
      "ĠSir": 4515,
      "Ġagency": 4516,
      "Ġimportantly": 4517,
      "Ġdecade": 4518,
      "pective": 4519,
      "Ġwarning": 4520,
      "ĠCanadians": 4521,
      "Ġconstitution": 4522,
      "Ġrepresented": 4523,
      "Ġbeauty": 4524,
      "Ġindependence": 4525,
      "Ġmistakes": 4526,
      "Ġblessing": 4527,
      "Ġtouch": 4528,
      "Ġsymbol": 4529,
      "Ġcommercial": 4530,
      "au": 4531,
      "itter": 4532,
      "Ġpie": 4533,
      "Ġstability": 4534,
      "Ġexec": 4535,
      "Ġspeech": 4536,
      "Ġcoffee": 4537,
      "Ġbelief": 4538,
      "Ġsecure": 4539,
      "Ġ48": 4540,
      "Ġsatisfied": 4541,
      "la": 4542,
      "Ġcard": 4543,
      "entially": 4544,
      "ĠGl": 4545,
      "Ġvacc": 4546,
      "ĠRobert": 4547,
      "ertainly": 4548,
      "Ġinterview": 4549,
      "ĠLeban": 4550,
      "ĠPolish": 4551,
      "Ġaffected": 4552,
      "Imagine": 4553,
      "Ġmachine": 4554,
      "ĠGeneral": 4555,
      "31": 4556,
      "RE": 4557,
      "cow": 4558,
      "isher": 4559,
      "itc": 4560,
      "Ġmiddle": 4561,
      "ley": 4562,
      "ria": 4563,
      "Ġchapter": 4564,
      "Ġclients": 4565,
      "Ġ[...]": 4566,
      "Ġbehalf": 4567,
      "Ġjoined": 4568,
      "Ġengine": 4569,
      "ĠMadrid": 4570,
      "Ġemerg": 4571,
      "vest": 4572,
      "Ġweight": 4573,
      "Ġabandon": 4574,
      "Ġmanifest": 4575,
      "ĠTH": 4576,
      "ĠUs": 4577,
      "velation": 4578,
      "Ġrelated": 4579,
      "Ġassess": 4580,
      "Ġcenter": 4581,
      "Ġproposals": 4582,
      "Ġwatching": 4583,
      "Ġconsequences": 4584,
      "ĠJacob": 4585,
      "Again": 4586,
      "90": 4587,
      "ID": 4588,
      "belie": 4589,
      "ouble": 4590,
      "Ġmine": 4591,
      "Ġdam": 4592,
      "Ġbear": 4593,
      "ĠDid": 4594,
      "ĠTunis": 4595,
      "Ġbelow": 4596,
      "Ġ195": 4597,
      "Ġdefined": 4598,
      "ĠArmen": 4599,
      "Ġattacks": 4600,
      "Ġcontribute": 4601,
      "ĠSyrian": 4602,
      "Should": 4603,
      "rets": 4604,
      "Ġdut": 4605,
      "Ġnoticed": 4606,
      "ĠMiddle": 4607,
      "Ġvia": 4608,
      "Ġunlike": 4609,
      "Ġhappiness": 4610,
      "Ġminimum": 4611,
      "Ġgenuine": 4612,
      "Ġconfidence": 4613,
      "Ġsites": 4614,
      "arma": 4615,
      "arently": 4616,
      "ĠTurk": 4617,
      "Ġcelebrate": 4618,
      "ĠNigeria": 4619,
      "Tell": 4620,
      "ares": 4621,
      "yl": 4622,
      "Ġmand": 4623,
      "istics": 4624,
      "ĠHait": 4625,
      "urely": 4626,
      "Ġ31": 4627,
      "Ġsport": 4628,
      "Ġdeserve": 4629,
      "Ġcreative": 4630,
      "Ġinstruct": 4631,
      "Ġtransition": 4632,
      "Ġtransfer": 4633,
      "Ġrefuse": 4634,
      "Ġchanging": 4635,
      "Ġidentity": 4636,
      "ĠBlack": 4637,
      "Ġdefinitely": 4638,
      "65": 4639,
      "Further": 4640,
      "Ġsens": 4641,
      "Ġsize": 4642,
      "Ġpack": 4643,
      "Ġpowers": 4644,
      "Ġlines": 4645,
      "Ġweb": 4646,
      "ĠCons": 4647,
      "urer": 4648,
      "ĠLa": 4649,
      "Ġtelevision": 4650,
      "Ġhelping": 4651,
      "ĠIsraelis": 4652,
      "Ġrestrict": 4653,
      "Ġweekend": 4654,
      "Ġpatience": 4655,
      "Ġbehav": 4656,
      "Ġexplains": 4657,
      "Ġdeny": 4658,
      "Ġintroduced": 4659,
      "Ġhotel": 4660,
      "Ġcommitment": 4661,
      "Ġcontrary": 4662,
      "Ġintellig": 4663,
      "Ġtitle": 4664,
      "Ġcrime": 4665,
      "iction": 4666,
      "Ġletters": 4667,
      "Ġraise": 4668,
      "Ġforms": 4669,
      "Ġstronger": 4670,
      "Ġeye": 4671,
      "Ġinitiatives": 4672,
      "Ġimmigration": 4673,
      "Ġprisoners": 4674,
      "Ġinstruments": 4675,
      "Ġdisappear": 4676,
      "Ġinterpret": 4677,
      "Ġdegree": 4678,
      "?)": 4679,
      "Pl": 4680,
      "Take": 4681,
      "ument": 4682,
      "Ġfle": 4683,
      "Ġflex": 4684,
      "Ġhur": 4685,
      "ica": 4686,
      "Ġheld": 4687,
      "ĠSov": 4688,
      "ĠCont": 4689,
      "Ġmeat": 4690,
      "ĠLat": 4691,
      "Ġcommitted": 4692,
      "Ġcourt": 4693,
      "Ġambitious": 4694,
      "Ġdimension": 4695,
      "ĠSoviet": 4696,
      "Senator": 4697,
      "ek": 4698,
      "een": 4699,
      "friend": 4700,
      "yes": 4701,
      "Ġlower": 4702,
      "Ġforced": 4703,
      "Ġnotice": 4704,
      "urg": 4705,
      "ilos": 4706,
      "ĠHere": 4707,
      "ĠChristmas": 4708,
      "Ġadvance": 4709,
      "ĠProp": 4710,
      "Ġobjectives": 4711,
      "Ġconstantly": 4712,
      "Ġtestimony": 4713,
      "Ġcapacity": 4714,
      "Ġer": 4715,
      "Ġfaster": 4716,
      "Ġstar": 4717,
      "Ġmankind": 4718,
      "ĠKen": 4719,
      "Ġelement": 4720,
      "Ġparagraph": 4721,
      "Ġimplementation": 4722,
      "Ġcontribution": 4723,
      "Ġorigin": 4724,
      "Ġboat": 4725,
      "Ġconnection": 4726,
      "ĠSmith": 4727,
      "Mar": 4728,
      "Russ": 4729,
      "min": 4730,
      "iny": 4731,
      "Ġbomb": 4732,
      "vert": 4733,
      "ĠSome": 4734,
      "ulations": 4735,
      "Ġusual": 4736,
      "ĠPer": 4737,
      "ĠPak": 4738,
      "Ġsomebody": 4739,
      "Ġ33": 4740,
      "Ġbelievers": 4741,
      "Ġherself": 4742,
      "Ġconscious": 4743,
      "Ġdifferences": 4744,
      "Ġfeed": 4745,
      "Ġfaithful": 4746,
      "Ġreplaced": 4747,
      "Ġslow": 4748,
      "ĠArticle": 4749,
      "sembly": 4750,
      "100": 4751,
      "OD": 4752,
      "OS": 4753,
      "eace": 4754,
      "real": 4755,
      "Ġeth": 4756,
      "ours": 4757,
      "ador": 4758,
      "Ġsection": 4759,
      "Ġneither": 4760,
      "Ġshock": 4761,
      "ĠHuman": 4762,
      "Ġrout": 4763,
      "ĠJon": 4764,
      "aken": 4765,
      "Ġunion": 4766,
      "Ġspecies": 4767,
      "Ġground": 4768,
      "Ġdifferently": 4769,
      "Ġreflect": 4770,
      "Ġraised": 4771,
      "Ġexperien": 4772,
      "Ġinfrast": 4773,
      "Ġcolor": 4774,
      "Ġnegotiations": 4775,
      "Ġdetails": 4776,
      "Ġbroad": 4777,
      "ĠMoscow": 4778,
      "Ġchemical": 4779,
      "48": 4780,
      "Fort": 4781,
      "Se": 4782,
      "eep": 4783,
      "Ġtrib": 4784,
      "Ġtoler": 4785,
      "ĠMc": 4786,
      "Ġcomment": 4787,
      "ntil": 4788,
      "Ġknowing": 4789,
      "Ġadapt": 4790,
      "Ġfinished": 4791,
      "Ġphase": 4792,
      "Ġvisible": 4793,
      "Ġrefused": 4794,
      "Ġspeaks": 4795,
      "Ġstopped": 4796,
      "ĠSwiss": 4797,
      "Ġopposition": 4798,
      "Ġradical": 4799,
      "Ġdescribe": 4800,
      "ĠRussians": 4801,
      "500": 4802,
      "iant": 4803,
      "ling": 4804,
      "ring": 4805,
      "hem": 4806,
      "Ġbird": 4807,
      "Ġfem": 4808,
      "unte": 4809,
      "ĠPeter": 4810,
      "ĠBig": 4811,
      "elp": 4812,
      "Ġclosed": 4813,
      "ensions": 4814,
      "Ġplanned": 4815,
      "Ġrefer": 4816,
      "ĠSocial": 4817,
      "Ġbusinesses": 4818,
      "Ġconnected": 4819,
      "ĠEngland": 4820,
      "IA": 4821,
      "IL": 4822,
      "Ne": 4823,
      "tt": 4824,
      "rem": 4825,
      "Ġhun": 4826,
      "imal": 4827,
      "anted": 4828,
      "ĠCr": 4829,
      "Three": 4830,
      "Ġowner": 4831,
      "Ġpassed": 4832,
      "Ġrepresents": 4833,
      "Ġallows": 4834,
      "Ġindustrial": 4835,
      "Ġreview": 4836,
      "airs": 4837,
      "Ġmethods": 4838,
      "Ġrepeated": 4839,
      "Ġvehicle": 4840,
      "ĠGeorge": 4841,
      "Ġrestaurant": 4842,
      "Cons": 4843,
      "coh": 4844,
      "craft": 4845,
      "Ġforth": 4846,
      "rian": 4847,
      "Ġchurches": 4848,
      "Ġlog": 4849,
      "Its": 4850,
      "Ġimag": 4851,
      "aste": 4852,
      "ĠLight": 4853,
      "iance": 4854,
      "Ġanywhere": 4855,
      "Ġcomprom": 4856,
      "Ġacts": 4857,
      "Ġcool": 4858,
      "Ġartists": 4859,
      "Ġmoments": 4860,
      "ĠDoes": 4861,
      "Ġcondem": 4862,
      "ĠProt": 4863,
      "Ġintegration": 4864,
      "Ġapplies": 4865,
      "Ġvehicles": 4866,
      "Ġconcerns": 4867,
      "Ġmovie": 4868,
      "ĠAfghanistan": 4869,
      "ĠVenezuela": 4870,
      "IV": 4871,
      "Le": 4872,
      "uham": 4873,
      "hent": 4874,
      "Ġpages": 4875,
      "Ġgarden": 4876,
      "Ġstaff": 4877,
      "ola": 4878,
      "that": 4879,
      "ĠEm": 4880,
      "elve": 4881,
      "ĠDemoc": 4882,
      "Ġagenda": 4883,
      "Ġbegun": 4884,
      "Ġsigns": 4885,
      "Ġstudent": 4886,
      "Ġeffects": 4887,
      "Ġdepends": 4888,
      "Ġphotos": 4889,
      "ĠSaudi": 4890,
      "Ġincredible": 4891,
      "44": 4892,
      "wide": 4893,
      "Ġrelev": 4894,
      "ĠCor": 4895,
      "ĠCamer": 4896,
      "ichard": 4897,
      "Ġfeet": 4898,
      "Ġnaturally": 4899,
      "Ġmoral": 4900,
      "Ġhonor": 4901,
      "Ġprepare": 4902,
      "Ġreduce": 4903,
      "ĠArgentina": 4904,
      "ĠTurkish": 4905,
      "Americ": 4906,
      "Ġtro": 4907,
      "Ġfort": 4908,
      "ĠJim": 4909,
      "ĠKnow": 4910,
      "avy": 4911,
      "Ġcreatures": 4912,
      "Ġelection": 4913,
      "Ġremained": 4914,
      "Ġhighly": 4915,
      "Ġannounced": 4916,
      "Ġtrees": 4917,
      "Ġpredict": 4918,
      "Ġzone": 4919,
      "Ġsustainable": 4920,
      "Especially": 4921,
      "crete": 4922,
      "ĠBerlin": 4923,
      "Pres": 4924,
      "lor": 4925,
      "Ġmouth": 4926,
      "verty": 4927,
      "Ġconqu": 4928,
      "Ġended": 4929,
      "Ġfollows": 4930,
      "Ġunto": 4931,
      "Ġelsewhere": 4932,
      "Ġpoverty": 4933,
      "Ġincreased": 4934,
      "Ġdreams": 4935,
      "Ġindividuals": 4936,
      "Ġproperty": 4937,
      "Ġpleased": 4938,
      "ĠOnly": 4939,
      "38": 4940,
      "Her": 4941,
      "ras": 4942,
      "Ġast": 4943,
      "usion": 4944,
      "ĠSim": 4945,
      "Ġdebt": 4946,
      "Ġfacts": 4947,
      "Ġorganized": 4948,
      "Ġlargest": 4949,
      "Ġwinter": 4950,
      "Ġimproved": 4951,
      "Ġnetworks": 4952,
      "ĠShould": 4953,
      "Ġterrorism": 4954,
      "Ġcredit": 4955,
      "Ġhistorical": 4956,
      "Ġlegislation": 4957,
      "ĠLiber": 4958,
      "Until": 4959,
      "int": 4960,
      "Ġsky": 4961,
      "Ġthirty": 4962,
      "Ġmut": 4963,
      "Ġpaper": 4964,
      "Ġdia": 4965,
      "aration": 4966,
      "Ġet": 4967,
      "ĠSan": 4968,
      "ĠCath": 4969,
      "astic": 4970,
      "Ġcompared": 4971,
      "Ġdefe": 4972,
      "Ġservants": 4973,
      "Ġscene": 4974,
      "ĠCommittee": 4975,
      "Ġnecessarily": 4976,
      "Ġbuying": 4977,
      "Ġimmediate": 4978,
      "Secondly": 4979,
      "Ġwisdom": 4980,
      "Ġinvented": 4981,
      "Ġbalance": 4982,
      "Ġclothes": 4983,
      "ĠIrish": 4984,
      "41": 4985,
      "Both": 4986,
      "IF": 4987,
      "bit": 4988,
      "erved": 4989,
      "etter": 4990,
      "urning": 4991,
      "Ġcancer": 4992,
      "ĠCal": 4993,
      "ĠGreen": 4994,
      "...âĢĿ": 4995,
      "Ġmodels": 4996,
      "Ġlegit": 4997,
      "Nothing": 4998,
      "Ġpractical": 4999,
      "Ġfunds": 5000,
      "Ġcitizen": 5001,
      "Ġrelationships": 5002,
      "Ġwitnesses": 5003,
      "Ġtrip": 5004,
      "Ġrequirements": 5005,
      "Ġmanufacturer": 5006,
      "Furthermore": 5007,
      "uhammad": 5008,
      "70": 5009,
      "pid": 5010,
      "vis": 5011,
      "itals": 5012,
      "Ġburn": 5013,
      "Ġded": 5014,
      "ĠMac": 5015,
      "ago": 5016,
      "Ġspok": 5017,
      "Ġperspective": 5018,
      "Ġattrib": 5019,
      "Ġentreprene": 5020,
      "they": 5021,
      "Ġstrategies": 5022,
      "Ġconstruct": 5023,
      "Ġequal": 5024,
      "Ġarrive": 5025,
      "Ġrisks": 5026,
      "Ġdesigned": 5027,
      "araoh": 5028,
      "Ġprophets": 5029,
      "Ġreaction": 5030,
      "Ġcaused": 5031,
      "Ġadministr": 5032,
      "Ġregularly": 5033,
      "ĠSecurity": 5034,
      "Ġfootball": 5035,
      "Actually": 5036,
      "hentic": 5037,
      "dra": 5038,
      "ties": 5039,
      "itect": 5040,
      "Ġmaster": 5041,
      "Ġmoon": 5042,
      "Ġinher": 5043,
      "Ġdin": 5044,
      "Ġlabor": 5045,
      "Ġec": 5046,
      "Ġrelease": 5047,
      "ĠIS": 5048,
      "road": 5049,
      "etween": 5050,
      "Ġstated": 5051,
      "Ġric": 5052,
      "ĠJoe": 5053,
      "abil": 5054,
      "izes": 5055,
      "Ġanymore": 5056,
      "Ġfinish": 5057,
      "ails": 5058,
      "Ġevalu": 5059,
      "Ġservant": 5060,
      "Ġlawy": 5061,
      "Ġthoughts": 5062,
      "Ġprayers": 5063,
      "Ġgrowing": 5064,
      "Ġparticipants": 5065,
      "what": 5066,
      "Ġbenefits": 5067,
      "Ġdefinition": 5068,
      "Ġsusp": 5069,
      "Ġconclusion": 5070,
      "do": 5071,
      "Ġfra": 5072,
      "Ġhom": 5073,
      "Ġrenew": 5074,
      "Ġwear": 5075,
      "ĠSun": 5076,
      "rap": 5077,
      "ulated": 5078,
      "rief": 5079,
      "ief": 5080,
      "useum": 5081,
      "ĠWork": 5082,
      "Ġmonitor": 5083,
      "Ġattitude": 5084,
      "Ġpriorities": 5085,
      "Ġscen": 5086,
      "Ġscale": 5087,
      "Ġbox": 5088,
      "Ġcooper": 5089,
      "Ġbelongs": 5090,
      "Ġperformance": 5091,
      "Ġwishes": 5092,
      "Ġadministration": 5093,
      "Ġshoes": 5094,
      "Ġfarmers": 5095,
      "Ġinfrastructure": 5096,
      "ference": 5097,
      "lle": 5098,
      "Ġinev": 5099,
      "urrection": 5100,
      "atell": 5101,
      "Think": 5102,
      "ĠToday": 5103,
      "cles": 5104,
      "Ġfactors": 5105,
      "Ġdefine": 5106,
      "nergy": 5107,
      "Ġ150": 5108,
      "ĠAngel": 5109,
      "ĠTrans": 5110,
      "Ġfunding": 5111,
      "which": 5112,
      "Ġteaching": 5113,
      "Ġdeclared": 5114,
      "Ġsisters": 5115,
      "Ġinnovation": 5116,
      "Ġpicture": 5117,
      "ĠCuba": 5118,
      "34": 5119,
      "eff": 5120,
      "za": 5121,
      "head": 5122,
      "Ġdom": 5123,
      "lection": 5124,
      "Ġang": 5125,
      "Ġstable": 5126,
      "ĠMag": 5127,
      "umb": 5128,
      "Ġrecon": 5129,
      "Ġaccident": 5130,
      "ĠHealth": 5131,
      "Ġcriter": 5132,
      "Ġintervention": 5133,
      "Ġassume": 5134,
      "ĠThings": 5135,
      "ĠHimself": 5136,
      "Ġclosely": 5137,
      "ĠArabia": 5138,
      "Ġbread": 5139,
      "Ġgods": 5140,
      "Ġprocedure": 5141,
      "cohol": 5142,
      "ror": 5143,
      "Ġfaces": 5144,
      "Ġlady": 5145,
      "Ġconcrete": 5146,
      "ĠEd": 5147,
      "ĠHer": 5148,
      "Ġtrouble": 5149,
      "ĠOh": 5150,
      "Ġupd": 5151,
      "Ġrelatively": 5152,
      "Ġphilos": 5153,
      "Ġdestruction": 5154,
      "Ġcenturies": 5155,
      "Ġ1995": 5156,
      "Ġmatters": 5157,
      "Ġtested": 5158,
      "199": 5159,
      "Ġsurprising": 5160,
      "Ġtargets": 5161,
      "Ġmiracle": 5162,
      "Ġcorruption": 5163,
      "ĠTwitter": 5164,
      "Part": 5165,
      "Paul": 5166,
      "mon": 5167,
      "Ġoh": 5168,
      "Ġhit": 5169,
      "Ġrele": 5170,
      "adem": 5171,
      "Ġstri": 5172,
      "essions": 5173,
      "ĠLast": 5174,
      "Ġagencies": 5175,
      "bert": 5176,
      "Ġamend": 5177,
      "Ġserved": 5178,
      "Ġwherever": 5179,
      "Ġ2002": 5180,
      "Ġcreates": 5181,
      "Ġstudies": 5182,
      "Ġmarry": 5183,
      "upid": 5184,
      "Ġlimits": 5185,
      "Ġaircraft": 5186,
      "Ġrecommended": 5187,
      "Ġtrend": 5188,
      "ĠJackson": 5189,
      "Ġapplication": 5190,
      "Ġcrucial": 5191,
      "Ġcurrency": 5192,
      "Reg": 5193,
      "Ġought": 5194,
      "vered": 5195,
      "Ġyouth": 5196,
      "Ġstress": 5197,
      "Ġstories": 5198,
      "oples": 5199,
      "Ġdeleg": 5200,
      "Ġinvite": 5201,
      "Ġcourage": 5202,
      "Ġplayer": 5203,
      "Ġlesson": 5204,
      "Ġopenly": 5205,
      "Ġincludes": 5206,
      "Ġinvestors": 5207,
      "Ġdistin": 5208,
      "Ġcompetitive": 5209,
      "Ġcolon": 5210,
      "Ġcritical": 5211,
      "Ġtasks": 5212,
      "Ġencourage": 5213,
      "engers": 5214,
      "ĠRomania": 5215,
      "Ġpunishment": 5216,
      "Ġexplanation": 5217,
      "Despite": 5218,
      "Man": 5219,
      "ih": 5220,
      "ms": 5221,
      "Ġdict": 5222,
      "Ġexternal": 5223,
      "Ġprotocol": 5224,
      "Ġconfident": 5225,
      "Ġreference": 5226,
      "Ġtechnologies": 5227,
      "Ġmainly": 5228,
      "Ġofficially": 5229,
      "ĠWilliam": 5230,
      "Ġboys": 5231,
      "uxemb": 5232,
      "Ġdarkness": 5233,
      "Ġerror": 5234,
      "Ġhouses": 5235,
      "Fortunately": 5236,
      "Ġrelevant": 5237,
      ");": 5238,
      "36": 5239,
      "App": 5240,
      "Next": 5241,
      "Pr": 5242,
      "dam": 5243,
      "ii": 5244,
      "ka": 5245,
      "ming": 5246,
      "sc": 5247,
      "Ġrevelation": 5248,
      "emen": 5249,
      "osm": 5250,
      "Ġmyster": 5251,
      "Ġrise": 5252,
      "Ġpersec": 5253,
      "Ġreports": 5254,
      "Ġcompleted": 5255,
      "Ġkilling": 5256,
      "Ġpromote": 5257,
      "Ġartist": 5258,
      "Ġdoub": 5259,
      "Ġfunny": 5260,
      "Ġcustomer": 5261,
      "____": 5262,
      "Ġhorse": 5263,
      "Ġcalc": 5264,
      "ĠParty": 5265,
      "Ġcomputer": 5266,
      "Ġinnocent": 5267,
      "ĠPakistan": 5268,
      "Find": 5269,
      "ken": 5270,
      "time": 5271,
      "isations": 5272,
      "itler": 5273,
      "orry": 5274,
      "aling": 5275,
      "iday": 5276,
      "idency": 5277,
      "ulner": 5278,
      "Ġexclud": 5279,
      "Whatever": 5280,
      "ĠNor": 5281,
      "ordan": 5282,
      "Ġappoint": 5283,
      "ception": 5284,
      "Ġinvited": 5285,
      "ailand": 5286,
      "Ġblue": 5287,
      "Ġcontinu": 5288,
      "Ġminority": 5289,
      "Ġsmaller": 5290,
      "Ġreasonable": 5291,
      "Ġchoices": 5292,
      "Allah": 5293,
      "Ġweapon": 5294,
      "Ġfavorite": 5295,
      "Ġoccurred": 5296,
      "Ġexercise": 5297,
      ".,": 5298,
      "66": 5299,
      "Lord": 5300,
      "Sim": 5301,
      "cher": 5302,
      "Ġ+": 5303,
      "atur": 5304,
      "itial": 5305,
      "enger": 5306,
      "Ġfirm": 5307,
      "Ġhol": 5308,
      "âĢĭ": 5309,
      "icial": 5310,
      "Ġwithdra": 5311,
      "estic": 5312,
      "ĠBen": 5313,
      "ĠBang": 5314,
      "Ġvir": 5315,
      "Ġamaz": 5316,
      "Ġ400": 5317,
      "Ġrealized": 5318,
      "pected": 5319,
      "Ġsolar": 5320,
      "Ġexpert": 5321,
      "Ġawait": 5322,
      "Ġdifficulties": 5323,
      "Ġvalid": 5324,
      "Ġsending": 5325,
      "Ġoperations": 5326,
      "Ġteachers": 5327,
      "Ġmiracles": 5328,
      "Ġgeograph": 5329,
      "Ġdiplomatic": 5330,
      "?!": 5331,
      "Certainly": 5332,
      "ED": 5333,
      "ION": 5334,
      "Me": 5335,
      "Ġsatell": 5336,
      "Ġhide": 5337,
      "Ġbeer": 5338,
      "stan": 5339,
      "etic": 5340,
      "ifies": 5341,
      "ignt": 5342,
      "ĠMod": 5343,
      "ula": 5344,
      "Ġpeoples": 5345,
      "Ġintention": 5346,
      "Ġevening": 5347,
      "Ġcalling": 5348,
      "Ġobey": 5349,
      "ĠInst": 5350,
      "Ġflag": 5351,
      "Ġequip": 5352,
      "Ġprivile": 5353,
      "Ġphoto": 5354,
      "Ġdevil": 5355,
      "Ġdisappeared": 5356,
      "Ġcycle": 5357,
      "Ġspoken": 5358,
      "42": 5359,
      "Besides": 5360,
      "equ": 5361,
      "pir": 5362,
      "ynam": 5363,
      "Ġmart": 5364,
      "Ġbeat": 5365,
      "usiness": 5366,
      "Ġhair": 5367,
      "ĠInt": 5368,
      "Ġforum": 5369,
      "ĠAp": 5370,
      "Ġstupid": 5371,
      "ĠCO": 5372,
      "Ġ1000": 5373,
      "ĠLuxemb": 5374,
      "Ġprices": 5375,
      "onds": 5376,
      "ĠSte": 5377,
      "ibet": 5378,
      "Ġsubm": 5379,
      "Ġglad": 5380,
      "Ġordered": 5381,
      "Ġacceptable": 5382,
      "Ġautonom": 5383,
      "Ġthreats": 5384,
      "ĠEgyptian": 5385,
      "Ġdetermine": 5386,
      "Ġvolunte": 5387,
      "Ġgrace": 5388,
      "Ġjournalists": 5389,
      "ĠMorocco": 5390,
      "Ġ000": 5391,
      "inc": 5392,
      "oub": 5393,
      "Ġdance": 5394,
      "essor": 5395,
      "ortion": 5396,
      "Ġmyst": 5397,
      "ĠRob": 5398,
      "Ġunknown": 5399,
      "Ġbetray": 5400,
      "Ġcovered": 5401,
      "Ġspread": 5402,
      "Ġreliable": 5403,
      "teen": 5404,
      "Ġexamples": 5405,
      "Ġexport": 5406,
      "Ġpeaceful": 5407,
      "Ġordinary": 5408,
      "Ġrepresentatives": 5409,
      "Ġsouls": 5410,
      "Ġdivor": 5411,
      "Ġdivision": 5412,
      "Ġeventually": 5413,
      "ĠBelgian": 5414,
      "Ġtemple": 5415,
      "Ġlaunch": 5416,
      "Ġescape": 5417,
      "Ġdeliver": 5418,
      "ĠLebanon": 5419,
      "32": 5420,
      "ET": 5421,
      "Par": 5422,
      "auc": 5423,
      "Ġthou": 5424,
      "Ġluc": 5425,
      "ĠAnt": 5426,
      "Through": 5427,
      "ĠBal": 5428,
      "Ġvulner": 5429,
      "aging": 5430,
      "agement": 5431,
      "Ġperce": 5432,
      "Ġpreviously": 5433,
      "Ġprecious": 5434,
      "Ġblind": 5435,
      "Ġplanning": 5436,
      "Ġarticles": 5437,
      "Ġpoll": 5438,
      "Ġvisitors": 5439,
      "Ġstatements": 5440,
      "Ġlistening": 5441,
      "Ġmultip": 5442,
      "Ġexpression": 5443,
      "porary": 5444,
      "ĠSuper": 5445,
      "Ġfacing": 5446,
      "Ġmobile": 5447,
      "Ġpurchase": 5448,
      "ĠDirective": 5449,
      "Ġduty": 5450,
      "Ġexperienced": 5451,
      "President": 5452,
      "ciful": 5453,
      "face": 5454,
      "Ġbreat": 5455,
      "Ġbrief": 5456,
      "Ġmark": 5457,
      "Ġinitial": 5458,
      "omas": 5459,
      "stand": 5460,
      "Ġsevent": 5461,
      "Ġasks": 5462,
      "ĠServ": 5463,
      "ĠCould": 5464,
      "Ġproved": 5465,
      "unch": 5466,
      "ĠEas": 5467,
      "aren": 5468,
      "rupt": 5469,
      "Soon": 5470,
      "Ġproducers": 5471,
      "ĠViet": 5472,
      "Ġfeels": 5473,
      "Ġapart": 5474,
      "Ġannual": 5475,
      "Ġdrive": 5476,
      "ignty": 5477,
      "Come": 5478,
      "Satan": 5479,
      "gia": 5480,
      "jan": 5481,
      "pen": 5482,
      "va": 5483,
      "icit": 5484,
      "usual": 5485,
      "ĠMic": 5486,
      "ĠFam": 5487,
      "Ġrat": 5488,
      "ĠTibet": 5489,
      "Ġsecrets": 5490,
      "Ġlots": 5491,
      "Ġshowing": 5492,
      "Ġefficient": 5493,
      "Ġdemands": 5494,
      "Ġbuildings": 5495,
      "China": 5496,
      "Ġattacked": 5497,
      "Ġnormally": 5498,
      "Ġdenied": 5499,
      "Ġterrorist": 5500,
      "razy": 5501,
      "Ġbrain": 5502,
      "olitical": 5503,
      "ĠHaiti": 5504,
      "Ġinstructions": 5505,
      "%.": 5506,
      "Spe": 5507,
      "ging": 5508,
      "Â·": 5509,
      "Ġthy": 5510,
      "Ġfly": 5511,
      "Ġpan": 5512,
      "Ġdomin": 5513,
      "arians": 5514,
      "Ġye": 5515,
      "ctr": 5516,
      "idge": 5517,
      "Ġalcohol": 5518,
      "ĠApp": 5519,
      "Ġdoz": 5520,
      "Ġcomments": 5521,
      "Ġcha": 5522,
      "Ġsharing": 5523,
      "Ġleaving": 5524,
      "Ġsoft": 5525,
      "ĠRec": 5526,
      "erences": 5527,
      "Ġru": 5528,
      "ĠTime": 5529,
      "Ġshouldn": 5530,
      "ĠChic": 5531,
      "Ġ2001": 5532,
      "Ġrarely": 5533,
      "Ġremaining": 5534,
      "Ġ1999": 5535,
      "Ġapproved": 5536,
      "Ġphysically": 5537,
      "Ġpurs": 5538,
      "Ġsurvived": 5539,
      "Ġexpressed": 5540,
      "Ġships": 5541,
      "Ġsanctions": 5542,
      "Ġtalks": 5543,
      "Ġdrugs": 5544,
      "ijing": 5545,
      "80": 5546,
      "wan": 5547,
      "Ġmas": 5548,
      "Ġfans": 5549,
      "Ġgather": 5550,
      "Ġstrict": 5551,
      "Ġunfortunately": 5552,
      "Ġ34": 5553,
      "ĠKim": 5554,
      "Ġaccord": 5555,
      "Ġ75": 5556,
      "Ġexpand": 5557,
      "ĠThailand": 5558,
      "Ġ1993": 5559,
      "Ġpassion": 5560,
      "Ġafford": 5561,
      "ĠAbout": 5562,
      "Ġspending": 5563,
      "Ġtourism": 5564,
      "Ġclaims": 5565,
      "Ġdisappointed": 5566,
      "ĠLibya": 5567,
      "Ġmoving": 5568,
      "Ġreleased": 5569,
      "ĠLuxembourg": 5570,
      "New": 5571,
      "Rec": 5572,
      "ao": 5573,
      "ps": 5574,
      "rim": 5575,
      "Ġtaste": 5576,
      "Ġsight": 5577,
      "Ġcert": 5578,
      "Ġinj": 5579,
      "Ġdress": 5580,
      "ĠSee": 5581,
      "ĠCour": 5582,
      "ĠMont": 5583,
      "Third": 5584,
      "ected": 5585,
      "ĠLu": 5586,
      "Ġcompare": 5587,
      "Ġarr": 5588,
      "Ġdisaster": 5589,
      "Ġpositions": 5590,
      "ĠIsraelites": 5591,
      "Ġexplo": 5592,
      "Ġapartment": 5593,
      "Ġcorresp": 5594,
      "Ġlearning": 5595,
      "Ġfreely": 5596,
      "ĠGold": 5597,
      "Ġpaying": 5598,
      "Christ": 5599,
      "Ġdistance": 5600,
      "Ġdiscussions": 5601,
      "Ġdiam": 5602,
      "Ġcharge": 5603,
      "Ġnamed": 5604,
      "Ġurgent": 5605,
      "ĠCentral": 5606,
      "Ġdisciples": 5607,
      "Ġtechnique": 5608,
      "Ġetc": 5609,
      "Ġequipment": 5610,
      "part": 5611,
      "ports": 5612,
      "Ġhomes": 5613,
      "oto": 5614,
      "oted": 5615,
      "ids": 5616,
      "urrent": 5617,
      "ĠSpe": 5618,
      "ĠCom": 5619,
      "ĠPat": 5620,
      "ĠJordan": 5621,
      "ĠLis": 5622,
      "Ġunity": 5623,
      "Ġtwelve": 5624,
      "ordinary": 5625,
      "Ġclar": 5626,
      "Ġclient": 5627,
      "Ġrepent": 5628,
      "Ġplane": 5629,
      "Ġelimin": 5630,
      "Ġolder": 5631,
      ".âĢĻâĢĿ": 5632,
      "Ġorganisations": 5633,
      "ĠCommand": 5634,
      "ĠReal": 5635,
      "Ġauthentic": 5636,
      "ĠConvention": 5637,
      "ĠConstitution": 5638,
      "ĠGrand": 5639,
      "Ġministers": 5640,
      "ĠSweden": 5641,
      "Ġmemory": 5642,
      "Ġsovereignty": 5643,
      "Ġmaximum": 5644,
      "Russia": 5645,
      "SA": 5646,
      "hi": 5647,
      "rit": 5648,
      "yo": 5649,
      "ima": 5650,
      "cean": 5651,
      "Ġwaste": 5652,
      "ĠMuhammad": 5653,
      "Ġallies": 5654,
      "Ġvital": 5655,
      "Ġmanip": 5656,
      "Ġactual": 5657,
      "Ġcloud": 5658,
      "Ġobst": 5659,
      "Ġtranslation": 5660,
      "cont": 5661,
      "Ġsooner": 5662,
      "Ġelected": 5663,
      "Ġdiversity": 5664,
      "Ġrecommendations": 5665,
      "Ġannounce": 5666,
      "Ġleadership": 5667,
      "Ġreveal": 5668,
      "Ġhospitals": 5669,
      "Ġfocused": 5670,
      "Ġmedicine": 5671,
      "Ġuniversal": 5672,
      "Ġprosper": 5673,
      "Ġagriculture": 5674,
      "Ġhurt": 5675,
      "ĠChicago": 5676,
      "45": 5677,
      "De": 5678,
      "iar": 5679,
      "Ġtend": 5680,
      "inity": 5681,
      "ering": 5682,
      "Ġfran": 5683,
      "Ġfishing": 5684,
      "ĠAfter": 5685,
      "ĠSund": 5686,
      "Ġdoors": 5687,
      "ĠMost": 5688,
      "this": 5689,
      "Ġshame": 5690,
      "ĠJones": 5691,
      "ĠNeed": 5692,
      "ĠTreat": 5693,
      "Ġunusual": 5694,
      "Ġsmart": 5695,
      "Ġcrew": 5696,
      "Ġcontrolled": 5697,
      "Ġinformed": 5698,
      "Ġsalvation": 5699,
      "Ġadoption": 5700,
      "ĠProphet": 5701,
      "because": 5702,
      "Ġsen": 5703,
      "Ġcrazy": 5704,
      "Ġinhab": 5705,
      "ĠAL": 5706,
      "Ġstation": 5707,
      "ĠMax": 5708,
      "Ġexceed": 5709,
      "ĠRo": 5710,
      "ĠFund": 5711,
      "Ġunit": 5712,
      "Ġcommission": 5713,
      "Ġpersons": 5714,
      "Ġeffici": 5715,
      "Ġsixth": 5716,
      "ĠSystem": 5717,
      "Ġsupply": 5718,
      "Ġthankful": 5719,
      "Ġarrival": 5720,
      "ĠArabs": 5721,
      "Ġaccounts": 5722,
      "Ġproperly": 5723,
      "abbath": 5724,
      "Ġprimary": 5725,
      "Ġglorified": 5726,
      "Ġadults": 5727,
      "49": 5728,
      "Four": 5729,
      "Us": 5730,
      "called": 5731,
      "yan": 5732,
      "Ġsides": 5733,
      "arter": 5734,
      "Ġisol": 5735,
      "ican": 5736,
      "Ġlic": 5737,
      "ston": 5738,
      "âĢĿ?": 5739,
      "urb": 5740,
      "ĠSecond": 5741,
      "ĠPri": 5742,
      "Ġsole": 5743,
      "ĠLike": 5744,
      "Ġplant": 5745,
      "ĠWhere": 5746,
      "Ġcompon": 5747,
      "Ġfewer": 5748,
      "Ġdefense": 5749,
      "wards": 5750,
      "Ġcarefully": 5751,
      "Ġsuccessfully": 5752,
      "ĠJohnson": 5753,
      "Ġversions": 5754,
      "ĠSwedish": 5755,
      "Ġcomfortable": 5756,
      "Ġchannel": 5757,
      "Ġaccompan": 5758,
      "Ġarchitect": 5759,
      "Neither": 5760,
      "Ġphilosoph": 5761,
      "?'": 5762,
      "Ġwide": 5763,
      "Ġwars": 5764,
      "Ġphen": 5765,
      "ario": 5766,
      "ĠSabbath": 5767,
      "olutions": 5768,
      "ulous": 5769,
      "istent": 5770,
      "orthern": 5771,
      "accept": 5772,
      "Ġjoke": 5773,
      "abies": 5774,
      "Ġworldwide": 5775,
      "Ġ32": 5776,
      "Ġcoal": 5777,
      "Ġsolved": 5778,
      "Ġincome": 5779,
      "Ġtrain": 5780,
      "prus": 5781,
      "Ġrestore": 5782,
      "Whoever": 5783,
      "Ġhearing": 5784,
      "Ġreligions": 5785,
      "Ġsales": 5786,
      "Ġcollection": 5787,
      "Ġdelive": 5788,
      "Ġlegisl": 5789,
      "Ġoccupation": 5790,
      "ĠHarry": 5791,
      "ĠBulgaria": 5792,
      "Ġtroops": 5793,
      "Ġcriteria": 5794,
      "Ġphenomen": 5795,
      "75": 5796,
      "EM": 5797,
      "Five": 5798,
      "II": 5799,
      "Very": 5800,
      "kay": 5801,
      "lie": 5802,
      "Ġrom": 5803,
      "reement": 5804,
      "Ġdynam": 5805,
      "ician": 5806,
      "olf": 5807,
      "...\"": 5808,
      "ĠRights": 5809,
      "ĠDut": 5810,
      "ĠDiv": 5811,
      "Ġotherwise": 5812,
      "Ġunits": 5813,
      "ĠOther": 5814,
      "Ġsports": 5815,
      "ounded": 5816,
      "Ġrecall": 5817,
      "Ġrememb": 5818,
      "Ġregulation": 5819,
      "Ġreply": 5820,
      "Ġexplore": 5821,
      "Ġ1998": 5822,
      "Ġconstruction": 5823,
      "ĠUSA": 5824,
      "Ġvari": 5825,
      "Ġheavens": 5826,
      "ĠÂ«": 5827,
      "Ġbirthday": 5828,
      "Ġhistoric": 5829,
      "Ġmotiv": 5830,
      "Ġsanct": 5831,
      "Ġfulfill": 5832,
      "ĠSerb": 5833,
      "Add": 5834,
      "Ġaccomplish": 5835,
      "Ġoccasion": 5836,
      "63": 5837,
      "Germ": 5838,
      "Has": 5839,
      "Te": 5840,
      "uk": 5841,
      "rees": 5842,
      "erous": 5843,
      "Ġhidden": 5844,
      "omon": 5845,
      "ille": 5846,
      "Ġselected": 5847,
      "ĠAv": 5848,
      "Ġproof": 5849,
      "unn": 5850,
      "ĠEconom": 5851,
      "Ġmerely": 5852,
      "Ġsake": 5853,
      "ĠLet": 5854,
      "Ġplaced": 5855,
      "Ġcompar": 5856,
      "ĠChildren": 5857,
      "Ġarmed": 5858,
      "Ġspeed": 5859,
      "Ġdeserves": 5860,
      "Ġinsurance": 5861,
      "while": 5862,
      "Ġmissed": 5863,
      "Ġfruits": 5864,
      "Ġuncertain": 5865,
      "Ġaccomplished": 5866,
      "Ġmountains": 5867,
      "Ġultimately": 5868,
      "Ġpossibilities": 5869,
      "Ġpenal": 5870,
      "Ġmysterious": 5871,
      "Ġsoftware": 5872,
      "Cont": 5873,
      "EP": 5874,
      "None": 5875,
      "bum": 5876,
      "bai": 5877,
      "ein": 5878,
      "noon": 5879,
      "ollow": 5880,
      "ship": 5881,
      "zech": 5882,
      "Ġice": 5883,
      "Ĥ¬": 5884,
      "Ġtempt": 5885,
      "Ġbure": 5886,
      "arah": 5887,
      "entle": 5888,
      "Ġforty": 5889,
      "ifts": 5890,
      "Ġtheme": 5891,
      "ĠOff": 5892,
      "Ġpregn": 5893,
      "Ġspring": 5894,
      "Ġhelpful": 5895,
      "Ġ42": 5896,
      "Ġ44": 5897,
      "Ġsupports": 5898,
      "Ġvisa": 5899,
      "Ġ1990": 5900,
      "Ġlarger": 5901,
      "zerbai": 5902,
      "Ġsacred": 5903,
      "Ġreduced": 5904,
      "Ġguaranteed": 5905,
      "Ġharmon": 5906,
      "Ġapplications": 5907,
      "Ġdraw": 5908,
      "Ġneighbor": 5909,
      "Ġpiece": 5910,
      "Ġdelivered": 5911,
      "56": 5912,
      "Belie": 5913,
      "EU": 5914,
      "Hence": 5915,
      "TH": 5916,
      "der": 5917,
      "ius": 5918,
      "iences": 5919,
      "volution": 5920,
      "atar": 5921,
      "orse": 5922,
      "Ġanger": 5923,
      "Ġdoctr": 5924,
      "Ġworried": 5925,
      "osite": 5926,
      "ĠHitler": 5927,
      "Ġlibr": 5928,
      "Ġprime": 5929,
      "Ġenorm": 5930,
      "ocks": 5931,
      "Ġowners": 5932,
      "Ġentered": 5933,
      "Ġends": 5934,
      "Ġrare": 5935,
      "Ġrapid": 5936,
      "Ġmedium": 5937,
      "ierre": 5938,
      "aptain": 5939,
      "Ġcontacts": 5940,
      "Ġterrorists": 5941,
      "Ġintellect": 5942,
      "Ġpictures": 5943,
      "Ġelectricity": 5944,
      "Ġcamera": 5945,
      "ĠCatholic": 5946,
      "Ġinhabit": 5947,
      "acceptable": 5948,
      "?âĢĻ": 5949,
      "Gen": 5950,
      "Nor": 5951,
      "Surely": 5952,
      "overy": 5953,
      "rat": 5954,
      "Ġmos": 5955,
      "Ġfate": 5956,
      "ingu": 5957,
      "Ġego": 5958,
      "ether": 5959,
      "ifth": 5960,
      "Ġconcent": 5961,
      "Ġkarma": 5962,
      "ĠEnergy": 5963,
      "ĠNe": 5964,
      "Ġ49": 5965,
      "Ġrightly": 5966,
      "Ġpreserve": 5967,
      "Ġincident": 5968,
      "phone": 5969,
      "ĠAssembly": 5970,
      "Ġpractices": 5971,
      "ĠBeijing": 5972,
      "Ġadmit": 5973,
      "ciliation": 5974,
      "Ġfailure": 5975,
      "Ġconvention": 5976,
      "Ġmachines": 5977,
      "Ġfigure": 5978,
      "ĠCameroon": 5979,
      "Ġdinner": 5980,
      "ĠCourt": 5981,
      "55": 5982,
      "GO": 5983,
      "Make": 5984,
      "ivers": 5985,
      "nic": 5986,
      "ena": 5987,
      "ening": 5988,
      "set": 5989,
      "etary": 5990,
      "adies": 5991,
      "ĠGal": 5992,
      "Ġours": 5993,
      "eless": 5994,
      "Ġloyal": 5995,
      "Ġagents": 5996,
      "Ġimpress": 5997,
      "ables": 5998,
      "Ġunf": 5999,
      "Ġ36": 6000,
      "Ġpreced": 6001,
      "assion": 6002,
      "issions": 6003,
      "Ġentity": 6004,
      "there": 6005,
      "Ġearn": 6006,
      "Ġexperiences": 6007,
      "Ġleads": 6008,
      "Ġstrongly": 6009,
      "Ġturns": 6010,
      "Ġresponded": 6011,
      "Ġattempts": 6012,
      "Something": 6013,
      "About": 6014,
      "iminals": 6015,
      "ĠHungary": 6016,
      "Ġhunger": 6017,
      "Ġcompromise": 6018,
      "CP": 6019,
      "Sp": 6020,
      "Ġ*": 6021,
      "Ġid": 6022,
      "Ġiron": 6023,
      "Ġahead": 6024,
      "ini": 6025,
      "Ġbesides": 6026,
      "using": 6027,
      "Ġorg": 6028,
      "Ġlied": 6029,
      "Ġabroad": 6030,
      "umn": 6031,
      "ĠTor": 6032,
      "Ġwhenever": 6033,
      "Ġactors": 6034,
      "Ġclin": 6035,
      "ĠYOU": 6036,
      "Ġpolitically": 6037,
      "Ġmarketing": 6038,
      "Ġinteract": 6039,
      "Ġpriest": 6040,
      "Ġdestination": 6041,
      "ĠDoctor": 6042,
      "ĠIndones": 6043,
      "Being": 6044,
      "Ġreported": 6045,
      "Ġthreatened": 6046,
      "ĠAustria": 6047,
      "Ġ1989": 6048,
      "Ġsuggested": 6049,
      "Ġblessings": 6050,
      "Ġvideos": 6051,
      "Ġmaintained": 6052,
      "Ġbroken": 6053,
      "Ġcategory": 6054,
      "ĠCyprus": 6055,
      "Ġemergency": 6056,
      "Ġmystery": 6057,
      "51": 6058,
      "BRA": 6059,
      "Know": 6060,
      "Rather": 6061,
      "Su": 6062,
      "eel": 6063,
      "oor": 6064,
      "only": 6065,
      "orter": 6066,
      "roat": 6067,
      "ĠCount": 6068,
      "ĠPope": 6069,
      "Ġvast": 6070,
      "ĠJul": 6071,
      "Ġimper": 6072,
      "ĠOK": 6073,
      "Ġafternoon": 6074,
      "Ġrealistic": 6075,
      "Ġrelation": 6076,
      "Ġsupporting": 6077,
      "Ġrain": 6078,
      "Ġcultiv": 6079,
      "Ġtests": 6080,
      "Ġstayed": 6081,
      "Ġoperate": 6082,
      "Ġdivided": 6083,
      "Ġopposite": 6084,
      "Ġselling": 6085,
      "ĠBritain": 6086,
      "Ġcontrad": 6087,
      "Google": 6088,
      "Ġignore": 6089,
      "Tomorrow": 6090,
      "Ġincreasingly": 6091,
      "Ġarrested": 6092,
      "Consider": 6093,
      "Ġdedicated": 6094,
      "Ġobstac": 6095,
      "Ġenormous": 6096,
      "'.": 6097,
      "47": 6098,
      "PS": 6099,
      "sp": 6100,
      "tr": 6101,
      "Ġtort": 6102,
      "Ġcards": 6103,
      "Ġcosm": 6104,
      "Ġpure": 6105,
      "Ġpark": 6106,
      "lling": 6107,
      "arus": 6108,
      "oms": 6109,
      "lymp": 6110,
      "Ġhes": 6111,
      "ili": 6112,
      "Ġmyth": 6113,
      "ĠFour": 6114,
      "ĠNaz": 6115,
      "ĠTok": 6116,
      "play": 6117,
      "ĠStar": 6118,
      "Ġtraged": 6119,
      "Ġorganize": 6120,
      "Ġsociet": 6121,
      "ronic": 6122,
      "Ġambass": 6123,
      "Ġobserve": 6124,
      "Ġobserved": 6125,
      "Ġbanking": 6126,
      "Ġcollective": 6127,
      "Except": 6128,
      "Ġregulations": 6129,
      "ĠSecret": 6130,
      "ORD": 6131,
      "Ġwindow": 6132,
      "ĠGlobal": 6133,
      "Ġabandoned": 6134,
      "Ġamazing": 6135,
      "85": 6136,
      "Bl": 6137,
      "Ġ=": 6138,
      "inci": 6139,
      "Ġsitting": 6140,
      "Ġcas": 6141,
      "Ġcig": 6142,
      "enced": 6143,
      "Ġbabies": 6144,
      "edd": 6145,
      "ald": 6146,
      "Ġgifts": 6147,
      "Ġalbum": 6148,
      "Ġstore": 6149,
      "ĠGood": 6150,
      "ĠBur": 6151,
      "ĠHapp": 6152,
      "ender": 6153,
      "ĠRoy": 6154,
      "ĠFrom": 6155,
      "ĠJean": 6156,
      "...)": 6157,
      "Ġpride": 6158,
      "aped": 6159,
      "ĠHell": 6160,
      "Ġadds": 6161,
      "Ġguard": 6162,
      "ĠThird": 6163,
      "ĠAsian": 6164,
      "Ġsuffered": 6165,
      "Ġexpectations": 6166,
      "Ġparticipation": 6167,
      "Ġdrinking": 6168,
      "Ġcorrectly": 6169,
      "Ġsubjects": 6170,
      "Ġpurposes": 6171,
      "Ġliberal": 6172,
      "Ġfulfilled": 6173,
      "Ġextraordinary": 6174,
      "Ġcopy": 6175,
      "ĠTunisia": 6176,
      "Ġcondemn": 6177,
      "Ġlucky": 6178,
      "ĠEastern": 6179,
      "Believe": 6180,
      "aith": 6181,
      "can": 6182,
      "inate": 6183,
      "Ġwestern": 6184,
      "isp": 6185,
      "Ġboss": 6186,
      "Ġdying": 6187,
      "Ġstake": 6188,
      "ĠMars": 6189,
      "rain": 6190,
      "ague": 6191,
      "Ġunited": 6192,
      "Ġbeloved": 6193,
      "Ġ190": 6194,
      "hens": 6195,
      "Ġapparently": 6196,
      "ĠYemen": 6197,
      "Ġblame": 6198,
      "Ġoverall": 6199,
      "Ġempt": 6200,
      "Ġdepart": 6201,
      "Ġmothers": 6202,
      "Ġdescend": 6203,
      "Ġslaves": 6204,
      "Ġclasses": 6205,
      "Ġdrinks": 6206,
      "ĠAgain": 6207,
      "Ġcontains": 6208,
      "Ġsuspect": 6209,
      "Ġinvestigation": 6210,
      "Ġsilence": 6211,
      "Ġridic": 6212,
      "Ġbehavior": 6213,
      "Ġintelligence": 6214,
      "ĠDutch": 6215,
      "Ġbureauc": 6216,
      ",âĢĻ": 6217,
      "57": 6218,
      "PP": 6219,
      "bi": 6220,
      "mosp": 6221,
      "Ġwake": 6222,
      "Ġcow": 6223,
      "Ġmil": 6224,
      "eds": 6225,
      "herlands": 6226,
      "adow": 6227,
      "ĠAzerbai": 6228,
      "ĠChe": 6229,
      "ĠCzech": 6230,
      "ained": 6231,
      "ĠNever": 6232,
      "Ġunacceptable": 6233,
      "apers": 6234,
      "Ġresurrection": 6235,
      "Ġquant": 6236,
      "ignity": 6237,
      "ifications": 6238,
      "Ġovercome": 6239,
      "Ġsmile": 6240,
      "Ġtraffic": 6241,
      "ranean": 6242,
      "Ġsignal": 6243,
      "ovo": 6244,
      "Ġyounger": 6245,
      "Ġdifficulty": 6246,
      "Ġconsume": 6247,
      "Ġequality": 6248,
      "Ġaccessible": 6249,
      "who": 6250,
      "ungry": 6251,
      "Ġcommunicate": 6252,
      "Ġtopic": 6253,
      "Ġinnovative": 6254,
      "Ġfrequently": 6255,
      "Ġhopes": 6256,
      "aturday": 6257,
      "ĠSunday": 6258,
      "46": 6259,
      "Comp": 6260,
      "Good": 6261,
      "Michael": 6262,
      "ias": 6263,
      "under": 6264,
      "will": 6265,
      "Ġath": 6266,
      "Ġwise": 6267,
      "Ġcounter": 6268,
      "Ġmuseum": 6269,
      "Ġfing": 6270,
      "Ġfisher": 6271,
      "lly": 6272,
      "Ġyeah": 6273,
      "imb": 6274,
      "ĠSaint": 6275,
      "ĠMo": 6276,
      "ĠMarket": 6277,
      "ĠPet": 6278,
      "umes": 6279,
      "ĠRom": 6280,
      "Ġimpl": 6281,
      "Ġunable": 6282,
      "Ġtwe": 6283,
      "itional": 6284,
      "Ġspite": 6285,
      "ĠThen": 6286,
      "Ġwrit": 6287,
      "Ġtransm": 6288,
      "Ġorders": 6289,
      "Ġresponsib": 6290,
      "Ġputting": 6291,
      "ĠAnn": 6292,
      "ĠAny": 6293,
      "Ġvisiting": 6294,
      "ĠProgram": 6295,
      "ĠPrince": 6296,
      "Ġequally": 6297,
      "Ġairport": 6298,
      "Ġplanets": 6299,
      "Ġcease": 6300,
      "Ġmulti": 6301,
      "Ġoptim": 6302,
      "ĠAtl": 6303,
      "Ġtexts": 6304,
      "Ġcauses": 6305,
      "Ġassociated": 6306,
      "Ġsucceeded": 6307,
      "ĠNetherlands": 6308,
      "Ġinstitutional": 6309,
      "Ġpossibly": 6310,
      "Ġacknowledge": 6311,
      "Ġdefeat": 6312,
      "Ġadministrative": 6313,
      "Ġinevitable": 6314,
      "Ġwithdraw": 6315,
      "300": 6316,
      "En": 6317,
      "Res": 6318,
      "Under": 6319,
      "nov": 6320,
      "ystem": 6321,
      "inces": 6322,
      "Ġsorry": 6323,
      "atal": 6324,
      "Ġbound": 6325,
      "Ġnut": 6326,
      "Ġbeast": 6327,
      "asons": 6328,
      "Ġforb": 6329,
      "irable": 6330,
      "ĠSch": 6331,
      "ĠSant": 6332,
      "ĠBaby": 6333,
      "ĠBusiness": 6334,
      "Ġleaves": 6335,
      "ĠRel": 6336,
      "ĠFl": 6337,
      "ĠDays": 6338,
      "ĠNOT": 6339,
      "Ġimposed": 6340,
      "Ġintent": 6341,
      "ograp": 6342,
      "Ġ38": 6343,
      "Ġremoved": 6344,
      "orses": 6345,
      "Ġregret": 6346,
      "Ġstudied": 6347,
      "Ġinterven": 6348,
      "erring": 6349,
      "azon": 6350,
      "ĠAlger": 6351,
      "ĠReally": 6352,
      "Ġabsent": 6353,
      "iterranean": 6354,
      "Ġconversations": 6355,
      "Ġcomplicated": 6356,
      "Ġtourists": 6357,
      "ĠAustralian": 6358,
      "Ġdriver": 6359,
      "Ġhotels": 6360,
      "Ġdollar": 6361,
      "Ġharmony": 6362,
      "Ġdeeply": 6363,
      "ĠCharles": 6364,
      "Brother": 6365,
      "ĠCommunity": 6366,
      "ĠFederation": 6367,
      "Ġchampions": 6368,
      "Ġera": 6369,
      "Ġbirds": 6370,
      "Ġintellectual": 6371,
      "Ġinhabitants": 6372,
      ">>": 6373,
      "Keep": 6374,
      "PA": 6375,
      "RO": 6376,
      "aire": 6377,
      "fe": 6378,
      "inations": 6379,
      "Ġowe": 6380,
      "itate": 6381,
      "Ġfine": 6382,
      "Ġfix": 6383,
      "Ġhungry": 6384,
      "Ġdwell": 6385,
      "ĠIM": 6386,
      "rol": 6387,
      "Ġhealing": 6388,
      "ĠSen": 6389,
      "ĠSud": 6390,
      "Though": 6391,
      "Ġattain": 6392,
      "ĠPan": 6393,
      "ĠJob": 6394,
      "ĠLook": 6395,
      "abilities": 6396,
      "Ġcompre": 6397,
      "ĠOlymp": 6398,
      "anged": 6399,
      "igned": 6400,
      "Ġfactor": 6401,
      "ahu": 6402,
      "grat": 6403,
      "Ġincor": 6404,
      "Ġprogrammes": 6405,
      "Ġdestiny": 6406,
      "Ġeffectively": 6407,
      "ĠDevelop": 6408,
      "ventions": 6409,
      "Ġbasically": 6410,
      "ĠPharaoh": 6411,
      "Ġseeking": 6412,
      "Ġpainful": 6413,
      "abbal": 6414,
      "Ġpurchased": 6415,
      "Ġargument": 6416,
      "ĠPhilipp": 6417,
      "Ġautomatically": 6418,
      "Obviously": 6419,
      "ĠCongress": 6420,
      "Ġexclusively": 6421,
      "ĠMessage": 6422,
      "ĠLatin": 6423,
      "Ġsocieties": 6424,
      "68": 6425,
      "Dear": 6426,
      "cue": 6427,
      "hether": 6428,
      "Ġske": 6429,
      "Ġsought": 6430,
      "Ġsounds": 6431,
      "ancial": 6432,
      "Ġcod": 6433,
      "Ġfought": 6434,
      "Ġfilled": 6435,
      "Ġhath": 6436,
      "Ġlif": 6437,
      "Ġears": 6438,
      "ĠIce": 6439,
      "Ġgentle": 6440,
      "ĠAuth": 6441,
      "ĠSum": 6442,
      "kel": 6443,
      "pel": 6444,
      "ĠGh": 6445,
      "ĠEven": 6446,
      "Ġaggress": 6447,
      "iab": 6448,
      "ĠWomen": 6449,
      "ogether": 6450,
      "Ġquiet": 6451,
      "Ġpref": 6452,
      "Ġfinance": 6453,
      "Ġcriminals": 6454,
      "Ġfeelings": 6455,
      "phas": 6456,
      "Ġemp": 6457,
      "Ġfriendship": 6458,
      "ĠThree": 6459,
      "ĠFriday": 6460,
      "Ġbusy": 6461,
      "aiwan": 6462,
      "Ġtrading": 6463,
      "Ġrespected": 6464,
      "aughters": 6465,
      "ĠClin": 6466,
      "Ġstructures": 6467,
      "Ġfilms": 6468,
      "Among": 6469,
      "Ġobtained": 6470,
      "Ġskin": 6471,
      "Ġmidst": 6472,
      "ylum": 6473,
      "Ġinherit": 6474,
      "ĠSteve": 6475,
      "Ġempty": 6476,
      "BA": 6477,
      "France": 6478,
      "UN": 6479,
      "Up": 6480,
      "cest": 6481,
      "cast": 6482,
      "atter": 6483,
      "arr": 6484,
      "ĠIN": 6485,
      "adays": 6486,
      "ĠMany": 6487,
      "Ġsuic": 6488,
      "ĠBu": 6489,
      "ĠHot": 6490,
      "ĠRichard": 6491,
      "berg": 6492,
      "Ġanybody": 6493,
      "Ġactively": 6494,
      "Ġgrad": 6495,
      "Ġgranted": 6496,
      "ecess": 6497,
      "Ġ2019": 6498,
      "Ġinstall": 6499,
      "Ġcrimes": 6500,
      "icked": 6501,
      "Ġtrack": 6502,
      "Ġproductive": 6503,
      "Ġreturning": 6504,
      "Ġpropose": 6505,
      "Ġpriests": 6506,
      "Almost": 6507,
      "Ġpassport": 6508,
      "Ġrecognition": 6509,
      "Ġmissiles": 6510,
      "Ġimmigrants": 6511,
      "Ġphotograph": 6512,
      "Ġpreferred": 6513,
      "Wherever": 6514,
      "Ġdetailed": 6515,
      "Ġassociation": 6516,
      "Ġmobil": 6517,
      "ADAM": 6518,
      "Ġsongs": 6519,
      "Ġinspired": 6520,
      "Ġpilot": 6521,
      "Ġinterpretation": 6522,
      "Ġfemale": 6523,
      "Ġlegitimate": 6524,
      "Ġdivorce": 6525,
      "Ġvulnerable": 6526,
      "ĠVietnam": 6527,
      "43": 6528,
      "ole": 6529,
      "ses": 6530,
      "Ġtick": 6531,
      "onna": 6532,
      "Ġswe": 6533,
      "oration": 6534,
      "ĠMond": 6535,
      "ĠMiss": 6536,
      "Ġprohib": 6537,
      "Ġabol": 6538,
      "ending": 6539,
      "umber": 6540,
      "Ġimages": 6541,
      "ĠFore": 6542,
      "ĠDis": 6543,
      "ĠTwo": 6544,
      "Ġagent": 6545,
      "oston": 6546,
      "ĠWall": 6547,
      "agon": 6548,
      "Ġresolve": 6549,
      "ĠChris": 6550,
      "Ġcook": 6551,
      "ube": 6552,
      "Ġfinds": 6553,
      "Ġrock": 6554,
      "Ġ72": 6555,
      "Ġtrave": 6556,
      "Ġopening": 6557,
      "Ġprior": 6558,
      "Ġscript": 6559,
      "Ġreaders": 6560,
      "Ġ1996": 6561,
      "Ġpraying": 6562,
      "Ġlocation": 6563,
      "Ġflight": 6564,
      "ifying": 6565,
      "Ġabsence": 6566,
      "Ġimprovement": 6567,
      "ĠBlue": 6568,
      "Ġbillions": 6569,
      "ĠScript": 6570,
      "Ġcommitments": 6571,
      "ĠIII": 6572,
      "Ġhyp": 6573,
      "Ġexerc": 6574,
      "Ġtechniques": 6575,
      "Ġfigures": 6576,
      "Ġcandidate": 6577,
      "Ġcandidates": 6578,
      "Ġseventh": 6579,
      "ADAMUS": 6580,
      "54": 6581,
      "Af": 6582,
      "fast": 6583,
      "gg": 6584,
      "ront": 6585,
      "yn": 6586,
      "ðŁ": 6587,
      "Ġsessions": 6588,
      "ero": 6589,
      "Ġocean": 6590,
      "ita": 6591,
      "Ġlying": 6592,
      "versi": 6593,
      "celer": 6594,
      "ams": 6595,
      "ĠSaturday": 6596,
      "Ġyourselves": 6597,
      "erent": 6598,
      "ĠName": 6599,
      "Ġunp": 6600,
      "Ġ39": 6601,
      "ĠKos": 6602,
      "ĠKurd": 6603,
      "Ġspect": 6604,
      "Ġgrat": 6605,
      "ĠStreet": 6606,
      "Ġnumerous": 6607,
      "Ġexperiment": 6608,
      "Ġrestored": 6609,
      "Ġorganisation": 6610,
      "Ġprovides": 6611,
      "Ġcorrection": 6612,
      "ĠArmy": 6613,
      "Ġ1997": 6614,
      "Ġnights": 6615,
      "Ġwondering": 6616,
      "Ġcompetitors": 6617,
      "Ġslave": 6618,
      "Ġblessed": 6619,
      "ursday": 6620,
      "Ġclaimed": 6621,
      "ĠResolution": 6622,
      "Ġrevolutionary": 6623,
      "Ġweakness": 6624,
      "Ġcolleague": 6625,
      "Ġpreparation": 6626,
      "Ġwaters": 6627,
      "Ġmandate": 6628,
      "Ġflexible": 6629,
      "rimination": 6630,
      "Ġtragedy": 6631,
      "74": 6632,
      "Between": 6633,
      "Give": 6634,
      "TA": 6635,
      "eous": 6636,
      "Ġinner": 6637,
      "Ġdad": 6638,
      "Ġdignity": 6639,
      "rog": 6640,
      "ami": 6641,
      "ĠSister": 6642,
      "Ġcongrat": 6643,
      "Ġatmosp": 6644,
      "Ġshop": 6645,
      "ĠBos": 6646,
      "ĠHas": 6647,
      "ĠDes": 6648,
      "ĠLORD": 6649,
      "Ġtele": 6650,
      "Ġsomehow": 6651,
      "Ġrecru": 6652,
      "ensus": 6653,
      "Ġinvitation": 6654,
      "Ġevolution": 6655,
      "Ġguests": 6656,
      "Ġ95": 6657,
      "Ġtechnological": 6658,
      "azine": 6659,
      "Ġpayment": 6660,
      "Ġprofound": 6661,
      "Ġconsumption": 6662,
      "Ġsends": 6663,
      "Ġdivine": 6664,
      "Ġviews": 6665,
      "Ġpercentage": 6666,
      "Ġmagical": 6667,
      "Ġcolors": 6668,
      "iki": 6669,
      "Ġrequested": 6670,
      "Truth": 6671,
      "Art": 6672,
      "Ġprocedures": 6673,
      "Ġrebuild": 6674,
      "Ġqualities": 6675,
      "Ġrestrictions": 6676,
      "Ġangry": 6677,
      "ĠFamily": 6678,
      "Ġaccompanied": 6679,
      "CE": 6680,
      "IM": 6681,
      "Read": 6682,
      "pass": 6683,
      "uments": 6684,
      "Ġx": 6685,
      "Ġ|": 6686,
      "Ġsaints": 6687,
      "oring": 6688,
      "Ġpra": 6689,
      "Ġdaughters": 6690,
      "Ġretain": 6691,
      "Ġgun": 6692,
      "uting": 6693,
      "ethe": 6694,
      "etition": 6695,
      "ĠAc": 6696,
      "ĠSay": 6697,
      "ĠCaptain": 6698,
      "open": 6699,
      "outhern": 6700,
      "ortal": 6701,
      "ĠPeace": 6702,
      "Ġhasn": 6703,
      "ĠBy": 6704,
      "Ġsaving": 6705,
      "ĠLady": 6706,
      "ĠTony": 6707,
      "agen": 6708,
      "Ġunex": 6709,
      "Ġcoach": 6710,
      "Ġremove": 6711,
      "ĠInter": 6712,
      "Ġacadem": 6713,
      "Ġguid": 6714,
      "Ġfoundation": 6715,
      "Ġsafer": 6716,
      "Ġparad": 6717,
      "limate": 6718,
      "Ġsummit": 6719,
      "ĠBarb": 6720,
      "Ġvotes": 6721,
      "Ġcivilization": 6722,
      "Ġnewsp": 6723,
      "Ġintroduction": 6724,
      "aneously": 6725,
      "Ġreforms": 6726,
      "Ġworthy": 6727,
      "Ġfacilit": 6728,
      "Ġdiseases": 6729,
      "Ġrestaurants": 6730,
      "Ġshoot": 6731,
      "Ġmaterials": 6732,
      "ĠMediterranean": 6733,
      "Ġpreparing": 6734,
      "Ġcells": 6735,
      "Ġflee": 6736,
      "Ġreconciliation": 6737,
      "chers": 6738,
      "ĠAzerbaijan": 6739,
      "versial": 6740,
      ".:": 6741,
      "52": 6742,
      "cks": 6743,
      "ua": 6744,
      "vil": 6745,
      "Ġtired": 6746,
      "atible": 6747,
      "Ġbapt": 6748,
      "Ġep": 6749,
      "Ġgay": 6750,
      "Ġformed": 6751,
      "iform": 6752,
      "Ġancest": 6753,
      "Ġsectors": 6754,
      "ĠSur": 6755,
      "ĠFerr": 6756,
      "ĠDec": 6757,
      "ĠWould": 6758,
      "Ġcontem": 6759,
      "Ġintended": 6760,
      "ocal": 6761,
      "Ġoutcome": 6762,
      "Ġregist": 6763,
      "Ġwriter": 6764,
      "Ġentry": 6765,
      "Ġemphas": 6766,
      "Ġcenters": 6767,
      "Everybody": 6768,
      "Ġadvanced": 6769,
      "Ġapprox": 6770,
      "Ġsett": 6771,
      "Ġpotentially": 6772,
      "force": 6773,
      "ĠReport": 6774,
      "ĠAgreement": 6775,
      "Ġcharacters": 6776,
      "Ġinterpre": 6777,
      "Ġdimensions": 6778,
      "Ġrobot": 6779,
      "Ġagricultural": 6780,
      "Ġchannels": 6781,
      "Ġconcluded": 6782,
      "Ġriver": 6783,
      "Ġcollaboration": 6784,
      "Ġdamage": 6785,
      "Ġappointed": 6786,
      "Ġeliminate": 6787,
      "Ġphilosophy": 6788,
      "%,": 6789,
      "58": 6790,
      "64": 6791,
      "EB": 6792,
      "MA": 6793,
      "Sm": 6794,
      "Tw": 6795,
      "lt": 6796,
      "Ġtheory": 6797,
      "isible": 6798,
      "itch": 6799,
      "Ġbilateral": 6800,
      "Ġporn": 6801,
      "aron": 6802,
      "icy": 6803,
      "ented": 6804,
      "utral": 6805,
      "iforn": 6806,
      "ĠSav": 6807,
      "raction": 6808,
      "Ġshadow": 6809,
      "ĠHol": 6810,
      "ĠLab": 6811,
      "apse": 6812,
      "ĠKabbal": 6813,
      "anges": 6814,
      "Ġbelieving": 6815,
      "Ġpharm": 6816,
      "ĠAfricans": 6817,
      "hesion": 6818,
      "ĠThomas": 6819,
      "Ġadvent": 6820,
      "Ġjudges": 6821,
      "Ġlistened": 6822,
      "ĠBelarus": 6823,
      "Ġboard": 6824,
      "Unlike": 6825,
      "Ġsuggests": 6826,
      "Ġfifty": 6827,
      "Ġofficials": 6828,
      "Ġ1967": 6829,
      "Ġsacrific": 6830,
      "Ġplatforms": 6831,
      "ĠGeorgia": 6832,
      "Ġcoordination": 6833,
      "Ġmurder": 6834,
      "Probably": 6835,
      "Ġoccasions": 6836,
      "Ġpackage": 6837,
      "Ġconsciousness": 6838,
      "Ġmartyr": 6839,
      "arency": 6840,
      "ĠLisbon": 6841,
      "ĠTreaty": 6842,
      "Ġromantic": 6843,
      "Ġresponsibilities": 6844,
      "ĠKosovo": 6845,
      "76": 6846,
      "?...": 6847,
      "IP": 6848,
      "Later": 6849,
      "TO": 6850,
      "iest": 6851,
      "lav": 6852,
      "oly": 6853,
      "ping": 6854,
      "su": 6855,
      "ania": 6856,
      "ancy": 6857,
      "Ġcats": 6858,
      "ora": 6859,
      "Ġtoys": 6860,
      "Ġhated": 6861,
      "Ġhorses": 6862,
      "uration": 6863,
      "ĠAli": 6864,
      "Ġcann": 6865,
      "ĠCre": 6866,
      "ĠCroat": 6867,
      "race": 6868,
      "osis": 6869,
      "ĠPower": 6870,
      "ĠDen": 6871,
      "ĠLee": 6872,
      "Ġtea": 6873,
      "Ġresource": 6874,
      "Ġcommittee": 6875,
      "Ġindirect": 6876,
      "ĠWeek": 6877,
      "Ġlessons": 6878,
      "Ġ85": 6879,
      "Ġwarm": 6880,
      "Ġreceiving": 6881,
      "Ġconsumed": 6882,
      "Ġregardless": 6883,
      "awa": 6884,
      "Ġmissions": 6885,
      "Ġwelcom": 6886,
      "aura": 6887,
      "Ġintegrated": 6888,
      "ashion": 6889,
      "Ġdraft": 6890,
      "Ġinspir": 6891,
      "Ġcategories": 6892,
      "ĠColomb": 6893,
      "Ġchaos": 6894,
      "Ġaccordance": 6895,
      "Ġcorrespond": 6896,
      "ĠSudan": 6897,
      "Ġwelcomed": 6898,
      "BC": 6899,
      "Com": 6900,
      "Current": 6901,
      "DA": 6902,
      "Int": 6903,
      "Pre": 6904,
      "bits": 6905,
      "burg": 6906,
      "iber": 6907,
      "live": 6908,
      "lcome": 6909,
      "ois": 6910,
      "oices": 6911,
      "rd": 6912,
      "Ġtill": 6913,
      "inent": 6914,
      "erry": 6915,
      "Ġmigration": 6916,
      "Ġnice": 6917,
      "Ġreven": 6918,
      "Ġwearing": 6919,
      "ills": 6920,
      "Ġselect": 6921,
      "Ġsevere": 6922,
      "Ġasylum": 6923,
      "Ġconver": 6924,
      "ĠMike": 6925,
      "Ġshape": 6926,
      "ĠBec": 6927,
      "Ġjok": 6928,
      "ĠFree": 6929,
      "ĠFord": 6930,
      "ĠFood": 6931,
      "Ġrul": 6932,
      "inda": 6933,
      "arding": 6934,
      "oga": 6935,
      "Ġcompassion": 6936,
      "ĠKong": 6937,
      "Ġremark": 6938,
      "Ġunderstands": 6939,
      "Ġministry": 6940,
      "Ġacceler": 6941,
      "Ġprotest": 6942,
      "being": 6943,
      "Ġtragic": 6944,
      "uese": 6945,
      "chnology": 6946,
      "Ġartific": 6947,
      "Ġcollapse": 6948,
      "Ġcontroversial": 6949,
      "Ġpoison": 6950,
      "Ġcareful": 6951,
      "Ġgirlfriend": 6952,
      "Ġfoods": 6953,
      "Ġconstit": 6954,
      "ĠProject": 6955,
      "Ġsuppose": 6956,
      "Ġverses": 6957,
      "Ġparticipated": 6958,
      "ĠConference": 6959,
      "Ġmagn": 6960,
      "Ġfamiliar": 6961,
      "ESCO": 6962,
      "sterdam": 6963,
      "ĠOrgan": 6964,
      "Ġrequests": 6965,
      "Ġhoriz": 6966,
      "sequently": 6967,
      "Others": 6968,
      "Ġmassive": 6969,
      "Ġfairly": 6970,
      "Ġpermission": 6971,
      "Ġpilots": 6972,
      "ĠAssad": 6973,
      "Ġbottle": 6974,
      "ĠCaliforn": 6975,
      "Ġsatellite": 6976,
      "Ġphenomenon": 6977,
      "ĠMonday": 6978,
      "59": 6979,
      "86": 6980,
      "96": 6981,
      "Try": 6982,
      "lades": 6983,
      "rats": 6984,
      "wood": 6985,
      "Ġtunn": 6986,
      "Ġball": 6987,
      "Ġmad": 6988,
      "Ġmiles": 6989,
      "Ġmoved": 6990,
      "Ġfasc": 6991,
      "edience": 6992,
      "ednes": 6993,
      "ala": 6994,
      "icop": 6995,
      "icate": 6996,
      "ĠMoon": 6997,
      "rah": 6998,
      "ĠRw": 6999,
      "ĠFuture": 7000,
      "ĠTaiwan": 7001,
      "Ġimpression": 7002,
      "ĠWant": 7003,
      "Ġunbelie": 7004,
      "Ġuniform": 7005,
      "Ġdiss": 7006,
      "ocation": 7007,
      "Ġ41": 7008,
      "Ġaccur": 7009,
      "Ġ51": 7010,
      "ĠStud": 7011,
      "Ġinvol": 7012,
      "Ġentities": 7013,
      "Ġroots": 7014,
      "Ġrac": 7015,
      "Ġprotecting": 7016,
      "nex": 7017,
      "Ġlegacy": 7018,
      "Ġassum": 7019,
      "Ġ1992": 7020,
      "Ġpassengers": 7021,
      "Ġfunctions": 7022,
      "Ġcheap": 7023,
      "Ġtreaty": 7024,
      "Ġincreases": 7025,
      "Ġelectronic": 7026,
      "Ġslight": 7027,
      "Ġsurvival": 7028,
      "Ġseparated": 7029,
      "ĠAmazon": 7030,
      "Ġcontained": 7031,
      "Ġdescribes": 7032,
      "ĠPortuguese": 7033,
      "ĠBilly": 7034,
      "Ġsinners": 7035,
      "Ġaudience": 7036,
      "ĠArmenia": 7037,
      "Ġmutual": 7038,
      "Ġriches": 7039,
      "oubted": 7040,
      "ĠTokyo": 7041,
      "Ġmilk": 7042,
      "Ġskept": 7043,
      "Ġgratitude": 7044,
      "Ġatmosphere": 7045,
      ".Â»": 7046,
      "Bel": 7047,
      "Help": 7048,
      "zy": 7049,
      "Ġtries": 7050,
      "reedom": 7051,
      "Ġwedd": 7052,
      "isons": 7053,
      "isement": 7054,
      "atural": 7055,
      "Ġfake": 7056,
      "Ġladies": 7057,
      "Ġalt": 7058,
      "Ġdeploy": 7059,
      "ĠBoston": 7060,
      "ciety": 7061,
      "ĠJuan": 7062,
      "ĠLittle": 7063,
      "ĠTri": 7064,
      "Ġrescue": 7065,
      "ogan": 7066,
      "Ġ2017": 7067,
      "Ġgovernance": 7068,
      "ommun": 7069,
      "icture": 7070,
      "Ġdevelopments": 7071,
      "lesh": 7072,
      "ĠThursday": 7073,
      "Ġamongst": 7074,
      "Ġflowers": 7075,
      "Ġoccurs": 7076,
      "Ġstanding": 7077,
      "Ġoffering": 7078,
      "Ġillness": 7079,
      "Ġphotograp": 7080,
      "Ġvoting": 7081,
      "Ġtaxes": 7082,
      "Ġheads": 7083,
      "Ġconflicts": 7084,
      "Ġdelight": 7085,
      "ĠQuran": 7086,
      "Ġlinked": 7087,
      "Ġbanned": 7088,
      "Ġprospect": 7089,
      "ĠUniversity": 7090,
      "ĠSolomon": 7091,
      "Ġdiagn": 7092,
      "Ġentrepreneurs": 7093,
      "Ġlawyers": 7094,
      "Ġamendments": 7095,
      "Ġvirus": 7096,
      "ĠOffice": 7097,
      "ĠClinton": 7098,
      "oubtedly": 7099,
      "Mean": 7100,
      "ios": 7101,
      "sal": 7102,
      "ta": 7103,
      "hered": 7104,
      "Ġsound": 7105,
      "Ġcatch": 7106,
      "Ġflesh": 7107,
      "Ġbeach": 7108,
      "ota": 7109,
      "otic": 7110,
      "enth": 7111,
      "imated": 7112,
      "Ġheat": 7113,
      "allel": 7114,
      "Ġneutral": 7115,
      "ĠSing": 7116,
      "ĠGOD": 7117,
      "osystem": 7118,
      "ĠBud": 7119,
      "Ġjeal": 7120,
      "ĠFive": 7121,
      "ĠTal": 7122,
      "ĠTimes": 7123,
      "Ġplays": 7124,
      "Ġweren": 7125,
      "akh": 7126,
      "aker": 7127,
      "ĠWat": 7128,
      "ifferent": 7129,
      "Ġ37": 7130,
      "claim": 7131,
      "enses": 7132,
      "Ġ55": 7133,
      "Ġinvolve": 7134,
      "Ġvisits": 7135,
      "Ġdiscrimination": 7136,
      "Ġsurface": 7137,
      "Ġcarbon": 7138,
      "oham": 7139,
      "Ġemotion": 7140,
      "Ġenergies": 7141,
      "Ġproviding": 7142,
      "ĠSpace": 7143,
      "Ġuniversity": 7144,
      "Ġjudg": 7145,
      "Ġcontrols": 7146,
      "Ġconsidering": 7147,
      "Canada": 7148,
      "Ġmovements": 7149,
      "Ġsword": 7150,
      "Ġdealt": 7151,
      "Ġemployment": 7152,
      "Ġappearance": 7153,
      "Ġproperties": 7154,
      "ervation": 7155,
      "Ġappreciated": 7156,
      "COBRA": 7157,
      "Ġterritories": 7158,
      "Ġburied": 7159,
      "ivalent": 7160,
      "ĠFranc": 7161,
      "Ġmental": 7162,
      "Ġconclude": 7163,
      "ĠCompany": 7164,
      "Ġconducted": 7165,
      "Ġacknowled": 7166,
      "itchen": 7167,
      "Ġdoctrine": 7168,
      "ĠFerrari": 7169,
      "ĠCalifornia": 7170,
      "95": 7171,
      "Alex": 7172,
      "EA": 7173,
      "Having": 7174,
      "Iran": 7175,
      "bl": 7176,
      "ram": 7177,
      "she": 7178,
      "vo": 7179,
      "rel": 7180,
      "Ġcous": 7181,
      "organ": 7182,
      "Ġfill": 7183,
      "arn": 7184,
      "Ġegg": 7185,
      "ĠMake": 7186,
      "ems": 7187,
      "iling": 7188,
      "esty": 7189,
      "unk": 7190,
      "Ġchain": 7191,
      "ĠPark": 7192,
      "ĠâĢĭ": 7193,
      "Ġjoint": 7194,
      "arer": 7195,
      "obra": 7196,
      "Ġhelicop": 7197,
      "Ġbridge": 7198,
      "Ġdesires": 7199,
      "Ġcreature": 7200,
      "cluding": 7201,
      "Ġassure": 7202,
      "Ġadvis": 7203,
      "Ġnecessity": 7204,
      "Char": 7205,
      "Ġhardly": 7206,
      "Ġlargely": 7207,
      "Still": 7208,
      "ĠJane": 7209,
      "anna": 7210,
      "aughs": 7211,
      "Ġtreasure": 7212,
      "Ġalternatives": 7213,
      "Anyone": 7214,
      "ĠCarl": 7215,
      "ĠBrazilian": 7216,
      "Ġburden": 7217,
      "Ġarms": 7218,
      "Ġmechanisms": 7219,
      "ĠJustice": 7220,
      "Ġresistance": 7221,
      "Ġlogical": 7222,
      "ĠIceland": 7223,
      "ednesday": 7224,
      "67": 7225,
      "Cl": 7226,
      "Follow": 7227,
      "MS": 7228,
      "Picture": 7229,
      "Said": 7230,
      "ca": 7231,
      "iver": 7232,
      "Ã¡": 7233,
      "Ġfant": 7234,
      "ali": 7235,
      "utation": 7236,
      "ĠAN": 7237,
      "Ġworship": 7238,
      "ears": 7239,
      "ĠHel": 7240,
      "resh": 7241,
      "iev": 7242,
      "ĠFound": 7243,
      "ĠFriend": 7244,
      "ĠLou": 7245,
      "ĠNO": 7246,
      "Ġimplic": 7247,
      "place": 7248,
      "ensity": 7249,
      "econom": 7250,
      "Ġrighteous": 7251,
      "Ġfool": 7252,
      "Ġexamine": 7253,
      "ibly": 7254,
      "Ġsubstances": 7255,
      "Ġassass": 7256,
      "Ġcentre": 7257,
      "Ġmathem": 7258,
      "ĠAlbert": 7259,
      "Ġdistingu": 7260,
      "Ġarrives": 7261,
      "Ġstudying": 7262,
      "Ġconvince": 7263,
      "Ġtrial": 7264,
      "Ġsatisfaction": 7265,
      "Ġforgive": 7266,
      "Ġdelay": 7267,
      "Above": 7268,
      "Ġgeop": 7269,
      "Ġdemonstrated": 7270,
      "Ġcoordinated": 7271,
      "Ġcaptain": 7272,
      "Ġvirtual": 7273,
      "Ġconstitutional": 7274,
      "ĠTHE": 7275,
      "Ġassessment": 7276,
      "Ġrepentance": 7277,
      "Ġremembered": 7278,
      "Afric": 7279,
      "Ġjealous": 7280,
      "\"?": 7281,
      "87": 7282,
      "88": 7283,
      "Palest": 7284,
      "TS": 7285,
      "even": 7286,
      "from": 7287,
      "oot": 7288,
      "Â°": 7289,
      "Ġsand": 7290,
      "erior": 7291,
      "ancing": 7292,
      "itage": 7293,
      "Ġfaced": 7294,
      "Ġpal": 7295,
      "Ġparent": 7296,
      "arry": 7297,
      "asion": 7298,
      "Ġnotes": 7299,
      "alley": 7300,
      "ĠGene": 7301,
      "Ġprob": 7302,
      "ĠEC": 7303,
      "ĠBol": 7304,
      "ĠHome": 7305,
      "ĠHIV": 7306,
      "ĠRight": 7307,
      "Ġrational": 7308,
      "ĠTex": 7309,
      "Ġplenty": 7310,
      "ĠWay": 7311,
      "ĠWil": 7312,
      "Ġresidents": 7313,
      "everal": 7314,
      "ĠOld": 7315,
      "Ġsym": 7316,
      "Ġbrand": 7317,
      "Ġsurr": 7318,
      "Ġreceives": 7319,
      "Ġtechnically": 7320,
      "ĠDef": 7321,
      "Ġwinning": 7322,
      "Ġdestroying": 7323,
      "onym": 7324,
      "Ġtraditions": 7325,
      "Ġresear": 7326,
      "Stud": 7327,
      "Ġimprovements": 7328,
      "Ġopinions": 7329,
      "Ġconclusions": 7330,
      "ĠFrank": 7331,
      "ĠâĤ¬": 7332,
      "Ġstreets": 7333,
      "Ġheroes": 7334,
      "Ġsensitive": 7335,
      "American": 7336,
      "Ġarrang": 7337,
      "Ġunexpected": 7338,
      "53": 7339,
      "91": 7340,
      "Whether": 7341,
      "ga": 7342,
      "rition": 7343,
      "Ġthee": 7344,
      "isa": 7345,
      "atures": 7346,
      "Ġcere": 7347,
      "Ġmix": 7348,
      "lete": 7349,
      "omed": 7350,
      "ĠSah": 7351,
      "ĠSchool": 7352,
      "ĠGet": 7353,
      "ĠMa": 7354,
      "Ġkil": 7355,
      "thren": 7356,
      "Ġ120": 7357,
      "Ġlogic": 7358,
      "Ġrates": 7359,
      "ĠWH": 7360,
      "Ġunite": 7361,
      "ueen": 7362,
      "Ġdisag": 7363,
      "Ġdisplay": 7364,
      "Ġdesirable": 7365,
      "ĠUncle": 7366,
      "rank": 7367,
      "Ġlegally": 7368,
      "Ġformal": 7369,
      "Ġhandle": 7370,
      "hamed": 7371,
      "Ġedition": 7372,
      "Ġmanager": 7373,
      "Ġ1980": 7374,
      "Ġambition": 7375,
      "Ġencounter": 7376,
      "Ġdeclaration": 7377,
      "Ġtypical": 7378,
      "Ġcredible": 7379,
      "Ġlacking": 7380,
      "Otherwise": 7381,
      "ength": 7382,
      "Ġtouched": 7383,
      "ING": 7384,
      "Ġtransformed": 7385,
      "Ġescaped": 7386,
      "Ġignored": 7387,
      "Ġdemonstrate": 7388,
      "Ġanalyz": 7389,
      "ĠBanglades": 7390,
      "Ġlegislative": 7391,
      "ĠSerbia": 7392,
      "ĠDevelopment": 7393,
      "02": 7394,
      "94": 7395,
      "BI": 7396,
      "El": 7397,
      "Non": 7398,
      "RI": 7399,
      "Right": 7400,
      "cons": 7401,
      "mark": 7402,
      "pa": 7403,
      "pres": 7404,
      "spe": 7405,
      "Ġ;": 7406,
      "Ġtong": 7407,
      "Ġmigrants": 7408,
      "Ġnorth": 7409,
      "owd": 7410,
      "add": 7411,
      "ĠSix": 7412,
      "ĠMet": 7413,
      "operation": 7414,
      "raight": 7415,
      "Were": 7416,
      "ĠEth": 7417,
      "ĠBell": 7418,
      "earn": 7419,
      "astisement": 7420,
      "ĠNGO": 7421,
      "active": 7422,
      "abin": 7423,
      "Ġworlds": 7424,
      "Ġintense": 7425,
      "ĠOtt": 7426,
      "angers": 7427,
      "Ġ46": 7428,
      "Ġinvisible": 7429,
      "athan": 7430,
      "Ġsimult": 7431,
      "Ġpolitician": 7432,
      "Ġ98": 7433,
      "isms": 7434,
      "Ġdefence": 7435,
      "Ġ800": 7436,
      "Ġstudio": 7437,
      "Ġassured": 7438,
      "Ġparadise": 7439,
      "Ġexpecting": 7440,
      "ĠRevolution": 7441,
      "Ġbringing": 7442,
      "Ġindustries": 7443,
      "Ġofficers": 7444,
      "roduction": 7445,
      "Ġoppon": 7446,
      "Ġtargeted": 7447,
      "ĠAmsterdam": 7448,
      "Ġinfluenced": 7449,
      "Ġreminds": 7450,
      "Ġcouples": 7451,
      "Ġmobility": 7452,
      "Ġencouraged": 7453,
      "Ġtransformation": 7454,
      "Ġlatter": 7455,
      "Ġdemonstr": 7456,
      "ragm": 7457,
      "Ġerrors": 7458,
      "letes": 7459,
      "Ġexceptional": 7460,
      "Ġexclusive": 7461,
      "Ġaccompany": 7462,
      "Ġtransparency": 7463,
      "Ġforbidden": 7464,
      "etheless": 7465,
      "01": 7466,
      "77": 7467,
      "EO": 7468,
      "LE": 7469,
      "Sw": 7470,
      "iour": 7471,
      "lad": 7472,
      "sid": 7473,
      "wr": 7474,
      "xual": 7475,
      "zone": 7476,
      "orters": 7477,
      "Ġhar": 7478,
      "asant": 7479,
      "asures": 7480,
      "ication": 7481,
      "utor": 7482,
      "Ġheavy": 7483,
      "ample": 7484,
      "ĠMat": 7485,
      "ĠMaj": 7486,
      "ilip": 7487,
      "unate": 7488,
      "Ġ110": 7489,
      "ĠHen": 7490,
      "ĠHong": 7491,
      "ĠHelp": 7492,
      "ective": 7493,
      "ansion": 7494,
      "ĠRam": 7495,
      "ĠDa": 7496,
      "ĠLong": 7497,
      "ĠTour": 7498,
      "ĠOpen": 7499,
      "Ġcoinc": 7500,
      "oca": 7501,
      "Ġ52": 7502,
      "Ġdecides": 7503,
      "Ġgreatly": 7504,
      "avig": 7505,
      "Ġaddressed": 7506,
      "Ġcreator": 7507,
      "Ġ65": 7508,
      "Ġsmallest": 7509,
      "Ġconsiders": 7510,
      "Ġprovinces": 7511,
      "Ġ1991": 7512,
      "Ġapproval": 7513,
      "Ġinvestments": 7514,
      "Ġinfin": 7515,
      "Ġearthqu": 7516,
      "Ġprocesses": 7517,
      "Ġfunded": 7518,
      "Ġadmitted": 7519,
      "Ġoperational": 7520,
      "Ġequivalent": 7521,
      "ĠMarx": 7522,
      "ĠMinistry": 7523,
      "Ġhonour": 7524,
      "Ġreveals": 7525,
      "going": 7526,
      "Ġprofessionals": 7527,
      "Ġcalend": 7528,
      "Ġneighbors": 7529,
      "Ġexciting": 7530,
      "Ġprimarily": 7531,
      "ĠRegulation": 7532,
      "Ġmeantime": 7533,
      "Ġuniversities": 7534,
      "Ġwalls": 7535,
      "Ġdistribution": 7536,
      "Ġrecorded": 7537,
      "Ġsubmitted": 7538,
      "Ġprosperity": 7539,
      "Ġdynamic": 7540,
      "ĠEconomic": 7541,
      "Ġlibrary": 7542,
      "Ġintentions": 7543,
      "NA": 7544,
      "Peace": 7545,
      "gers": 7546,
      "vate": 7547,
      "ishes": 7548,
      "Ġcaught": 7549,
      "Ġlunch": 7550,
      "Ġlength": 7551,
      "amin": 7552,
      "Ġashamed": 7553,
      "Ġstim": 7554,
      "ĠSomet": 7555,
      "ĠCost": 7556,
      "Ġalliance": 7557,
      "Ġchair": 7558,
      "Ġchocol": 7559,
      "Ġves": 7560,
      "Ġvib": 7561,
      "ĠRose": 7562,
      "abri": 7563,
      "aret": 7564,
      "ulture": 7565,
      "Ġcompens": 7566,
      "Ġprem": 7567,
      "Ġdecre": 7568,
      "formation": 7569,
      "Ġfinding": 7570,
      "Ġfriendly": 7571,
      "ictions": 7572,
      "Ġrail": 7573,
      "Ġsurve": 7574,
      "ibi": 7575,
      "archy": 7576,
      "Ġadvise": 7577,
      "Ġpointed": 7578,
      "Ġcultures": 7579,
      "Ġconsideration": 7580,
      "Ġ180": 7581,
      "Ġregards": 7582,
      "Ġoperating": 7583,
      "Ġfears": 7584,
      "Ġ250": 7585,
      "Ġcontributions": 7586,
      "Ġconversion": 7587,
      "Ġprogressive": 7588,
      "Ġtourist": 7589,
      "ĠUNESCO": 7590,
      "Ġcruc": 7591,
      "ASA": 7592,
      "Ġjournalist": 7593,
      "Ġrobots": 7594,
      "Ġcorrupt": 7595,
      "Ġforests": 7596,
      "Ġtransparent": 7597,
      "Ġwatched": 7598,
      "Ġtransferred": 7599,
      "Ġecosystem": 7600,
      "Ġathletes": 7601,
      "ĠIMF": 7602,
      "ĠPhilippines": 7603,
      "''": 7604,
      "DE": 7605,
      "Gu": 7606,
      "Mus": 7607,
      "SO": 7608,
      "care": 7609,
      "pes": 7610,
      "inst": 7611,
      "Ġcure": 7612,
      "Ġfashion": 7613,
      "lla": 7614,
      "lements": 7615,
      "ombs": 7616,
      "Ġluck": 7617,
      "âĢľ[": 7618,
      "Ġseed": 7619,
      "Ġstraight": 7620,
      "antly": 7621,
      "ĠMen": 7622,
      "Ġproclaim": 7623,
      "Ġexhib": 7624,
      "oslav": 7625,
      "Ġshares": 7626,
      "Ġvamp": 7627,
      "Ġvoices": 7628,
      "ĠNight": 7629,
      "ĠWater": 7630,
      "ĠOut": 7631,
      "Ġquarter": 7632,
      "itionally": 7633,
      "Ġdesper": 7634,
      "Ġmonetary": 7635,
      "anyahu": 7636,
      "ĠVol": 7637,
      "Ġopens": 7638,
      "Ġsmok": 7639,
      "2015": 7640,
      "Within": 7641,
      "Ġscared": 7642,
      "Ġkeeps": 7643,
      "ĠAnge": 7644,
      "Ġjudged": 7645,
      "Ġhighlight": 7646,
      "ĠProf": 7647,
      "Ġaffirm": 7648,
      "ĠSociety": 7649,
      "Ġwinner": 7650,
      "Ġfright": 7651,
      "ĠSeven": 7652,
      "Ġofficer": 7653,
      "Ġmerciful": 7654,
      "ĠIraqi": 7655,
      "ĠAtt": 7656,
      "ĠScott": 7657,
      "Ġsatisfy": 7658,
      "Ġsignificantly": 7659,
      "Ġdrag": 7660,
      "Ġpublish": 7661,
      "ĠCharlie": 7662,
      "Ġestablishment": 7663,
      "iscover": 7664,
      "Ġmurdered": 7665,
      "Ġanalyze": 7666,
      "Ġundoubtedly": 7667,
      "Ġpermitted": 7668,
      "Ġcomputers": 7669,
      "Ġflexibility": 7670,
      "Ġstrike": 7671,
      "Ġpersecution": 7672,
      "Ġperceived": 7673,
      "Ġefficiency": 7674,
      "Ġtweet": 7675,
      "ĠAlgeria": 7676,
      "Ġsuicide": 7677,
      "ĠHotel": 7678,
      "ĠTexas": 7679,
      "73": 7680,
      "82": 7681,
      "Mart": 7682,
      "ST": 7683,
      "Six": 7684,
      "UR": 7685,
      "Work": 7686,
      "bal": 7687,
      "father": 7688,
      "lies": 7689,
      "night": 7690,
      "sm": 7691,
      "ĠðŁ": 7692,
      "Ġmigr": 7693,
      "Ġdare": 7694,
      "omination": 7695,
      "Ġlands": 7696,
      "otal": 7697,
      "aylor": 7698,
      "ida": 7699,
      "aded": 7700,
      "Ġsteal": 7701,
      "ĠGirl": 7702,
      "Ġkitchen": 7703,
      "Ġchances": 7704,
      "ĠBetter": 7705,
      "ĠHigh": 7706,
      "Ġliar": 7707,
      "Ġjail": 7708,
      "ĠDel": 7709,
      "ĠNorm": 7710,
      "ĠTra": 7711,
      "ĠTues": 7712,
      "ĠWednesday": 7713,
      "abeth": 7714,
      "Ġpartly": 7715,
      "Ġadjust": 7716,
      "ĠChile": 7717,
      "ĠKate": 7718,
      "Ġconsol": 7719,
      "Ġ43": 7720,
      "Ġdesired": 7721,
      "ĠYeah": 7722,
      "atherine": 7723,
      "ĠVoice": 7724,
      "ugoslav": 7725,
      "Ġguided": 7726,
      "Ġroyal": 7727,
      "Ġmillenn": 7728,
      "Ġ96": 7729,
      "Ġcrowd": 7730,
      "Ġ600": 7731,
      "Ġconfront": 7732,
      "Ġrefere": 7733,
      "Ġrab": 7734,
      "Ġgenerous": 7735,
      "Ġwarn": 7736,
      "Ġfounded": 7737,
      "Ġextend": 7738,
      "Ġ1994": 7739,
      "Beyond": 7740,
      "Ġsentence": 7741,
      "Ġstatistics": 7742,
      "Ġentering": 7743,
      "ĠForce": 7744,
      "ĠNoah": 7745,
      "ronically": 7746,
      "Ġcommunications": 7747,
      "Ġindicated": 7748,
      "Ġcommandments": 7749,
      "Ġcapitalism": 7750,
      "Ġultimate": 7751,
      "Ġattractive": 7752,
      "Ġsilent": 7753,
      "Ġdistributed": 7754,
      "Ġsubstance": 7755,
      "Ġbottles": 7756,
      "Ġwarnings": 7757,
      "IFA": 7758,
      "Ġdistinction": 7759,
      "Ġdoubts": 7760,
      "Ġmultiple": 7761,
      "ĠMichel": 7762,
      "ĠIndonesia": 7763,
      "Ġepis": 7764,
      "omeday": 7765,
      "!âĢĻ": 7766,
      ".âĢľ": 7767,
      "71": 7768,
      "FA": 7769,
      "coming": 7770,
      "ki": 7771,
      "mm": 7772,
      "Ã¨": 7773,
      "athered": 7774,
      "oral": 7775,
      "Ġfol": 7776,
      "Ġinjust": 7777,
      "Ġnin": 7778,
      "Ġloses": 7779,
      "Ġgathered": 7780,
      "ctic": 7781,
      "Ġseats": 7782,
      "ĠAC": 7783,
      "ĠAng": 7784,
      "ĠGre": 7785,
      "Ġconce": 7786,
      "ĠMark": 7787,
      "ema": 7788,
      "ĠBo": 7789,
      "ĠBre": 7790,
      "Ġwhoever": 7791,
      "ĠTy": 7792,
      "abled": 7793,
      "order": 7794,
      "duc": 7795,
      "Ġpreach": 7796,
      "Ġspaces": 7797,
      "Ġheritage": 7798,
      "Ġproducing": 7799,
      "Ġevident": 7800,
      "Ġcertainty": 7801,
      "ologically": 7802,
      "Ġcurious": 7803,
      "ighth": 7804,
      "Ġmode": 7805,
      "Ġpope": 7806,
      "Ġmarg": 7807,
      "Ġtesting": 7808,
      "Ġparam": 7809,
      "Ġlocated": 7810,
      "Someone": 7811,
      "Ġdepartment": 7812,
      "Ġindividually": 7813,
      "Unless": 7814,
      "ĠExp": 7815,
      "Ġnegotiate": 7816,
      "Image": 7817,
      "Ġregulatory": 7818,
      "ĠKorean": 7819,
      "Ġgrave": 7820,
      "Ġroads": 7821,
      "iciently": 7822,
      "Ġbalanced": 7823,
      "Ġutil": 7824,
      "Ġbeliefs": 7825,
      "Ġslowly": 7826,
      "Ġshocked": 7827,
      "Seven": 7828,
      "Ġdomestic": 7829,
      "Ġexcluded": 7830,
      "Ġmosque": 7831,
      "Ġridiculous": 7832,
      "ĠAuthority": 7833,
      "Ġwedding": 7834,
      "ĠBangladesh": 7835,
      "ĠOttawa": 7836,
      "%)": 7837,
      "92": 7838,
      "AH": 7839,
      "Ah": 7840,
      "DP": 7841,
      "Facebook": 7842,
      "Get": 7843,
      "Given": 7844,
      "Joe": 7845,
      "Ms": 7846,
      "Men": 7847,
      "Much": 7848,
      "Women": 7849,
      "mn": 7850,
      "Ġwild": 7851,
      "ato": 7852,
      "Ġcouncil": 7853,
      "Ġband": 7854,
      "Ġfigh": 7855,
      "Ġhat": 7856,
      "Ġhates": 7857,
      "Ġhiding": 7858,
      "Ġdates": 7859,
      "Ġeld": 7860,
      "âĢĻ,": 7861,
      "etime": 7862,
      "ĠAS": 7863,
      "ĠAut": 7864,
      "ĠCIA": 7865,
      "Ġproceed": 7866,
      "ilty": 7867,
      "Welcome": 7868,
      "Ġalleg": 7869,
      "ĠPerson": 7870,
      "Ġshut": 7871,
      "Ġ(...)": 7872,
      "Ġvan": 7873,
      "ĠFire": 7874,
      "ĠForm": 7875,
      "Ġround": 7876,
      "ĠTen": 7877,
      "Ġseeks": 7878,
      "actions": 7879,
      "ager": 7880,
      "Ġactor": 7881,
      "Ġacting": 7882,
      "ternational": 7883,
      "Ġrecover": 7884,
      "Ġpresidency": 7885,
      "Ġdecis": 7886,
      "athy": 7887,
      "Ġhumble": 7888,
      "Ġextension": 7889,
      "Ġinsist": 7890,
      "Ġsocialist": 7891,
      "Ġinvested": 7892,
      "Ġpassage": 7893,
      "Ġparallel": 7894,
      "exist": 7895,
      "Children": 7896,
      "Ġprofile": 7897,
      "ĠSea": 7898,
      "mbass": 7899,
      "airo": 7900,
      "Ġ1985": 7901,
      "Ġsugar": 7902,
      "ĠBlair": 7903,
      "Ġcontacted": 7904,
      "Ġdriving": 7905,
      "Ġfalsehood": 7906,
      "Ġguarantees": 7907,
      "Ġexcited": 7908,
      "Ġoccupied": 7909,
      "ĠYears": 7910,
      "ĠMerkel": 7911,
      "ĠMillion": 7912,
      "Ġcameras": 7913,
      "ĠArmenian": 7914,
      "ĠHereafter": 7915,
      "Ġmanufacturers": 7916,
      "Ġupdate": 7917,
      "Ġvolunteers": 7918,
      "Ġpollution": 7919,
      "Ġdozen": 7920,
      "Ġpursue": 7921,
      "Germany": 7922,
      "Ġorgans": 7923,
      "Ġintervene": 7924,
      "78": 7925,
      "79": 7926,
      "89": 7927,
      "Call": 7928,
      "Jack": 7929,
      "bo": 7930,
      "gian": 7931,
      "iop": 7932,
      "Ġ)": 7933,
      "Ġ{": 7934,
      "Ġspl": 7935,
      "erable": 7936,
      "Ġborrow": 7937,
      "Ġnavig": 7938,
      "alin": 7939,
      "iche": 7940,
      "Ġreaches": 7941,
      "ĠIV": 7942,
      "Ġaspir": 7943,
      "ĠMil": 7944,
      "employ": 7945,
      "unicip": 7946,
      "third": 7947,
      "ĠRad": 7948,
      "ĠFort": 7949,
      "ĠLos": 7950,
      "Ġteeth": 7951,
      "abis": 7952,
      "ĠKiev": 7953,
      "obile": 7954,
      "ĠTheir": 7955,
      "Ġconsensus": 7956,
      "ĠHeart": 7957,
      "Ġthrow": 7958,
      "Ġphr": 7959,
      "Ġsincere": 7960,
      "Ġwarned": 7961,
      "Ġexposed": 7962,
      "Ġexpansion": 7963,
      "Ġsubmit": 7964,
      "Ġprovince": 7965,
      "elly": 7966,
      "Ġfault": 7967,
      "Ġcapabilities": 7968,
      "Ġdirective": 7969,
      "Ġprofit": 7970,
      "Ġadmire": 7971,
      "Ġsetting": 7972,
      "Ġperiods": 7973,
      "roduct": 7974,
      "Ġrecommendation": 7975,
      "Ġdenomin": 7976,
      "Ġvoters": 7977,
      "ĠChristianity": 7978,
      "zero": 7979,
      "Ġengaged": 7980,
      "ĠMorgan": 7981,
      "Ġdebates": 7982,
      "Ġvolunt": 7983,
      "Ġtemporary": 7984,
      "Ġfields": 7985,
      "Ġbreakfast": 7986,
      "Ġcombat": 7987,
      "Ġbarri": 7988,
      "holders": 7989,
      "ĠFinancial": 7990,
      "ĠUniverse": 7991,
      "Ġsovereign": 7992,
      "Similar": 7993,
      "Ġautonomy": 7994,
      "Usually": 7995,
      "ĠDivine": 7996,
      "Ġpregnant": 7997,
      "Ġdescendants": 7998,
      "Ġwriters": 7999,
      "Ġancestors": 8000,
      "Currently": 8001,
      "Meanwhile": 8002,
      "economic": 8003,
      "Ġsympt": 8004,
      "400": 8005,
      "81": 8006,
      "HA": 8007,
      "].âĢĿ": 8008,
      "look": 8009,
      "mother": 8010,
      "pol": 8011,
      "Ġsir": 8012,
      "Ġsouth": 8013,
      "Ġbases": 8014,
      "Ġbombs": 8015,
      "Ġmac": 8016,
      "Ġpragm": 8017,
      "ller": 8018,
      "Ġinclus": 8019,
      "Ġdu": 8020,
      "asm": 8021,
      "Ġlit": 8022,
      "Ġlists": 8023,
      "otions": 8024,
      "Ġselection": 8025,
      "ĠCap": 8026,
      "ĠMoney": 8027,
      "raf": 8028,
      "Ġdece": 8029,
      "ĠBern": 8030,
      "ĠDep": 8031,
      "ĠLot": 8032,
      "iah": 8033,
      "Ġimpose": 8034,
      "Ġimpressed": 8035,
      "actic": 8036,
      "Ġpartially": 8037,
      "ĠUp": 8038,
      "oger": 8039,
      "Ġjustify": 8040,
      "Ġpermit": 8041,
      "ĠKar": 8042,
      "Ġcovers": 8043,
      "Ġreconst": 8044,
      "Ġremed": 8045,
      "hengen": 8046,
      "ĠStrate": 8047,
      "Ġdecent": 8048,
      "Ġproducer": 8049,
      "Ġwrath": 8050,
      "Ġfellow": 8051,
      "Ġthrone": 8052,
      "Ġreferring": 8053,
      "Ġincomp": 8054,
      "Ġelim": 8055,
      "Ġawaken": 8056,
      "Ġlegend": 8057,
      "Ġextended": 8058,
      "Ġsche": 8059,
      "ĠGermans": 8060,
      "Ġmatch": 8061,
      "Ġdrone": 8062,
      "Ġwondered": 8063,
      "Ġeaten": 8064,
      "ĠIranians": 8065,
      "appy": 8066,
      "Ġannivers": 8067,
      "Ġcontributed": 8068,
      "Ġimmense": 8069,
      "2008": 8070,
      "Ġtaxi": 8071,
      "Ġreminder": 8072,
      "Ġessentially": 8073,
      "Ġcalm": 8074,
      "Ġignor": 8075,
      "Ġparliamentary": 8076,
      "Ġhoped": 8077,
      "ĠFederal": 8078,
      "Ġobligation": 8079,
      "Ġexecuted": 8080,
      "Ġentrepreneur": 8081,
      "ĠModel": 8082,
      "Ġwidely": 8083,
      "Ġcoalition": 8084,
      "Ġvariety": 8085,
      "ĠOlympic": 8086,
      "Ġgradually": 8087,
      "Ġslightly": 8088,
      "ĠâĢĭâĢĭ": 8089,
      "Ġfantastic": 8090,
      "Ġresearchers": 8091,
      "Ġsimultaneously": 8092,
      "ladim": 8093,
      "ĠAngeles": 8094,
      ")!": 8095,
      "Aust": 8096,
      "BO": 8097,
      "Ironically": 8098,
      "Japan": 8099,
      "Sc": 8100,
      "TC": 8101,
      "Use": 8102,
      "good": 8103,
      "ipe": 8104,
      "right": 8105,
      "some": 8106,
      "Ġ....": 8107,
      "including": 8108,
      "onia": 8109,
      "ano": 8110,
      "ndum": 8111,
      "ingly": 8112,
      "asters": 8113,
      "Ġstages": 8114,
      "ĠCam": 8115,
      "ander": 8116,
      "Ġchick": 8117,
      "Ġsuitable": 8118,
      "ĠBab": 8119,
      "ĠHour": 8120,
      "elf": 8121,
      "Ġviable": 8122,
      "ĠRio": 8123,
      "Ġloan": 8124,
      "ĠFind": 8125,
      "ĠFinally": 8126,
      "ĠDog": 8127,
      "Ġsale": 8128,
      "ĠJo": 8129,
      "ĠJeff": 8130,
      "abwe": 8131,
      "ĠOwn": 8132,
      "Ġdism": 8133,
      "Ġprev": 8134,
      "Ġcohesion": 8135,
      "iously": 8136,
      "Ġrecovery": 8137,
      "Ġserves": 8138,
      "Ġ47": 8139,
      "Ġpresidents": 8140,
      "Ġ54": 8141,
      "ĠYugoslav": 8142,
      "bell": 8143,
      "Ġexplos": 8144,
      "Ġproportion": 8145,
      "Ġchoosing": 8146,
      "ova": 8147,
      "Ġappeal": 8148,
      "Ġeffectiveness": 8149,
      "Ġdram": 8150,
      "ĠAnna": 8151,
      "Ġrecognised": 8152,
      "Ġrepresentative": 8153,
      "ĠZimb": 8154,
      "ĠAbb": 8155,
      "portant": 8156,
      "Ġairports": 8157,
      "Ġcorrected": 8158,
      "Ġmagazine": 8159,
      "Ġmultilateral": 8160,
      "Ġsalary": 8161,
      "Ġseparation": 8162,
      "Ġintroduce": 8163,
      "Ġforgiven": 8164,
      "Ġcommandment": 8165,
      "Ġperformed": 8166,
      "ĠMexican": 8167,
      "Ġpossession": 8168,
      "***": 8169,
      "Ġcatast": 8170,
      "Ġmemories": 8171,
      "Ġcapture": 8172,
      "Ġhonestly": 8173,
      "Ġunderest": 8174,
      "Ġacquire": 8175,
      "Ġclothing": 8176,
      "Obama": 8177,
      "Ġpieces": 8178,
      "Ġmonitoring": 8179,
      "Ġcooperate": 8180,
      "Ġdiamonds": 8181,
      "Ġcomponents": 8182,
      "Ġrapidly": 8183,
      "Ġimpressive": 8184,
      "Ġobstacles": 8185,
      "Ġlifetime": 8186,
      "Ġmartyrs": 8187,
      "ĠRwanda": 8188,
      "Ġphotographer": 8189,
      "ĠGeneva": 8190,
      "Ben": 8191,
      "Few": 8192,
      "Love": 8193,
      "Peter": 8194,
      "Sur": 8195,
      "WA": 8196,
      "giving": 8197,
      "has": 8198,
      "rad": 8199,
      "vision": 8200,
      "Ġ____": 8201,
      "inians": 8202,
      "anz": 8203,
      "enous": 8204,
      "Ġfab": 8205,
      "Ġfrag": 8206,
      "icity": 8207,
      "aying": 8208,
      "Ġgonna": 8209,
      "illa": 8210,
      "ett": 8211,
      "ĠAction": 8212,
      "Ġstabil": 8213,
      "Ġconvert": 8214,
      "ĠMom": 8215,
      "ĠMoham": 8216,
      "think": 8217,
      "istance": 8218,
      "ĠPal": 8219,
      "ĠBas": 8220,
      "ĠHill": 8221,
      "Ġliars": 8222,
      "Ġabst": 8223,
      "acle": 8224,
      "ĠDan": 8225,
      "ĠTaylor": 8226,
      "ĠWin": 8227,
      "ĠWal": 8228,
      "Ġunjust": 8229,
      "Ġadvert": 8230,
      "Ġresidence": 8231,
      "Ġcompatible": 8232,
      "ĠOs": 8233,
      "Ġperception": 8234,
      "Ġ1950": 8235,
      "Ġgrown": 8236,
      "Ġchildhood": 8237,
      "Ġnevertheless": 8238,
      "Ġrepair": 8239,
      "Ġreputation": 8240,
      "Ġminorities": 8241,
      "Ġfuel": 8242,
      "Ġguilty": 8243,
      "Ġ101": 8244,
      "Ġprovisions": 8245,
      "ĠBrown": 8246,
      "Ġdeaths": 8247,
      "Ġkeeping": 8248,
      "Ġpublicly": 8249,
      "ilitary": 8250,
      "ĠForum": 8251,
      "Ġreaching": 8252,
      "Likewise": 8253,
      "Ġcamps": 8254,
      "ervative": 8255,
      "Ġreminded": 8256,
      "Ġtopics": 8257,
      "Ġindicate": 8258,
      "Ġindicates": 8259,
      "Ġurban": 8260,
      "Ġargue": 8261,
      "Ġblocked": 8262,
      "Ġtalent": 8263,
      "Ġconsultation": 8264,
      "Ġgained": 8265,
      "Ġtransportation": 8266,
      "ĠSalv": 8267,
      "Ġlabour": 8268,
      "itcoin": 8269,
      "Ġroute": 8270,
      "Ġlawyer": 8271,
      "Ġfraud": 8272,
      "Ġdelegation": 8273,
      "Apparently": 8274,
      "ĠCommandments": 8275,
      "Ġsweet": 8276,
      "Ġgeopolitical": 8277,
      "Ġreferendum": 8278,
      "ladimir": 8279,
      "ĠZimbabwe": 8280,
      "Car": 8281,
      "LY": 8282,
      "Mary": 8283,
      "Several": 8284,
      "dis": 8285,
      "his": 8286,
      "iat": 8287,
      "ixt": 8288,
      "national": 8289,
      "zz": 8290,
      "Ġcage": 8291,
      "Ġdies": 8292,
      "ayer": 8293,
      "Ġhabits": 8294,
      "ĠImp": 8295,
      "ĠAh": 8296,
      "Ġasc": 8297,
      "Ġconcess": 8298,
      "Ġorph": 8299,
      "ulpt": 8300,
      "aine": 8301,
      "ĠPost": 8302,
      "early": 8303,
      "Ġwanting": 8304,
      "ĠRE": 8305,
      "erer": 8306,
      "ĠLive": 8307,
      "Ġadequ": 8308,
      "Ġsomewhat": 8309,
      "ĠON": 8310,
      "ĠIsland": 8311,
      "Ġ360": 8312,
      "ruly": 8313,
      "ĠKaz": 8314,
      "Ġgoodness": 8315,
      "Ġconscience": 8316,
      "Ġconsistent": 8317,
      "Ġaccused": 8318,
      "redit": 8319,
      "ials": 8320,
      "Ġdesp": 8321,
      "Ġproduces": 8322,
      "Ġmonster": 8323,
      "Ġoffices": 8324,
      "Ġmini": 8325,
      "ĠWeb": 8326,
      "Ġgenetic": 8327,
      "Ġevolved": 8328,
      "Ġtransgress": 8329,
      "Ġrefers": 8330,
      "hips": 8331,
      "Ġeleven": 8332,
      "Ġglass": 8333,
      "Ġreturns": 8334,
      "ĠDecl": 8335,
      "Ġsufficiently": 8336,
      "Ġflights": 8337,
      "ĠQatar": 8338,
      "Ġwinners": 8339,
      "Ġregarded": 8340,
      "ĠLev": 8341,
      "ĠArabic": 8342,
      "Ġinitially": 8343,
      "Ġillust": 8344,
      "Ġambitions": 8345,
      "Ġbeneficial": 8346,
      "ĠClub": 8347,
      "Ġobserv": 8348,
      "Ġobservation": 8349,
      "EST": 8350,
      "Ġcircle": 8351,
      "Ġcomplaints": 8352,
      "Ġanticip": 8353,
      "Ġtempor": 8354,
      "Ġneighbour": 8355,
      "ĠRegion": 8356,
      "Ġhoping": 8357,
      "Ġlaughter": 8358,
      "ĠEveryone": 8359,
      "Ġmovies": 8360,
      "ĠPlanet": 8361,
      "Ġlabel": 8362,
      "Ġstrengthened": 8363,
      "ĠMoroccan": 8364,
      "ĠHungarian": 8365,
      "Ġmanifestation": 8366,
      "Ġethnic": 8367,
      "ILL": 8368,
      "ĠDemocratic": 8369,
      "Ġcontinuing": 8370,
      "Ġgeographical": 8371,
      "Ġmarked": 8372,
      "Ġlicense": 8373,
      "Ġtorture": 8374,
      "Ġempire": 8375,
      "Ġapproximately": 8376,
      "Ġartificial": 8377,
      "Ġmadness": 8378,
      "ĠFrancis": 8379,
      "Ġcalendar": 8380,
      "ĠTuesday": 8381,
      "Ġdecisive": 8382,
      "!).": 8383,
      "69": 8384,
      "AP": 8385,
      "CC": 8386,
      "Che": 8387,
      "IR": 8388,
      "Richard": 8389,
      "Ver": 8390,
      "Yeah": 8391,
      "gor": 8392,
      "Ġolive": 8393,
      "Ġcup": 8394,
      "iture": 8395,
      "itual": 8396,
      "Ġbish": 8397,
      "orb": 8398,
      "arg": 8399,
      "Ġislands": 8400,
      "Ġrely": 8401,
      "room": 8402,
      "Ġhealed": 8403,
      "adors": 8404,
      "ĠAge": 8405,
      "Ġstones": 8406,
      "ĠSO": 8407,
      "ĠSarah": 8408,
      "ĠCall": 8409,
      "ĠCard": 8410,
      "ĠCode": 8411,
      "ĠMY": 8412,
      "thod": 8413,
      "ĠEs": 8414,
      "ĠEmp": 8415,
      "ĠRon": 8416,
      "Ġrural": 8417,
      "ĠLeg": 8418,
      "Ġnowadays": 8419,
      "ĠWatch": 8420,
      "abe": 8421,
      "Ġresolved": 8422,
      "ĠKh": 8423,
      "ĠStart": 8424,
      "Ġrepublic": 8425,
      "Ġinvites": 8426,
      "ĠInvest": 8427,
      "Ġcrises": 8428,
      "herent": 8429,
      "Ġgenerate": 8430,
      "Ġretire": 8431,
      "Ġoldest": 8432,
      "Ġorganic": 8433,
      "Ġaviation": 8434,
      "Ġprovider": 8435,
      "ĠThink": 8436,
      "ĠArctic": 8437,
      "ĠTrade": 8438,
      "Chapter": 8439,
      "Ġdiscussing": 8440,
      "Ġstaying": 8441,
      "Ġcompete": 8442,
      "Often": 8443,
      "Ġdivers": 8444,
      "ĠMaybe": 8445,
      "Ġindependently": 8446,
      "Ġbudgets": 8447,
      "Ġbrethren": 8448,
      "ĠClass": 8449,
      "Ġeducational": 8450,
      "Ġcomplain": 8451,
      "ĠItalians": 8452,
      "Ġholds": 8453,
      "Ġhorrible": 8454,
      "Ġindicators": 8455,
      "Ġbrave": 8456,
      "ĠEnvironment": 8457,
      "Ġunlikely": 8458,
      "Ġattributes": 8459,
      "Ġautonomous": 8460,
      "Ġsenators": 8461,
      "Ġcasino": 8462,
      "ĠRoyal": 8463,
      "Ġcomprehens": 8464,
      "Ġexercises": 8465,
      "ĠCroatia": 8466,
      "Ġdelighted": 8467,
      "Ġanniversary": 8468,
      "Eight": 8469,
      "Had": 8470,
      "Life": 8471,
      "MO": 8472,
      "Pierre": 8473,
      "Rob": 8474,
      "[...]": 8475,
      "cs": 8476,
      "ji": 8477,
      "lon": 8478,
      "mi": 8479,
      "uable": 8480,
      "Ã´": 8481,
      "Ġairl": 8482,
      "Ġwines": 8483,
      "erate": 8484,
      "Ġcast": 8485,
      "Ġfest": 8486,
      "Ġfresh": 8487,
      "Ġnorthern": 8488,
      "icing": 8489,
      "Ġlos": 8490,
      "Ġloud": 8491,
      "Ġetern": 8492,
      "Ġgreet": 8493,
      "illiant": 8494,
      "Ġwhis": 8495,
      "sets": 8496,
      "aman": 8497,
      "ĠAff": 8498,
      "ĠSl": 8499,
      "ĠSus": 8500,
      "ĠSky": 8501,
      "ĠSenator": 8502,
      "ĠCamb": 8503,
      "ĠPC": 8504,
      "ĠPre": 8505,
      "earch": 8506,
      "Ġabund": 8507,
      "Ġvice": 8508,
      "ĠRos": 8509,
      "Ġloving": 8510,
      "ĠFIFA": 8511,
      "ĠLead": 8512,
      "Ġplus": 8513,
      "oker": 8514,
      "Ġeveryday": 8515,
      "Ġuncle": 8516,
      "iana": 8517,
      "iano": 8518,
      "ĠChair": 8519,
      "Ġdiscl": 8520,
      "Ġgoods": 8521,
      "Ġrecy": 8522,
      "Ġpreserved": 8523,
      "Ġdonors": 8524,
      "Ġwrites": 8525,
      "Ġpersonality": 8526,
      "Ġsmoke": 8527,
      "Ġconfused": 8528,
      "Ġexplicit": 8529,
      "2010": 8530,
      "Ġmodified": 8531,
      "Ġsubsid": 8532,
      "Ġorganised": 8533,
      "Ġlisted": 8534,
      "Ġhealthcare": 8535,
      "Always": 8536,
      "Ġfinancially": 8537,
      "ĠPresence": 8538,
      "Ġauthors": 8539,
      "Ġaffairs": 8540,
      "Ġfrust": 8541,
      "Ġdivide": 8542,
      "Ġ140": 8543,
      "Ġsuggestions": 8544,
      "Ġforeigners": 8545,
      "Ġviolent": 8546,
      "Ġfifteen": 8547,
      "ublin": 8548,
      "Ġintegrity": 8549,
      "Ġreduction": 8550,
      "bye": 8551,
      "ĠAgency": 8552,
      "Anyway": 8553,
      "Ġcredibility": 8554,
      "ĠEuros": 8555,
      "ĠColl": 8556,
      "Ġassociations": 8557,
      "Ġrefugee": 8558,
      "Ġfacilities": 8559,
      "Ġlosses": 8560,
      "ĠMalays": 8561,
      "Ġadvantages": 8562,
      "Ġconsulted": 8563,
      "Ġdegrees": 8564,
      "Ġbiological": 8565,
      "Ġsymbols": 8566,
      "Ġintelligent": 8567,
      "Ġroutine": 8568,
      "Ġreferred": 8569,
      "Ġrenewed": 8570,
      "Ġscenario": 8571,
      "Ġdictators": 8572,
      "ĠService": 8573,
      "Ġfingers": 8574,
      "Ġgentlemen": 8575,
      "Ġadventure": 8576,
      "ĠFoundation": 8577,
      "Ġmathemat": 8578,
      "Ġkilomet": 8579,
      "ducation": 8580,
      "62": 8581,
      "72": 8582,
      "Bar": 8583,
      "Bill": 8584,
      "Daniel": 8585,
      "Joseph": 8586,
      "LO": 8587,
      "Ser": 8588,
      "Tur": 8589,
      "Watch": 8590,
      "iy": 8591,
      "ja": 8592,
      "oided": 8593,
      "rical": 8594,
      "tion": 8595,
      "Ġ00": 8596,
      "Ġzero": 8597,
      "Ġtor": 8598,
      "Ġwa": 8599,
      "atab": 8600,
      "Ġbatter": 8601,
      "Ġmap": 8602,
      "vey": 8603,
      "iments": 8604,
      "Ġgar": 8605,
      "illance": 8606,
      "Ġstations": 8607,
      "ĠSand": 8608,
      "olen": 8609,
      "una": 8610,
      "ĠEv": 8611,
      "ĠEll": 8612,
      "ĠPay": 8613,
      "ĠBoy": 8614,
      "ĠRock": 8615,
      "ĠDave": 8616,
      "ĠLas": 8617,
      "ĠLand": 8618,
      "ĠNASA": 8619,
      "aks": 8620,
      "ĠWik": 8621,
      "Ġworker": 8622,
      "Hey": 8623,
      "plete": 8624,
      "Ġbull": 8625,
      "ĠYouT": 8626,
      "ĠVan": 8627,
      "ĠVict": 8628,
      "Ġminimal": 8629,
      "Whenever": 8630,
      "Ġinterventions": 8631,
      "Ġmeets": 8632,
      "egro": 8633,
      "Ġmessenger": 8634,
      "ĠParadise": 8635,
      "ctoral": 8636,
      "Ġdirections": 8637,
      "ĠIndepend": 8638,
      "Ġjudicial": 8639,
      "ĠMario": 8640,
      "ĠLeon": 8641,
      "Ġviewed": 8642,
      "ĠPolit": 8643,
      "Ġdesigners": 8644,
      "Ġsoldier": 8645,
      "ĠXi": 8646,
      "Ġprophecy": 8647,
      "Ġachievements": 8648,
      "Mrs": 8649,
      "Ġdeclare": 8650,
      "Ġsignificance": 8651,
      "Ġmarriages": 8652,
      "Ġsleeping": 8653,
      "ĠTeam": 8654,
      "Ġfulfil": 8655,
      "Ġincredibly": 8656,
      "Ġembarr": 8657,
      "ĠJudgment": 8658,
      "Ġtranslate": 8659,
      "Ġengineers": 8660,
      "IDS": 8661,
      "Ġgenuinely": 8662,
      "Ġimagined": 8663,
      "ĠJimmy": 8664,
      "ĠSimon": 8665,
      "ĠLiberals": 8666,
      "ihad": 8667,
      "Prot": 8668,
      "Ġprivilege": 8669,
      "Ġdozens": 8670,
      "Ġisolated": 8671,
      "Ġuncertainty": 8672,
      "Ġpenalty": 8673,
      "Ġtemptation": 8674,
      "Ġpraise": 8675,
      "openh": 8676,
      "ĠDenmark": 8677,
      "Ġindirectly": 8678,
      "ĠWatson": 8679,
      "Ġtongue": 8680,
      "Ġchocolate": 8681,
      "Ġcrucified": 8682,
      "Ġeliminated": 8683,
      "Ġembarrass": 8684,
      "61": 8685,
      "98": 8686,
      "James": 8687,
      "Mother": 8688,
      "Out": 8689,
      "Real": 8690,
      "Robert": 8691,
      "TV": 8692,
      "Together": 8693,
      "Ult": 8694,
      "VE": 8695,
      "bourg": 8696,
      "eper": 8697,
      "fin": 8698,
      "five": 8699,
      "human": 8700,
      "pal": 8701,
      "rin": 8702,
      "rant": 8703,
      "rison": 8704,
      "Ġwives": 8705,
      "Ġsn": 8706,
      "Ġsorts": 8707,
      "Ġcin": 8708,
      "itz": 8709,
      "Ġports": 8710,
      "eda": 8711,
      "Ġinex": 8712,
      "ĠIts": 8713,
      "imacy": 8714,
      "utors": 8715,
      "eters": 8716,
      "igenous": 8717,
      "urse": 8718,
      "ĠAri": 8719,
      "ĠAcc": 8720,
      "Ġstands": 8721,
      "ĠSign": 8722,
      "ĠSection": 8723,
      "ĠCamp": 8724,
      "ĠClimate": 8725,
      "ĠGames": 8726,
      "Ġproven": 8727,
      "andal": 8728,
      ".âĢĿ[": 8729,
      "ĠBest": 8730,
      "Ġvac": 8731,
      "ĠDublin": 8732,
      "ĠJun": 8733,
      "ĠLinda": 8734,
      "ostle": 8735,
      "Ġteaches": 8736,
      "Ġprisons": 8737,
      "Ġnoise": 8738,
      "izations": 8739,
      "izabeth": 8740,
      "ordon": 8741,
      "Ġresolutions": 8742,
      "ĠChild": 8743,
      "ĠChamp": 8744,
      "Ġconsent": 8745,
      "rick": 8746,
      "Ġbrilliant": 8747,
      "ava": 8748,
      "Ġfactory": 8749,
      "Ġattend": 8750,
      "ĠYoung": 8751,
      "Ġcontinents": 8752,
      "ĠVer": 8753,
      "Ġminor": 8754,
      "liver": 8755,
      "liers": 8756,
      "Ġelite": 8757,
      "Ġemails": 8758,
      "Ġleading": 8759,
      "ĠThan": 8760,
      "Ġinspect": 8761,
      "Ġdetect": 8762,
      "Too": 8763,
      "Ġrecognise": 8764,
      "ĠQueen": 8765,
      "Ġpractically": 8766,
      "ĠProv": 8767,
      "ĠProduct": 8768,
      "Ġactivated": 8769,
      "Ġprincess": 8770,
      "ĠMaria": 8771,
      "Ġshortly": 8772,
      "Ġclassic": 8773,
      "ĠAustrian": 8774,
      "appro": 8775,
      "Ġemployee": 8776,
      "Ġconnections": 8777,
      "Ġbelonged": 8778,
      "Ġdrivers": 8779,
      "Ġapplicable": 8780,
      "Ġregulated": 8781,
      "Ġdemanding": 8782,
      "Ġexcuse": 8783,
      "Ġfrequency": 8784,
      "Ġdiscipl": 8785,
      "ĠCongo": 8786,
      "Ġpsychological": 8787,
      "Ġpillar": 8788,
      "Ġcurrencies": 8789,
      "Ġvaccine": 8790,
      "Ġtolerate": 8791,
      "Ġburned": 8792,
      "Ġdistinct": 8793,
      "Ġcomparison": 8794,
      "Ġunfair": 8795,
      "ĠTorah": 8796,
      "Ġdeparture": 8797,
      "PPE": 8798,
      "Ġcannabis": 8799,
      "Ġhelicopter": 8800,
      "ĠEthiop": 8801,
      "Ġdenominations": 8802,
      "\":": 8803,
      "84": 8804,
      "Gl": 8805,
      "IE": 8806,
      "Mill": 8807,
      "Pray": 8808,
      "comes": 8809,
      "fare": 8810,
      "ique": 8811,
      "last": 8812,
      "mble": 8813,
      "mony": 8814,
      "Ġtang": 8815,
      "Ġwins": 8816,
      "aturally": 8817,
      "anas": 8818,
      "itably": 8819,
      "Ġthres": 8820,
      "Ġmour": 8821,
      "Ġmunicip": 8822,
      "Ġtox": 8823,
      "edia": 8824,
      "arge": 8825,
      "Ġlion": 8826,
      "ĠCross": 8827,
      "ĠMel": 8828,
      "Ġkm": 8829,
      "uls": 8830,
      "Ġcomr": 8831,
      "thur": 8832,
      "Ġmeal": 8833,
      "osal": 8834,
      "Ġlob": 8835,
      "Ġloans": 8836,
      "Ġlock": 8837,
      "Ġritual": 8838,
      "ĠNature": 8839,
      "udes": 8840,
      "Ġnowhere": 8841,
      "Ġteen": 8842,
      "plan": 8843,
      "Ġnoble": 8844,
      "apore": 8845,
      "ĠUnder": 8846,
      "ords": 8847,
      "Ġcomply": 8848,
      "Ġqueen": 8849,
      "ĠChange": 8850,
      "Ġcommands": 8851,
      "ocide": 8852,
      "Ġundert": 8853,
      "Ġimported": 8854,
      "Ġserving": 8855,
      "Ġindisp": 8856,
      "Ġdesert": 8857,
      "Ġfell": 8858,
      "Ġ2018": 8859,
      "Ġcreators": 8860,
      "ĠInf": 8861,
      "ĠVen": 8862,
      "Ġtransaction": 8863,
      "ĠAndrew": 8864,
      "Ġpromotion": 8865,
      "Ġavoided": 8866,
      "Ġscreen": 8867,
      "Ġaccepts": 8868,
      "ĠDeath": 8869,
      "Ġfloor": 8870,
      "ĠIndians": 8871,
      "Ġvaluable": 8872,
      "Ġrevision": 8873,
      "Ġsuppliers": 8874,
      "Ġharder": 8875,
      "ĠCommissioner": 8876,
      "Ġswim": 8877,
      "ĠConst": 8878,
      "Ġobjects": 8879,
      "Ġemployer": 8880,
      "Ġaffects": 8881,
      "ĠOrder": 8882,
      "ĠSchengen": 8883,
      "Ġessence": 8884,
      "Ġtowns": 8885,
      "Ġcontrast": 8886,
      "Ġclearer": 8887,
      "Ġpunished": 8888,
      "Ġwebsites": 8889,
      "ĠNetanyahu": 8890,
      "Ġsubstant": 8891,
      "Ġvirtually": 8892,
      "Ġcriticism": 8893,
      "Ġconquered": 8894,
      "Ġsuspic": 8895,
      "Ġtrends": 8896,
      "ĠWilliams": 8897,
      "Ġawaits": 8898,
      "standing": 8899,
      "ĠServices": 8900,
      "Ġsolely": 8901,
      "ĠSecretary": 8902,
      "inciples": 8903,
      "Ġincorpor": 8904,
      "Ġcongratulate": 8905,
      "Ġregistered": 8906,
      "Ġaccurate": 8907,
      "Ġcousin": 8908,
      "ĠWilson": 8909,
      "Nonetheless": 8910,
      "Ġinfinite": 8911,
      "ĠDeclaration": 8912,
      "thodox": 8913,
      "ĠCambod": 8914,
      "Ġthreshold": 8915,
      "Av": 8916,
      "CH": 8917,
      "Hamas": 8918,
      "Person": 8919,
      "Rel": 8920,
      "Rep": 8921,
      "Worse": 8922,
      "ford": 8923,
      "host": 8924,
      "mare": 8925,
      "via": 8926,
      "Ġtough": 8927,
      "Ġtens": 8928,
      "Ġwood": 8929,
      "isition": 8930,
      "itan": 8931,
      "orable": 8932,
      "Ġeighth": 8933,
      "etite": 8934,
      "ithuan": 8935,
      "igor": 8936,
      "Ġstressed": 8937,
      "ĠST": 8938,
      "Ġkiss": 8939,
      "istor": 8940,
      "Ġdeals": 8941,
      "ĠPen": 8942,
      "ĠPac": 8943,
      "Ġshoe": 8944,
      "pped": 8945,
      "ĠBalk": 8946,
      "ĠBah": 8947,
      "ĠHaw": 8948,
      "acco": 8949,
      "ĠRay": 8950,
      "ĠRac": 8951,
      "ĠFBI": 8952,
      "ĠDNA": 8953,
      "ĠNic": 8954,
      "ĠNation": 8955,
      "ĠTa": 8956,
      "ĠTree": 8957,
      "Ġplants": 8958,
      "akers": 8959,
      "ĠWood": 8960,
      "ĠWoman": 8961,
      "about": 8962,
      "Ġenable": 8963,
      "izza": 8964,
      "Ġresident": 8965,
      "ĠOl": 8966,
      "peror": 8967,
      "Ġcock": 8968,
      "ips": 8969,
      "Ġsheep": 8970,
      "Ass": 8971,
      "Ġevolve": 8972,
      "Ġ911": 8973,
      "Ġconferences": 8974,
      "Ġnamely": 8975,
      "Ġdiscour": 8976,
      "Ġemail": 8977,
      "ovak": 8978,
      "Ġcentres": 8979,
      "Ġformat": 8980,
      "ructive": 8981,
      "ĠAssoci": 8982,
      "Ġputs": 8983,
      "Ġpoet": 8984,
      "ĠAlban": 8985,
      "Ġsuffers": 8986,
      "Ġflu": 8987,
      "Ġdisturb": 8988,
      "150": 8989,
      "ĠLevel": 8990,
      "ĠConf": 8991,
      "Ġcitizenship": 8992,
      "Ġopposed": 8993,
      "Ġboats": 8994,
      "Start": 8995,
      "Ġcivilian": 8996,
      "Ġdetermination": 8997,
      "Ġreactions": 8998,
      "ĠWhich": 8999,
      "itorial": 9000,
      "Ġ1970": 9001,
      "ustainable": 9002,
      "Ġconcepts": 9003,
      "Trans": 9004,
      "ĠGuard": 9005,
      "Ġvillages": 9006,
      "Ġanalyst": 9007,
      "Ġmicrophone": 9008,
      "ĠRomanian": 9009,
      "Ġsearching": 9010,
      "Ġclubs": 9011,
      "Ġcopies": 9012,
      "Ġfleet": 9013,
      "ĠProtocol": 9014,
      "ĠLiberal": 9015,
      "Ġlaboratory": 9016,
      "Ġevaluation": 9017,
      "Ġbetrayed": 9018,
      "Ġmask": 9019,
      "Ġinjured": 9020,
      "ĠMontreal": 9021,
      "Ġdiamond": 9022,
      "ĠAtlantic": 9023,
      "Ġfixed": 9024,
      "Article": 9025,
      "ĠSavior": 9026,
      "Ġremarkable": 9027,
      "Ġceremony": 9028,
      "ĠHenry": 9029,
      "ĠKazakh": 9030,
      "Ultimately": 9031,
      "))": 9032,
      "83": 9033,
      "Geor": 9034,
      "Okay": 9035,
      "Time": 9036,
      "comp": 9037,
      "laughs": 9038,
      "rary": 9039,
      "uing": 9040,
      "your": 9041,
      "Ġdatab": 9042,
      "arks": 9043,
      "Ġrej": 9044,
      "ĠIb": 9045,
      "Ġgal": 9046,
      "sters": 9047,
      "idel": 9048,
      "allow": 9049,
      "Ġanonym": 9050,
      "Ġsegment": 9051,
      "Ġstone": 9052,
      "Ġstolen": 9053,
      "ĠCopenh": 9054,
      "ĠMuch": 9055,
      "ĠMicro": 9056,
      "ĠEb": 9057,
      "ĠEnt": 9058,
      "Ġdeeds": 9059,
      "Ġchief": 9060,
      "Ġabortion": 9061,
      "ĠJam": 9062,
      "ĠLuc": 9063,
      "ĠLaura": 9064,
      "ĠNick": 9065,
      "ĠNorthern": 9066,
      "inding": 9067,
      "arest": 9068,
      "Ġjustified": 9069,
      "Ġarise": 9070,
      "Ġacted": 9071,
      "Ġ350": 9072,
      "Ġdisg": 9073,
      "ĠKy": 9074,
      "onses": 9075,
      "Ġbran": 9076,
      "ĠYah": 9077,
      "Ġobedience": 9078,
      "ĠIniti": 9079,
      "Ġlaid": 9080,
      "Ġcourts": 9081,
      "Ġ66": 9082,
      "Ġrefuses": 9083,
      "2012": 9084,
      "ĠAndor": 9085,
      "Ġsignals": 9086,
      "Ġforemost": 9087,
      "nedy": 9088,
      "Ġpatri": 9089,
      "Ġapprove": 9090,
      "Ġdirected": 9091,
      "Ġflood": 9092,
      "Chris": 9093,
      "ĠBefore": 9094,
      "ĠZeal": 9095,
      "Ġsets": 9096,
      "Ġfreedoms": 9097,
      "Ġ1984": 9098,
      "Ġsumm": 9099,
      "Ġsurviv": 9100,
      "Ġstructural": 9101,
      "Ġnegotiated": 9102,
      "ographic": 9103,
      "Ġcyber": 9104,
      "Ġmechanical": 9105,
      "Ġportra": 9106,
      "Ġgrandfather": 9107,
      "Ġobligations": 9108,
      "Ġpossessed": 9109,
      "Ġbehaviour": 9110,
      "ttes": 9111,
      "rasbourg": 9112,
      "ĠRobin": 9113,
      "Ġbreath": 9114,
      "Ġruin": 9115,
      "Ġcomponent": 9116,
      "Ġhesitate": 9117,
      "ĠNazis": 9118,
      "Ġambassador": 9119,
      "Ġparadox": 9120,
      "ĠBarbara": 9121,
      "Ġfacilitate": 9122,
      "ĠCreation": 9123,
      "ĠBudd": 9124,
      "ĠTalib": 9125,
      "ĠFriends": 9126,
      "Ġimplications": 9127,
      "Ġsurveillance": 9128,
      "Ġsplit": 9129,
      "Ġmacro": 9130,
      "Ġchicken": 9131,
      "ĠAssociation": 9132,
      "ĠZealand": 9133,
      "!!": 9134,
      "03": 9135,
      "05": 9136,
      "93": 9137,
      "BS": 9138,
      "LA": 9139,
      "ME": 9140,
      "Moses": 9141,
      "Norm": 9142,
      "OK": 9143,
      "RU": 9144,
      "Red": 9145,
      "cus": 9146,
      "hus": 9147,
      "nis": 9148,
      "pent": 9149,
      "point": 9150,
      "uis": 9151,
      "worth": 9152,
      "zen": 9153,
      "Ìģ": 9154,
      "ĠÃ": 9155,
      "ĠÌģ": 9156,
      "inos": 9157,
      "onic": 9158,
      "Ġsnow": 9159,
      "Ġsomeday": 9160,
      "isit": 9161,
      "atri": 9162,
      "anim": 9163,
      "Ġcoun": 9164,
      "Ġbag": 9165,
      "Ġpapers": 9166,
      "Ġinqu": 9167,
      "Ġinject": 9168,
      "Ġnose": 9169,
      "icism": 9170,
      "Ġgrew": 9171,
      "Ġgender": 9172,
      "illion": 9173,
      "ifer": 9174,
      "igu": 9175,
      "ĠAM": 9176,
[...]
