{
  "version": "1.0",
  "truncation": null,
  "padding": null,
  "added_tokens": [
    {
      "id": 0,
      "content": "<pad>",
      "single_word": false,
      "lstrip": false,
      "rstrip": false,
      "normalized": false,
      "special": true
    },
    {
      "id": 1,
      "content": "<s>",
      "single_word": false,
      "lstrip": false,
      "rstrip": false,
      "normalized": false,
      "special": true
    },
    {
      "id": 2,
      "content": "</s>",
      "single_word": false,
      "lstrip": false,
      "rstrip": false,
      "normalized": false,
      "special": true
    },
    {
      "id": 3,
      "content": "<unk>",
      "single_word": false,
      "lstrip": false,
      "rstrip": false,
      "normalized": false,
      "special": true
    },
    {
      "id": 4,
      "content": "<mask>",
      "single_word": false,
      "lstrip": false,
      "rstrip": false,
      "normalized": false,
      "special": true
    }
  ],
  "normalizer": {
    "type": "NFKC"
  },
  "pre_tokenizer": {
    "type": "ByteLevel",
    "add_prefix_space": false,
    "trim_offsets": true,
    "use_regex": true
  },
  "post_processor": null,
  "decoder": null,
  "model": {
    "type": "BPE",
    "dropout": null,
    "unk_token": null,
    "continuing_subword_prefix": null,
    "end_of_word_suffix": null,
    "fuse_unk": false,
    "byte_fallback": false,
    "ignore_merges": false,
    "vocab": {
      "<pad>": 0,
      "<s>": 1,
      "</s>": 2,
      "<unk>": 3,
      "<mask>": 4,
      "!": 5,
      "\"": 6,
      "#": 7,
      "$": 8,
      "%": 9,
      "&": 10,
      "'": 11,
      "(": 12,
      ")": 13,
      "*": 14,
      "+": 15,
      ",": 16,
      "-": 17,
      ".": 18,
      "/": 19,
      "0": 20,
      "1": 21,
      "2": 22,
      "3": 23,
      "4": 24,
      "5": 25,
      "6": 26,
      "7": 27,
      "8": 28,
      "9": 29,
      ":": 30,
      ";": 31,
      "<": 32,
      "=": 33,
      ">": 34,
      "?": 35,
      "@": 36,
      "A": 37,
      "B": 38,
      "C": 39,
      "D": 40,
      "E": 41,
      "F": 42,
      "G": 43,
      "H": 44,
      "I": 45,
      "J": 46,
      "K": 47,
      "L": 48,
      "M": 49,
      "N": 50,
      "O": 51,
      "P": 52,
      "Q": 53,
      "R": 54,
      "S": 55,
      "T": 56,
      "U": 57,
      "V": 58,
      "W": 59,
      "X": 60,
      "Y": 61,
      "Z": 62,
      "[": 63,
      "\\": 64,
      "]": 65,
      "^": 66,
      "_": 67,
      "`": 68,
      "a": 69,
      "b": 70,
      "c": 71,
      "d": 72,
      "e": 73,
      "f": 74,
      "g": 75,
      "h": 76,
      "i": 77,
      "j": 78,
      "k": 79,
      "l": 80,
      "m": 81,
      "n": 82,
      "o": 83,
      "p": 84,
      "q": 85,
      "r": 86,
      "s": 87,
      "t": 88,
      "u": 89,
      "v": 90,
      "w": 91,
      "x": 92,
      "y": 93,
      "z": 94,
      "{": 95,
      "|": 96,
      "}": 97,
      "~": 98,
      "¡": 99,
      "¢": 100,
      "£": 101,
      "¤": 102,
      "¥": 103,
      "¦": 104,
      "§": 105,
      "¨": 106,
      "©": 107,
      "ª": 108,
      "«": 109,
      "¬": 110,
      "®": 111,
      "¯": 112,
      "°": 113,
      "±": 114,
      "²": 115,
      "³": 116,
      "´": 117,
      "µ": 118,
      "¶": 119,
      "·": 120,
      "¸": 121,
      "¹": 122,
      "º": 123,
      "»": 124,
      "¼": 125,
      "½": 126,
      "¾": 127,
      "¿": 128,
      "À": 129,
      "Á": 130,
      "Â": 131,
      "Ã": 132,
      "Ä": 133,
      "Å": 134,
      "Æ": 135,
      "Ç": 136,
      "È": 137,
      "É": 138,
      "Ê": 139,
      "Ë": 140,
      "Ì": 141,
      "Í": 142,
      "Î": 143,
      "Ï": 144,
      "Ð": 145,
      "Ñ": 146,
      "Ò": 147,
      "Ó": 148,
      "Ô": 149,
      "Õ": 150,
      "Ö": 151,
      "×": 152,
      "Ø": 153,
      "Ù": 154,
      "Ú": 155,
      "Û": 156,
      "Ü": 157,
      "Ý": 158,
      "Þ": 159,
      "ß": 160,
      "à": 161,
      "á": 162,
      "â": 163,
      "ã": 164,
      "ä": 165,
      "å": 166,
      "æ": 167,
      "ç": 168,
      "è": 169,
      "é": 170,
      "ê": 171,
      "ë": 172,
      "ì": 173,
      "í": 174,
      "î": 175,
      "ï": 176,
      "ð": 177,
      "ñ": 178,
      "ò": 179,
      "ó": 180,
      "ô": 181,
      "õ": 182,
      "ö": 183,
      "÷": 184,
      "ø": 185,
      "ù": 186,
      "ú": 187,
      "û": 188,
      "ü": 189,
      "ý": 190,
      "þ": 191,
      "ÿ": 192,
      "Ā": 193,
      "ā": 194,
      "Ă": 195,
      "ă": 196,
      "Ą": 197,
      "ą": 198,
      "Ć": 199,
      "ć": 200,
      "Ĉ": 201,
      "ĉ": 202,
      "Ċ": 203,
      "ċ": 204,
      "Č": 205,
      "č": 206,
      "Ď": 207,
      "ď": 208,
      "Đ": 209,
      "đ": 210,
      "Ē": 211,
      "ē": 212,
      "Ĕ": 213,
      "ĕ": 214,
      "Ė": 215,
      "ė": 216,
      "Ę": 217,
      "ę": 218,
      "Ě": 219,
      "ě": 220,
      "Ĝ": 221,
      "ĝ": 222,
      "Ğ": 223,
      "ğ": 224,
      "Ġ": 225,
      "ġ": 226,
      "Ģ": 227,
      "ģ": 228,
      "Ĥ": 229,
      "ĥ": 230,
      "Ħ": 231,
      "ħ": 232,
      "Ĩ": 233,
      "ĩ": 234,
      "Ī": 235,
      "ī": 236,
      "Ĭ": 237,
      "ĭ": 238,
      "Į": 239,
      "į": 240,
      "İ": 241,
      "ı": 242,
      "Ĳ": 243,
      "ĳ": 244,
      "Ĵ": 245,
      "ĵ": 246,
      "Ķ": 247,
      "ķ": 248,
      "ĸ": 249,
      "Ĺ": 250,
      "ĺ": 251,
      "Ļ": 252,
      "ļ": 253,
      "Ľ": 254,
      "ľ": 255,
      "Ŀ": 256,
      "ŀ": 257,
      "Ł": 258,
      "ł": 259,
      "Ń": 260,
      "Ġt": 261,
      "he": 262,
      "Ġa": 263,
      "Ġw": 264,
      "Ġthe": 265,
      "in": 266,
      "re": 267,
      "Ġo": 268,
      "is": 269,
      "ou": 270,
      "Ġs": 271,
      "ha": 272,
      "âĢ": 273,
      "er": 274,
      "nd": 275,
      "on": 276,
      "Ġb": 277,
      "Ġc": 278,
      "ll": 279,
      "it": 280,
      "or": 281,
      "Ġto": 282,
      "Ġf": 283,
      "en": 284,
      "Ġof": 285,
      "es": 286,
      "Ġm": 287,
      "an": 288,
      "Ġp": 289,
      "Ġd": 290,
      "Ġy": 291,
      "ed": 292,
      "ing": 293,
      "at": 294,
      "Ġin": 295,
      "Ġyou": 296,
      "Ġn": 297,
      "Ġis": 298,
      "od": 299,
      "Ġbe": 300,
      "hat": 301,
      "Ġand": 302,
      "ar": 303,
      "ve": 304,
      "Ġl": 305,
      "om": 306,
      "Ġth": 307,
      "Ġha": 308,
      "ĠG": 309,
      "âĢĻ": 310,
      "se": 311,
      "ow": 312,
      "ĠGod": 313,
      "âĢĿ": 314,
      "st": 315,
      "Ġe": 316,
      "ot": 317,
      "ion": 318,
      "ill": 319,
      "ay": 320,
      "le": 321,
      "Ġh": 322,
      "ld": 323,
      "ut": 324,
      "Ġhe": 325,
      "Ġre": 326,
      "Ġg": 327,
      "Ġthat": 328,
      "ce": 329,
      "im": 330,
      "Ġwe": 331,
      "ly": 332,
      ".âĢĿ": 333,
      "Ġwill": 334,
      "al": 335,
      "Ġfor": 336,
      "The": 337,
      "id": 338,
      "ĠI": 339,
      "Ġon": 340,
      "ver": 341,
      "ur": 342,
      "as": 343,
      "ent": 344,
      "Ġit": 345,
      "ith": 346,
      "ic": 347,
      "Ġare": 348,
      "Ġu": 349,
      "if": 350,
      "Ġhave": 351,
      ".\"": 352,
      "Ġnot": 353,
      "ir": 354,
      "ct": 355,
      "Ġthis": 356,
      "âĢľ": 357,
      "op": 358,
      "Ġwh": 359,
      "her": 360,
      "Ġwith": 361,
      "et": 362,
      "am": 363,
      "gh": 364,
      "Ġthey": 365,
      "Ġk": 366,
      "'s": 367,
      "Ġse": 368,
      "ĠS": 369,
      "Ġpr": 370,
      "Ġdo": 371,
      "ould": 372,
      "Ġan": 373,
      "ĠA": 374,
      "ĠH": 375,
      "Ġas": 376,
      "Ġwas": 377,
      "ation": 378,
      "ra": 379,
      "Ġwor": 380,
      "Ġcan": 381,
      "th": 382,
      "ad": 383,
      "ke": 384,
      "ess": 385,
      "ĠM": 386,
      "ght": 387,
      "And": 388,
      "ch": 389,
      "ore": 390,
      "Ġyour": 391,
      "Ġall": 392,
      "Ġthem": 393,
      "Ġli": 394,
      "ri": 395,
      "now": 396,
      "Ġal": 397,
      "ant": 398,
      "We": 399,
      "all": 400,
      "Ġwhat": 401,
      "ter": 402,
      "Ġpe": 403,
      "ain": 404,
      "ĠC": 405,
      "Ġne": 406,
      "hen": 407,
      "Ġcom": 408,
      "est": 409,
      "You": 410,
      "el": 411,
      "Ġknow": 412,
      "Ġsa": 413,
      "Ġor": 414,
      "Ġme": 415,
      "Ġ(": 416,
      "Ġst": 417,
      "Ġhim": 418,
      "very": 419,
      "ven": 420,
      "ul": 421,
      "il": 422,
      "Ġtr": 423,
      "Ġex": 424,
      "ear": 425,
      "Ġcon": 426,
      "Ġwho": 427,
      "ople": 428,
      "em": 429,
      "os": 430,
      "ust": 431,
      "han": 432,
      "Ġone": 433,
      "and": 434,
      "Ġman": 435,
      "reat": 436,
      "us": 437,
      "Ġus": 438,
      "Ġpeople": 439,
      "ble": 440,
      "Ġhas": 441,
      "Ġfr": 442,
      "au": 443,
      "pp": 444,
      "ive": 445,
      "Ġde": 446,
      "ers": 447,
      "art": 448,
      "ĠL": 449,
      "..": 450,
      "He": 451,
      "Th": 452,
      "Ġhis": 453,
      "li": 454,
      "Ġthere": 455,
      "nt": 456,
      "ĠW": 457,
      "ose": 458,
      "Ġby": 459,
      "But": 460,
      "Ġsu": 461,
      "Ġbec": 462,
      "ord": 463,
      "Ġfrom": 464,
      "ge": 465,
      "ĠâĢ": 466,
      "one": 467,
      "ther": 468,
      "Ġsh": 469,
      "ong": 470,
      "Ġj": 471,
      "ĠâĢľ": 472,
      "Ġtheir": 473,
      "ĠJ": 474,
      "ist": 475,
      "Ġat": 476,
      "Ġ1": 477,
      "Ġ[": 478,
      "ea": 479,
      "ity": 480,
      "Ġ\"": 481,
      "Ġgo": 482,
      "so": 483,
      "ĠE": 484,
      "uth": 485,
      "Ġsee": 486,
      "ome": 487,
      "Ġlo": 488,
      "Ġour": 489,
      "Ġsay": 490,
      "ĠP": 491,
      "res": 492,
      "out": 493,
      "Ġso": 494,
      "Ġch": 495,
      "ment": 496,
      "Ġwould": 497,
      "ate": 498,
      "ame": 499,
      "Ġab": 500,
      "ause": 501,
      "Ġthing": 502,
      "Ġsaid": 503,
      "Ġwhen": 504,
      "ect": 505,
      "Ġwant": 506,
      "Ġbut": 507,
      "Ġif": 508,
      "ac": 509,
      "Ġmy": 510,
      "Ġonly": 511,
      "Ġworld": 512,
      "ĠB": 513,
      "ĠT": 514,
      "red": 515,
      "ort": 516,
      "ally": 517,
      "ife": 518,
      "Ġother": 519,
      "ast": 520,
      "Ġday": 521,
      "They": 522,
      "Ġtim": 523,
      "Ġlike": 524,
      "ol": 525,
      "ace": 526,
      "It": 527,
      "Ġpl": 528,
      "Ġalso": 529,
      "ĠD": 530,
      "Ġno": 531,
      "pt": 532,
      "Ġ2": 533,
      "ind": 534,
      "ight": 535,
      "um": 536,
      "ild": 537,
      "Ġevery": 538,
      "Ġhad": 539,
      "This": 540,
      "00": 541,
      "Ġmore": 542,
      "ence": 543,
      "ich": 544,
      "ĠF": 545,
      "Ġthese": 546,
      "our": 547,
      "ig": 548,
      "In": 549,
      "Ġnow": 550,
      "Ġpro": 551,
      "qu": 552,
      "Ġsp": 553,
      "sel": 554,
      "Ġwere": 555,
      "other": 556,
      "ake": 557,
      ".âĢĻ": 558,
      "ren": 559,
      "Ġthan": 560,
      "ĠHe": 561,
      "Ġbecause": 562,
      "Ġlife": 563,
      "ure": 564,
      "Ġthen": 565,
      "ok": 566,
      "Ġv": 567,
      "Ġabout": 568,
      "un": 569,
      "Ġtime": 570,
      "Ġag": 571,
      "Ġshould": 572,
      "ous": 573,
      "ies": 574,
      "Ġyear": 575,
      "Ġfa": 576,
      "ud": 577,
      "ĠR": 578,
      "ions": 579,
      "ĠIs": 580,
      "ves": 581,
      "Ġr": 582,
      "Ġen": 583,
      "ink": 584,
      "Ġdid": 585,
      "hing": 586,
      "Ġsha": 587,
      "ĠâĢĵ": 588,
      "Ġhow": 589,
      "ice": 590,
      "Ġany": 591,
      "ĠN": 592,
      "Ġwhich": 593,
      "Ġtruth": 594,
      "ans": 595,
      "ard": 596,
      "Ġchild": 597,
      "ber": 598,
      "Ġthose": 599,
      "If": 600,
      "fore": 601,
      "end": 602,
      "ire": 603,
      "Ġam": 604,
      "ope": 605,
      "ec": 606,
      "Ġad": 607,
      "Ġint": 608,
      "ab": 609,
      "ise": 610,
      "irst": 611,
      "ond": 612,
      "ath": 613,
      "here": 614,
      "Ġaf": 615,
      "ough": 616,
      "Ġbeli": 617,
      "ree": 618,
      "ide": 619,
      "ah": 620,
      "rael": 621,
      "ever": 622,
      "ĠLord": 623,
      "ue": 624,
      "eve": 625,
      "Ġim": 626,
      "Ġcome": 627,
      "Ġjust": 628,
      "ell": 629,
      "Ġwork": 630,
      "Ġcould": 631,
      "Ġbeen": 632,
      "There": 633,
      "...": 634,
      "Ġac": 635,
      "ved": 636,
      "Ġcreat": 637,
      "ĠHis": 638,
      "Ġmany": 639,
      "self": 640,
      "On": 641,
      "When": 642,
      "si": 643,
      "ount": 644,
      "Ġthings": 645,
      "ĠIsrael": 646,
      "Ġ-": 647,
      "ost": 648,
      "ful": 649,
      "Ġneed": 650,
      "Ġfirst": 651,
      "Ġcont": 652,
      "Ġpart": 653,
      "Ġgreat": 654,
      "ness": 655,
      "ry": 656,
      "ak": 657,
      "ine": 658,
      "ĠSon": 659,
      "Ġshall": 660,
      "Ġrem": 661,
      "God": 662,
      "Wh": 663,
      "ance": 664,
      "Ġthink": 665,
      "Ġeven": 666,
      "Ġup": 667,
      "pl": 668,
      "ĠYou": 669,
      "Ġwhy": 670,
      "ro": 671,
      "Ġfo": 672,
      "Ġbet": 673,
      "ach": 674,
      "way": 675,
      "ather": 676,
      "Ġagain": 677,
      "ĠK": 678,
      "Ġtw": 679,
      "Ġpres": 680,
      "lp": 681,
      "day": 682,
      "Ġser": 683,
      "Ġun": 684,
      "Ġchildren": 685,
      ").": 686,
      "fe": 687,
      "itt": 688,
      "Ġhelp": 689,
      "ations": 690,
      "Ġout": 691,
      "nder": 692,
      "omet": 693,
      "ied": 694,
      "Ġword": 695,
      "ack": 696,
      "Ġcall": 697,
      "Ġdis": 698,
      "Ġway": 699,
      "thing": 700,
      "Ġyears": 701,
      "ew": 702,
      "ish": 703,
      "Ġper": 704,
      "arth": 705,
      "Ġdoes": 706,
      "able": 707,
      "wn": 708,
      "Ġsome": 709,
      "ci": 710,
      "Ġvery": 711,
      "ag": 712,
      "iz": 713,
      "Ġmust": 714,
      "age": 715,
      "So": 716,
      "Ġher": 717,
      "Ġres": 718,
      "ts": 719,
      "Ġbr": 720,
      "iv": 721,
      "Ġits": 722,
      "Ġnever": 723,
      "What": 724,
      "Ġtwo": 725,
      "ple": 726,
      "Ġri": 727,
      "Ġdes": 728,
      "Ġhapp": 729,
      "Ġmay": 730,
      "Ġask": 731,
      "Ġshe": 732,
      "Ġsin": 733,
      "urn": 734,
      "ade": 735,
      "How": 736,
      "ĠCh": 737,
      "Ġafter": 738,
      "Ġ3": 739,
      "ep": 740,
      "ound": 741,
      "tain": 742,
      "Ġunder": 743,
      "omething": 744,
      "are": 745,
      "rong": 746,
      "Ġnew": 747,
      "we": 748,
      "Ġbl": 749,
      "Ġgr": 750,
      "urope": 751,
      "Ġlove": 752,
      "Ġinto": 753,
      "ary": 754,
      "Ġcomm": 755,
      "Ġgood": 756,
      "ign": 757,
      "Ġtoday": 758,
      "Ġgive": 759,
      "Ġmade": 760,
      "Ġadd": 761,
      "ĠO": 762,
      "Ġar": 763,
      "Ġapp": 764,
      "Ġwhere": 765,
      "Ġsame": 766,
      "Ġtoo": 767,
      "Ġpre": 768,
      "Ġhere": 769,
      "That": 770,
      "ap": 771,
      "Ġanother": 772,
      "Ġright": 773,
      "Ġcount": 774,
      "ction": 775,
      "ff": 776,
      "og": 777,
      "Ġ4": 778,
      "Ġown": 779,
      "ie": 780,
      "ning": 781,
      "Ġfaith": 782,
      ",âĢĿ": 783,
      "Ġcl": 784,
      "Ġlast": 785,
      "ving": 786,
      "Ġchan": 787,
      "ite": 788,
      "Ġbelieve": 789,
      "Ġimp": 790,
      "Ġrec": 791,
      "ks": 792,
      "ĠU": 793,
      "Ġsomething": 794,
      "ĠEurope": 795,
      "ob": 796,
      "ady": 797,
      "Ġqu": 798,
      "ated": 799,
      "Ġheart": 800,
      "cept": 801,
      "Do": 802,
      "the": 803,
      "Ġgl": 804,
      "Ġmis": 805,
      "Ġsec": 806,
      "ru": 807,
      "llow": 808,
      "Ġpos": 809,
      "Ġdif": 810,
      "Ġle": 811,
      "Ġprom": 812,
      "Ġacc": 813,
      "ily": 814,
      "Ġmon": 815,
      "Ġbefore": 816,
      "ower": 817,
      "ass": 818,
      "act": 819,
      "ĠWe": 820,
      "tern": 821,
      "uch": 822,
      "ruth": 823,
      "Ġtell": 824,
      "Ġlook": 825,
      "For": 826,
      "get": 827,
      "Ġlea": 828,
      "Ġhand": 829,
      "Ġpeace": 830,
      "Ġdeath": 831,
      "erson": 832,
      "Ġwom": 833,
      "Ġearth": 834,
      "ified": 835,
      "Ġexp": 836,
      "Ġbecome": 837,
      "No": 838,
      "ian": 839,
      "ious": 840,
      "Ġrep": 841,
      "Ġwords": 842,
      "As": 843,
      "be": 844,
      "ham": 845,
      "Ġthr": 846,
      "Then": 847,
      "ĠAll": 848,
      "Ġfollow": 849,
      "vid": 850,
      "hed": 851,
      "Ġmake": 852,
      "Ġhum": 853,
      "Ġplace": 854,
      "Ġcreated": 855,
      "ip": 856,
      "ition": 857,
      "âĢĿ.": 858,
      "ĠHim": 859,
      "not": 860,
      "Ġprop": 861,
      "ĠWord": 862,
      "Ġreal": 863,
      "ways": 864,
      "ood": 865,
      "ook": 866,
      "Ġact": 867,
      "ought": 868,
      "Ġcomp": 869,
      "Ġglor": 870,
      "aven": 871,
      "Ġtake": 872,
      "Ġson": 873,
      "Ġnam": 874,
      "Ġname": 875,
      "Ġlong": 876,
      "Ġsuch": 877,
      "udg": 878,
      "cy": 879,
      "ery": 880,
      "atan": 881,
      "Ġind": 882,
      "Ġthree": 883,
      "Ġreally": 884,
      "ĠâĢĺ": 885,
      "ĠThe": 886,
      "Ġable": 887,
      "Ġpo": 888,
      "Ġperson": 889,
      "Ġking": 890,
      "Ġkill": 891,
      "Ġtrue": 892,
      "Why": 893,
      "Ġco": 894,
      "Ġheaven": 895,
      "ĠAnd": 896,
      "Ġ19": 897,
      "ject": 898,
      "Ġop": 899,
      "Ġdone": 900,
      "ater": 901,
      "als": 902,
      "Ġpower": 903,
      "ings": 904,
      "irit": 905,
      "riend": 906,
      "ia": 907,
      "Ġdest": 908,
      "Ġinv": 909,
      "Ġget": 910,
      "Ġpray": 911,
      "ult": 912,
      "Ġserv": 913,
      "Ġwr": 914,
      "Ġalways": 915,
      "ittle": 916,
      "aw": 917,
      "ready": 918,
      "Ġover": 919,
      "Ġrece": 920,
      "Ġgu": 921,
      "Ġalready": 922,
      "Ġhimself": 923,
      "Ġeverything": 924,
      "ors": 925,
      "Ġcannot": 926,
      "Ġdec": 927,
      "Ġagainst": 928,
      "Now": 929,
      "âĢĶ": 930,
      "Ġev": 931,
      "Ġend": 932,
      "Ġhappen": 933,
      "ween": 934,
      "Ġthrough": 935,
      "for": 936,
      "iven": 937,
      "oc": 938,
      "Ġ5": 939,
      "Ġwar": 940,
      "reation": 941,
      "ertain": 942,
      "Ġfind": 943,
      "Ġmen": 944,
      "Ġeach": 945,
      "ĠWh": 946,
      "sible": 947,
      "Ġunderst": 948,
      "ove": 949,
      "rent": 950,
      "ody": 951,
      "Ġunt": 952,
      "Ġlive": 953,
      "ember": 954,
      "Ġgoing": 955,
      "ĠTruth": 956,
      "Ġmuch": 957,
      "Ġlet": 958,
      "Ġlittle": 959,
      "ict": 960,
      "ical": 961,
      "Ġcons": 962,
      "'t": 963,
      "ces": 964,
      "ull": 965,
      "ĠAllah": 966,
      "Yes": 967,
      "ward": 968,
      "Ġback": 969,
      "Ġcr": 970,
      "Ġwell": 971,
      "ĠSp": 972,
      "Ġexist": 973,
      "ement": 974,
      "Ġamong": 975,
      "Ġbetween": 976,
      "Ġcalled": 977,
      "Ġdiffe": 978,
      "Ġmonth": 979,
      "les": 980,
      "oul": 981,
      "Ġfriend": 982,
      "esus": 983,
      "Ġdon": 984,
      "cess": 985,
      "Ġra": 986,
      "Ġmill": 987,
      "Ġbetter": 988,
      "Ġhuman": 989,
      "mer": 990,
      "Ġfam": 991,
      "alk": 992,
      "ick": 993,
      "Ġprophe": 994,
      "\".": 995,
      "ase": 996,
      "ile": 997,
      "oy": 998,
      "Ġ9": 999,
      "Ġent": 1000,
      "Ġcreation": 1001,
      "Ġfin": 1002,
      "Ġuse": 1003,
      "ĠSatan": 1004,
      "Ġplan": 1005,
      "udgment": 1006,
      "Every": 1007,
      "Wrong": 1008,
      "ience": 1009,
      "Ġsw": 1010,
      "Ġsoul": 1011,
      "Ġbeg": 1012,
      "Ġatt": 1013,
      "Ġupon": 1014,
      "Ġcha": 1015,
      "ark": 1016,
      "vel": 1017,
      "ason": 1018,
      "Ġresp": 1019,
      "Ġmisery": 1020,
      "Ġnaming": 1021,
      "ty": 1022,
      "uc": 1023,
      "ens": 1024,
      "own": 1025,
      "Ġwithout": 1026,
      "ĠChr": 1027,
      ",\"": 1028,
      "01": 1029,
      "dom": 1030,
      "ng": 1031,
      "oh": 1032,
      "Ġob": 1033,
      "Ġbu": 1034,
      "Ġfear": 1035,
      "000": 1036,
      "Ġunderstand": 1037,
      "Wrongly": 1038,
      "te": 1039,
      "Ġfe": 1040,
      "Ġfut": 1041,
      "Ġfound": 1042,
      "Ġbeing": 1043,
      "ĠSt": 1044,
      "].": 1045,
      "ident": 1046,
      "urp": 1047,
      "Ġseen": 1048,
      "ĠAb": 1049,
      "Ġknows": 1050,
      "Ġdays": 1051,
      "selves": 1052,
      "One": 1053,
      "Ġimport": 1054,
      "Ġhat": 1055,
      "Ġsm": 1056,
      "Ġcertain": 1057,
      "Ġmost": 1058,
      "ĠâĢĶ": 1059,
      "lf": 1060,
      "row": 1061,
      "Ġcle": 1062,
      "Ġpass": 1063,
      "Ġhope": 1064,
      "Ġforg": 1065,
      "oses": 1066,
      "Ġsupp": 1067,
      "ĠJesus": 1068,
      "Ġpresence": 1069,
      "Ġuntil": 1070,
      "Ġfuture": 1071,
      "ave": 1072,
      "avid": 1073,
      "led": 1074,
      "uly": 1075,
      "Ġ6": 1076,
      "Ġtold": 1077,
      "Ġinc": 1078,
      "Ġey": 1079,
      "Ġans": 1080,
      "Ġstart": 1081,
      "ĠQ": 1082,
      "Ġtea": 1083,
      "ret": 1084,
      "Ġfight": 1085,
      "Ġdr": 1086,
      "Ġinst": 1087,
      "Ġref": 1088,
      "ird": 1089,
      "Ġstill": 1090,
      "Ġcho": 1091,
      "Ġpromise": 1092,
      "ĠChrist": 1093,
      "ĠV": 1094,
      "hes": 1095,
      "Ġdou": 1096,
      "Ġnation": 1097,
      "Ġdoing": 1098,
      "Ġsays": 1099,
      "ress": 1100,
      "Ġwanted": 1101,
      "Ġplay": 1102,
      "roy": 1103,
      "Ġcountry": 1104,
      "Ġopen": 1105,
      "Ġdifferent": 1106,
      "ial": 1107,
      "Ġsign": 1108,
      "Ġmess": 1109,
      "Ġlist": 1110,
      "Ġke": 1111,
      "Ġtimes": 1112,
      "Ġwomen": 1113,
      "Ġdestroy": 1114,
      "Ġevil": 1115,
      "10": 1116,
      "ĠY": 1117,
      "ory": 1118,
      "Ġfour": 1119,
      "Ġoff": 1120,
      "Ġmight": 1121,
      "Ġever": 1122,
      "Ġreg": 1123,
      "Ġexam": 1124,
      "lig": 1125,
      "Only": 1126,
      "Ġchange": 1127,
      "Ġfamily": 1128,
      "?âĢĿ": 1129,
      "All": 1130,
      "less": 1131,
      "old": 1132,
      "Ġ...": 1133,
      "Ġte": 1134,
      "erm": 1135,
      "any": 1136,
      "Ġwee": 1137,
      "alse": 1138,
      "ĠIn": 1139,
      "ries": 1140,
      "Ġconf": 1141,
      "ments": 1142,
      "ures": 1143,
      "Ġpat": 1144,
      "ates": 1145,
      "Ġhear": 1146,
      "Ġret": 1147,
      "Ġfact": 1148,
      "Ġglorified": 1149,
      "Is": 1150,
      "Or": 1151,
      "ait": 1152,
      "fect": 1153,
      "ix": 1154,
      "Ġ7": 1155,
      "int": 1156,
      "ouse": 1157,
      "Ġsim": 1158,
      "Ġcar": 1159,
      "ang": 1160,
      "Ġden": 1161,
      "ution": 1162,
      "Ġshow": 1163,
      "Ġimportant": 1164,
      "ced": 1165,
      "hip": 1166,
      "ives": 1167,
      "ps": 1168,
      "ual": 1169,
      "Ġsc": 1170,
      "Ġlaw": 1171,
      "Ġenem": 1172,
      "aken": 1173,
      "ize": 1174,
      "Ġbrother": 1175,
      "bt": 1176,
      "Ġtri": 1177,
      "Ġtest": 1178,
      "Ġturn": 1179,
      "iss": 1180,
      "Ġsy": 1181,
      "Ġfore": 1182,
      "Ġfull": 1183,
      "Ġthought": 1184,
      "Ġ200": 1185,
      "ĠFather": 1186,
      "Ġremain": 1187,
      "Who": 1188,
      "Ġbless": 1189,
      "ĠEuropean": 1190,
      "Ġleast": 1191,
      "Ġmillion": 1192,
      "She": 1193,
      "With": 1194,
      "eed": 1195,
      "gy": 1196,
      "ision": 1197,
      "ities": 1198,
      "itness": 1199,
      "Ġfalse": 1200,
      "Ġput": 1201,
      "Ġnight": 1202,
      "omm": 1203,
      "Ġel": 1204,
      "Ġgen": 1205,
      "Ġnothing": 1206,
      "ants": 1207,
      "Ġcomes": 1208,
      "Ġothers": 1209,
      "Ġdesire": 1210,
      "Ġquest": 1211,
      "Ġreceive": 1212,
      ".)": 1213,
      "11": 1214,
      "Ġold": 1215,
      "ised": 1216,
      "ercy": 1217,
      "Ġbook": 1218,
      "Ġcity": 1219,
      "Ġcame": 1220,
      "arly": 1221,
      "ime": 1222,
      "Ġang": 1223,
      "Ġlight": 1224,
      "Ġord": 1225,
      "Ġtruly": 1226,
      "Ġexpl": 1227,
      "Ġsub": 1228,
      "form": 1229,
      "Ġfeel": 1230,
      "den": 1231,
      "ee": 1232,
      "ians": 1233,
      "oly": 1234,
      "ually": 1235,
      "xt": 1236,
      "ished": 1237,
      "its": 1238,
      "Ġhar": 1239,
      "Ġeat": 1240,
      "Ġrest": 1241,
      "vers": 1242,
      "Ġmeet": 1243,
      "Ġaccept": 1244,
      "Ġbegin": 1245,
      "Ġtra": 1246,
      "Ġcour": 1247,
      "orrow": 1248,
      "Ġdire": 1249,
      "Ġbel": 1250,
      "Ġthous": 1251,
      "ents": 1252,
      "raham": 1253,
      "Ġsaw": 1254,
      "Ġjudgment": 1255,
      "ĠPr": 1256,
      "Ġbelie": 1257,
      "Ġcontin": 1258,
      "Ġdisc": 1259,
      "Ġswear": 1260,
      "Ġreturn": 1261,
      "Ġthousand": 1262,
      "ner": 1263,
      "Ġaway": 1264,
      "Ġmin": 1265,
      "Ġnum": 1266,
      "Ġlot": 1267,
      "Ġgif": 1268,
      "ĠIt": 1269,
      "ention": 1270,
      "ĠCan": 1271,
      "aught": 1272,
      "ecause": 1273,
      "ably": 1274,
      "Ġpresent": 1275,
      "Ġbring": 1276,
      "Ġsins": 1277,
      "Ġpossible": 1278,
      "meric": 1279,
      "?\"": 1280,
      "Not": 1281,
      "Ġbest": 1282,
      "Ġreason": 1283,
      "Ġprot": 1284,
      "ĠMe": 1285,
      "ility": 1286,
      "Ġdef": 1287,
      "ĠEarth": 1288,
      "Ġspea": 1289,
      "Ġenough": 1290,
      "Ġanything": 1291,
      "Therefore": 1292,
      "Ġcommand": 1293,
      "Ġsecond": 1294,
      "Ġlead": 1295,
      "ĠSpirit": 1296,
      "Ġrespon": 1297,
      "ohn": 1298,
      "Ġeyes": 1299,
      "Ġansw": 1300,
      "ĠQur": 1301,
      "Ġexample": 1302,
      "Ġelse": 1303,
      "ail": 1304,
      "ft": 1305,
      "Ġ8": 1306,
      "Ġtalk": 1307,
      "Ġfar": 1308,
      "oday": 1309,
      "Ġeas": 1310,
      "Ġrelig": 1311,
      "Ġgra": 1312,
      "uring": 1313,
      "ĠAmeric": 1314,
      "ĠMr": 1315,
      "Your": 1316,
      "oss": 1317,
      "used": 1318,
      "blem": 1319,
      "Ġwants": 1320,
      "ĠYour": 1321,
      "Ġsince": 1322,
      "Ġcountries": 1323,
      "Ġdrink": 1324,
      "My": 1325,
      "Our": 1326,
      "fter": 1327,
      "ny": 1328,
      "ners": 1329,
      "ĠTh": 1330,
      "Ġwitness": 1331,
      "ines": 1332,
      "ony": 1333,
      "Ġmor": 1334,
      "Ġdie": 1335,
      "stem": 1336,
      "oth": 1337,
      "ute": 1338,
      "urch": 1339,
      "Ġthemselves": 1340,
      "Ġliving": 1341,
      "Ġconc": 1342,
      "Ġremember": 1343,
      "Ġsmall": 1344,
      "Let": 1345,
      "Say": 1346,
      "mb": 1347,
      "ub": 1348,
      "Ġsit": 1349,
      "Ġsent": 1350,
      "Ġside": 1351,
      "Ġmercy": 1352,
      "Ġyet": 1353,
      "oney": 1354,
      "Ġproblem": 1355,
      "Ġdoubt": 1356,
      "Ġweek": 1357,
      "18": 1358,
      "20": 1359,
      "ran": 1360,
      "Ġage": 1361,
      "Ġsix": 1362,
      "Ġseven": 1363,
      "Ġseem": 1364,
      "Ġprod": 1365,
      "ract": 1366,
      "ĠMoses": 1367,
      "Ġsure": 1368,
      "ĠDay": 1369,
      "Ġfood": 1370,
      "Ġnumber": 1371,
      "),": 1372,
      "ged": 1373,
      "most": 1374,
      "par": 1375,
      "ric": 1376,
      "vi": 1377,
      "ĠBut": 1378,
      "âĢĺ": 1379,
      "Ġfive": 1380,
      "Ġdown": 1381,
      "Ġinter": 1382,
      "lect": 1383,
      "Ġhour": 1384,
      "Ġreve": 1385,
      "ĠMy": 1386,
      "rib": 1387,
      "Ġspec": 1388,
      "Ġvis": 1389,
      "ages": 1390,
      "ogn": 1391,
      "Ġhands": 1392,
      "Ġexper": 1393,
      "iveness": 1394,
      "ĠWho": 1395,
      "Ġlisten": 1396,
      "Ġkeep": 1397,
      "Ġsystem": 1398,
      "dam": 1399,
      "ially": 1400,
      "over": 1401,
      "oke": 1402,
      "und": 1403,
      "ene": 1404,
      "Ġdark": 1405,
      "Ġnor": 1406,
      "Ġgod": 1407,
      "Ġwhile": 1408,
      "Ġkind": 1409,
      "Ġsend": 1410,
      "ĠAr": 1411,
      "ulf": 1412,
      "Ġext": 1413,
      "ussi": 1414,
      "ording": 1415,
      "Ġasked": 1416,
      "Ġwoman": 1417,
      "ĠAbraham": 1418,
      "To": 1419,
      "Than": 1420,
      "of": 1421,
      "Ġ'": 1422,
      "iness": 1423,
      "ons": 1424,
      "Ġtoget": 1425,
      "Ġfulf": 1426,
      "ars": 1427,
      "Ġeff": 1428,
      "Ġhouse": 1429,
      "ific": 1430,
      "ĠCreat": 1431,
      "Ġsave": 1432,
      "Ġtry": 1433,
      "Ġspirit": 1434,
      "Ġro": 1435,
      "Ġleave": 1436,
      "ledge": 1437,
      "Ġprotect": 1438,
      "Ġtogether": 1439,
      "15": 1440,
      "Today": 1441,
      "gr": 1442,
      "igh": 1443,
      "ues": 1444,
      "hether": 1445,
      "Ġwife": 1446,
      "ined": 1447,
      "ream": 1448,
      "Ġopp": 1449,
      "Ġtoward": 1450,
      "Ġmoney": 1451,
      "Ġpay": 1452,
      "ĠHea": 1453,
      "Ġ10": 1454,
      "uthor": 1455,
      "ĠDo": 1456,
      "ĠDavid": 1457,
      "Ġsupport": 1458,
      "Ġgener": 1459,
      "Ġbelong": 1460,
      "By": 1461,
      "bably": 1462,
      "kind": 1463,
      "side": 1464,
      "Ġwat": 1465,
      "ister": 1466,
      "oun": 1467,
      "oup": 1468,
      "Ġcor": 1469,
      "Ġfather": 1470,
      "Ġrel": 1471,
      "Ġpract": 1472,
      "ational": 1473,
      "Ġlie": 1474,
      "ĠCha": 1475,
      "Ġmean": 1476,
      "Ġseek": 1477,
      "Ġlost": 1478,
      "ately": 1479,
      "Ġ201": 1480,
      "evel": 1481,
      "Ġimm": 1482,
      "Ġappear": 1483,
      "urpr": 1484,
      "Ġenemy": 1485,
      "Ġangel": 1486,
      "Ġspeak": 1487,
      "Ġmorning": 1488,
      "ĠHeaven": 1489,
      "!âĢĿ": 1490,
      ".'": 1491,
      "Al": 1492,
      "ead": 1493,
      "fic": 1494,
      "Ġwait": 1495,
      "Ġpol": 1496,
      "Ġpath": 1497,
      "Ġland": 1498,
      "Ġlater": 1499,
      "Ġthird": 1500,
      "Ġread": 1501,
      "Ġform": 1502,
      "Ġalmost": 1503,
      "Ġexcept": 1504,
      "Ġsuff": 1505,
      "sol": 1506,
      "However": 1507,
      "Ġrecogn": 1508,
      "Ġhearts": 1509,
      "Ġexpect": 1510,
      "Ġenter": 1511,
      "Ġforgiveness": 1512,
      "Ġteach": 1513,
      "Ġdirect": 1514,
      "Ġanswer": 1515,
      "Ġsitu": 1516,
      "19": 1517,
      "Because": 1518,
      "Some": 1519,
      "__": 1520,
      "ient": 1521,
      "la": 1522,
      "morrow": 1523,
      "rom": 1524,
      "to": 1525,
      "Ġes": 1526,
      "Ġwater": 1527,
      "Ġboth": 1528,
      "Ġmat": 1529,
      "Ġmak": 1530,
      "Ġyoung": 1531,
      "aled": 1532,
      "Ġanim": 1533,
      "ĠMan": 1534,
      "Ġalone": 1535,
      "Ġtrans": 1536,
      "Ġfru": 1537,
      "ĠWor": 1538,
      "ortun": 1539,
      "Ġeveryone": 1540,
      "Ġprobably": 1541,
      "ĠRussi": 1542,
      "ĠNo": 1543,
      "ĠUn": 1544,
      "Ġleft": 1545,
      "Ġhappened": 1546,
      "Ġbuild": 1547,
      "Ġcourse": 1548,
      "ĠCreator": 1549,
      "body": 1550,
      "cc": 1551,
      "ible": 1552,
      "ned": 1553,
      "Ġsing": 1554,
      "haps": 1555,
      "Ġcond": 1556,
      "Ġple": 1557,
      "Ġpun": 1558,
      "Ġyes": 1559,
      "Ġless": 1560,
      "Ġthough": 1561,
      "Ġhalf": 1562,
      "Ġreject": 1563,
      "Ġgiven": 1564,
      "ĠAl": 1565,
      "Ġsoon": 1566,
      "ateful": 1567,
      "Ġthank": 1568,
      "Ġanyone": 1569,
      "Ġneeds": 1570,
      "itten": 1571,
      "Ġcommun": 1572,
      "Ġkingdom": 1573,
      "Ġfriends": 1574,
      "Ġmessage": 1575,
      "Ġprodu": 1576,
      "--": 1577,
      "26": 1578,
      "At": 1579,
      "After": 1580,
      "May": 1581,
      "aid": 1582,
      "app": 1583,
      "ib": 1584,
      "ted": 1585,
      "well": 1586,
      "Ġsurpr": 1587,
      "Ġtomorrow": 1588,
      "Ġdem": 1589,
      "Ġduring": 1590,
      "Ġnations": 1591,
      "Ġrequ": 1592,
      "ĠMess": 1593,
      "Ġnext": 1594,
      "Ġcomple": 1595,
      "Ġmeans": 1596,
      "Ġused": 1597,
      "Ġago": 1598,
      "Ġremind": 1599,
      "cial": 1600,
      "Ġgrateful": 1601,
      "bey": 1602,
      "Ġlonger": 1603,
      "Ġcertainly": 1604,
      "Ġchoose": 1605,
      "Ġgift": 1606,
      "ficult": 1607,
      "12": 1608,
      "new": 1609,
      "Ġtaken": 1610,
      "Ġav": 1611,
      "Ġauthor": 1612,
      "ina": 1613,
      "erve": 1614,
      "Ġbody": 1615,
      "ited": 1616,
      "Ġmar": 1617,
      "Ġmother": 1618,
      "Ġdet": 1619,
      "Ġlevel": 1620,
      "Ġwhom": 1621,
      "thy": 1622,
      "Ġsac": 1623,
      "Ġsaved": 1624,
      "osen": 1625,
      "Thus": 1626,
      "Ġtherefore": 1627,
      "Ġsuc": 1628,
      "ĠJohn": 1629,
      "ists": 1630,
      "ĠPres": 1631,
      "Ġrather": 1632,
      "Ġadv": 1633,
      "Ġcontr": 1634,
      "Ġarm": 1635,
      "ternal": 1636,
      "Ġglory": 1637,
      "Ġkilled": 1638,
      "Ġwritten": 1639,
      "Ġprophet": 1640,
      "Ġorder": 1641,
      "Ġconcer": 1642,
      "Ġdarkness": 1643,
      "?'": 1644,
      "de": 1645,
      "lud": 1646,
      "ten": 1647,
      "vious": 1648,
      "Â»": 1649,
      "Ġtre": 1650,
      "Ġtreat": 1651,
      "Ġwond": 1652,
      "Ġwhether": 1653,
      "ense": 1654,
      "Ġdiv": 1655,
      "arad": 1656,
      "Ġwithin": 1657,
      "ĠSo": 1658,
      "Ġass": 1659,
      "Ġstand": 1660,
      "Ġstrong": 1661,
      "lied": 1662,
      "Ġhowever": 1663,
      "Ġgreater": 1664,
      "Ġperfect": 1665,
      "ized": 1666,
      "Ġservants": 1667,
      "Ġtestim": 1668,
      "Ġforever": 1669,
      "Ġcontinue": 1670,
      "Ġreligion": 1671,
      "Ġpunish": 1672,
      "OD": 1673,
      "ger": 1674,
      "ges": 1675,
      "lim": 1676,
      "oice": 1677,
      "ph": 1678,
      "Ġ:": 1679,
      "ĠZ": 1680,
      "Ġest": 1681,
      "outh": 1682,
      "Ġfl": 1683,
      "Ġmo": 1684,
      "Ġdwell": 1685,
      "att": 1686,
      "ating": 1687,
      "Ġlear": 1688,
      "Ġgave": 1689,
      "Ġgives": 1690,
      "Ġprice": 1691,
      "ĠAdam": 1692,
      "ĠHoly": 1693,
      "rab": 1694,
      "ĠMu": 1695,
      "ĠComm": 1696,
      "eli": 1697,
      "Ġknown": 1698,
      "Ġknowledge": 1699,
      "osp": 1700,
      "Ġbecame": 1701,
      "Ġchosen": 1702,
      "que": 1703,
      "reng": 1704,
      "Ġgrow": 1705,
      "Ġgroup": 1706,
      "Ġdifficult": 1707,
      "Ġaccording": 1708,
      "hamm": 1709,
      "Ġpoint": 1710,
      "Ġmonths": 1711,
      "Did": 1712,
      "ky": 1713,
      "tic": 1714,
      "ĠThis": 1715,
      "ination": 1716,
      "ism": 1717,
      "ison": 1718,
      "Ġcare": 1719,
      "Ġmir": 1720,
      "Ġbeh": 1721,
      "These": 1722,
      "ices": 1723,
      "ĠAf": 1724,
      "ules": 1725,
      "Ġtrust": 1726,
      "Ġdead": 1727,
      "light": 1728,
      "ĠWhat": 1729,
      "Ġ13": 1730,
      "Ġcreate": 1731,
      "Ġhappy": 1732,
      "Ġ30": 1733,
      "apan": 1734,
      "Ġexplain": 1735,
      "Ġeasy": 1736,
      "aradise": 1737,
      "Man": 1738,
      "Will": 1739,
      "ck": 1740,
      "pec": 1741,
      "up": 1742,
      "vation": 1743,
      "yp": 1744,
      "ys": 1745,
      "Ġaw": 1746,
      "Ġwin": 1747,
      "Ġwent": 1748,
      "Ġobey": 1749,
      "isement": 1750,
      "Ġbur": 1751,
      "Ġcase": 1752,
      "ither": 1753,
      "ances": 1754,
      "Ġdream": 1755,
      "stisement": 1756,
      "utes": 1757,
      "Ġhell": 1758,
      "Ġgir": 1759,
      "asure": 1760,
      "Ġsepar": 1761,
      "ĠMus": 1762,
      "Those": 1763,
      "Ġshare": 1764,
      "ĠKing": 1765,
      "Ġsomeone": 1766,
      "Ġclose": 1767,
      "Ġlooking": 1768,
      "Ask": 1769,
      "ock": 1770,
      "Ġexists": 1771,
      "Ġhath": 1772,
      "Ġpatience": 1773,
      "Ġrevealed": 1774,
      "Ġexperience": 1775,
      "Ġwonder": 1776,
      "con": 1777,
      "lic": 1778,
      "ober": 1779,
      "where": 1780,
      "ĠOne": 1781,
      "reed": 1782,
      "Ġca": 1783,
      "ank": 1784,
      "Ġdaught": 1785,
      "Ġrevel": 1786,
      "Ġgot": 1787,
      "irc": 1788,
      "ĠArab": 1789,
      "ript": 1790,
      "Ġstreng": 1791,
      "Ġwhole": 1792,
      "empt": 1793,
      "Ġjob": 1794,
      "ĠJew": 1795,
      "Ġloves": 1796,
      "rence": 1797,
      "Ġenc": 1798,
      "abl": 1799,
      "ples": 1800,
      "Ġblood": 1801,
      "Ġadded": 1802,
      "Ġfaithful": 1803,
      "Ġmiss": 1804,
      "ternational": 1805,
      "Ġindeed": 1806,
      "Ġclear": 1807,
      "Ġquestion": 1808,
      "Ġsituation": 1809,
      "Ġtestimony": 1810,
      "pecially": 1811,
      "'re": 1812,
      "aj": 1813,
      "az": 1814,
      "ey": 1815,
      "eal": 1816,
      "eople": 1817,
      "land": 1818,
      "nment": 1819,
      "ting": 1820,
      "Ġsat": 1821,
      "har": 1822,
      "Ġbig": 1823,
      "Ġcap": 1824,
      "ital": 1825,
      "Ġface": 1826,
      "Ġfree": 1827,
      "Ġfew": 1828,
      "ĠGree": 1829,
      "ote": 1830,
      "Ġhold": 1831,
      "Ġforth": 1832,
      "Ġforget": 1833,
      "ĠIf": 1834,
      "Ġstate": 1835,
      "Ġexact": 1836,
      "ĠLast": 1837,
      "Ġ14": 1838,
      "Ġ15": 1839,
      ".âĢĻâĢĿ": 1840,
      "Ġvi": 1841,
      "Ġjustice": 1842,
      "tained": 1843,
      "Ġaround": 1844,
      "Ġsons": 1845,
      "Ġstarted": 1846,
      "Ġtried": 1847,
      "hammad": 1848,
      "'ll": 1849,
      "More": 1850,
      "Many": 1851,
      "Yet": 1852,
      "aul": 1853,
      "ches": 1854,
      "ration": 1855,
      "rate": 1856,
      "ĠThey": 1857,
      "rection": 1858,
      "ises": 1859,
      "oud": 1860,
      "Ġsur": 1861,
      "Ġdist": 1862,
      "Ġnat": 1863,
      "Ġonce": 1864,
      "ically": 1865,
      "Ġknew": 1866,
      "ĠSe": 1867,
      "raid": 1868,
      "Ġstay": 1869,
      "Ġdep": 1870,
      "Ġdevel": 1871,
      "ĠJapan": 1872,
      "Ġgover": 1873,
      "ĠEU": 1874,
      "Ġchurch": 1875,
      "aster": 1876,
      "Ġproject": 1877,
      "sib": 1878,
      "ountain": 1879,
      "Ġdisapp": 1880,
      "Ġrepent": 1881,
      "Ġheavens": 1882,
      "Ġservice": 1883,
      "Ġentire": 1884,
      "Ġfinally": 1885,
      "Ġdeny": 1886,
      "Ġgrace": 1887,
      "Ġseems": 1888,
      "Ġfulfill": 1889,
      "Ġpractice": 1890,
      "Ġpolit": 1891,
      "Ġcomplete": 1892,
      "Ġbehind": 1893,
      "Ġdevelop": 1894,
      "!\"": 1895,
      "Ab": 1896,
      "Be": 1897,
      "David": 1898,
      "fer": 1899,
      "gal": 1900,
      "gress": 1901,
      "io": 1902,
      "me": 1903,
      "mber": 1904,
      "yr": 1905,
      "Ġid": 1906,
      "Ġwrong": 1907,
      "read": 1908,
      "onight": 1909,
      "Ġbas": 1910,
      "Ġfire": 1911,
      "Ġmod": 1912,
      "Ġmag": 1913,
      "Ġpar": 1914,
      "Ġpurp": 1915,
      "arch": 1916,
      "ider": 1917,
      "ĠIran": 1918,
      "urity": 1919,
      "ently": 1920,
      "irm": 1921,
      "Ġsea": 1922,
      "ĠHow": 1923,
      "Ġexc": 1924,
      "osed": 1925,
      "Ġmankind": 1926,
      "Ġsun": 1927,
      "eared": 1928,
      "Ġsaying": 1929,
      "ĠBr": 1930,
      "Ġ20": 1931,
      "ude": 1932,
      "aby": 1933,
      "Ġafraid": 1934,
      "Ġpartners": 1935,
      "Ġserious": 1936,
      "Ġuni": 1937,
      "Ġappro": 1938,
      "Ġwherever": 1939,
      "Ġpromised": 1940,
      "Ġprayer": 1941,
      "Ġprophets": 1942,
      "Ġclearly": 1943,
      "ission": 1944,
      "Ġblessing": 1945,
      "Ġwatch": 1946,
      "Ġsingle": 1947,
      "Ġpunishment": 1948,
      "attle": 1949,
      "ĠAfric": 1950,
      "16": 1951,
      "23": 1952,
      "Can": 1953,
      "His": 1954,
      "St": 1955,
      "],": 1956,
      "ere": 1957,
      "rance": 1958,
      "Ġ.": 1959,
      "Ġwalk": 1960,
      "isf": 1961,
      "Ġsle": 1962,
      "Ġtot": 1963,
      "Ġpast": 1964,
      "ative": 1965,
      "vere": 1966,
      "omp": 1967,
      "Ġthus": 1968,
      "ĠGOD": 1969,
      "Ġeternal": 1970,
      "Ġreach": 1971,
      "ceed": 1972,
      "imes": 1973,
      "eth": 1974,
      "Ġallow": 1975,
      "Ġcoming": 1976,
      "ilt": 1977,
      "Here": 1978,
      "Ġjo": 1979,
      "ĠJon": 1980,
      "ĠJac": 1981,
      "ĠJudgment": 1982,
      "Ġrules": 1983,
      "Ġcreatures": 1984,
      "Ġhappiness": 1985,
      "arent": 1986,
      "Ġquick": 1987,
      "Ġsecret": 1988,
      "Ġreality": 1989,
      "Ġinstead": 1990,
      "Whoever": 1991,
      "ailable": 1992,
      "ĠDays": 1993,
      "Ġmatter": 1994,
      "ĠMessage": 1995,
      "Ġestabl": 1996,
      "ĠMuslim": 1997,
      "17": 1998,
      "Even": 1999,
      "Li": 2000,
      "Never": 2001,
      "rop": 2002,
      "son": 2003,
      "sess": 2004,
      "Ġ$": 2005,
      "Ġten": 2006,
      "Ġtonight": 2007,
      "Ġwis": 2008,
      "ins": 2009,
      "rect": 2010,
      "Ġocc": 2011,
      "Ġsal": 2012,
      "Ġbad": 2013,
      "Ġbattle": 2014,
      "Ġcirc": 2015,
      "Ġmart": 2016,
      "Ġmountain": 2017,
      "Ġbeha": 2018,
      "Ġheal": 2019,
      "imin": 2020,
      "ided": 2021,
      "ify": 2022,
      "Ġnecess": 2023,
      "Ġorg": 2024,
      "Ġabove": 2025,
      "orts": 2026,
      "ĠDe": 2027,
      "Ġvict": 2028,
      "Ġrun": 2029,
      "Ġworks": 2030,
      "ĠKnow": 2031,
      "Ġserve": 2032,
      "Ġways": 2033,
      "iving": 2034,
      "Ġpossess": 2035,
      "ĠWell": 2036,
      "Ġreplied": 2037,
      "ĠHimself": 2038,
      "Ġcold": 2039,
      "Ġregard": 2040,
      "Ġblessings": 2041,
      "ĠCanad": 2042,
      "Thank": 2043,
      "Ġtowards": 2044,
      "Ġmakes": 2045,
      "Ġproduct": 2046,
      "Ġavailable": 2047,
      "Ġmarri": 2048,
      "Ġsacr": 2049,
      "Ġrevelation": 2050,
      "Ġexactly": 2051,
      "Ġpurpose": 2052,
      "Are": 2053,
      "ax": 2054,
      "aut": 2055,
      "cher": 2056,
      "joy": 2057,
      "kra": 2058,
      "use": 2059,
      "uest": 2060,
      "yond": 2061,
      "Ġ?": 2062,
      "Ġtar": 2063,
      "oura": 2064,
      "hara": 2065,
      "Ġfall": 2066,
      "Ġmain": 2067,
      "Ġmention": 2068,
      "Ġpain": 2069,
      "Ġbeyond": 2070,
      "Ġlau": 2071,
      "Ġlose": 2072,
      "ĠGo": 2073,
      "Ġequ": 2074,
      "Ġhigh": 2075,
      "Ġheard": 2076,
      "cend": 2077,
      "imate": 2078,
      "ifest": 2079,
      "Ġpri": 2080,
      "Ġprison": 2081,
      "chn": 2082,
      "Ġstud": 2083,
      "Ġmanifest": 2084,
      "Ġdev": 2085,
      "ĠPaul": 2086,
      "Ġsol": 2087,
      "ective": 2088,
      "aces": 2089,
      "Ġmyself": 2090,
      "olog": 2091,
      "Ġprov": 2092,
      "Ġthanks": 2093,
      "Ġfav": 2094,
      "Ġenjoy": 2095,
      "Ġdidn": 2096,
      "ĠNew": 2097,
      "abb": 2098,
      "evers": 2099,
      "Ġgreatest": 2100,
      "cient": 2101,
      "cience": 2102,
      "Ġmaybe": 2103,
      "Ġrealize": 2104,
      "Ġinvest": 2105,
      "Ġhate": 2106,
      "Ġinstru": 2107,
      "Ġfully": 2108,
      "Ġanimals": 2109,
      "Ġfruit": 2110,
      "Ġrejected": 2111,
      "Ġauthority": 2112,
      "ĠMuhammad": 2113,
      "Ġgirl": 2114,
      "conom": 2115,
      "Ġstrength": 2116,
      "Ġtarget": 2117,
      "14": 2118,
      "50": 2119,
      "An": 2120,
      "ON": 2121,
      "Per": 2122,
      "come": 2123,
      "ived": 2124,
      "no": 2125,
      "per": 2126,
      "ton": 2127,
      "wh": 2128,
      "Ġ,": 2129,
      "Ġer": 2130,
      "Ġtou": 2131,
      "inion": 2132,
      "ince": 2133,
      "Ġset": 2134,
      "Ġsour": 2135,
      "Ġsick": 2136,
      "ont": 2137,
      "itions": 2138,
      "Ġtown": 2139,
      "Ġmom": 2140,
      "Ġmouth": 2141,
      "Ġph": 2142,
      "Ġpred": 2143,
      "Ġhaving": 2144,
      "Ġeconom": 2145,
      "Ġhead": 2146,
      "ides": 2147,
      "verse": 2148,
      "iful": 2149,
      "irty": 2150,
      "Ġdog": 2151,
      "ĠAre": 2152,
      "Ġlives": 2153,
      "Ġalive": 2154,
      "els": 2155,
      "ossible": 2156,
      "ush": 2157,
      "Ġdeep": 2158,
      "ĠWill": 2159,
      "Ġjoy": 2160,
      "Ġattained": 2161,
      "Ġ17": 2162,
      "Ġseeing": 2163,
      "ĠPar": 2164,
      "ĠFor": 2165,
      "urely": 2166,
      "Ġfail": 2167,
      "fered": 2168,
      "Ġperhaps": 2169,
      "ĠChurch": 2170,
      "ĠOur": 2171,
      "Does": 2172,
      "Ġpoor": 2173,
      "Ġinvent": 2174,
      "Ġconsum": 2175,
      "Ġconsider": 2176,
      "Everyone": 2177,
      "Ġattack": 2178,
      "Ġnational": 2179,
      "angu": 2180,
      "gypt": 2181,
      "Ġharm": 2182,
      "Ġresponse": 2183,
      "ĠAmerican": 2184,
      "Ġspecial": 2185,
      "Ġprotection": 2186,
      "Ġrelations": 2187,
      "ĠChastisement": 2188,
      "Ġrecognize": 2189,
      "Ġespecially": 2190,
      "ĠWork": 2191,
      "Ġmirac": 2192,
      "lighten": 2193,
      "obert": 2194,
      "Ġsatisf": 2195,
      "Ġsleep": 2196,
      "Like": 2197,
      ",âĢĻ": 2198,
      "13": 2199,
      "Any": 2200,
      "Just": 2201,
      "Truth": 2202,
      "ired": 2203,
      "just": 2204,
      "ool": 2205,
      "rid": 2206,
      "ured": 2207,
      "Ġ!": 2208,
      "Ġtree": 2209,
      "het": 2210,
      "Ġaven": 2211,
      "ising": 2212,
      "Ġsky": 2213,
      "âĢ¢": 2214,
      "ergy": 2215,
      "Ġche": 2216,
      "Ġcause": 2217,
      "ites": 2218,
      "itude": 2219,
      "Ġfun": 2220,
      "anct": 2221,
      "edi": 2222,
      "Ġins": 2223,
      "Ġinform": 2224,
      "Ġhon": 2225,
      "Ġholy": 2226,
      "Ġgame": 2227,
      "alest": 2228,
      "ĠInd": 2229,
      "ural": 2230,
      "urrection": 2231,
      "icient": 2232,
      "ety": 2233,
      "key": 2234,
      "ĠMother": 2235,
      "chool": 2236,
      "Ġyourself": 2237,
      "ained": 2238,
      "Ġconv": 2239,
      "Ġconst": 2240,
      "osing": 2241,
      "ĠWas": 2242,
      "Ġ12": 2243,
      "ĠEgypt": 2244,
      "ĠTur": 2245,
      "olution": 2246,
      "Ġenergy": 2247,
      "Ġworking": 2248,
      "ometimes": 2249,
      "Ġperm": 2250,
      "Ġnews": 2251,
      "Ġchanges": 2252,
      "Ġimpossible": 2253,
      "Ġrecomm": 2254,
      "Ġindust": 2255,
      "Ġservant": 2256,
      "Ġcross": 2257,
      "Ġunderstanding": 2258,
      "Ġinclud": 2259,
      "Ġtechn": 2260,
      "Ġremains": 2261,
      "Ġthousands": 2262,
      "Ġreasons": 2263,
      "ublic": 2264,
      "gram": 2265,
      "Ġappears": 2266,
      "Ġsuccess": 2267,
      "Ġlearn": 2268,
      "ĠJacob": 2269,
      "Ġrecommend": 2270,
      "28": 2271,
      "AS": 2272,
      "Paradise": 2273,
      "Such": 2274,
      "Surely": 2275,
      "Tom": 2276,
      "ared": 2277,
      "band": 2278,
      "ered": 2279,
      "iod": 2280,
      "know": 2281,
      "ray": 2282,
      "Ġ#": 2283,
      "ĠYes": 2284,
      "reement": 2285,
      "Ġsister": 2286,
      "ert": 2287,
      "Ġburn": 2288,
      "Ġcit": 2289,
      "Ġcur": 2290,
      "iter": 2291,
      "orn": 2292,
      "Ġfreed": 2293,
      "ese": 2294,
      "Ġmur": 2295,
      "ana": 2296,
      "Ġinternational": 2297,
      "Ġiss": 2298,
      "Ġbeaut": 2299,
      "omes": 2300,
      "oman": 2301,
      "stances": 2302,
      "Ġhig": 2303,
      "Ġhosp": 2304,
      "Ġready": 2305,
      "Ġresol": 2306,
      "Ġgone": 2307,
      "Ġitself": 2308,
      "ophet": 2309,
      "ĠSc": 2310,
      "Ġprin": 2311,
      "Ġdoct": 2312,
      "ĠAm": 2313,
      "ĠAng": 2314,
      "ĠMay": 2315,
      "Ġlived": 2316,
      "Ġsafe": 2317,
      "ilar": 2318,
      "Ġship": 2319,
      "ĠJack": 2320,
      "Ġ18": 2321,
      "ĠEx": 2322,
      "Ġloved": 2323,
      "ĠPalest": 2324,
      "ĠBe": 2325,
      "ĠDan": 2326,
      "Ġ25": 2327,
      "Ġprovid": 2328,
      "Ġprogram": 2329,
      "Ġvoice": 2330,
      "ĠRes": 2331,
      "Ġadm": 2332,
      "Ġaff": 2333,
      "Ġ--": 2334,
      "Ġpresident": 2335,
      "Ġuns": 2336,
      "Ġoutside": 2337,
      "Ġbrought": 2338,
      "Ġsinners": 2339,
      "ĠChina": 2340,
      "Ġsecurity": 2341,
      "Ġactions": 2342,
      "Ġactually": 2343,
      "Ġ199": 2344,
      "Ġwrath": 2345,
      "Ġplanet": 2346,
      "Ġsouls": 2347,
      "Ġfighting": 2348,
      "Ġchoice": 2349,
      "Ġmessages": 2350,
      "ĠProphet": 2351,
      "Ġproblems": 2352,
      "Ġhours": 2353,
      "Ġvisit": 2354,
      "Thanks": 2355,
      "Ġopportun": 2356,
      "Ġsuffer": 2357,
      "Ġcontrol": 2358,
      "Ġconcerning": 2359,
      "Ġpolitical": 2360,
      "Ġquickly": 2361,
      "Ġnecessary": 2362,
      "haraoh": 2363,
      "Ġavenged": 2364,
      "Each": 2365,
      "Ind": 2366,
      "Sh": 2367,
      "ai": 2368,
      "but": 2369,
      "cent": 2370,
      "ging": 2371,
      "gest": 2372,
      "na": 2373,
      "ring": 2374,
      "Ġ/": 2375,
      "Ġign": 2376,
      "Ġap": 2377,
      "Ġaction": 2378,
      "Ġwish": 2379,
      "Ġschool": 2380,
      "Ġcam": 2381,
      "Ġoften": 2382,
      "esides": 2383,
      "Ġmid": 2384,
      "Ġmove": 2385,
      "Ġmaj": 2386,
      "Ġpur": 2387,
      "Ġdel": 2388,
      "Ġlar": 2389,
      "Ġlim": 2390,
      "ompl": 2391,
      "Ġthirty": 2392,
      "sec": 2393,
      "âĢĿ,": 2394,
      "Ġele": 2395,
      "Ġelect": 2396,
      "Ġhus": 2397,
      "Ġreb": 2398,
      "Ġwilling": 2399,
      "Their": 2400,
      "Ġones": 2401,
      "ases": 2402,
      "ifice": 2403,
      "Ġseason": 2404,
      "ĠSa": 2405,
      "ession": 2406,
      "Well": 2407,
      "Ġwhatever": 2408,
      "ĠCause": 2409,
      "emember": 2410,
      "ĠLaw": 2411,
      "Ġjudg": 2412,
      "Ġ100": 2413,
      "ection": 2414,
      "aced": 2415,
      "ĠBl": 2416,
      "ĠThat": 2417,
      "Ġ23": 2418,
      "umstances": 2419,
      "ĠRobert": 2420,
      "Ġenlighten": 2421,
      "ĠNow": 2422,
      "Ġperiod": 2423,
      "Ġresult": 2424,
      "ĠUkra": 2425,
      "Ġpersonal": 2426,
      "Ġcoll": 2427,
      "Ġ196": 2428,
      "Ġopinion": 2429,
      "Ġdecis": 2430,
      "Ġwarning": 2431,
      "ĠWhy": 2432,
      "Ġcrime": 2433,
      "Ġexistence": 2434,
      "Ġfinan": 2435,
      "Ġbuy": 2436,
      "Ġteacher": 2437,
      "Ġdestroyed": 2438,
      "Ġteam": 2439,
      "Ġsimilar": 2440,
      "Ġenemies": 2441,
      "Ġquestions": 2442,
      "Ġsubst": 2443,
      "Ġhard": 2444,
      "Ġbelieved": 2445,
      "Ġminutes": 2446,
      "Ġinterp": 2447,
      "Ġcorrect": 2448,
      "Ġangels": 2449,
      "ĠRussian": 2450,
      "Maybe": 2451,
      "ĠPresident": 2452,
      "Ġarmy": 2453,
      "Ġdwells": 2454,
      "ĠJews": 2455,
      "ĠGreece": 2456,
      "Ġgovernment": 2457,
      "Ġrepentance": 2458,
      "Ġidea": 2459,
      "erest": 2460,
      "Ġtotally": 2461,
      "Ġsalvation": 2462,
      "Ġcircumstances": 2463,
      "Ġmartyr": 2464,
      "Ġorgan": 2465,
      "Ġsacrifice": 2466,
      "Ġfavor": 2467,
      "Ġrelationship": 2468,
      "Ġindustry": 2469,
      "Ġcitiz": 2470,
      "Ġhusband": 2471,
      "\",": 2472,
      "'ve": 2473,
      "**": 2474,
      "Ex": 2475,
      "Where": 2476,
      "bit": 2477,
      "cil": 2478,
      "cap": 2479,
      "ched": 2480,
      "men": 2481,
      "ne": 2482,
      "oe": 2483,
      "ply": 2484,
      "ror": 2485,
      "ral": 2486,
      "vir": 2487,
      "wor": 2488,
      "you": 2489,
      "yri": 2490,
      "Ġterm": 2491,
      "Ġach": 2492,
      "Ġsanct": 2493,
      "âĢĵ": 2494,
      "Ġbene": 2495,
      "Ġbaby": 2496,
      "Ġcent": 2497,
      "Ġcost": 2498,
      "Ġcru": 2499,
      "eng": 2500,
      "Ġmed": 2501,
      "Ġmind": 2502,
      "Ġmark": 2503,
      "Ġpen": 2504,
      "Ġinf": 2505,
      "Ġinside": 2506,
      "Ġnone": 2507,
      "omin": 2508,
      "ĠGerm": 2509,
      "semb": 2510,
      "Ġhome": 2511,
      "Ġrepl": 2512,
      "Ġreward": 2513,
      "Ġgard": 2514,
      "Ġweak": 2515,
      "alted": 2516,
      "Ġforce": 2517,
      "Ġforces": 2518,
      "idden": 2519,
      "eter": 2520,
      "ament": 2521,
      "Ġseed": 2522,
      "ĠSw": 2523,
      "ĠMary": 2524,
      "Ġlik": 2525,
      "rived": 2526,
      "Ġstop": 2527,
      "ular": 2528,
      "Ġwhose": 2529,
      "emb": 2530,
      "Ġshort": 2531,
      "Ġprof": 2532,
      "Ġspend": 2533,
      "Ġspoke": 2534,
      "udge": 2535,
      "ĠRe": 2536,
      "Ġrich": 2537,
      "Ġinterest": 2538,
      "Ġpartic": 2539,
      "Ġdesign": 2540,
      "wered": 2541,
      "Ġprep": 2542,
      "Ġaccompl": 2543,
      "Ġtells": 2544,
      "Ġfollows": 2545,
      "Ġcompan": 2546,
      "Ġdecision": 2547,
      "ĠWhite": 2548,
      "Ġmillions": 2549,
      "Everything": 2550,
      "ĠStates": 2551,
      "Ġeye": 2552,
      "Ġanswered": 2553,
      "ĠChristians": 2554,
      "Ġgods": 2555,
      "Ġbelongs": 2556,
      "ĠRussia": 2557,
      "Ġdeterm": 2558,
      "Ġtrees": 2559,
      "Ġmoon": 2560,
      "Ġcompletely": 2561,
      "Ġestablished": 2562,
      "ĠMuslims": 2563,
      "ĠCanada": 2564,
      "Ġmentioned": 2565,
      "Ġpriest": 2566,
      "Ġprovide": 2567,
      "Ġfreedom": 2568,
      "Ġinterpret": 2569,
      "sembly": 2570,
      "'d": 2571,
      "'m": 2572,
      ".Â»": 2573,
      "201": 2574,
      "37": 2575,
      "IN": 2576,
      "Remember": 2577,
      "See": 2578,
      "Said": 2579,
      "aise": 2580,
      "ier": 2581,
      "iel": 2582,
      "lan": 2583,
      "ma": 2584,
      "ni": 2585,
      "pect": 2586,
      "val": 2587,
      "vent": 2588,
      "ĠThere": 2589,
      "ining": 2590,
      "ints": 2591,
      "inction": 2592,
      "Ġori": 2593,
      "Ġopt": 2594,
      "itution": 2595,
      "orm": 2596,
      "ority": 2597,
      "Ġtook": 2598,
      "Ġfast": 2599,
      "Ġmot": 2600,
      "Ġmil": 2601,
      "Ġmult": 2602,
      "Ġpublic": 2603,
      "Ġinher": 2604,
      "Ġbear": 2605,
      "Ġthy": 2606,
      "Ġear": 2607,
      "illed": 2608,
      "Ġhop": 2609,
      "Ġhund": 2610,
      "cel": 2611,
      "ics": 2612,
      "Ġself": 2613,
      "raz": 2614,
      "Ġwors": 2615,
      "Ġworthy": 2616,
      "ĠMar": 2617,
      "ĠCa": 2618,
      "ĠCity": 2619,
      "Ġstat": 2620,
      "Ġstory": 2621,
      "Ġstrate": 2622,
      "ilment": 2623,
      "Ġexalted": 2624,
      "Ġconn": 2625,
      "ĠWhen": 2626,
      "Ġjudge": 2627,
      "Ġsold": 2628,
      "Ġsovere": 2629,
      "ached": 2630,
      "Ġ26": 2631,
      "Ġproof": 2632,
      "hington": 2633,
      "Ġaffect": 2634,
      "Ġbelievers": 2635,
      "Ġneeded": 2636,
      "Ġcontact": 2637,
      "Ġpercent": 2638,
      "ivid": 2639,
      "Ġdeserve": 2640,
      "Ġdescend": 2641,
      "ogle": 2642,
      "ield": 2643,
      "Ġpossib": 2644,
      "Ġpromises": 2645,
      "ternet": 2646,
      "Ġcompany": 2647,
      "Ġnames": 2648,
      "Ġindivid": 2649,
      "Ġprayers": 2650,
      "Ġreceived": 2651,
      "Ġended": 2652,
      "ertainly": 2653,
      "ully": 2654,
      "ĠSpain": 2655,
      "Ġcharact": 2656,
      "Ġpassed": 2657,
      "Ġkept": 2658,
      "Ġsimple": 2659,
      "Ġsimply": 2660,
      "Ġlaws": 2661,
      "Ġturned": 2662,
      "Ġthoughts": 2663,
      "Ġbooks": 2664,
      "Ġbelieving": 2665,
      "Ġdiscover": 2666,
      "Ġgifts": 2667,
      "Ġdefend": 2668,
      "Ġsurely": 2669,
      "vior": 2670,
      "Ġfulfilment": 2671,
      "Ġtrying": 2672,
      "Ġimmedi": 2673,
      "Ġwaiting": 2674,
      "Ġfruits": 2675,
      "ĠWorld": 2676,
      "ĠNoah": 2677,
      "Ġplease": 2678,
      "Ġcommunic": 2679,
      "Ġcommunity": 2680,
      "Ġdemand": 2681,
      "Ġcontrary": 2682,
      "Ġassist": 2683,
      "elieve": 2684,
      "ĠKingdom": 2685,
      "Ġcapable": 2686,
      "Ġnature": 2687,
      "ĠJapanese": 2688,
      "Ġmagic": 2689,
      "arents": 2690,
      "uestion": 2691,
      "Ġera": 2692,
      "Ġbeautiful": 2693,
      "ĠDaniel": 2694,
      "Indeed": 2695,
      "viron": 2696,
      "Ġorig": 2697,
      "Ġhundred": 2698,
      ".[": 2699,
      "43": 2700,
      "AT": 2701,
      "Don": 2702,
      "ES": 2703,
      "From": 2704,
      "Have": 2705,
      "Know": 2706,
      "Other": 2707,
      "People": 2708,
      "Question": 2709,
      "Satan": 2710,
      "Tell": 2711,
      "av": 2712,
      "aly": 2713,
      "by": 2714,
      "co": 2715,
      "cise": 2716,
      "eous": 2717,
      "go": 2718,
      "hood": 2719,
      "ires": 2720,
      "lcome": 2721,
      "my": 2722,
      "oid": 2723,
      "oint": 2724,
      "pe": 2725,
      "pter": 2726,
      "rod": 2727,
      "rict": 2728,
      "uary": 2729,
      "ya": 2730,
      "Ġwon": 2731,
      "Ġwind": 2732,
      "Ġwine": 2733,
      "inal": 2734,
      "Ġsl": 2735,
      "Ġsain": 2736,
      "Ġsight": 2737,
      "Ġsense": 2738,
      "hak": 2739,
      "hael": 2740,
      "Ġborn": 2741,
      "iti": 2742,
      "ened": 2743,
      "Ġmine": 2744,
      "Ġdied": 2745,
      "edience": 2746,
      "atic": 2747,
      "Ġbeings": 2748,
      "ster": 2749,
      "Ġeight": 2750,
      "lex": 2751,
      "lease": 2752,
      "uted": 2753,
      "Ġrev": 2754,
      "Ġweap": 2755,
      "ash": 2756,
      "ential": 2757,
      "ichael": 2758,
      "âĢľ[": 2759,
      "ets": 2760,
      "Ġsees": 2761,
      "ĠSyri": 2762,
      "Ġproud": 2763,
      "Ġancient": 2764,
      "ĠAn": 2765,
      "ĠAs": 2766,
      "ĠHour": 2767,
      "Ġasso": 2768,
      "raph": 2769,
      "Ġneg": 2770,
      "elt": 2771,
      "ults": 2772,
      "ĠLife": 2773,
      "like": 2774,
      "Ġjour": 2775,
      "ĠJan": 2776,
      "ease": 2777,
      "Ġgoes": 2778,
      "Ġgold": 2779,
      "ĠPol": 2780,
      "ĠTo": 2781,
      "ĠTr": 2782,
      "ĠTom": 2783,
      "ĠDr": 2784,
      "Ġ24": 2785,
      "ĠFrance": 2786,
      "une": 2787,
      "Ġenviron": 2788,
      "idered": 2789,
      "itted": 2790,
      "Ġhelps": 2791,
      "Ġhelping": 2792,
      "ivate": 2793,
      "Ġcommon": 2794,
      "Ġaddition": 2795,
      "ĠOr": 2796,
      "Ġprefer": 2797,
      "Ġ40": 2798,
      "Ġlasting": 2799,
      "ĠUS": 2800,
      "theless": 2801,
      "ruct": 2802,
      "rupt": 2803,
      "Ġaccount": 2804,
      "Ġpoints": 2805,
      "Ġ198": 2806,
      "Ġpowerful": 2807,
      "Ġ50": 2808,
      "Ġconsidered": 2809,
      "Ġcrimin": 2810,
      "Ġdifference": 2811,
      "Ġbuilt": 2812,
      "Ġoffic": 2813,
      "Allah": 2814,
      "Ġsubject": 2815,
      "Ġbeginning": 2816,
      "Ġbelieves": 2817,
      "Ġtalking": 2818,
      "ĠAmerica": 2819,
      "Ġeffect": 2820,
      "Ġsufficient": 2821,
      "____": 2822,
      "Ġescap": 2823,
      "Ġmaking": 2824,
      "Ġanimal": 2825,
      "Ġrequire": 2826,
      "ĠPresence": 2827,
      "ticle": 2828,
      "Ġseparate": 2829,
      "Ġdaughter": 2830,
      "Ġdaughters": 2831,
      "Ġviol": 2832,
      "Ġseriously": 2833,
      "Ġoccur": 2834,
      "Perhaps": 2835,
      "Ġmoment": 2836,
      "ĠWashington": 2837,
      "Ġhigher": 2838,
      "Ġlarge": 2839,
      "Ġmartyrs": 2840,
      "Ġworship": 2841,
      "Ġassoci": 2842,
      "38": 2843,
      "92": 2844,
      "Certainly": 2845,
      "EL": 2846,
      "ER": 2847,
      "Europe": 2848,
      "Fear": 2849,
      "John": 2850,
      "Since": 2851,
      "Take": 2852,
      "Would": 2853,
      "].âĢĿ": 2854,
      "aur": 2855,
      "aith": 2856,
      "bel": 2857,
      "der": 2858,
      "eb": 2859,
      "ex": 2860,
      "fort": 2861,
      "fortun": 2862,
      "fully": 2863,
      "gent": 2864,
      "lam": 2865,
      "mp": 2866,
      "uff": 2867,
      "vest": 2868,
      "wise": 2869,
      "ying": 2870,
      "Ġident": 2871,
      "Ġvers": 2872,
      "Ġtyp": 2873,
      "inian": 2874,
      "Ġoil": 2875,
      "eration": 2876,
      "Ġban": 2877,
      "Ġbus": 2878,
      "Ġbesides": 2879,
      "Ġcult": 2880,
      "llen": 2881,
      "itor": 2882,
      "Ġfur": 2883,
      "Ġfelt": 2884,
      "Ġoffered": 2885,
      "Ġdue": 2886,
      "ator": 2887,
      "Ġinn": 2888,
      "Ġnon": 2889,
      "Ġled": 2890,
      "Ġthreat": 2891,
      "Ġhast": 2892,
      "âĢĻ.": 2893,
      "Ġem": 2894,
      "Ġearly": 2895,
      "Ġhor": 2896,
      "Ġhun": 2897,
      "Ġhero": 2898,
      "Ġred": 2899,
      "Ġweal": 2900,
      "alm": 2901,
      "veral": 2902,
      "ased": 2903,
      "asures": 2904,
      "irth": 2905,
      "Ġwhite": 2906,
      "Ġsell": 2907,
      "ĠSir": 2908,
      "ĠSec": 2909,
      "Ġpraise": 2910,
      "Ġdoor": 2911,
      "ĠHam": 2912,
      "Ġassembly": 2913,
      "this": 2914,
      "Ġlies": 2915,
      "ĠCor": 2916,
      "Ġsaf": 2917,
      "Ġmemb": 2918,
      "Ġmeasure": 2919,
      "uss": 2920,
      "ively": 2921,
      "Ġhist": 2922,
      "liament": 2923,
      "ĠWar": 2924,
      "Ġloc": 2925,
      "ĠBa": 2926,
      "ĠBook": 2927,
      "aste": 2928,
      "Ġlikely": 2929,
      "olom": 2930,
      "Ġplaces": 2931,
      "ĠFirst": 2932,
      "Ġspace": 2933,
      "Ġspee": 2934,
      "Ġvir": 2935,
      "Ġagreement": 2936,
      "ĠRoman": 2937,
      "ĠNor": 2938,
      "ards": 2939,
      "Ġadop": 2940,
      "Ġcreature": 2941,
      "Ġcontract": 2942,
      "ference": 2943,
      "itting": 2944,
      "cious": 2945,
      "ciples": 2946,
      "Ġasks": 2947,
      "Ġchanged": 2948,
      "Ġposition": 2949,
      "Ġleg": 2950,
      "Ġcompet": 2951,
      "Ġunderstood": 2952,
      "Ġbegan": 2953,
      "Ġchar": 2954,
      "ucle": 2955,
      "Ġobs": 2956,
      "Ġincre": 2957,
      "Ġregul": 2958,
      "Ġweeks": 2959,
      "Ġconfused": 2960,
      "Israel": 2961,
      "Ġcarry": 2962,
      "anger": 2963,
      "Ġ2008": 2964,
      "Ġexplan": 2965,
      "Ġmeeting": 2966,
      "Ġdirection": 2967,
      "Ġresponsible": 2968,
      "ĠAmericans": 2969,
      "Ġdrinking": 2970,
      "Ġspecific": 2971,
      "Ġeffort": 2972,
      "Ġspiritual": 2973,
      "Ġroom": 2974,
      "Ġoppos": 2975,
      "Ġgeneral": 2976,
      "Ġsurprise": 2977,
      "Ġsucceed": 2978,
      "Ġadvice": 2979,
      "viously": 2980,
      "Ġtreated": 2981,
      "ĠCommission": 2982,
      "Ġburden": 2983,
      "Ġfaithfulness": 2984,
      "Ġapproach": 2985,
      "ĠAfrican": 2986,
      "Ġwisdom": 2987,
      "Ġmarried": 2988,
      "ourage": 2989,
      "ĠGoogle": 2990,
      "Ġequal": 2991,
      "abbath": 2992,
      "Ġinformation": 2993,
      "ĠTurkey": 2994,
      "Ġhospital": 2995,
      "Ġunshak": 2996,
      "Ġenlightenment": 2997,
      "Ġcitizens": 2998,
      "Ġinherit": 2999,
      "Ġcharacter": 3000,
      "Ġimmediately": 3001,
      "Ġoriginal": 3002,
      "Ġjourn": 3003,
      "Ġenvironment": 3004,
      "Ġmembers": 3005,
      "Ġspeech": 3006,
      "Ġunshakable": 3007,
      "25": 3008,
      "200": 3009,
      "31": 3010,
      "AY": 3011,
      "Am": 3012,
      "Jesus": 3013,
      "Lord": 3014,
      "Nor": 3015,
      "OR": 3016,
      "OT": 3017,
      "Oh": 3018,
      "Re": 3019,
      "ale": 3020,
      "air": 3021,
      "crib": 3022,
      "dition": 3023,
      "dden": 3024,
      "gar": 3025,
      "how": 3026,
      "iet": 3027,
      "lict": 3028,
      "oes": 3029,
      "rish": 3030,
      "there": 3031,
      "uel": 3032,
      "ĠOnly": 3033,
      "Ġtem": 3034,
      "Ġtak": 3035,
      "Ġtable": 3036,
      "Ġtempt": 3037,
      "hered": 3038,
      "Ġair": 3039,
      "ern": 3040,
      "ones": 3041,
      "Ġbirth": 3042,
      "Ġce": 3043,
      "Ġcou": 3044,
      "Ġcol": 3045,
      "Ġcry": 3046,
      "itre": 3047,
      "itation": 3048,
      "itary": 3049,
      "Ġfif": 3050,
      "Ġfles": 3051,
      "Ġfilled": 3052,
      "Ġmic": 3053,
      "Ġpop": 3054,
      "Ġparents": 3055,
      "Ġye": 3056,
      "eds": 3057,
      "ats": 3058,
      "Ġiniti": 3059,
      "Ġnucle": 3060,
      "Ġbeast": 3061,
      "Ġloss": 3062,
      "Ġlangu": 3063,
      "oted": 3064,
      "otten": 3065,
      "Ġgather": 3066,
      "Ġwear": 3067,
      "ids": 3068,
      "idance": 3069,
      "Ġarea": 3070,
      "cts": 3071,
      "ette": 3072,
      "ama": 3073,
      "amb": 3074,
      "Ġseveral": 3075,
      "ĠSha": 3076,
      "ĠSabbath": 3077,
      "Ġworse": 3078,
      "ĠMad": 3079,
      "Ġcomfort": 3080,
      "iles": 3081,
      "Ġusing": 3082,
      "....": 3083,
      "Ġsudden": 3084,
      "Ġbecomes": 3085,
      "Ġjeal": 3086,
      "eah": 3087,
      "eace": 3088,
      "Ġabsol": 3089,
      "ĠBush": 3090,
      "ĠDon": 3091,
      "Ġ27": 3092,
      "Ġ28": 3093,
      "Ġspread": 3094,
      "ĠIslam": 3095,
      "Ġeng": 3096,
      "ĠNot": 3097,
      "ecess": 3098,
      "ondon": 3099,
      "Ġimag": 3100,
      "Ġcontrib": 3101,
      "Ġunless": 3102,
      "Ġhelped": 3103,
      "Ġperform": 3104,
      "ivity": 3105,
      "Ġriver": 3106,
      "Ġ35": 3107,
      "Ġgrant": 3108,
      "Ġprepar": 3109,
      "Ġrighteous": 3110,
      "Ġclos": 3111,
      "Ġaccused": 3112,
      "Ġfollowing": 3113,
      "Ġhumans": 3114,
      "Ġpropos": 3115,
      "Ġdecide": 3116,
      "Ġhappens": 3117,
      "Ġwarn": 3118,
      "Ġfamil": 3119,
      "Ġfinal": 3120,
      "Ġrespect": 3121,
      "uck": 3122,
      "Ġforgive": 3123,
      "Ġ60": 3124,
      "ĠChristian": 3125,
      "Ġopened": 3126,
      "Ġoffer": 3127,
      "Ġshowed": 3128,
      "Ġscript": 3129,
      "Ġturns": 3130,
      "Without": 3131,
      "Ġminister": 3132,
      "Ġleads": 3133,
      "Ġwitnesses": 3134,
      "inese": 3135,
      "Ġroad": 3136,
      "Ġgenerations": 3137,
      "ounter": 3138,
      "Ġmeaning": 3139,
      "Ġpolic": 3140,
      "Ġdirectly": 3141,
      "ĠUnion": 3142,
      "Ġconditions": 3143,
      "Ġsurprised": 3144,
      "Ġrequest": 3145,
      "Ġreminder": 3146,
      "Ġdetail": 3147,
      "ĠCommand": 3148,
      "Ġwonderful": 3149,
      "Ġview": 3150,
      "Ġdeprived": 3151,
      "Ġdisappear": 3152,
      "Before": 3153,
      "Ġallowed": 3154,
      "ĠJonas": 3155,
      "Ġlaugh": 3156,
      "Ġsource": 3157,
      "Ġphys": 3158,
      "Ġopportunity": 3159,
      "Ġsuffering": 3160,
      "Ġmidst": 3161,
      "Ġfinancial": 3162,
      "Ġbenef": 3163,
      "Ġmarket": 3164,
      "Ġreplace": 3165,
      "Ġgarden": 3166,
      "Ġsaints": 3167,
      "belie": 3168,
      "Ġsafety": 3169,
      "Ġflesh": 3170,
      "Ġjealous": 3171,
      "27": 3172,
      "48": 3173,
      "99": 3174,
      "AN": 3175,
      "AR": 3176,
      "IC": 3177,
      "IT": 3178,
      "Ne": 3179,
      "OU": 3180,
      "Pre": 3181,
      "Rather": 3182,
      "Ver": 3183,
      "aff": 3184,
      "bb": 3185,
      "cu": 3186,
      "cified": 3187,
      "eor": 3188,
      "from": 3189,
      "gn": 3190,
      "gen": 3191,
      "iers": 3192,
      "ieve": 3193,
      "lus": 3194,
      "ming": 3195,
      "oved": 3196,
      "tt": 3197,
      "ule": 3198,
      "unt": 3199,
      "will": 3200,
      "ze": 3201,
      "ĠX": 3202,
      "ĠÂ»": 3203,
      "Ġter": 3204,
      "rely": 3205,
      "rets": 3206,
      "reme": 3207,
      "isis": 3208,
      "Ġsong": 3209,
      "Ġbo": 3210,
      "Ġbar": 3211,
      "Ġbank": 3212,
      "Ġfund": 3213,
      "enger": 3214,
      "Ġpot": 3215,
      "Ġport": 3216,
      "Ġpaid": 3217,
      "Ġdut": 3218,
      "Ġdra": 3219,
      "Ġdust": 3220,
      "ata": 3221,
      "athered": 3222,
      "Ġisn": 3223,
      "ari": 3224,
      "Ġlosing": 3225,
      "Ġthou": 3226,
      "ĠGeor": 3227,
      "sequ": 3228,
      "stery": 3229,
      "illion": 3230,
      "Ġhous": 3231,
      "utions": 3232,
      "Ġgathered": 3233,
      "cell": 3234,
      "cember": 3235,
      "ĠIrish": 3236,
      "ames": 3237,
      "Ġsex": 3238,
      "ĠSer": 3239,
      "Ġprivate": 3240,
      "ĠHouse": 3241,
      "ĠMin": 3242,
      "ĠMore": 3243,
      "Ġyours": 3244,
      "Ġliar": 3245,
      "rible": 3246,
      "Ġnear": 3247,
      "elp": 3248,
      "Ġknowing": 3249,
      "Ġstates": 3250,
      "uses": 3251,
      "ĠLondon": 3252,
      "...âĢĿ": 3253,
      "oseph": 3254,
      "ĠJud": 3255,
      "Ġ11": 3256,
      "ĠPeople": 3257,
      "ĠPharaoh": 3258,
      "ĠBy": 3259,
      "ĠBar": 3260,
      "ĠBill": 3261,
      "ĠBel": 3262,
      "ĠBible": 3263,
      "Ġ22": 3264,
      "Ġeverywhere": 3265,
      "ĠFace": 3266,
      "igration": 3267,
      "Ġprove": 3268,
      "Ġvision": 3269,
      "ĠRome": 3270,
      "Ġshape": 3271,
      "Ġanyway": 3272,
      "ploy": 3273,
      "ciple": 3274,
      "Ġresults": 3275,
      "Ġbrings": 3276,
      "ĠChinese": 3277,
      "Ġcommit": 3278,
      "Ġart": 3279,
      "Ġappeared": 3280,
      "Ġ45": 3281,
      "Ġcla": 3282,
      "Ġchanging": 3283,
      "ĠEuropeans": 3284,
      "Ġquite": 3285,
      "ruction": 3286,
      "assion": 3287,
      "Ġreport": 3288,
      "Ġcompassion": 3289,
      "Ġservices": 3290,
      "Ġwrite": 3291,
      "Ġwrote": 3292,
      "Ġreceiving": 3293,
      "Ġguide": 3294,
      "Ġguidance": 3295,
      "overed": 3296,
      "Ġunto": 3297,
      "Ġraise": 3298,
      "Ġprophecy": 3299,
      "Ġattract": 3300,
      "uced": 3301,
      "Ġobtain": 3302,
      "Ġreflect": 3303,
      "Ġsigns": 3304,
      "Ġpatient": 3305,
      "Ġ70": 3306,
      "Ġcars": 3307,
      "Ġfalsehood": 3308,
      "versity": 3309,
      "Ġtravel": 3310,
      "Nothing": 3311,
      "Ġcommandments": 3312,
      "Ġresponsib": 3313,
      "Ġanswers": 3314,
      "Ġeasily": 3315,
      "Ġreligious": 3316,
      "view": 3317,
      "Ġdirections": 3318,
      "Ġcondem": 3319,
      "Ġlevels": 3320,
      "Ġawaken": 3321,
      "Ġcaused": 3322,
      "Moreover": 3323,
      "Ġsurv": 3324,
      "Ġdevelopment": 3325,
      "Ġuniverse": 3326,
      "Ġjoin": 3327,
      "Nevertheless": 3328,
      "Ġvictory": 3329,
      "Ġtouch": 3330,
      "Ġtechnolog": 3331,
      "Ġcurrent": 3332,
      "ĠScript": 3333,
      "Ġdecisions": 3334,
      "Ġsubstance": 3335,
      "Ġachieve": 3336,
      "Ġcrucified": 3337,
      "Ġmilitary": 3338,
      "Ġbusiness": 3339,
      "Ġfurther": 3340,
      "Ġwealth": 3341,
      "olomon": 3342,
      "Ġexplanation": 3343,
      "Ġjourney": 3344,
      "Ġnuclear": 3345,
      "Ġabsolute": 3346,
      ")?": 3347,
      ".]": 3348,
      "29": 3349,
      "30": 3350,
      "33": 3351,
      "39": 3352,
      "54": 3353,
      "90": 3354,
      "Br": 3355,
      "Ch": 3356,
      "Good": 3357,
      "Im": 3358,
      "Ke": 3359,
      "ST": 3360,
      "Something": 3361,
      "Tw": 3362,
      "UN": 3363,
      "Un": 3364,
      "af": 3365,
      "book": 3366,
      "cing": 3367,
      "chan": 3368,
      "ior": 3369,
      "lt": 3370,
      "lish": 3371,
      "man": 3372,
      "more": 3373,
      "noun": 3374,
      "ov": 3375,
      "rus": 3376,
      "then": 3377,
      "uild": 3378,
      "ugal": 3379,
      "Ġill": 3380,
      "Ġtas": 3381,
      "Ġtong": 3382,
      "Ġast": 3383,
      "Ġwall": 3384,
      "Ġsometimes": 3385,
      "eral": 3386,
      "erved": 3387,
      "Ġbit": 3388,
      "Ġcig": 3389,
      "Ġcraz": 3390,
      "itive": 3391,
      "Ġfed": 3392,
      "Ġmad": 3393,
      "Ġmist": 3394,
      "Ġpost": 3395,
      "Ġda": 3396,
      "Ġdi": 3397,
      "Ġdanger": 3398,
      "atul": 3399,
      "atives": 3400,
      "ode": 3401,
      "aries": 3402,
      "arry": 3403,
      "arily": 3404,
      "Ġlow": 3405,
      "Ġlab": 3406,
      "oming": 3407,
      "ĠGl": 3408,
      "âĢĻ,": 3409,
      "Ġevid": 3410,
      "Ġeither": 3411,
      "ays": 3412,
      "Ġgain": 3413,
      ".âĢĿ[": 3414,
      "Ġforb": 3415,
      "urs": 3416,
      "ctor": 3417,
      "oples": 3418,
      "Ġkids": 3419,
      "Ġsearch": 3420,
      "ĠSouth": 3421,
      "ĠAsi": 3422,
      "ĠAlex": 3423,
      "though": 3424,
      "ĠMaster": 3425,
      "rive": 3426,
      "right": 3427,
      "ĠCl": 3428,
      "ĠCyp": 3429,
      "Ġneither": 3430,
      "Ġmeant": 3431,
      "Ġexec": 3432,
      "usion": 3433,
      "Ġuses": 3434,
      "Ġdeal": 3435,
      "nty": 3436,
      "ĠJuly": 3437,
      "istic": 3438,
      "ĠPort": 3439,
      "ĠPro": 3440,
      "Ġmystery": 3441,
      "ĠThan": 3442,
      "ortal": 3443,
      "ols": 3444,
      "ĠDiv": 3445,
      "Ġnob": 3446,
      "ptember": 3447,
      "ildren": 3448,
      "ĠFive": 3449,
      "ĠFren": 3450,
      "Ġprocess": 3451,
      "ĠHell": 3452,
      "Ġval": 3453,
      "Ġvote": 3454,
      "Ġfair": 3455,
      "Ġrise": 3456,
      "ĠNaz": 3457,
      "Ġintell": 3458,
      "Ġintrod": 3459,
      "Ġworked": 3460,
      "Ġparts": 3461,
      "Which": 3462,
      "ĠKen": 3463,
      "Ġpreserve": 3464,
      "fee": 3465,
      "Ġdisp": 3466,
      "Ġdisease": 3467,
      "agraph": 3468,
      "Ġresurrection": 3469,
      "Ġdesp": 3470,
      "epend": 3471,
      "Ġpret": 3472,
      "Ġrights": 3473,
      "Ġ48": 3474,
      "Ġclot": 3475,
      "Ġclass": 3476,
      "Ġchance": 3477,
      "Ġsecrets": 3478,
      "ruary": 3479,
      "Ġaccess": 3480,
      "Ġtelling": 3481,
      "Ġlooked": 3482,
      "Ġrepres": 3483,
      "Ġthrone": 3484,
      "Ġ197": 3485,
      "Ġdestin": 3486,
      "Ġinvoke": 3487,
      "Ġgets": 3488,
      "Ġgetting": 3489,
      "Ġguess": 3490,
      "Ġguil": 3491,
      "Ġevent": 3492,
      "Ġhappening": 3493,
      "Ġletter": 3494,
      "Ġcrisis": 3495,
      "Ġhumanity": 3496,
      "icked": 3497,
      "Ġattention": 3498,
      "Ġattrib": 3499,
      "Ġattempt": 3500,
      "Ġrespond": 3501,
      "Ġoblig": 3502,
      "Ġobedience": 3503,
      "Ġfoundation": 3504,
      "Ġsupposed": 3505,
      "Ġfourth": 3506,
      "Ġregion": 3507,
      "Ġconfirm": 3508,
      "Ġlawy": 3509,
      "Ġ2007": 3510,
      "Ġsubm": 3511,
      "Ġtradition": 3512,
      "Ġcontinues": 3513,
      "Ġdiscuss": 3514,
      "aughter": 3515,
      "Ġspeaks": 3516,
      "Ġcommandment": 3517,
      "ĠMrs": 3518,
      "ĠThird": 3519,
      "Ġsending": 3520,
      "Ġextinction": 3521,
      "Ġrole": 3522,
      "ouncil": 3523,
      "Ġ2015": 3524,
      "Ġteachings": 3525,
      "Ġtransgress": 3526,
      "ĠUnited": 3527,
      "ccording": 3528,
      "Ġcondition": 3529,
      "Ġpleasure": 3530,
      "Ġsooner": 3531,
      "Ġthankful": 3532,
      "Ġproduce": 3533,
      "Ġavoid": 3534,
      "Ġauthorities": 3535,
      "Ġstronger": 3536,
      "Ġmission": 3537,
      "Ġnatural": 3538,
      "Ġdisappeared": 3539,
      "Ġmodel": 3540,
      "ĠBrother": 3541,
      "Ġpartnership": 3542,
      "Ġwishes": 3543,
      "Ġhealth": 3544,
      "ĠDecember": 3545,
      "Ġeconomic": 3546,
      "Ġdogs": 3547,
      "Ġinvented": 3548,
      "Ġmiracles": 3549,
      "Ġincluding": 3550,
      "Tomorrow": 3551,
      "Ġmurde": 3552,
      "ĠResurrection": 3553,
      "Ġapart": 3554,
      "ĠSavior": 3555,
      "Ġorganiz": 3556,
      "Ġconnection": 3557,
      "ebruary": 3558,
      "Ġverses": 3559,
      "Ġinnoc": 3560,
      "Ġhasten": 3561,
      "Ġhistory": 3562,
      "ĠBaha": 3563,
      "Ġvirt": 3564,
      "Ġsuddenly": 3565,
      "Ġpreparing": 3566,
      "Ġfamilies": 3567,
      "Verily": 3568,
      "Ġhouses": 3569,
      "cellent": 3570,
      "Ġclaim": 3571,
      "Keep": 3572,
      "Ġcrazy": 3573,
      "ĠDivine": 3574,
      "ĠFrench": 3575,
      ").\"": 3576,
      ",'": 3577,
      "22": 3578,
      "40": 3579,
      "41": 3580,
      "42": 3581,
      "44": 3582,
      "51": 3583,
      "60": 3584,
      "?)": 3585,
      "Con": 3586,
      "ED": 3587,
      "EN": 3588,
      "En": 3589,
      "Es": 3590,
      "First": 3591,
      "Few": 3592,
      "Go": 3593,
      "HU": 3594,
      "Ha": 3595,
      "LL": 3596,
      "Look": 3597,
      "Ob": 3598,
      "RU": 3599,
      "action": 3600,
      "bar": 3601,
      "che": 3602,
      "di": 3603,
      "dow": 3604,
      "ffee": 3605,
      "gic": 3606,
      "ggest": 3607,
      "hold": 3608,
      "ik": 3609,
      "ien": 3610,
      "ler": 3611,
      "line": 3612,
      "port": 3613,
      "ron": 3614,
      "ross": 3615,
      "sh": 3616,
      "ses": 3617,
      "salm": 3618,
      "that": 3619,
      "uf": 3620,
      "ug": 3621,
      "uge": 3622,
      "vention": 3623,
      "what": 3624,
      "yes": 3625,
      "zer": 3626,
      "zen": 3627,
      "zuel": 3628,
      "Ġ*": 3629,
      "Ġ0": 3630,
      "Ġve": 3631,
      "Ġur": 3632,
      "ĠOn": 3633,
      "Ġtaste": 3634,
      "inity": 3635,
      "reet": 3636,
      "reth": 3637,
      "reland": 3638,
      "Ġsn": 3639,
      "Ġsort": 3640,
      "Ġsla": 3641,
      "had": 3642,
      "erate": 3643,
      "ona": 3644,
      "Ġbal": 3645,
      "Ġbord": 3646,
      "Ġbird": 3647,
      "Ġbread": 3648,
      "Ġcat": 3649,
      "Ġcred": 3650,
      "iting": 3651,
      "itate": 3652,
      "itable": 3653,
      "oran": 3654,
      "ories": 3655,
      "Ġfate": 3656,
      "Ġfield": 3657,
      "ences": 3658,
      "Ġmet": 3659,
      "Ġmos": 3660,
      "Ġmach": 3661,
      "Ġmaster": 3662,
      "Ġpers": 3663,
      "Ġdear": 3664,
      "atory": 3665,
      "arl": 3666,
      "arant": 3667,
      "Ġlat": 3668,
      "Ġliter": 3669,
      "ĠGen": 3670,
      "ows": 3671,
      "Ġetern": 3672,
      "Ġhit": 3673,
      "Ġhot": 3674,
      "Ġreached": 3675,
      "Ġweight": 3676,
      "Ġwelcome": 3677,
      "Ġforward": 3678,
      "ury": 3679,
      "urches": 3680,
      "enty": 3681,
      "entions": 3682,
      "Ġult": 3683,
      "ops": 3684,
      "amp": 3685,
      "ĠShe": 3686,
      "ĠSim": 3687,
      "ĠSolomon": 3688,
      "Ġdocu": 3689,
      "ĠAli": 3690,
      "ĠAny": 3691,
      "raq": 3692,
      "Ġworth": 3693,
      "ades": 3694,
      "ĠMo": 3695,
      "ĠMon": 3696,
      "ĠMart": 3697,
      "ored": 3698,
      "Ġyourselves": 3699,
      "Ġpeoples": 3700,
      "ĠCon": 3701,
      "ĠComp": 3702,
      "ĠCouncil": 3703,
      "esty": 3704,
      "Ġmember": 3705,
      "Ġmerely": 3706,
      "ili": 3707,
      "Ġexer": 3708,
      "Ġconsequ": 3709,
      "hant": 3710,
      "Ġmanag": 3711,
      "usic": 3712,
      "ĠLot": 3713,
      "Ġsuggest": 3714,
      "thern": 3715,
      "istan": 3716,
      "Ġ16": 3717,
      "eag": 3718,
      "Ġgoal": 3719,
      "Ġourselves": 3720,
      "ĠPart": 3721,
      "ĠPlan": 3722,
      "ĠPsalm": 3723,
      "Ġwouldn": 3724,
      "Ġabs": 3725,
      "ĠBank": 3726,
      "ortly": 3727,
      "Ġplaced": 3728,
      "ĠDid": 3729,
      "ptain": 3730,
      "Ġeverybody": 3731,
      "ĠFebruary": 3732,
      "ignty": 3733,
      "Ġvill": 3734,
      "udget": 3735,
      "Ġrose": 3736,
      "ended": 3737,
      "Ġamb": 3738,
      "ĠIsraeli": 3739,
      "ĠIsraelites": 3740,
      "fulness": 3741,
      "Ġcontent": 3742,
      "Ġcontained": 3743,
      "Ġparty": 3744,
      "Ġpartner": 3745,
      "Ġrememb": 3746,
      "Ġdisg": 3747,
      "Ġpersec": 3748,
      "Ġherself": 3749,
      "Ġasking": 3750,
      "ĠChildren": 3751,
      "Ġ31": 3752,
      "arest": 3753,
      "Ġblind": 3754,
      "Ġblack": 3755,
      "Ġgoodness": 3756,
      "Ġprev": 3757,
      "Ġpregn": 3758,
      "Ġrecon": 3759,
      "Ġrecord": 3760,
      "obal": 3761,
      "obody": 3762,
      "Ġquiet": 3763,
      "they": 3764,
      "Ġsecure": 3765,
      "Ġfollowed": 3766,
      "Ġcoop": 3767,
      "Ġcoffee": 3768,
      "Ġinvitation": 3769,
      "Ġguided": 3770,
      "Ġdecla": 3771,
      "ocol": 3772,
      "wards": 3773,
      "Ġrain": 3774,
      "Ġ96": 3775,
      "Ġchastisement": 3776,
      "Ġchallen": 3777,
      "ĠState": 3778,
      "Ġforgotten": 3779,
      "Ġrefer": 3780,
      "Ġrefuse": 3781,
      "ĠVangu": 3782,
      "Ġdoub": 3783,
      "Ġdouble": 3784,
      "ression": 3785,
      "ĠInternet": 3786,
      "Ġhearing": 3787,
      "Ġdenied": 3788,
      "Ġscene": 3789,
      "Ġbrothers": 3790,
      "Ġfeeling": 3791,
      "Ġaccepted": 3792,
      "Ġcourt": 3793,
      "Ġbeloved": 3794,
      "ĠProt": 3795,
      "Ġleaders": 3796,
      "Ġconclud": 3797,
      "Ġvisible": 3798,
      "enezuel": 3799,
      "Ġnorm": 3800,
      "Ġextent": 3801,
      "Ġcorrupt": 3802,
      "ĠChar": 3803,
      "Also": 3804,
      "Ġteaching": 3805,
      "Ġsituations": 3806,
      "Ġsacred": 3807,
      "Ġdivision": 3808,
      "Ġlearned": 3809,
      "Ġgrowth": 3810,
      "Mankind": 3811,
      "Ġburnt": 3812,
      "Ġseparated": 3813,
      "ocked": 3814,
      "ĠArabs": 3815,
      "Ġencounter": 3816,
      "Ġfulfilled": 3817,
      "Abraham": 3818,
      "Ġbased": 3819,
      "ĠAfrica": 3820,
      "Ġrunning": 3821,
      "Ġmarriage": 3822,
      "Ġstudy": 3823,
      "Ġdevil": 3824,
      "Ġinvestig": 3825,
      "Ġgirls": 3826,
      "Ġsources": 3827,
      "Ġpredecess": 3828,
      "Ġfailed": 3829,
      "Ġharmony": 3830,
      "Ġmiracle": 3831,
      "Ġsatisfied": 3832,
      "Ġcheck": 3833,
      "Ġhonor": 3834,
      "ĠIndia": 3835,
      "Ġconvict": 3836,
      "Ġconstant": 3837,
      "Ġissue": 3838,
      "Ġissues": 3839,
      "Ġdoctors": 3840,
      "ĠAngel": 3841,
      "Ġships": 3842,
      "Ġprovided": 3843,
      "Ġafflict": 3844,
      "Shortly": 3845,
      "Ġignor": 3846,
      "Ġmajority": 3847,
      "Ġjudged": 3848,
      "ĠUkraine": 3849,
      "Ġwarnings": 3850,
      "Ġteachers": 3851,
      "Ġprepared": 3852,
      "Ġaccomplish": 3853,
      "Ġoptions": 3854,
      "Ġstrategy": 3855,
      "Ġsoldiers": 3856,
      "Ġsovereignty": 3857,
      "Ġpossibles": 3858,
      "ointed": 3859,
      "ĠJanuary": 3860,
      "Ġcriminals": 3861,
      "Ġescape": 3862,
      "Ġoccurred": 3863,
      "fortunately": 3864,
      "ĠHamas": 3865,
      "ĠRomania": 3866,
      "Ġadopted": 3867,
      "Ġobser": 3868,
      "Ġopposite": 3869,
      "Ġtemple": 3870,
      "ĠMadrid": 3871,
      "Ġgranted": 3872,
      "Ġcloser": 3873,
      "Ġphysical": 3874,
      "Previous": 3875,
      "Ġpotential": 3876,
      "Ġduty": 3877,
      "ĠFacebook": 3878,
      "Ġresponsibility": 3879,
      "Image": 3880,
      "Ġforbidden": 3881,
      "ĠCyprus": 3882,
      "ĠPortugal": 3883,
      "Ġnobility": 3884,
      "Ġintellig": 3885,
      "Ġclothes": 3886,
      "Ġguilty": 3887,
      "ĠVanguard": 3888,
      "enezuela": 3889,
      "!)": 3890,
      "21": 3891,
      "24": 3892,
      "35": 3893,
      "56": 3894,
      "63": 3895,
      "85": 3896,
      "?âĢĻ": 3897,
      "AM": 3898,
      "Ar": 3899,
      "During": 3900,
      "Has": 3901,
      "Hence": 3902,
      "Last": 3903,
      "Me": 3904,
      "Michael": 3905,
      "Of": 3906,
      "Pl": 3907,
      "Put": 3908,
      "RE": 3909,
      "Ric": 3910,
      "Sec": 3911,
      "TH": 3912,
      "Unt": 3913,
      "Under": 3914,
      "bs": 3915,
      "ball": 3916,
      "believe": 3917,
      "cest": 3918,
      "cies": 3919,
      "dle": 3920,
      "een": 3921,
      "ees": 3922,
      "face": 3923,
      "gain": 3924,
      "ghed": 3925,
      "host": 3926,
      "iam": 3927,
      "ients": 3928,
      "kon": 3929,
      "lu": 3930,
      "mon": 3931,
      "mith": 3932,
      "nel": 3933,
      "ped": 3934,
      "pent": 3935,
      "roup": 3936,
      "sw": 3937,
      "sure": 3938,
      "uan": 3939,
      "uine": 3940,
      "with": 3941,
      "Â·": 3942,
      "Ã©": 3943,
      "Ġi": 3944,
      "Ġed": 3945,
      "Ġut": 3946,
      "Ġ____": 3947,
      "Ġtor": 3948,
      "Ġwicked": 3949,
      "inite": 3950,
      "inians": 3951,
      "rew": 3952,
      "reen": 3953,
      "reci": 3954,
      "Ġoh": 3955,
      "ishing": 3956,
      "Ġsil": 3957,
      "Ġsite": 3958,
      "Ġsitting": 3959,
      "hase": 3960,
      "oned": 3961,
      "Ġbra": 3962,
      "Ġbase": 3963,
      "Ġbudget": 3964,
      "Ġcal": 3965,
      "itals": 3966,
      "ork": 3967,
      "orah": 3968,
      "Ġfre": 3969,
      "Ġfine": 3970,
      "Ġfaces": 3971,
      "esar": 3972,
      "estern": 3973,
      "ane": 3974,
      "Ġdom": 3975,
      "Ġdeli": 3976,
      "ingu": 3977,
      "Ġnine": 3978,
      "odies": 3979,
      "Ġbeat": 3980,
      "aron": 3981,
      "Ġline": 3982,
      "Ġlower": 3983,
      "omen": 3984,
      "ĠGreat": 3985,
      "ĠGood": 3986,
      "ĠGold": 3987,
      "ĠGover": 3988,
      "see": 3989,
      "stand": 3990,
      "oti": 3991,
      "Ġhidden": 3992,
      "Ġrender": 3993,
      "Ġreact": 3994,
      "Ġreform": 3995,
      "Ġgates": 3996,
      "cean": 3997,
      "Ġfort": 3998,
      "ĠImp": 3999,
      "ĠIreland": 4000,
      "ĠIraq": 4001,
      "Ġonline": 4002,
      "vert": 4003,
      "verty": 4004,
      "icated": 4005,
      "Ġareas": 4006,
      ".\"[": 4007,
      "ctober": 4008,
      "ether": 4009,
      "ĠSh": 4010,
      "ĠSay": 4011,
      "ĠSal": 4012,
      "ĠSau": 4013,
      "ĠSun": 4014,
      "ĠSee": 4015,
      "ĠSmith": 4016,
      "Ġancest": 4017,
      "ĠAust": 4018,
      "ĠHarry": 4019,
      "Ġaspect": 4020,
      "racy": 4021,
      "ĠMor": 4022,
      "ĠMos": 4023,
      "ĠMiss": 4024,
      "ĠMercy": 4025,
      "ĠMarch": 4026,
      "Ġliars": 4027,
      "ried": 4028,
      "alled": 4029,
      "allow": 4030,
      "terday": 4031,
      "ĠCO": 4032,
      "ĠCo": 4033,
      "ĠCreation": 4034,
      "Ġcomb": 4035,
      "elve": 4036,
      "Ġstep": 4037,
      "Ġstars": 4038,
      "ulous": 4039,
      "ulgar": 4040,
      "Ġconqu": 4041,
      "Ġconvers": 4042,
      "Ġcongr": 4043,
      "osition": 4044,
      "Ġmanner": 4045,
      "Ġusual": 4046,
      "Ġfront": 4047,
      "Ġdefe": 4048,
      "ĠLe": 4049,
      "ĠLight": 4050,
      "ĠLove": 4051,
      "lier": 4052,
      "ĠWith": 4053,
      "ĠWest": 4054,
      "Ġsum": 4055,
      "Ġsuper": 4056,
      "Ġshown": 4057,
      "Ġshines": 4058,
      "ĠJoseph": 4059,
      "istry": 4060,
      "eak": 4061,
      "each": 4062,
      "ĠEl": 4063,
      "ĠEur": 4064,
      "ĠEvery": 4065,
      "ĠEng": 4066,
      "ĠEden": 4067,
      "ĠPer": 4068,
      "ĠPerson": 4069,
      "ĠParadise": 4070,
      "ĠPeter": 4071,
      "Ġsole": 4072,
      "Ġsocial": 4073,
      "Ġchose": 4074,
      "Ġchurches": 4075,
      "Ġabst": 4076,
      "Ġabol": 4077,
      "ected": 4078,
      "acc": 4079,
      "acy": 4080,
      "ĠBob": 4081,
      "ĠTorah": 4082,
      "umes": 4083,
      "ources": 4084,
      "Ġproved": 4085,
      "Ġprogress": 4086,
      "Ġspent": 4087,
      "Ġspring": 4088,
      "ĠRio": 4089,
      "Ġris": 4090,
      "Ġrob": 4091,
      "Ġshadow": 4092,
      "Ġamount": 4093,
      "aba": 4094,
      "ability": 4095,
      "Ġbelied": 4096,
      "Ġworkers": 4097,
      "Ġacknow": 4098,
      "Ġcontain": 4099,
      "Ġthinks": 4100,
      "Ġfoot": 4101,
      "ĠKoran": 4102,
      "Ġunity": 4103,
      "Ġunable": 4104,
      "Ġunjust": 4105,
      "Ġcalls": 4106,
      "Ġcalling": 4107,
      "Ġdisciples": 4108,
      "Whatever": 4109,
      "Ġdescrib": 4110,
      "Ġ34": 4111,
      "Ġ37": 4112,
      "ounded": 4113,
      "ĠOd": 4114,
      "ĠOf": 4115,
      "ĠOctober": 4116,
      "Ġarg": 4117,
      "Ġappreci": 4118,
      "Ġclay": 4119,
      "Ġclosed": 4120,
      "Ġreckon": 4121,
      "rug": 4122,
      "ruly": 4123,
      "Ġlooks": 4124,
      "Ġrepe": 4125,
      "Ass": 4126,
      "hamed": 4127,
      "Ġnamed": 4128,
      "Ġindic": 4129,
      "Ġindepend": 4130,
      "Ġpoverty": 4131,
      "Ġinvol": 4132,
      "Ġguard": 4133,
      "Ġguarant": 4134,
      "Ġevents": 4135,
      "ocracy": 4136,
      "Ġconscience": 4137,
      "Ġ90": 4138,
      "Ġobject": 4139,
      "Ġimportance": 4140,
      "Ġhatred": 4141,
      "Ġsmoke": 4142,
      "Ġpassage": 4143,
      "Ġrefuge": 4144,
      "ĠVoice": 4145,
      "ĠVenezuela": 4146,
      "Ġplayer": 4147,
      "Ġplaying": 4148,
      "ĠYear": 4149,
      "ĠYeah": 4150,
      "Ġpatients": 4151,
      "Ġsimpl": 4152,
      "Ġdenies": 4153,
      "Ġtrial": 4154,
      "Ġputting": 4155,
      "Ġgenuine": 4156,
      "Ġanger": 4157,
      "Ġharvest": 4158,
      "Ġaccepts": 4159,
      "Ġtrade": 4160,
      "Ġdiscovered": 4161,
      "Ġcommands": 4162,
      "ĠQuran": 4163,
      "Ġgrave": 4164,
      "Ġdrinks": 4165,
      "range": 4166,
      "viour": 4167,
      "Ġreveal": 4168,
      "Ġsystems": 4169,
      "Ġextreme": 4170,
      "Ġeffective": 4171,
      "ification": 4172,
      "Ġprotected": 4173,
      "Ġwaters": 4174,
      "Ġimmortal": 4175,
      ".'\"": 4176,
      "Although": 4177,
      "Ġrecognition": 4178,
      "laim": 4179,
      "Ġdivination": 4180,
      "Ġstanding": 4181,
      "Ġstandard": 4182,
      "Ġperfectly": 4183,
      "Ġmoving": 4184,
      "Ġgrows": 4185,
      "Ġgrowing": 4186,
      "Ġexplained": 4187,
      "Ġwinter": 4188,
      "Ġdreams": 4189,
      "Ġclosely": 4190,
      "Ġenchant": 4191,
      "hard": 4192,
      "Ġsurface": 4193,
      "ĠSeptember": 4194,
      "Ġdepend": 4195,
      "Ġparliament": 4196,
      "Ġunique": 4197,
      "Ġwatching": 4198,
      "roph": 4199,
      "Ġmaintain": 4200,
      "Ġlaughed": 4201,
      "Ġmanifestation": 4202,
      "Ġeconomy": 4203,
      "Ġdeeply": 4204,
      "Ġsatisfy": 4205,
      "Ġfunny": 4206,
      "Ġperman": 4207,
      "Ġrecommended": 4208,
      "Ġsisters": 4209,
      "ĠJackson": 4210,
      "ĠPalestine": 4211,
      "Ġprograms": 4212,
      "Ġignore": 4213,
      "Ġmovement": 4214,
      "Ġrebell": 4215,
      "ĠBlack": 4216,
      "Ġcolleag": 4217,
      "work": 4218,
      "engers": 4219,
      "ĠGerman": 4220,
      "ĠSwed": 4221,
      "Ġprepare": 4222,
      "Ġcompanies": 4223,
      "Ġearn": 4224,
      "ĠCaesar": 4225,
      "Ġassistance": 4226,
      "Others": 4227,
      "Ġweapon": 4228,
      "ĠSyrian": 4229,
      "Ġidentified": 4230,
      "Ġemploy": 4231,
      "Ġhunger": 4232,
      "Ġlocal": 4233,
      "ORD": 4234,
      "Ġimagine": 4235,
      "Ġpolicy": 4236,
      "belief": 4237,
      "Ġsexual": 4238,
      "ĠBilly": 4239,
      "Ġcondemn": 4240,
      "Ġtechnology": 4241,
      "ĠScripture": 4242,
      "Ġtask": 4243,
      "Ġmadness": 4244,
      "Ġevidence": 4245,
      "Ġdestiny": 4246,
      "Ġmosque": 4247,
      "Ġeternity": 4248,
      "Ġexercise": 4249,
      "Ġconsequences": 4250,
      "Ġprevail": 4251,
      "Ġdeclared": 4252,
      "ĠCharles": 4253,
      "Ġintelligence": 4254,
      "Second": 4255,
      "Until": 4256,
      "Ġcongratul": 4257,
      "Ġabolished": 4258,
      "Ġenchantment": 4259,
      "32": 4260,
      "75": 4261,
      "91": 4262,
      "97": 4263,
      "?!": 4264,
      "AL": 4265,
      "Ali": 4266,
      "Adam": 4267,
      "According": 4268,
      "Book": 4269,
      "Believe": 4270,
      "CC": 4271,
      "Could": 4272,
      "DA": 4273,
      "FA": 4274,
      "Five": 4275,
      "ID": 4276,
      "IG": 4277,
      "Mr": 4278,
      "Make": 4279,
      "None": 4280,
      "Nobody": 4281,
      "PE": 4282,
      "Ps": 4283,
      "Pro": 4284,
      "Please": 4285,
      "Peace": 4286,
      "RA": 4287,
      "Sp": 4288,
      "Sometimes": 4289,
      "].\"": 4290,
      "after": 4291,
      "ban": 4292,
      "bed": 4293,
      "because": 4294,
      "bana": 4295,
      "cer": 4296,
      "cle": 4297,
      "cul": 4298,
      "ev": 4299,
      "gard": 4300,
      "gry": 4301,
      "ij": 4302,
      "kes": 4303,
      "last": 4304,
      "min": 4305,
      "mma": 4306,
      "oit": 4307,
      "por": 4308,
      "rough": 4309,
      "rors": 4310,
      "ratic": 4311,
      "ritre": 4312,
      "su": 4313,
      "tion": 4314,
      "ument": 4315,
      "vision": 4316,
      "yle": 4317,
      "year": 4318,
      "Â«": 4319,
      "Ġ&": 4320,
      "Ġ)": 4321,
      "Ġ=": 4322,
      "ĠâĢĿ": 4323,
      "Ġverse": 4324,
      "Ġzen": 4325,
      "Ġtit": 4326,
      "Ġtill": 4327,
      "Ġtour": 4328,
      "hel": 4329,
      "Ġaid": 4330,
      "Ġwild": 4331,
      "Ġwake": 4332,
      "Ġthee": 4333,
      "inib": 4334,
      "rer": 4335,
      "reak": 4336,
      "Ġocean": 4337,
      "ouble": 4338,
      "oups": 4339,
      "Ġsk": 4340,
      "Ġsad": 4341,
      "Ġsus": 4342,
      "Ġswe": 4343,
      "Ġsought": 4344,
      "Ġscience": 4345,
      "âĢĭ": 4346,
      "erves": 4347,
      "Ġbreat": 4348,
      "Ġbond": 4349,
      "Ġbound": 4350,
      "Ġboy": 4351,
      "Ġbodies": 4352,
      "Ġbreak": 4353,
      "Ġcaught": 4354,
      "Ġcode": 4355,
      "itish": 4356,
      "Ġfle": 4357,
      "Ġfra": 4358,
      "eness": 4359,
      "enni": 4360,
      "anced": 4361,
      "Ġpure": 4362,
      "Ġdress": 4363,
      "Ġdomin": 4364,
      "Ġdying": 4365,
      "Ġdata": 4366,
      "Ġinno": 4367,
      "Ġinjust": 4368,
      "Ġinternet": 4369,
      "Ġyouth": 4370,
      "Ġnet": 4371,
      "Ġnose": 4372,
      "Ġbeer": 4373,
      "Ġbears": 4374,
      "arn": 4375,
      "arter": 4376,
      "arity": 4377,
      "arious": 4378,
      "Ġlord": 4379,
      "Ġlack": 4380,
      "Ġleng": 4381,
      "omination": 4382,
      "ĠGhost": 4383,
      "owers": 4384,
      "stead": 4385,
      "Ġeur": 4386,
      "Ġemer": 4387,
      "Ġemb": 4388,
      "leb": 4389,
      "Ġho": 4390,
      "Ġhealed": 4391,
      "imb": 4392,
      "imately": 4393,
      "Ġweaken": 4394,
      "Ġforty": 4395,
      "ĠIS": 4396,
      "ented": 4397,
      "Ġaren": 4398,
      "ctually": 4399,
      "eterm": 4400,
      "Ġsevere": 4401,
      "ĠSan": 4402,
      "ĠSam": 4403,
      "ĠSome": 4404,
      "ĠSomething": 4405,
      "Ġant": 4406,
      "ĠAd": 4407,
      "ĠAv": 4408,
      "ĠAaron": 4409,
      "ĠHave": 4410,
      "ĠHait": 4411,
      "ĠHelp": 4412,
      "race": 4413,
      "ĠMember": 4414,
      "ĠMichael": 4415,
      "Ġliber": 4416,
      "rian": 4417,
      "riest": 4418,
      "riate": 4419,
      "Ġnearly": 4420,
      "Ġneigh": 4421,
      "Ġcompl": 4422,
      "Ġstri": 4423,
      "Ġstup": 4424,
      "Ġstrict": 4425,
      "ilities": 4426,
      "Ġexcellent": 4427,
      "Ġconce": 4428,
      "Ġconque": 4429,
      "embe": 4430,
      "ustain": 4431,
      "hange": 4432,
      "usc": 4433,
      "Ġdeg": 4434,
      "Ġdebt": 4435,
      "Ġdearest": 4436,
      "ĠLat": 4437,
      "ĠLand": 4438,
      "ĠLab": 4439,
      "ĠLORD": 4440,
      "lie": 4441,
      "ĠWitness": 4442,
      "ĠJim": 4443,
      "ĠJust": 4444,
      "ĠJoe": 4445,
      "ĠJune": 4446,
      "istence": 4447,
      "Ġ110": 4448,
      "ĠEast": 4449,
      "ĠPut": 4450,
      "mented": 4451,
      "Ġaband": 4452,
      "Ġabund": 4453,
      "Ġwhenever": 4454,
      "ĠBecause": 4455,
      "ĠBaby": 4456,
      "ĠToday": 4457,
      "Ġplant": 4458,
      "Ġnoble": 4459,
      "ĠFin": 4460,
      "ĠFire": 4461,
      "ĠFran": 4462,
      "Instead": 4463,
      "Ġproceed": 4464,
      "oken": 4465,
      "Ġvol": 4466,
      "Ġvide": 4467,
      "Ġvarious": 4468,
      "unch": 4469,
      "Ġagree": 4470,
      "Ġaggress": 4471,
      "ĠRose": 4472,
      "Ġround": 4473,
      "ĠNa": 4474,
      "ĠNove": 4475,
      "ĠNOT": 4476,
      "Ġtruths": 4477,
      "ansed": 4478,
      "ecision": 4479,
      "Ġintention": 4480,
      "Ġintentions": 4481,
      "...]": 4482,
      "Once": 4483,
      "While": 4484,
      "Ġthinking": 4485,
      "rove": 4486,
      "Ġfool": 4487,
      "Ġtwelve": 4488,
      "Ġpressure": 4489,
      "Ġunc": 4490,
      "nderstand": 4491,
      "Soon": 4492,
      "Ġresources": 4493,
      "ival": 4494,
      "ivil": 4495,
      "Ġsinful": 4496,
      "Ġ32": 4497,
      "Ġ36": 4498,
      "Ġcommitted": 4499,
      "Ġapply": 4500,
      "Ġapprop": 4501,
      "Ġappointed": 4502,
      "Ġprevious": 4503,
      "Ġprecise": 4504,
      "Ġprecious": 4505,
      "apable": 4506,
      "ogether": 4507,
      "Ġ44": 4508,
      "Ġcloud": 4509,
      "Ġclimate": 4510,
      "Ġrecently": 4511,
      "ĠUp": 4512,
      "Ġqual": 4513,
      "Ġglad": 4514,
      "Ġlegal": 4515,
      "Ġaccomp": 4516,
      "Ġmonitor": 4517,
      "Ġactive": 4518,
      "Ġactiv": 4519,
      "Ġcompare": 4520,
      "Ġkills": 4521,
      "Ġcover": 4522,
      "Ġdestruction": 4523,
      "Ġpraying": 4524,
      "Ġdecided": 4525,
      "Ġends": 4526,
      "Ġthroughout": 4527,
      "icture": 4528,
      "Ġraising": 4529,
      "Ġrabb": 4530,
      "Ġ99": 4531,
      "Ġfinish": 4532,
      "Ġfinished": 4533,
      "Everybody": 4534,
      "Ġsword": 4535,
      "Ġattitude": 4536,
      "ucky": 4537,
      "ensation": 4538,
      "ĠChris": 4539,
      "Ġfeet": 4540,
      "lfriend": 4541,
      "Ġcleansed": 4542,
      "Ġincapable": 4543,
      "Ġstarts": 4544,
      "Ġrefused": 4545,
      "Ġrefuses": 4546,
      "Ġplayed": 4547,
      "Ġdifferently": 4548,
      "ĠYOU": 4549,
      "Ġtext": 4550,
      "ĠInternational": 4551,
      "Ġconfusion": 4552,
      "Ġpattern": 4553,
      "fection": 4554,
      "Ġdenomin": 4555,
      "Ġshows": 4556,
      "Ġscen": 4557,
      "Ġforest": 4558,
      "Ġforesee": 4559,
      "Ġoldest": 4560,
      "Ġexploit": 4561,
      "Ġbegins": 4562,
      "Ġdiscer": 4563,
      "Ġreturns": 4564,
      "Note": 4565,
      "Ġeasier": 4566,
      "Ġreveals": 4567,
      "Ġspecies": 4568,
      "Ġexperts": 4569,
      "Ġexperien": 4570,
      "Ġlistening": 4571,
      "Ġsends": 4572,
      "ĠArticle": 4573,
      "Ġextra": 4574,
      "Ġ2010": 4575,
      "Ġ2014": 4576,
      "Ġimmigration": 4577,
      "Ġspeaking": 4578,
      "Ġexception": 4579,
      "Someone": 4580,
      "Ġtransl": 4581,
      "Ġtransition": 4582,
      "Ġbuilding": 4583,
      "Ġlessons": 4584,
      "Ġsurprises": 4585,
      "Ġdemon": 4586,
      "ĠMessenger": 4587,
      "Ġmothers": 4588,
      "ĠJohnson": 4589,
      "Ġadvance": 4590,
      "Ġconcerned": 4591,
      "ĠZen": 4592,
      "elievers": 4593,
      "Ġdeadly": 4594,
      "Ġexplains": 4595,
      "Ġaware": 4596,
      "Ġgirlfriend": 4597,
      "ĠArabia": 4598,
      "Ġstrengthen": 4599,
      "ĠJewish": 4600,
      "Ġmissed": 4601,
      "Ġprojects": 4602,
      "Ġdenying": 4603,
      "Ġbasis": 4604,
      "Ġmagical": 4605,
      "Ġparagraph": 4606,
      "Ġexclus": 4607,
      "Ġtotal": 4608,
      "ethod": 4609,
      "Ġestablish": 4610,
      "Ġoccup": 4611,
      "Ġmountains": 4612,
      "Ġbehave": 4613,
      "Ġbehalf": 4614,
      "Ġvictim": 4615,
      "Ġpainful": 4616,
      "Ġprisoners": 4617,
      "Ġsolution": 4618,
      "Ġinstruct": 4619,
      "which": 4620,
      "Ġsett": 4621,
      "Ġmoments": 4622,
      "Ġheads": 4623,
      "ĠParinib": 4624,
      "Ġconsumers": 4625,
      "Ġinformed": 4626,
      "Ġpermission": 4627,
      "Ġsuccessful": 4628,
      "ASA": 4629,
      "knowing": 4630,
      "Ġprinciple": 4631,
      "Ġ180": 4632,
      "ĠExcept": 4633,
      "Ġopportunities": 4634,
      "Ġapost": 4635,
      "Ġlimits": 4636,
      "ĠUkrainian": 4637,
      "Ġdecisive": 4638,
      "Ġterms": 4639,
      "Ġmedia": 4640,
      "Ġinflu": 4641,
      "Ġinfinite": 4642,
      "ĠGermany": 4643,
      "Ġlikes": 4644,
      "Ġinteresting": 4645,
      "Ġparticip": 4646,
      "Ġparticular": 4647,
      "Ġinterpretation": 4648,
      "itutional": 4649,
      "Ġmotive": 4650,
      "Ġearlier": 4651,
      "Ġhoped": 4652,
      "Ġstatement": 4653,
      "Ġsovereign": 4654,
      "Ġindividually": 4655,
      "Ġcommunication": 4656,
      "Ġslave": 4657,
      "Ġrevolution": 4658,
      "Ġweapons": 4659,
      "ĠSyria": 4660,
      "Ġnegoti": 4661,
      "ĠPolish": 4662,
      "Ġsufficiently": 4663,
      "aura": 4664,
      "gentina": 4665,
      "Ġtype": 4666,
      "Ġculture": 4667,
      "Ġthreatened": 4668,
      "ĠNorth": 4669,
      "Ġcharity": 4670,
      "Israeli": 4671,
      "Ġtemptation": 4672,
      "Ġbirthday": 4673,
      "Ġceleb": 4674,
      "Ġcouple": 4675,
      "Ġpopular": 4676,
      "Ġbeasts": 4677,
      "Ġlanguages": 4678,
      "Ġproposal": 4679,
      "Ġscriptures": 4680,
      "Ġdetails": 4681,
      "Ġdisappears": 4682,
      "Neither": 4683,
      "Ġcurrently": 4684,
      "Brother": 4685,
      "Unless": 4686,
      "Ġcigare": 4687,
      "Ġmistake": 4688,
      "Ġdespite": 4689,
      "Ġattributes": 4690,
      "Ġlawyer": 4691,
      "Ġtraditional": 4692,
      "Ġinnocent": 4693,
      "Especially": 4694,
      "Having": 4695,
      "Ġslaves": 4696,
      "Ġborders": 4697,
      "Ġbirds": 4698,
      "Ġlatest": 4699,
      "Ġdoubts": 4700,
      "Ġnormal": 4701,
      "Ġcorruption": 4702,
      "Ġpredecessors": 4703,
      "Richard": 4704,
      "Ġancestors": 4705,
      "ĠAustral": 4706,
      "ĠOdette": 4707,
      "Ġreckoning": 4708,
      "Ġextremely": 4709,
      "Ġcolleagues": 4710,
      "ritrea": 4711,
      "ennium": 4712,
      "Ġneighb": 4713,
      "Ġstupid": 4714,
      "Ġconquered": 4715,
      "embered": 4716,
      "Ġappropriate": 4717,
      "ĠParinibbana": 4718,
      "'.": 4719,
      "45": 4720,
      "47": 4721,
      "52": 4722,
      "53": 4723,
      "58": 4724,
      "66": 4725,
      "68": 4726,
      "71": 4727,
      "94": 4728,
      "AC": 4729,
      "Cha": 4730,
      "Cor": 4731,
      "Char": 4732,
      "Day": 4733,
      "Evid": 4734,
      "Find": 4735,
      "GF": 4736,
      "II": 4737,
      "Ken": 4738,
      "ME": 4739,
      "Men": 4740,
      "ND": 4741,
      "Russi": 4742,
      "Se": 4743,
      "Tr": 4744,
      "Very": 4745,
      "Was": 4746,
      "aren": 4747,
      "aism": 4748,
      "ba": 4749,
      "bum": 4750,
      "cue": 4751,
      "claim": 4752,
      "da": 4753,
      "do": 4754,
      "du": 4755,
      "dy": 4756,
      "does": 4757,
      "ghan": 4758,
      "gia": 4759,
      "hil": 4760,
      "hum": 4761,
      "ii": 4762,
      "iec": 4763,
      "iah": 4764,
      "joice": 4765,
      "lon": 4766,
      "lar": 4767,
      "mn": 4768,
      "ms": 4769,
      "mas": 4770,
      "mosp": 4771,
      "nor": 4772,
      "oli": 4773,
      "oops": 4774,
      "pri": 4775,
      "pens": 4776,
      "ris": 4777,
      "ront": 4778,
      "sp": 4779,
      "san": 4780,
      "ua": 4781,
      "uals": 4782,
      "vil": 4783,
      "Ġ+": 4784,
      "Ġir": 4785,
      "Ġide": 4786,
      "Ġtend": 4787,
      "Ġtaught": 4788,
      "Ġtax": 4789,
      "hew": 4790,
      "held": 4791,
      "Ġaut": 4792,
      "Ġwide": 4793,
      "Ġwood": 4794,
      "inced": 4795,
      "rep": 4796,
      "isc": 4797,
      "isation": 4798,
      "Ġsound": 4799,
      "Ġsatan": 4800,
      "Ġsown": 4801,
      "Ġscient": 4802,
      "ero": 4803,
      "erry": 4804,
      "nda": 4805,
      "onies": 4806,
      "Ġbought": 4807,
      "Ġbillion": 4808,
      "Ġcut": 4809,
      "Ġcand": 4810,
      "Ġcast": 4811,
      "Ġcities": 4812,
      "Ġcup": 4813,
      "Ġcivil": 4814,
      "itute": 4815,
      "itutions": 4816,
      "oring": 4817,
      "Ġtop": 4818,
      "Ġtool": 4819,
      "Ġfac": 4820,
      "Ġfurn": 4821,
      "Ġfash": 4822,
      "Ġmass": 4823,
      "Ġmusic": 4824,
      "ancy": 4825,
      "Ġpiec": 4826,
      "Ġdri": 4827,
      "Ġyield": 4828,
      "edd": 4829,
      "atar": 4830,
      "atur": 4831,
      "ators": 4832,
      "Ġinj": 4833,
      "Ġinqu": 4834,
      "Ġisland": 4835,
      "arah": 4836,
      "vered": 4837,
      "Ġlif": 4838,
      "Ġlitre": 4839,
      "Ġlaughter": 4840,
      "oms": 4841,
      "omise": 4842,
      "Ġhaven": 4843,
      "ĠGu": 4844,
      "ĠGent": 4845,
      "ĠGaz": 4846,
      "ĠGroup": 4847,
      "Ġears": 4848,
      "oto": 4849,
      "ots": 4850,
      "ott": 4851,
      "lend": 4852,
      "lection": 4853,
      "levision": 4854,
      "Ġhid": 4855,
      "Ġhur": 4856,
      "Ġhol": 4857,
      "Ġhost": 4858,
      "Ġrese": 4859,
      "Ġrenew": 4860,
      "Ġrede": 4861,
      "Ġrelease": 4862,
      "Ġgas": 4863,
      "Ġgent": 4864,
      "Ġgiving": 4865,
      "Ġgained": 4866,
      "imens": 4867,
      "ali": 4868,
      "alt": 4869,
      "Ġforum": 4870,
      "Ġformer": 4871,
      "Ġforced": 4872,
      "iders": 4873,
      "idence": 4874,
      "asing": 4875,
      "enth": 4876,
      "iced": 4877,
      "Ġnote": 4878,
      "Ġnotes": 4879,
      "Ġnoticed": 4880,
      "Ġwithd": 4881,
      "etween": 4882,
      "Ġkiss": 4883,
      "Ġselect": 4884,
      "ĠSister": 4885,
      "Ġprim": 4886,
      "Ġprime": 4887,
      "Ġannoun": 4888,
      "ĠAS": 4889,
      "ĠAt": 4890,
      "ĠAge": 4891,
      "ĠAfter": 4892,
      "ĠHen": 4893,
      "Ġwasn": 4894,
      "ada": 4895,
      "essions": 4896,
      "ĠMill": 4897,
      "ĠMak": 4898,
      "ĠMillion": 4899,
      "rier": 4900,
      "Ġalong": 4901,
      "Ġaltern": 4902,
      "Ġalbum": 4903,
      "antic": 4904,
      "Welcome": 4905,
      "ests": 4906,
      "Ġmeat": 4907,
      "Ġstar": 4908,
      "Ġstruct": 4909,
      "Ġstuff": 4910,
      "Ġstaff": 4911,
      "Ġstories": 4912,
      "Ġstrug": 4913,
      "ulner": 4914,
      "iling": 4915,
      "Ġtrouble": 4916,
      "Ġtroops": 4917,
      "Ġexternal": 4918,
      "Ġconced": 4919,
      "Ġconsec": 4920,
      "Ġconference": 4921,
      "Ġconvert": 4922,
      "ander": 4923,
      "andra": 4924,
      "using": 4925,
      "Ġusually": 4926,
      "augh": 4927,
      "Ġdeb": 4928,
      "ĠLu": 4929,
      "ĠLut": 4930,
      "ĠLady": 4931,
      "...\"": 4932,
      "Three": 4933,
      "lice": 4934,
      "ĠWat": 4935,
      "ordan": 4936,
      "ordance": 4937,
      "Ġshine": 4938,
      "Ġshock": 4939,
      "ĠJuan": 4940,
      "Ġattain": 4941,
      "Ġatmosp": 4942,
      "east": 4943,
      "Ġgoals": 4944,
      "ĠEV": 4945,
      "ĠEven": 4946,
      "Ġours": 4947,
      "Ġsoci": 4948,
      "Ġchocol": 4949,
      "Ġability": 4950,
      "Ġabomination": 4951,
      "acle": 4952,
      "aches": 4953,
      "ĠBec": 4954,
      "ĠBraz": 4955,
      "ĠBulgar": 4956,
      "ĠBrian": 4957,
      "ĠTw": 4958,
      "Ġplain": 4959,
      "Ġplans": 4960,
      "Ġnobody": 4961,
      "ump": 4962,
      "ĠFour": 4963,
      "ĠFrid": 4964,
      "Ġproced": 4965,
      "Ġproclaim": 4966,
      "ques": 4967,
      "Ġsport": 4968,
      "Ġspoken": 4969,
      "Ġvulner": 4970,
      "unk": 4971,
      "udent": 4972,
      "ĠRed": 4973,
      "ĠRich": 4974,
      "ĠIsa": 4975,
      "ĠIsh": 4976,
      "Ġrule": 4977,
      "Ġshared": 4978,
      "ĠNight": 4979,
      "ĠNASA": 4980,
      "endment": 4981,
      "abwe": 4982,
      "ables": 4983,
      "Ġimage": 4984,
      "Ġimple": 4985,
      "Ġcouldn": 4986,
      "...?": 4987,
      "Ġgreatly": 4988,
      "Ġremembered": 4989,
      "Ġevening": 4990,
      "plom": 4991,
      "rog": 4992,
      "Ġbetray": 4993,
      "ĠKore": 4994,
      "Ġtwice": 4995,
      "Ġpreserved": 4996,
      "Ġserpent": 4997,
      "Ġhelpful": 4998,
      "ews": 4999,
      "Ġdoesn": 5000,
      "Ġsomewhere": 5001,
      "izes": 5002,
      "Ġresist": 5003,
      "Ġrescue": 5004,
      "ivan": 5005,
      "Ġdesert": 5006,
      "Ġdesires": 5007,
      "Ġafterwards": 5008,
      "Ġ33": 5009,
      "Ġblog": 5010,
      "Ġgras": 5011,
      "Ġgroups": 5012,
      "ĠOther": 5013,
      "Ġarticle": 5014,
      "Ġarrive": 5015,
      "Ġapplied": 5016,
      "Ġapplic": 5017,
      "Ġpreced": 5018,
      "aper": 5019,
      "Ġrightly": 5020,
      "ogue": 5021,
      "Ġ400": 5022,
      "Ġimprove": 5023,
      "Ġrecent": 5024,
      "ĠUs": 5025,
      "Ġaccordance": 5026,
      "Ġleaves": 5027,
      "Ġfollowers": 5028,
      "ĠWords": 5029,
      "Ġrealized": 5030,
      "Ġacts": 5031,
      "Ġactivity": 5032,
      "oughts": 5033,
      "ĠThese": 5034,
      "Ġpolice": 5035,
      "Ġcool": 5036,
      "riends": 5037,
      "Ġdestination": 5038,
      "Ġinvite": 5039,
      "Ġdecades": 5040,
      "Ġ57": 5041,
      "cession": 5042,
      "Ġrad": 5043,
      "Ġrare": 5044,
      "Ġchain": 5045,
      "Ġchapter": 5046,
      "ĠAbout": 5047,
      "Ġclean": 5048,
      "Ġpassion": 5049,
      "Ġsupply": 5050,
      "Ġsuppose": 5051,
      "Ġincred": 5052,
      "Ġincarn": 5053,
      "Ġteaches": 5054,
      "Ġdrop": 5055,
      "Ġdrunk": 5056,
      "Ġreflection": 5057,
      "Ġsigned": 5058,
      "Ġlisted": 5059,
      "Ġdestroying": 5060,
      "ĠYah": 5061,
      "Ġoffers": 5062,
      "Ġexamples": 5063,
      "Ġteeth": 5064,
      "Ġtelevision": 5065,
      "Ġconfident": 5066,
      "Ġscared": 5067,
      "Ġtrib": 5068,
      "Ġtested": 5069,
      "Ġ2003": 5070,
      "Ġ2004": 5071,
      "Ġ2006": 5072,
      "eeds": 5073,
      "Ġordered": 5074,
      "Ġeating": 5075,
      "Ġrestore": 5076,
      "ĠPromise": 5077,
      "Ġreturned": 5078,
      "Ġdefine": 5079,
      "Ġleader": 5080,
      "Ġleading": 5081,
      "Ġtalked": 5082,
      "Ġgrand": 5083,
      "ĠThoughts": 5084,
      "Ġmoral": 5085,
      "Ġsentence": 5086,
      "Ġintervention": 5087,
      "Ġvisions": 5088,
      "Ġkeeping": 5089,
      "Ġkinds": 5090,
      "ĠArmen": 5091,
      "ĠArmy": 5092,
      "ĠArgentina": 5093,
      "Ġextend": 5094,
      "Ġefforts": 5095,
      "reams": 5096,
      "Ġpaying": 5097,
      "ĠDoes": 5098,
      "Ġsupported": 5099,
      "Ġgeneration": 5100,
      "Ġcorrection": 5101,
      "Ġ2013": 5102,
      "Always": 5103,
      "Ġexceptions": 5104,
      "Ġexpected": 5105,
      "Ġexpectation": 5106,
      "Ġexpectations": 5107,
      "Ġtransport": 5108,
      "ĠUni": 5109,
      "ĠUncle": 5110,
      "Ġpleased": 5111,
      "Ġyesterday": 5112,
      "Ġdemocracy": 5113,
      "Ġarmies": 5114,
      "Ġconcern": 5115,
      "Ġtreasure": 5116,
      "Ġtreasures": 5117,
      "Ġdivine": 5118,
      "ĠZimb": 5119,
      "Ġflowers": 5120,
      "Ġmov": 5121,
      "Ġdwelling": 5122,
      "Ġmirrors": 5123,
      "ĠAfghan": 5124,
      "Ġtrusteth": 5125,
      "Ġawait": 5126,
      "Ġencourage": 5127,
      "Ġmissing": 5128,
      "Ġquestioned": 5129,
      "Ġbiggest": 5130,
      "ĠGreeks": 5131,
      "ĠSeven": 5132,
      "Ġstayed": 5133,
      "Ġgovern": 5134,
      "Ġentirely": 5135,
      "Abu": 5136,
      "Ġmodern": 5137,
      "ĠIranian": 5138,
      "Ġexchange": 5139,
      "ĠBritish": 5140,
      "erem": 5141,
      "Ġjoined": 5142,
      "ĠJones": 5143,
      "rected": 5144,
      "Ġhealing": 5145,
      "ĠDevil": 5146,
      "Ġpossession": 5147,
      "Ġproducts": 5148,
      "Ġsacrific": 5149,
      "Ġinstrument": 5150,
      "Ġinstruments": 5151,
      "Ġtouched": 5152,
      "Ġtowns": 5153,
      "Ġpredest": 5154,
      "ĠParis": 5155,
      "ĠParliament": 5156,
      "Ġinventions": 5157,
      "Ġconsume": 5158,
      "Ġattacks": 5159,
      "Ġharmon": 5160,
      "uredly": 5161,
      "isingly": 5162,
      "Ġinsp": 5163,
      "Ġconvinced": 5164,
      "Ġmurder": 5165,
      "Ġhospitals": 5166,
      "Ġresolve": 5167,
      "Ġresolute": 5168,
      "Ġprincess": 5169,
      "Ġdoctor": 5170,
      "ĠExistence": 5171,
      "ĠPalestinian": 5172,
      "ĠPalestinians": 5173,
      "Ġaffirm": 5174,
      "Ġvisitors": 5175,
      "Ġcamp": 5176,
      "Ġcamer": 5177,
      "Ġmajor": 5178,
      "Ġdelight": 5179,
      "Ġlimit": 5180,
      "Ġelev": 5181,
      "Ġelected": 5182,
      "Ġelectric": 5183,
      "Ġrebuild": 5184,
      "Ġ1967": 5185,
      "***": 5186,
      "Except": 5187,
      "worthy": 5188,
      "Ġachie": 5189,
      "Ġsanctify": 5190,
      "Ġcentury": 5191,
      "Ġprofession": 5192,
      "Ġaccomplished": 5193,
      "Ġcompanion": 5194,
      "Ġdetermined": 5195,
      "Ġinterpreted": 5196,
      "Ġoption": 5197,
      "celona": 5198,
      "Ġstrategic": 5199,
      "Ġdescendants": 5200,
      "Ġindividual": 5201,
      "Ġcommunicate": 5202,
      "Ġdemands": 5203,
      "Ġmagician": 5204,
      "Ġwindow": 5205,
      "ĠJane": 5206,
      "ructive": 5207,
      "Ġcriminal": 5208,
      "Ġassociate": 5209,
      "aurant": 5210,
      "aithfulness": 5211,
      "Ġbanks": 5212,
      "Ġhorrible": 5213,
      "Ġhungry": 5214,
      "ĠSecond": 5215,
      "ĠSecret": 5216,
      "ĠWarning": 5217,
      "Ġcharge": 5218,
      "Ġsucceeded": 5219,
      "Ġtakes": 5220,
      "Ġfifth": 5221,
      "Ġfifty": 5222,
      "Ġmicroph": 5223,
      "Ġlanguage": 5224,
      "Ġengine": 5225,
      "Ġproposals": 5226,
      "ĠCommandment": 5227,
      "ĠCommandments": 5228,
      "Ġbenefit": 5229,
      "gency": 5230,
      "Ġterrible": 5231,
      "Ġdraw": 5232,
      "ĠGeorge": 5233,
      "ĠGeorgia": 5234,
      "ĠServ": 5235,
      "Ġabsolutely": 5236,
      "Ġtongues": 5237,
      "Ġastray": 5238,
      "Ġwalls": 5239,
      "Ġdaily": 5240,
      "ĠAsian": 5241,
      "Ġmeantime": 5242,
      "Ġintroduced": 5243,
      "ĠKenya": 5244,
      "Ġresponded": 5245,
      "Ġmurderer": 5246,
      "Conf": 5247,
      "ufact": 5248,
      "Ġbalance": 5249,
      "Ġcredit": 5250,
      "Ġmachine": 5251,
      "Ġliterally": 5252,
      "ĠMartin": 5253,
      "Ġmanagement": 5254,
      "Ġvillage": 5255,
      "Ġremembrance": 5256,
      "Ġpersecution": 5257,
      "Ġreconcil": 5258,
      "Ġconviction": 5259,
      "Ġeduc": 5260,
      "Ġfrequ": 5261,
      "Ġreforms": 5262,
      "ĠSaudi": 5263,
      "allowed": 5264,
      "Ġdescribes": 5265,
      "Ġargue": 5266,
      "Ġindependence": 5267,
      "Ġguarantee": 5268,
      "Ġpermanent": 5269,
      "ĠSwedish": 5270,
      "Speak": 5271,
      "etermined": 5272,
      "ĠHaiti": 5273,
      "ĠLaban": 5274,
      "ĠPutin": 5275,
      "Ġabandoned": 5276,
      "Ġabundance": 5277,
      "ĠNovember": 5278,
      "Ġprecisely": 5279,
      "Ġclouds": 5280,
      "Chapter": 5281,
      "Russia": 5282,
      "Ġideas": 5283,
      "Ġfashion": 5284,
      "Ġpieces": 5285,
      "Ġgentle": 5286,
      "Ġstrugg": 5287,
      "ĠBrazil": 5288,
      "ĠFriday": 5289,
      "ĠZimbabwe": 5290,
      "Ġmicrophone": 5291,
      "!'": 5292,
      "\":": 5293,
      "\"[": 5294,
      "):": 5295,
      ".,": 5296,
      "02": 5297,
      "03": 5298,
      "220": 5299,
      "70": 5300,
      "76": 5301,
      "78": 5302,
      "86": 5303,
      "Acts": 5304,
      "Again": 5305,
      "Bel": 5306,
      "Bob": 5307,
      "Bless": 5308,
      "CE": 5309,
      "Come": 5310,
      "Col": 5311,
      "Cons": 5312,
      "DON": 5313,
      "Eritrea": 5314,
      "Fire": 5315,
      "Fortun": 5316,
      "Give": 5317,
      "HE": 5318,
      "Had": 5319,
      "Hard": 5320,
      "Help": 5321,
      "IV": 5322,
      "ION": 5323,
      "ILL": 5324,
      "Jack": 5325,
      "Love": 5326,
      "Mu": 5327,
      "Mar": 5328,
      "Mus": 5329,
      "Nay": 5330,
      "Num": 5331,
      "OS": 5332,
      "PL": 5333,
      "Part": 5334,
      "Paul": 5335,
      "Pharaoh": 5336,
      "Plan": 5337,
      "RI": 5338,
      "RO": 5339,
      "Res": 5340,
      "Rome": 5341,
      "SA": 5342,
      "Surpr": 5343,
      "Turn": 5344,
      "Time": 5345,
      "UL": 5346,
      "Up": 5347,
      "Use": 5348,
      "Vers": 5349,
      "Yog": 5350,
      "[...]": 5351,
      "ae": 5352,
      "ald": 5353,
      "apt": 5354,
      "bai": 5355,
      "bama": 5356,
      "believers": 5357,
      "cli": 5358,
      "eur": 5359,
      "eff": 5360,
      "ext": 5361,
      "egr": 5362,
      "ffered": 5363,
      "gi": 5364,
      "gan": 5365,
      "hs": 5366,
      "iat": 5367,
      "iation": 5368,
      "ipp": 5369,
      "iber": 5370,
      "iple": 5371,
      "ique": 5372,
      "ihad": 5373,
      "jan": 5374,
      "mpt": 5375,
      "mind": 5376,
      "nah": 5377,
      "nie": 5378,
      "nels": 5379,
      "pen": 5380,
      "phan": 5381,
      "pro": 5382,
      "pective": 5383,
      "peace": 5384,
      "ram": 5385,
      "rant": 5386,
      "sa": 5387,
      "sy": 5388,
      "sha": 5389,
      "sit": 5390,
      "ta": 5391,
      "truth": 5392,
      "time": 5393,
      "together": 5394,
      "uw": 5395,
      "ued": 5396,
      "upp": 5397,
      "was": 5398,
      "whether": 5399,
      "whel": 5400,
      "xi": 5401,
      "xts": 5402,
      "yd": 5403,
      "yo": 5404,
      "your": 5405,
      "Ãī": 5406,
      "Ġ{": 5407,
      "Ġâ": 5408,
      "Ġ.\"": 5409,
      "Ġice": 5410,
      "Ġ000": 5411,
      "Ġ....": 5412,
      "Ġtun": 5413,
      "hest": 5414,
      "heck": 5415,
      "Ġwast": 5416,
      "Ġwives": 5417,
      "Ġwines": 5418,
      "Ġwestern": 5419,
      "Ġwounded": 5420,
      "ini": 5421,
      "inist": 5422,
      "inally": 5423,
      "inary": 5424,
      "inated": 5425,
      "rees": 5426,
      "isions": 5427,
      "ishes": 5428,
      "Ġsession": 5429,
      "Ġsustain": 5430,
      "hal": 5431,
      "erous": 5432,
      "erance": 5433,
      "onents": 5434,
      "Ġbab": 5435,
      "Ġbish": 5436,
      "Ġbapt": 5437,
      "Ġcow": 5438,
      "Ġcust": 5439,
      "Ġcli": 5440,
      "Ġcham": 5441,
      "Ġcease": 5442,
      "Ġcourage": 5443,
      "Ġcerem": 5444,
      "lly": 5445,
      "llars": 5446,
      "itimate": 5447,
      "itnah": 5448,
      "orse": 5449,
      "orce": 5450,
      "oration": 5451,
      "Ġtoys": 5452,
      "Ġtoler": 5453,
      "Ġfil": 5454,
      "Ġfake": 5455,
      "Ġfeared": 5456,
      "Ġfright": 5457,
      "enator": 5458,
      "Ġmut": 5459,
      "Ġmob": 5460,
      "Ġpill": 5461,
      "Ġpal": 5462,
      "Ġpack": 5463,
      "Ġpage": 5464,
      "Ġpages": 5465,
      "Ġparadise": 5466,
      "Ġphase": 5467,
      "Ġpicture": 5468,
      "Ġded": 5469,
      "Ġdare": 5470,
      "Ġdict": 5471,
      "Ġdial": 5472,
      "Ġdimens": 5473,
      "ature": 5474,
      "atitude": 5475,
      "Ġinner": 5476,
      "Ġinev": 5477,
      "Ġnar": 5478,
      "odes": 5479,
      "odom": 5480,
      "ara": 5481,
      "arus": 5482,
      "Ġlay": 5483,
      "Ġloses": 5484,
      "Ġlaid": 5485,
      "Ġlying": 5486,
      "omb": 5487,
      "ĠGard": 5488,
      "ĠGreen": 5489,
      "str": 5490,
      "Ġet": 5491,
      "Ġecli": 5492,
      "oters": 5493,
      "illions": 5494,
      "leg": 5495,
      "lete": 5496,
      "Ġhide": 5497,
      "Ġhors": 5498,
      "utr": 5499,
      "Ġheld": 5500,
      "Ġheap": 5501,
      "Ġreven": 5502,
      "Ġreview": 5503,
      "Ġrejoice": 5504,
      "Ġge": 5505,
      "ceive": 5506,
      "ceived": 5507,
      "ima": 5508,
      "imal": 5509,
      "Ġweeds": 5510,
      "Ġwills": 5511,
      "idic": 5512,
      "ĠIM": 5513,
      "urd": 5514,
      "uries": 5515,
      "urrected": 5516,
      "asion": 5517,
      "entral": 5518,
      "ico": 5519,
      "iform": 5520,
      "Ġnotice": 5521,
      "Ġnotable": 5522,
      "ctors": 5523,
      "Ġwhis": 5524,
      "etter": 5525,
      "etary": 5526,
      "aman": 5527,
      "amed": 5528,
      "amid": 5529,
      "amily": 5530,
      "Ġsection": 5531,
      "ĠSect": 5532,
      "ĠSix": 5533,
      "ĠScience": 5534,
      "ĠSivan": 5535,
      "ĠSodom": 5536,
      "Ġpride": 5537,
      "Ġantic": 5538,
      "ĠAL": 5539,
      "ĠAg": 5540,
      "ĠAir": 5541,
      "ĠAnt": 5542,
      "ĠAuthor": 5543,
      "ĠAzer": 5544,
      "ĠAND": 5545,
      "ĠHor": 5546,
      "Ġaside": 5547,
      "Ġashamed": 5548,
      "rad": 5549,
      "rap": 5550,
      "raw": 5551,
      "Ġworst": 5552,
      "ado": 5553,
      "adies": 5554,
      "ĠMer": 5555,
      "ĠMen": 5556,
      "ĠMake": 5557,
      "ĠMaj": 5558,
      "ching": 5559,
      "Ġtheme": 5560,
      "Ġpearl": 5561,
      "aint": 5562,
      "ĠCal": 5563,
      "ĠCub": 5564,
      "ĠCamb": 5565,
      "Ġsake": 5566,
      "Ġsafer": 5567,
      "Ġmeal": 5568,
      "Ġmeals": 5569,
      "Ġstr": 5570,
      "Ġstab": 5571,
      "Ġstret": 5572,
      "Ġsteal": 5573,
      "Ġstrange": 5574,
      "Ġstyle": 5575,
      "uled": 5576,
      "ulation": 5577,
      "ulate": 5578,
      "ils": 5579,
      "ilater": 5580,
      "Ġwhoever": 5581,
      "ema": 5582,
      "emor": 5583,
      "pport": 5584,
      "ivered": 5585,
      "Ġdeeds": 5586,
      "ĠLiber": 5587,
      "Think": 5588,
      "Third": 5589,
      "lies": 5590,
      "liath": 5591,
      "ĠWol": 5592,
      "ĠWiz": 5593,
      "ĠWater": 5594,
      "Ġsuffered": 5595,
      "Ġbecoming": 5596,
      "Ġjoke": 5597,
      "Ġtheirs": 5598,
      "ĠJe": 5599,
      "ĠJo": 5600,
      "ĠJordan": 5601,
      "Ġate": 5602,
      "Ġ1000": 5603,
      "ĠEd": 5604,
      "ĠEs": 5605,
      "ĠEli": 5606,
      "ĠEner": 5607,
      "Ġloving": 5608,
      "ĠPh": 5609,
      "ĠPan": 5610,
      "ĠPriest": 5611,
      "oute": 5612,
      "atell": 5613,
      "acity": 5614,
      "ĠBen": 5615,
      "ĠBig": 5616,
      "ĠBost": 5617,
      "ĠTO": 5618,
      "ĠTen": 5619,
      "ĠTok": 5620,
      "ĠTRU": 5621,
      "ĠTruly": 5622,
      "ĠTHE": 5623,
      "orted": 5624,
      "Ġotherwise": 5625,
      "astic": 5626,
      "olas": 5627,
      "olerance": 5628,
      "Ġ29": 5629,
      "ighty": 5630,
      "ume": 5631,
      "ĠFI": 5632,
      "ĠFaith": 5633,
      "ĠFriends": 5634,
      "ĠFitnah": 5635,
      "ĠFamily": 5636,
      "iger": 5637,
      "igital": 5638,
      "sels": 5639,
      "ĠHere": 5640,
      "oking": 5641,
      "Ġvan": 5642,
      "Ġvain": 5643,
      "Ġvital": 5644,
      "Ġvoted": 5645,
      "ung": 5646,
      "ĠRom": 5647,
      "ĠRel": 5648,
      "ĠRem": 5649,
      "ĠRight": 5650,
      "ĠRec": 5651,
      "ĠRabb": 5652,
      "Ġrit": 5653,
      "Ġridic": 5654,
      "Ġshame": 5655,
      "Ġanymore": 5656,
      "ĠNay": 5657,
      "ĠName": 5658,
      "ĠNational": 5659,
      "ĠNiger": 5660,
      "Ġambit": 5661,
      "Ġintim": 5662,
      "Ġintimate": 5663,
      "Ġintegr": 5664,
      "Ġintolerance": 5665,
      "Ġacqu": 5666,
      "Ġacross": 5667,
      "Ġcreates": 5668,
      "Ġcontro": 5669,
      "Ġcontext": 5670,
      "Ġparties": 5671,
      "aked": 5672,
      "Ġremove": 5673,
      "play": 5674,
      "place": 5675,
      "Ġfoc": 5676,
      "aching": 5677,
      "ĠKa": 5678,
      "ĠKim": 5679,
      "Ġtwenty": 5680,
      "Ġserves": 5681,
      "Ġserved": 5682,
      "Ġunite": 5683,
      "Ġunlike": 5684,
      "Ġunex": 5685,
      "Ġunfortunately": 5686,
      "Ġuniform": 5687,
      "Ġdisob": 5688,
      "Ġdisbelieve": 5689,
      "Ġperish": 5690,
      "Ġsomebody": 5691,
      "agon": 5692,
      "izon": 5693,
      "ization": 5694,
      "Ġresurrected": 5695,
      "Ġundert": 5696,
      "Ġblast": 5697,
      "Ġblock": 5698,
      "Ġground": 5699,
      "Ġgratitude": 5700,
      "Ġadds": 5701,
      "ĠOK": 5702,
      "ĠOk": 5703,
      "ĠObama": 5704,
      "Ġark": 5705,
      "Ġarri": 5706,
      "Ġarrived": 5707,
      "Ġpreached": 5708,
      "Ġpreviously": 5709,
      "ograph": 5710,
      "Ġ46": 5711,
      "Ġcloses": 5712,
      "Ġchannel": 5713,
      "Ġimper": 5714,
      "Ġimpact": 5715,
      "ĠUN": 5716,
      "ĠUP": 5717,
      "ĠUnderstand": 5718,
      "ception": 5719,
      "their": 5720,
      "Ġglobal": 5721,
      "Ġpositive": 5722,
      "Ġaccident": 5723,
      "Ġmonks": 5724,
      "Ġmonument": 5725,
      "Ġmonetary": 5726,
      "Ġpeaceful": 5727,
      "Ġexpand": 5728,
      "Ġreports": 5729,
      "Ġthrow": 5730,
      "Ġhumili": 5731,
      "Ġproper": 5732,
      "Ġcompre": 5733,
      "Ġcomput": 5734,
      "Ġcompared": 5735,
      "Ġindecision": 5736,
      "Ġpoison": 5737,
      "Ġpersons": 5738,
      "Ġpersonally": 5739,
      "Ġcock": 5740,
      "Ġinvited": 5741,
      "Ġprayed": 5742,
      "Ġwrites": 5743,
      "Ġwriting": 5744,
      "Ġoverwhel": 5745,
      "Ġreceives": 5746,
      "Ġguy": 5747,
      "Ġguys": 5748,
      "ocation": 5749,
      "ocratic": 5750,
      "Ġ51": 5751,
      "Ġ500": 5752,
      "Ġwars": 5753,
      "Ġwarned": 5754,
      "Ġfinding": 5755,
      "ĠSpace": 5756,
      "ĠSpec": 5757,
      "Ġexisted": 5758,
      "Ġamongst": 5759,
      "Ġfriendly": 5760,
      "Ġrah": 5761,
      "Ġmillennium": 5762,
      "Ġ93": 5763,
      "Ġentered": 5764,
      "Ġuseful": 5765,
      "Ġswallowed": 5766,
      "ucing": 5767,
      "Ġobvious": 5768,
      "Ġobviously": 5769,
      "tered": 5770,
      "teenth": 5771,
      "Ġfeed": 5772,
      "ĠAbel": 5773,
      "Ġhates": 5774,
      "Ġsmile": 5775,
      "Ġsmoking": 5776,
      "Ġforgiven": 5777,
      "Ġ61": 5778,
      "Ġ67": 5779,
      "Ġincident": 5780,
      "Ġstarting": 5781,
      "Ġinstance": 5782,
      "Ġinstitutions": 5783,
      "Ġchoosing": 5784,
      "ĠChristmas": 5785,
      "Ġopening": 5786,
      "Ġmessengers": 5787,
      "105": 5788,
      "108": 5789,
      "ĠYork": 5790,
      "Ġregions": 5791,
      "Ġregret": 5792,
      "Ġtexts": 5793,
      "Ġ72": 5794,
      "Ġ75": 5795,
      "Ġ79": 5796,
      "Ġdenial": 5797,
      "psed": 5798,
      "Ġsched": 5799,
      "Ġtribe": 5800,
      "Ġtestify": 5801,
      "Ġturning": 5802,
      "Ġsympt": 5803,
      "Ġforeign": 5804,
      "Ġ2009": 5805,
      "Ġremained": 5806,
      "Ġremaining": 5807,
      "Ġblessed": 5808,
      "Ġelimin": 5809,
      "118": 5810,
      "Ġangry": 5811,
      "Ġrestrict": 5812,
      "Ġrestaurant": 5813,
      "Ġacceptance": 5814,
      "Ġcourts": 5815,
      "ĠPrin": 5816,
      "ĠPrince": 5817,
      "Ġbelief": 5818,
      "Ġdiscl": 5819,
      "Ġreturning": 5820,
      "Ġministry": 5821,
      "Ġnumerous": 5822,
      "Ġlots": 5823,
      "ĠItaly": 5824,
      "Ġpresented": 5825,
      "Ġdefin": 5826,
      "Ġdefines": 5827,
      "Ġdefined": 5828,
      "Ġresponses": 5829,
      "Ġ85": 5830,
      "Ġreligions": 5831,
      "ĠThus": 5832,
      "ĠThings": 5833,
      "Ġsixth": 5834,
      "Ġseemed": 5835,
      "Ġproduced": 5836,
      "Ġnorthern": 5837,
      "ĠArk": 5838,
      "Ġspirits": 5839,
      "Ġwatched": 5840,
      "Ġcorner": 5841,
      "Ġfathers": 5842,
      "Ġrelative": 5843,
      "Ġrelatives": 5844,
      "Ġpractical": 5845,
      "Ġpractices": 5846,
      "ĠChairm": 5847,
      "Ġ2011": 5848,
      "Ġ2012": 5849,
      "ĠHeavens": 5850,
      "Ġwaited": 5851,
      "Ġreading": 5852,
      "Ġreadily": 5853,
      "Ġdirective": 5854,
      "romise": 5855,
      "Ġmature": 5856,
      "ĠNov": 5857,
      "nedy": 5858,
      "ĠAlso": 5859,
      "Ġcommunion": 5860,
      "Ġdemons": 5861,
      "Ġrequires": 5862,
      "Ġreminds": 5863,
      "Ġreminded": 5864,
      "Ġtestimonies": 5865,
      "Ġflame": 5866,
      "ĠCommun": 5867,
      "Ġdifficulty": 5868,
      "Ġcarefully": 5869,
      "Ġmirror": 5870,
      "Ġwinning": 5871,
      "Ġburied": 5872,
      "Ġwondering": 5873,
      "Ġcapt": 5874,
      "Ġcaptain": 5875,
      "Ġrevelations": 5876,
      "Ġjobs": 5877,
      "Ġmissions": 5878,
      "eyond": 5879,
      "ĠGreek": 5880,
      "Ġ150": 5881,
      "Ġdistrib": 5882,
      "Ġdistinction": 5883,
      "Ġdistingu": 5884,
      "Ġrepented": 5885,
      "Ġpolitic": 5886,
      "measures": 5887,
      "yramid": 5888,
      "Ġbases": 5889,
      "Ġexcuse": 5890,
      "Ġunivers": 5891,
      "Ġapproval": 5892,
      "Student": 5893,
      "Ġwalking": 5894,
      "ĠJonah": 5895,
      "Ġbehavior": 5896,
      "Ġbehaviour": 5897,
      "Ġhealthy": 5898,
      "Ġorgans": 5899,
      "Ġvictor": 5900,
      "Ġpossessed": 5901,
      "Ġregarding": 5902,
      "Ġregardless": 5903,
      "ĠCanadian": 5904,
      "ouraged": 5905,
      "ĠGoliath": 5906,
      "Ġprior": 5907,
      "Ġdevast": 5908,
      "Ġsolid": 5909,
      "Ġfavour": 5910,
      "Ġinstruction": 5911,
      "Ġtargets": 5912,
      "Answ": 5913,
      "who": 5914,
      "why": 5915,
      "while": 5916,
      "Ġerror": 5917,
      "Ġtouches": 5918,
      "Ġsetting": 5919,
      "Ġdeepest": 5920,
      "Ġfailure": 5921,
      "Ġattacked": 5922,
      "138": 5923,
      "Anybody": 5924,
      "ĠIndian": 5925,
      "ĠEgyptian": 5926,
      "ĠTurks": 5927,
      "Ġinclude": 5928,
      "Ġincluded": 5929,
      "Ġtechnical": 5930,
      "Ġsuccession": 5931,
      "2897": 5932,
      "Ġburned": 5933,
      "Ġhighest": 5934,
      "Ġprinciples": 5935,
      "Ġdoctr": 5936,
      "ĠAngels": 5937,
      "ĠMaybe": 5938,
      "ĠBeij": 5939,
      "Ġprovidence": 5940,
      "Ġ1990": 5941,
      "Ġ1995": 5942,
      "Should": 5943,
      "Ġschools": 5944,
      "Ġmiddle": 5945,
      "Ġpurc": 5946,
      "Ġpurify": 5947,
      "Ġdelivered": 5948,
      "Ġlimited": 5949,
      "Ġwillingly": 5950,
      "Ġjudgement": 5951,
      "ĠBlood": 5952,
      "Ġenlightened": 5953,
      "Ġcollective": 5954,
      "Ġorganized": 5955,
      "Ġcitizen": 5956,
      "Ġsanctuary": 5957,
      "Ġcosts": 5958,
      "Ġmedic": 5959,
      "Ġgardens": 5960,
      "Ġweakness": 5961,
      "ĠSwiss": 5962,
      "Ġliked": 5963,
      "Ġprofitable": 5964,
      "Ġdetermination": 5965,
      "valu": 5966,
      "Ġfasting": 5967,
      "Ġmultiple": 5968,
      "Ġhopes": 5969,
      "ĠCaptain": 5970,
      "Ġproofs": 5971,
      "Ġcontacted": 5972,
      "Ġdescended": 5973,
      "Knowing": 5974,
      "Ġslow": 5975,
      "Ġgolden": 5976,
      "ĠPoland": 5977,
      "ĠOrder": 5978,
      "Ġ1980": 5979,
      "Ġ1986": 5980,
      "Ġofficially": 5981,
      "Ġrequirements": 5982,
      "Ġviolate": 5983,
      "Ġassociated": 5984,
      "ufficient": 5985,
      "Ġcultural": 5986,
      "Ġcontracts": 5987,
      "Ġcompetition": 5988,
      "Ġobserve": 5989,
      "Ġincrease": 5990,
      "Ġincreases": 5991,
      "Ġregulation": 5992,
      "Ġcarrying": 5993,
      "Ġspecifically": 5994,
      "Ġopposition": 5995,
      "Ġequality": 5996,
      "Among": 5997,
      "Regard": 5998,
      "cribed": 5999,
      "Ġtaking": 6000,
      "Ġcouples": 6001,
      "Ġmicro": 6002,
      "amba": 6003,
      "ĠShaban": 6004,
      "Ġimagined": 6005,
      "Ġcontribute": 6006,
      "ĠChristianity": 6007,
      "Ġscripture": 6008,
      "Ġroads": 6009,
      "Ġpolicies": 6010,
      "ttes": 6011,
      "Ġbox": 6012,
      "ĠJudaism": 6013,
      "ĠBarcelona": 6014,
      "ĠBelarus": 6015,
      "Ġartist": 6016,
      "Ġattracts": 6017,
      "Ġbusinesses": 6018,
      "Two": 6019,
      "Ġtongue": 6020,
      "Ġdiplom": 6021,
      "Ġlabel": 6022,
      "ĠGlory": 6023,
      "ĠGlobal": 6024,
      "ursday": 6025,
      "ĠAsia": 6026,
      "ĠAlexander": 6027,
      "Ġexecute": 6028,
      "Ġexecuted": 6029,
      "ĠProject": 6030,
      "ĠThanks": 6031,
      "Ġfairly": 6032,
      "ĠNazis": 6033,
      "Ġpretend": 6034,
      "Ġpretty": 6035,
      "Ġregional": 6036,
      "Ġconfirmed": 6037,
      "Ġsubmit": 6038,
      "Ġmurdered": 6039,
      "Ġorganizations": 6040,
      "Ġvirtue": 6041,
      "Ġclaimed": 6042,
      "Obviously": 6043,
      "ugust": 6044,
      "Ġcatch": 6045,
      "ĠGeneral": 6046,
      "ĠSimon": 6047,
      "Ġdocument": 6048,
      "Ġdocuments": 6049,
      "ĠCompan": 6050,
      "ĠParty": 6051,
      "ĠPsalms": 6052,
      "Ġabsence": 6053,
      "Ġdisgrace": 6054,
      "Ġpregnant": 6055,
      "Ġpregnancy": 6056,
      "Ġcooperation": 6057,
      "Ġcooperate": 6058,
      "Ġchallenge": 6059,
      "Ġchallenges": 6060,
      "Ġconcluded": 6061,
      "Ġafflicted": 6062,
      "Ġafflictions": 6063,
      "Ġignorance": 6064,
      "Ġobservation": 6065,
      "Place": 6066,
      "Ġ______": 6067,
      "Ġsilent": 6068,
      "Ġbrave": 6069,
      "Ġcalcul": 6070,
      "Ġdomain": 6071,
      "Ġdeliver": 6072,
      "ĠGolden": 6073,
      "ĠGovernor": 6074,
      "Ġfortune": 6075,
      "Ġaspects": 6076,
      "Ġconquer": 6077,
      "Ġconversation": 6078,
      "Ġdefeat": 6079,
      "Ġsuperior": 6080,
      "ĠEveryone": 6081,
      "ĠEngland": 6082,
      "Ġrisk": 6083,
      "Ġacknowledge": 6084,
      "Ġappreciate": 6085,
      "Ġrepeated": 6086,
      "Ġinvolved": 6087,
      "Ġdepends": 6088,
      "Ġrebellion": 6089,
      "Ġcongratulate": 6090,
      "Books": 6091,
      "Ġsuspect": 6092,
      "Ġbreath": 6093,
      "Ġdominant": 6094,
      "Ġinjustices": 6095,
      "Ġweakened": 6096,
      "Ġstrike": 6097,
      "Ġstrictly": 6098,
      "ĠLatif": 6099,
      "ĠNaaman": 6100,
      "Ġactivities": 6101,
      "Ġrabbi": 6102,
      "Ġdenominations": 6103,
      "Ġscenes": 6104,
      "Ġdiscernment": 6105,
      "Ġoccupied": 6106,
      "Ġsettle": 6107,
      "Ġinfluence": 6108,
      "Ġparticipate": 6109,
      "Ġcigarettes": 6110,
      "Ġneighbor": 6111,
      "Charlie": 6112,
      "Evidently": 6113,
      "Kennedy": 6114,
      "human": 6115,
      "pril": 6116,
      "Ġcandid": 6117,
      "aturally": 6118,
      "ĠGentiles": 6119,
      "Ġresearch": 6120,
      "ĠHenry": 6121,
      "Ġconceded": 6122,
      "Ġconsecration": 6123,
      "Ġatmosphere": 6124,
      "Ġchocolate": 6125,
      "Ġvulnerable": 6126,
      "ĠIsaac": 6127,
      "Ġimplement": 6128,
      "Ġgrasp": 6129,
      "Ġincredible": 6130,
      "Ġincarnation": 6131,
      "Ġmovie": 6132,
      "Ġachieved": 6133,
      "ufacture": 6134,
      "Ġreconciliation": 6135,
      "Ġgentlemen": 6136,
      "Blessed": 6137,
      "Fortunately": 6138,
      "Muhammad": 6139,
      "Muslim": 6140,
      "Surprisingly": 6141,
      "baijan": 6142,
      "Ġbabies": 6143,
      "Ġbishop": 6144,
      "Ġcustom": 6145,
      "Ġceremony": 6146,
      "Ġdedicated": 6147,
      "Ġdialogue": 6148,
      "ĠGarden": 6149,
      "Ġeclipsed": 6150,
      "Ġhorses": 6151,
      "Ġanticip": 6152,
      "Ġstabil": 6153,
      "ilateral": 6154,
      "ĠBoston": 6155,
      "Ġvitality": 6156,
      "Ġridiculous": 6157,
      "Ġambitious": 6158,
      "Ġdisobedience": 6159,
      "Ġhumiliate": 6160,
      "Ġoverwhelming": 6161,
      "Ġsymptoms": 6162,
      "ĠChairman": 6163,
      "Ġdistinguish": 6164,
      "Answer": 6165,
      "ĠBeijing": 6166,
      "!,": 6167,
      "!).": 6168,
      "%.": 6169,
      ",]": 6170,
      "-]": 6171,
      ".:": 6172,
      "04": 6173,
      "100": 6174,
      "34": 6175,
      "300": 6176,
      "49": 6177,
      "57": 6178,
      "62": 6179,
      "64": 6180,
      "74": 6181,
      "77": 6182,
      "79": 6183,
      "82": 6184,
      "84": 6185,
      "89": 6186,
      "800": 6187,
      "95": 6188,
      ">>": 6189,
      "Allow": 6190,
      "AHU": 6191,
      "Actually": 6192,
      "BC": 6193,
      "BI": 6194,
      "Bush": 6195,
      "Besides": 6196,
      "Build": 6197,
      "CH": 6198,
      "CP": 6199,
      "Car": 6200,
      "DF": 6201,
      "Dreams": 6202,
      "EC": 6203,
      "EM": 6204,
      "ET": 6205,
      "EGF": 6206,
      "Fo": 6207,
      "Far": 6208,
      "Fur": 6209,
      "Fif": 6210,
      "Father": 6211,
      "Finally": 6212,
      "GA": 6213,
      "Ged": 6214,
      "Gree": 6215,
      "IA": 6216,
      "IL": 6217,
      "Jac": 6218,
      "Japan": 6219,
      "Joe": 6220,
      "James": 6221,
      "Joseph": 6222,
      "Jews": 6223,
      "Kill": 6224,
      "Lea": 6225,
      "LIN": 6226,
      "Laura": 6227,
      "MA": 6228,
      "MI": 6229,
      "Med": 6230,
      "Mary": 6231,
      "Moses": 6232,
      "MAR": 6233,
      "NG": 6234,
      "NO": 6235,
      "Name": 6236,
      "Naturally": 6237,
      "OK": 6238,
      "PP": 6239,
      "PS": 6240,
      "PPE": 6241,
      "Qur": 6242,
      "Rom": 6243,
      "Ret": 6244,
      "Rep": 6245,
      "Rog": 6246,
      "Robert": 6247,
      "RAY": 6248,
      "SW": 6249,
      "Ser": 6250,
      "Sim": 6251,
      "Six": 6252,
      "Senator": 6253,
      "TO": 6254,
      "TY": 6255,
      "Tou": 6256,
      "Ten": 6257,
      "Tow": 6258,
      "Teach": 6259,
      "UE": 6260,
      "Ukra": 6261,
      "UEL": 6262,
      "Vi": 6263,
      "Wait": 6264,
      "Whether": 6265,
      "Women": 6266,
      "[-]": 6267,
      "]?": 6268,
      "ao": 6269,
      "bon": 6270,
      "bra": 6271,
      "bers": 6272,
      "bah": 6273,
      "bia": 6274,
      "bled": 6275,
      "born": 6276,
      "ca": 6277,
      "cr": 6278,
      "cis": 6279,
      "cut": 6280,
      "ciful": 6281,
      "courage": 6282,
      "coming": 6283,
      "called": 6284,
      "date": 6285,
      "drop": 6286,
      "ef": 6287,
      "ek": 6288,
      "even": 6289,
      "far": 6290,
      "fire": 6291,
      "fession": 6292,
      "finity": 6293,
      "faithfulness": 6294,
      "gs": 6295,
      "gab": 6296,
      "gical": 6297,
      "giving": 6298,
      "his": 6299,
      "him": 6300,
      "hic": 6301,
      "hib": 6302,
      "iest": 6303,
      "ius": 6304,
      "iance": 6305,
      "ivers": 6306,
      "jah": 6307,
      "ka": 6308,
      "kah": 6309,
      "kful": 6310,
      "lo": 6311,
      "lin": 6312,
      "lor": 6313,
      "lum": 6314,
      "lory": 6315,
      "laugh": 6316,
      "mit": 6317,
      "mor": 6318,
      "mat": 6319,
      "mos": 6320,
      "mother": 6321,
      "mary": 6322,
      "mark": 6323,
      "mighty": 6324,
      "nis": 6325,
      "nes": 6326,
      "nag": 6327,
      "nific": 6328,
      "overy": 6329,
      "oves": 6330,
      "off": 6331,
      "pr": 6332,
      "pis": 6333,
      "put": 6334,
      "pid": 6335,
      "pions": 6336,
      "power": 6337,
      "ports": 6338,
      "prod": 6339,
      "qarah": 6340,
      "rim": 6341,
      "rink": 6342,
      "rite": 6343,
      "rison": 6344,
      "rari": 6345,
      "sis": 6346,
      "ser": 6347,
      "sed": 6348,
      "sent": 6349,
      "sic": 6350,
      "some": 6351,
      "site": 6352,
      "sub": 6353,
      "sufficient": 6354,
      "tr": 6355,
      "tte": 6356,
      "uin": 6357,
      "uce": 6358,
      "uity": 6359,
      "uction": 6360,
      "vis": 6361,
      "vide": 6362,
      "via": 6363,
      "when": 6364,
      "ware": 6365,
      "xis": 6366,
      "yn": 6367,
      "yÅ": 6368,
      "ylum": 6369,
      "zy": 6370,
      "Ġ;": 6371,
      "Ġ|": 6372,
      "Ġă": 6373,
      "Ġing": 6374,
      "Ġess": 6375,
      "Ġ01": 6376,
      "ĠTherefore": 6377,
      "ĠÃī": 6378,
      "Ġta": 6379,
      "Ġtut": 6380,
      "Ġtick": 6381,
      "Ġtang": 6382,
      "Ġtired": 6383,
      "head": 6384,
      "Ġaud": 6385,
      "Ġairc": 6386,
      "Ġahold": 6387,
      "Ġahead": 6388,
      "Ġwedd": 6389,
      "Ġtheore": 6390,
      "inth": 6391,
      "inate": 6392,
      "inence": 6393,
      "inions": 6394,
      "rel": 6395,
      "reations": 6396,
      "reets": 6397,
      "Ġowe": 6398,
      "isan": 6399,
      "isher": 6400,
      "isons": 6401,
      "ispens": 6402,
      "oured": 6403,
      "oubt": 6404,
      "Ġsom": 6405,
      "Ġsir": 6406,
      "Ġsam": 6407,
      "Ġske": 6408,
      "Ġsomet": 6409,
      "Ġsens": 6410,
      "Ġsorts": 6411,
      "Ġsatell": 6412,
      "hab": 6413,
      "habit": 6414,
      "erity": 6415,
      "erally": 6416,
      "ercial": 6417,
      "errari": 6418,
      "only": 6419,
      "onel": 6420,
      "onio": 6421,
      "Ġbi": 6422,
      "Ġbed": 6423,
      "Ġbind": 6424,
      "Ġbare": 6425,
      "Ġboss": 6426,
      "Ġbunch": 6427,
      "Ġbillions": 6428,
      "Ġcos": 6429,
      "Ġcate": 6430,
      "Ġcope": 6431,
      "Ġcell": 6432,
      "Ġcute": 6433,
      "Ġcoun": 6434,
      "Ġcases": 6435,
      "Ġcalm": 6436,
      "Ġcounter": 6437,
      "Ġcows": 6438,
      "Ġcreations": 6439,
      "lle": 6440,
      "ita": 6441,
      "itan": 6442,
      "itch": 6443,
      "itud": 6444,
      "itical": 6445,
      "orough": 6446,
      "Ġfem": 6447,
      "Ġfol": 6448,
      "Ġfig": 6449,
      "Ġfell": 6450,
      "Ġfought": 6451,
      "Ġfix": 6452,
      "Ġflight": 6453,
      "Ġfaster": 6454,
      "Ġfirm": 6455,
      "Ġfuck": 6456,
      "Ġfisher": 6457,
      "ency": 6458,
      "enced": 6459,
      "enuity": 6460,
      "Ġmer": 6461,
      "Ġmig": 6462,
      "Ġmax": 6463,
      "Ġmethod": 6464,
      "anas": 6465,
      "anied": 6466,
      "ancial": 6467,
      "anna": 6468,
      "anufacture": 6469,
      "Ġphen": 6470,
      "Ġpil": 6471,
      "Ġpig": 6472,
      "Ġpie": 6473,
      "Ġpub": 6474,
      "Ġports": 6475,
      "Ġpharaoh": 6476,
      "Ġpaper": 6477,
      "Ġpyramid": 6478,
      "Ġdies": 6479,
      "Ġdance": 6480,
      "Ġdign": 6481,
      "Ġdile": 6482,
      "Ġdimin": 6483,
      "Ġdirty": 6484,
      "Ġdigital": 6485,
      "Ġyeah": 6486,
      "eda": 6487,
      "eday": 6488,
      "edient": 6489,
      "ednes": 6490,
      "ingent": 6491,
      "atter": 6492,
      "atform": 6493,
      "atisf": 6494,
      "Ġink": 6495,
      "Ġinse": 6496,
      "Ġinfect": 6497,
      "Ġinsol": 6498,
      "Ġinfer": 6499,
      "Ġinhabit": 6500,
      "Ġnons": 6501,
      "Ġbeers": 6502,
      "Ġlos": 6503,
      "Ġlions": 6504,
      "Ġlink": 6505,
      "Ġlady": 6506,
      "Ġlunch": 6507,
      "Ġladies": 6508,
      "omas": 6509,
      "omple": 6510,
      "omantic": 6511,
      "Ġthirst": 6512,
      "Ġthorough": 6513,
      "Ġhabit": 6514,
      "ĠGos": 6515,
      "ĠGab": 6516,
      "set": 6517,
      "sex": 6518,
      "ĠGods": 6519,
      "sts": 6520,
      "stan": 6521,
      "sters": 6522,
      "stone": 6523,
      "strate": 6524,
      "struction": 6525,
      "Ġeth": 6526,
      "Ġeigh": 6527,
      "Ġepis": 6528,
      "ille": 6529,
      "leted": 6530,
      "Ġhom": 6531,
      "Ġhyp": 6532,
      "Ġhomes": 6533,
      "uture": 6534,
      "uties": 6535,
      "Ġheat": 6536,
      "Ġheight": 6537,
      "Ġhesit": 6538,
      "Ġgun": 6539,
      "Ġgend": 6540,
      "Ġgerm": 6541,
      "Ġgames": 6542,
      "ceval": 6543,
      "imul": 6544,
      "imum": 6545,
      "imming": 6546,
      "Ġweb": 6547,
      "Ġweather": 6548,
      ".âĢĿÂ": 6549,
      "alin": 6550,
      "alty": 6551,
      "idge": 6552,
      "iddle": 6553,
      "ĠIts": 6554,
      "ĠIII": 6555,
      "Ġonward": 6556,
      "versi": 6557,
      "verbs": 6558,
      "urb": 6559,
      "urate": 6560,
      "urah": 6561,
      "urance": 6562,
      "urrent": 6563,
      "ashing": 6564,
      "icide": 6565,
      "icious": 6566,
      "icolas": 6567,
      "Ġupt": 6568,
      "ifies": 6569,
      "iffe": 6570,
      "ifficult": 6571,
      "iring": 6572,
      "cted": 6573,
      "oph": 6574,
      "Ġseat": 6575,
      "Ġsector": 6576,
      "Ġsevered": 6577,
      "ĠSi": 6578,
      "ĠSac": 6579,
      "ĠSide": 6580,
      "ĠSign": 6581,
      "ĠSoul": 6582,
      "ĠSuc": 6583,
      "ĠSanct": 6584,
      "ĠSometimes": 6585,
      "ĠSection": 6586,
      "Ġdoors": 6587,
      "Ġdollars": 6588,
      "Ġanni": 6589,
      "Ġanaly": 6590,
      "Ġanxi": 6591,
      "ĠAK": 6592,
      "ĠAU": 6593,
      "ĠActs": 6594,
      "ĠAtt": 6595,
      "ĠAccording": 6596,
      "ĠALL": 6597,
      "ĠAgain": 6598,
      "ĠActually": 6599,
      "ĠAugust": 6600,
      "ĠApril": 6601,
      "ĠHE": 6602,
      "ĠHel": 6603,
      "ĠHigh": 6604,
      "raction": 6605,
      "raft": 6606,
      "Ġworry": 6607,
      "Ġworried": 6608,
      "Ġcancel": 6609,
      "Ġcancer": 6610,
      "throw": 6611,
      "through": 6612,
      "adors": 6613,
      "essed": 6614,
      "ĠMc": 6615,
      "ĠMi": 6616,
      "ĠMed": 6617,
      "ĠMil": 6618,
      "ĠMac": 6619,
      "ĠMag": 6620,
      "ĠMark": 6621,
      "ĠMany": 6622,
      "ĠMiam": 6623,
      "ĠMIG": 6624,
      "ĠMethod": 6625,
      "ĠMamba": 6626,
      "ĠMiddle": 6627,
      "Ġlivest": 6628,
      "riel": 6629,
      "ribe": 6630,
      "riarch": 6631,
      "Ġali": 6632,
      "Ġalert": 6633,
      "anta": 6634,
      "antage": 6635,
      "Were": 6636,
      "Weak": 6637,
      "allel": 6638,
      "terror": 6639,
      "ĠCut": 6640,
      "ĠCam": 6641,
      "ĠCould": 6642,
      "ĠChen": 6643,
      "ĠCham": 6644,
      "ĠCla": 6645,
      "ĠCarter": 6646,
      "ĠCentral": 6647,
      "hens": 6648,
      "hentic": 6649,
      "establ": 6650,
      "Ġsabb": 6651,
      "Ġorphan": 6652,
      "Ġmechan": 6653,
      "Ġmemor": 6654,
      "Ġ(âĢľ": 6655,
      "Ġste": 6656,
      "Ġstation": 6657,
      "Ġstood": 6658,
      "Ġstress": 6659,
      "Ġstream": 6660,
      "Ġstreets": 6661,
      "Ġstimul": 6662,
      "venant": 6663,
      "ulter": 6664,
      "ulah": 6665,
      "Ġtruest": 6666,
      "ears": 6667,
      "early": 6668,
      "Ġconform": 6669,
      "empl": 6670,
      "oso": 6671,
      "hankful": 6672,
      "anda": 6673,
      "Ġmanage": 6674,
      "Ġmanusc": 6675,
      "reate": 6676,
      "ussels": 6677,
      "Ġframe": 6678,
      "Ġdeleg": 6679,
      "ĠLI": 6680,
      "ĠLou": 6681,
      "ĠLong": 6682,
      "ĠLie": 6683,
      "ĠLittle": 6684,
      "ĠLee": 6685,
      "ĠLead": 6686,
      "ĠLib": 6687,
      "ĠLaura": 6688,
      "Thy": 6689,
      "Thou": 6690,
      "Though": 6691,
      "Things": 6692,
      "Through": 6693,
      "ĠWay": 6694,
      "ĠWoman": 6695,
      "ĠWestern": 6696,
      "ĠWitch": 6697,
      "Ġsuicide": 6698,
      "ords": 6699,
      "Ġsho": 6700,
      "Ġshir": 6701,
      "Ġshining": 6702,
      "ĠJob": 6703,
      "ĠJames": 6704,
      "istent": 6705,
      "istics": 6706,
      "Ġatom": 6707,
      "solete": 6708,
      "ĠEC": 6709,
      "ĠEr": 6710,
      "ĠEach": 6711,
      "ĠEmp": 6712,
      "ĠEmma": 6713,
      "Ġseeks": 6714,
      "Ġlogical": 6715,
      "ĠPl": 6716,
      "ĠPope": 6717,
      "ĠPower": 6718,
      "Ġabide": 6719,
      "Ġabuse": 6720,
      "acher": 6721,
      "ĠBo": 6722,
      "ĠBu": 6723,
      "ĠBre": 6724,
      "ĠBody": 6725,
      "ĠBoy": 6726,
      "ĠBetter": 6727,
      "ĠBeyond": 6728,
      "ĠTe": 6729,
      "ĠTun": 6730,
      "ĠTree": 6731,
      "ĠTell": 6732,
      "ĠTown": 6733,
      "ĠTimes": 6734,
      "ĠTette": 6735,
      "ortion": 6736,
      "asters": 6737,
      "Ġlikewise": 6738,
      "oline": 6739,
      "Ġplus": 6740,
      "Ġplatform": 6741,
      "ĠDi": 6742,
      "ĠDec": 6743,
      "ĠDAY": 6744,
      "Ġnoise": 6745,
      "pty": 6746,
      "Ġ2000": 6747,
      "uma": 6748,
      "umer": 6749,
      "umph": 6750,
      "ĠFl": 6751,
      "ĠFord": 6752,
      "ĠFind": 6753,
      "ĠFund": 6754,
      "ĠFrom": 6755,
      "ourg": 6756,
      "International": 6757,
      "Ġnowhere": 6758,
      "Ġprost": 6759,
      "Ġspo": 6760,
      "Ġspot": 6761,
      "ĠHeal": 6762,
      "okes": 6763,
      "Ġvig": 6764,
      "Ġvib": 6765,
      "una": 6766,
      "Ġagents": 6767,
      "Ġagreed": 6768,
      "Ġshoulder": 6769,
      "ĠRo": 6770,
      "ĠRep": 6771,
      "ĠRings": 6772,
      "ĠRick": 6773,
      "ĠRules": 6774,
      "ĠReal": 6775,
      "Ġric": 6776,
      "Ġrate": 6777,
      "Ġroute": 6778,
      "Ġromantic": 6779,
      "ĠNG": 6780,
      "ĠNat": 6781,
      "ĠNations": 6782,
      "Ġtruthful": 6783,
      "ardo": 6784,
      "ardian": 6785,
      "ende": 6786,
      "endom": 6787,
      "irect": 6788,
      "Ġamendment": 6789,
      "Ġadversity": 6790,
      "Ġintended": 6791,
      "about": 6792,
      "athy": 6793,
      "Ġbeliever": 6794,
      "Ġjustified": 6795,
      "Ġworker": 6796,
      "...)": 6797,
      "Ġcreator": 6798,
      "Ġcreative": 6799,
      "six": 6800,
      "ĠIsraelis": 6801,
      "Ġcontingent": 6802,
      "Ġpartially": 6803,
      "akh": 6804,
      "akes": 6805,
      "akistan": 6806,
      "Ġremorse": 6807,
      "Ġremanufacture": 6808,
      "plain": 6809,
      "road": 6810,
      "ĠKad": 6811,
      "ĠKate": 6812,
      "ĠKaz": 6813,
      "ĠKuw": 6814,
      "ĠKurd": 6815,
      "Ġseries": 6816,
      "Ġunf": 6817,
      "Ġunp": 6818,
      "Ġunion": 6819,
      "Ġunited": 6820,
      "Ġunworthy": 6821,
      "Ġoutcome": 6822,
      "Ġdism": 6823,
      "Ġdisaster": 6824,
      "Ġdisciple": 6825,
      "Ġdisbelief": 6826,
      "Ġdisplay": 6827,
      "cially": 6828,
      "agle": 6829,
      "Ġresign": 6830,
      "Ġresident": 6831,
      "Ġbridge": 6832,
      "iva": 6833,
      "ivated": 6834,
      "Ġnevertheless": 6835,
      "Ġdeserved": 6836,
      "Ġ300": 6837,
      "areth": 6838,
      "weh": 6839,
      "were": 6840,
      "Ġblocked": 6841,
      "Ġcommemor": 6842,
      "Ġcommercial": 6843,
      "ĠOh": 6844,
      "ĠOli": 6845,
      "Ġartic": 6846,
      "Ġarbit": 6847,
      "Ġapparent": 6848,
      "Ġwherein": 6849,
      "Ġprevent": 6850,
      "Ġpreference": 6851,
      "Ġpreaching": 6852,
      "Ġpreacher": 6853,
      "Ġcounts": 6854,
      "Ġ41": 6855,
      "Ġ42": 6856,
      "Ġ47": 6857,
      "Ġclar": 6858,
      "Ġclub": 6859,
      "Ġimpression": 6860,
      "Ġrecall": 6861,
      "ĠUK": 6862,
      "obe": 6863,
      "Ġmisfortun": 6864,
      "Ġpositions": 6865,
      "Ġaccus": 6866,
      "Ġmonster": 6867,
      "Ġmonsters": 6868,
      "assadors": 6869,
      "ĠWere": 6870,
      "Forg": 6871,
      "Ġexpress": 6872,
      "Ġrepro": 6873,
      "Ġrepair": 6874,
      "ĠAllende": 6875,
      "Ġhumble": 6876,
      "Ġpropert": 6877,
      "Ġcompensation": 6878,
      "Ġcompromise": 6879,
      "Ġindispens": 6880,
      "Ġpoet": 6881,
      "Ġkilling": 6882,
      "ĠAndreth": 6883,
      "Ġ192": 6884,
      "Ġ1943": 6885,
      "Ġoper": 6886,
      "Ġopinions": 6887,
      "Ġdestructive": 6888,
      "ulture": 6889,
      "Ġwrit": 6890,
      "awai": 6891,
      "Ġoverthrow": 6892,
      "Ġguards": 6893,
      "Ġguests": 6894,
      "orship": 6895,
      "Ġdecl": 6896,
      "Ġdecrep": 6897,
      "Ġevolution": 6898,
      "occo": 6899,
      "ĠWhich": 6900,
      "Ġunthankful": 6901,
      "Ġconsens": 6902,
      "Ġconsiders": 6903,
      "Ġbackdrop": 6904,
      "Ġcrown": 6905,
      "Ġrace": 6906,
      "Ġraised": 6907,
      "Ġrapport": 6908,
      "Ġrapid": 6909,
      "Ġfamous": 6910,
      "Ġprophecies": 6911,
      "oyal": 6912,
      "Ġ98": 6913,
      "Ġplane": 6914,
      "Ġplanned": 6915,
      "Ġswore": 6916,
      "Ġswine": 6917,
      "Ġswimming": 6918,
      "Ġbegun": 6919,
      "Ġchast": 6920,
      "Ġchair": 6921,
      "ucer": 6922,
      "Ġobtained": 6923,
      "Ġobsolete": 6924,
      "teen": 6925,
      "Ġfeeds": 6926,
      "ĠStation": 6927,
      "ĠStart": 6928,
      "ĠStone": 6929,
      "ĠStalin": 6930,
      "Ġhated": 6931,
      "rowning": 6932,
      "Ġpassing": 6933,
      "Ġpassive": 6934,
      "Ġpassport": 6935,
      "Ġ600": 6936,
      "ĠQu": 6937,
      "ĠQuest": 6938,
      "Ġchoices": 6939,
      "ĠChristendom": 6940,
      "ĠVery": 6941,
      "Ġplayers": 6942,
      "Ġsignals": 6943,
      "Ġmessenger": 6944,
      "ĠYin": 6945,
      "ĠYan": 6946,
      "ĠYet": 6947,
      "ĠYES": 6948,
      "ĠYAHU": 6949,
      "Ġfourteenth": 6950,
      "ĠInter": 6951,
      "Ġconflict": 6952,
      "Ġconfront": 6953,
      "Ġpatriarch": 6954,
      "Ġimportantly": 6955,
      "pson": 6956,
      "Ġtrip": 6957,
      "Ġtriumph": 6958,
      "Ġtests": 6959,
      "Ġtestified": 6960,
      "Ġsymb": 6961,
      "Ġfullness": 6962,
      "Ġ2005": 6963,
      "Ġgenet": 6964,
      ".),": 6965,
      "111": 6966,
      "115": 6967,
      "Ġolder": 6968,
      "Ġorders": 6969,
      "Ġordeal": 6970,
      "Ġordained": 6971,
      "Ġordinary": 6972,
      "formed": 6973,
      "Ġfeelings": 6974,
      "eeze": 6975,
      "Ġharsh": 6976,
      "Ġeats": 6977,
      "version": 6978,
      "Ġmeets": 6979,
      "Ġtrain": 6980,
      "Ġtraff": 6981,
      "Ġtraining": 6982,
      "Ġjudgments": 6983,
      "Ġcontinent": 6984,
      "Ġcontinued": 6985,
      "Ġminor": 6986,
      "Ġminute": 6987,
      "Ġbringing": 6988,
      "Ġprotagon": 6989,
      "ĠMex": 6990,
      "Ġdefence": 6991,
      "Ġdefense": 6992,
      "Ġseconds": 6993,
      "Ġ80": 6994,
      "Ġgrad": 6995,
      "ĠThou": 6996,
      "ĠThose": 6997,
      "ĠThink": 6998,
      "ĠThree": 6999,
      "ĠThomas": 7000,
      "Ġsmallest": 7001,
      "209": 7002,
      "Ġfoods": 7003,
      "vived": 7004,
      "Ġinterview": 7005,
      "Ġvisa": 7006,
      "Ġvisited": 7007,
      "onscious": 7008,
      "ificate": 7009,
      "Ġrooted": 7010,
      "157": 7011,
      "grim": 7012,
      "Ġopposing": 7013,
      "Ġopponents": 7014,
      "Ġpayment": 7015,
      "ĠDoctor": 7016,
      "Ġgenerate": 7017,
      "Ġbelonged": 7018,
      "ounce": 7019,
      "Ġrelation": 7020,
      "ĠChapter": 7021,
      "Ġseeking": 7022,
      "Ġforms": 7023,
      "Ġformed": 7024,
      "Ġsuffers": 7025,
      "Ġrecognized": 7026,
      "Ġexpects": 7027,
      "Ġexpecting": 7028,
      "Ġanswering": 7029,
      "199": 7030,
      "ĠRussians": 7031,
      "Ġpunished": 7032,
      "Ġrejecting": 7033,
      "ĠAlways": 7034,
      "Ġthanked": 7035,
      "appiness": 7036,
      "Ġrequired": 7037,
      "Ġcompletion": 7038,
      "Ġgratefulness": 7039,
      "122": 7040,
      "125": 7041,
      "Ġadvis": 7042,
      "Ġadvantage": 7043,
      "Ġconcert": 7044,
      "Ġtreats": 7045,
      "Ġtreaty": 7046,
      "Ġdivide": 7047,
      "ĠZomb": 7048,
      "Ġflag": 7049,
      "Ġflashing": 7050,
      "Ġlearning": 7051,
      "ĠMugab": 7052,
      "ospel": 7053,
      "hammed": 7054,
      "Ġcareer": 7055,
      "cked": 7056,
      "Ġobeyed": 7057,
      "Ġdreamed": 7058,
      "Ġseparation": 7059,
      "Ġbloody": 7060,
      "harm": 7061,
      "Ġbigger": 7062,
      "Ġholds": 7063,
      "Ġholding": 7064,
      "Ġsurvived": 7065,
      "Ġdistance": 7066,
      "Ġdeputies": 7067,
      "Ġdisappoint": 7068,
      "Ġfulfilling": 7069,
      "Ġfulfillment": 7070,
      "Above": 7071,
      "Being": 7072,
      "Ġidols": 7073,
      "Ġbasic": 7074,
      "Ġmagnific": 7075,
      "Ġparaly": 7076,
      "Ġexclud": 7077,
      "ĠBram": 7078,
      "ĠBrussels": 7079,
      "Ġ2020": 7080,
      "Ġapprox": 7081,
      "ĠAfricans": 7082,
      "162": 7083,
      "231": 7084,
      "Canada": 7085,
      "Step": 7086,
      "Ġwalked": 7087,
      "Ġslept": 7088,
      "ompense": 7089,
      "Ġallows": 7090,
      "Ġjoins": 7091,
      "ĠJacques": 7092,
      "Ġmatters": 7093,
      "176": 7094,
      "Ġmartial": 7095,
      "Ġnecessarily": 7096,
      "ĠDeath": 7097,
      "ĠKnowledge": 7098,
      "Ġregards": 7099,
      "ourable": 7100,
      "Ġhighly": 7101,
      "Ġhighlight": 7102,
      "Ġstudies": 7103,
      "Ġstudied": 7104,
      "Ġdevoted": 7105,
      "Ġdevoured": 7106,
      "Ġsolve": 7107,
      "ological": 7108,
      "ĠNews": 7109,
      "Ġinvested": 7110,
      "Ġinvestors": 7111,
      "Ġtargeted": 7112,
      "144": 7113,
      "Perceval": 7114,
      "Ġsets": 7115,
      "Ġphone": 7116,
      "Ġpredict": 7117,
      "Ġpredetermined": 7118,
      "Ġdeeper": 7119,
      "ĠForm": 7120,
      "ĠOurselves": 7121,
      "Ġconsumer": 7122,
      "Ġconsideration": 7123,
      "Ġsatisfaction": 7124,
      "Ġfunction": 7125,
      "Ġinsane": 7126,
      "Ġhonest": 7127,
      "Ġhonourable": 7128,
      "Ġpermit": 7129,
      "Ġcurren": 7130,
      "Ġbeauty": 7131,
      "Ġresolved": 7132,
      "Ġresolution": 7133,
      "ĠScott": 7134,
      "Ġprovides": 7135,
      "ĠResolution": 7136,
      "Ġadmits": 7137,
      "Ġadmired": 7138,
      "Ġadmitted": 7139,
      "Ġadminist": 7140,
      "Ġ1998": 7141,
      "Ġvisiting": 7142,
      "Ġcamel": 7143,
      "Ġmajesty": 7144,
      "Ġpursu": 7145,
      "Ġdelude": 7146,
      "Ġlargest": 7147,
      "Ġeleven": 7148,
      "Ġelement": 7149,
      "Ġelements": 7150,
      "ĠSaviour": 7151,
      "ĠLaws": 7152,
      "Ġjudges": 7153,
      "acedon": 7154,
      "Ġ1966": 7155,
      "Ġfinancially": 7156,
      "Ġharder": 7157,
      "Excellent": 7158,
      "Explain": 7159,
      "Ġsanctity": 7160,
      "Ġbeneath": 7161,
      "Ġcenter": 7162,
      "Ġcostumes": 7163,
      "Ġcrucial": 7164,
      "Ġpenance": 7165,
      "Ġreplaced": 7166,
      "Ġweakens": 7167,
      "Ġseeds": 7168,
      "Ġlikeness": 7169,
      "Ġstopped": 7170,
      "embrance": 7171,
      "Ġspending": 7172,
      "ĠRev": 7173,
      "ĠReally": 7174,
      "Ġinterests": 7175,
      "Ġcompanions": 7176,
      "2015": 7177,
      "pected": 7178,
      "venth": 7179,
      "Ġmultip": 7180,
      "Ġmultitude": 7181,
      "ĠMarines": 7182,
      "Ġstatistics": 7183,
      "Ġconnected": 7184,
      "Ġaffects": 7185,
      "Ġpossibly": 7186,
      "Ġindividuals": 7187,
      "Ġassistants": 7188,
      "Ġhundreds": 7189,
      "Otherwise": 7190,
      "sterdam": 7191,
      "Ġrevision": 7192,
      "ĠAss": 7193,
      "ĠAssembly": 7194,
      "Ġneglect": 7195,
      "Ġnegative": 7196,
      "ĠTrans": 7197,
      "ĠTrue": 7198,
      "ĠTrump": 7199,
      "Ġadditional": 7200,
      "Ġ404": 7201,
      "Ġaccounts": 7202,
      "Ġoffici": 7203,
      "Ġofficial": 7204,
      "Ġeffects": 7205,
      "Ġescapes": 7206,
      "Ġlargely": 7207,
      "384": 7208,
      "Europeans": 7209,
      "Ġversion": 7210,
      "Ġtypes": 7211,
      "Ġbananas": 7212,
      "Ġempty": 7213,
      "Ġheroes": 7214,
      "Ġselling": 7215,
      "ĠCorrupt": 7216,
      "Ġhistor": 7217,
      "Ġvirus": 7218,
      "Ġagreements": 7219,
      "Ġlegitimate": 7220,
      "Ġcompete": 7221,
      "Ġregularly": 7222,
      "Ġspirituality": 7223,
      "Ġhospitality": 7224,
      "Ġinheritance": 7225,
      "Ġenvironmental": 7226,
      "2008": 7227,
      "onesia": 7228,
      "Ġceased": 7229,
      "Ġinitiated": 7230,
      "Ġgathering": 7231,
      "Ġcomforting": 7232,
      "Ġspreading": 7233,
      "ecessary": 7234,
      "Ġcontribution": 7235,
      "Ġwarns": 7236,
      "Ġrespected": 7237,
      "Ġministers": 7238,
      "Ġministering": 7239,
      "Ġlaughing": 7240,
      "ICE": 7241,
      "ICH": 7242,
      "ITH": 7243,
      "ITY": 7244,
      "ĠXi": 7245,
      "Ġterror": 7246,
      "Ġboard": 7247,
      "Ġbarbar": 7248,
      "Ġbarrier": 7249,
      "Ġfunding": 7250,
      "ĠMinister": 7251,
      "ĠJudah": 7252,
      "ĠBarbar": 7253,
      "ĠBelgi": 7254,
      "Ġartisan": 7255,
      "Ġobtains": 7256,
      "Ġreflections": 7257,
      "Ġtravels": 7258,
      "Ġcondemned": 7259,
      "Ġsurvive": 7260,
      "Ġsurvival": 7261,
      "Ġtechnologies": 7262,
      "ĠScriptures": 7263,
      "China": 7264,
      "changing": 7265,
      "nounce": 7266,
      "Ġille": 7267,
      "Ġillust": 7268,
      "Ġfederal": 7269,
      "Ġdawn": 7270,
      "Ġdangerous": 7271,
      "Ġdealt": 7272,
      "Ġvalid": 7273,
      "Ġrepresent": 7274,
      "Ġrepresents": 7275,
      "Ġrepresented": 7276,
      "Ġattempted": 7277,
      "Ġobligation": 7278,
      "Ġobligatory": 7279,
      "Ġconfirms": 7280,
      "Ġlawyers": 7281,
      "Ġorganization": 7282,
      "Enlighten": 7283,
      "Encourage": 7284,
      "Obama": 7285,
      "Ġvehic": 7286,
      "Ġurgent": 7287,
      "rethren": 7288,
      "Ġsnap": 7289,
      "Ġbalanced": 7290,
      "Ġmachines": 7291,
      "Ġperspective": 7292,
      "Ġweighty": 7293,
      "Ġultimate": 7294,
      "Ġultimately": 7295,
      "ĠAnyone": 7296,
      "ĠMoon": 7297,
      "ĠCompany": 7298,
      "Ġvillages": 7299,
      "Ġambition": 7300,
      "Ġambassadors": 7301,
      "Ġremembers": 7302,
      "Ġpersecuted": 7303,
      "Ġrecords": 7304,
      "Ġquietly": 7305,
      "Ġreferring": 7306,
      "Ġleadership": 7307,
      "Ġinvestigation": 7308,
      "Ġchecking": 7309,
      "Ġignorant": 7310,
      "Ġaccomplishment": 7311,
      "Ġbeaten": 7312,
      "ĠGovernment": 7313,
      "Ġreactors": 7314,
      "ĠSalah": 7315,
      "ĠMorning": 7316,
      "Ġdefeated": 7317,
      "Ġsummer": 7318,
      "Ġsummary": 7319,
      "ĠEnglish": 7320,
      "Ġsolemn": 7321,
      "Ġabstain": 7322,
      "Ġprogressive": 7323,
      "Ġrisks": 7324,
      "Ġrobbed": 7325,
      "Ġacknowled": 7326,
      "Ġcontains": 7327,
      "Assad": 7328,
      "Assuredly": 7329,
      "Ġindication": 7330,
      "Ġinvolve": 7331,
      "Ġsimplest": 7332,
      "Ġsimplistic": 7333,
      "Ġimmortality": 7334,
      "Ġemployees": 7335,
      "Ġsexuality": 7336,
      "Secondly": 7337,
      "Adams": 7338,
      "Prov": 7339,
      "lasting": 7340,
      "Ġtitle": 7341,
      "Ġsweeter": 7342,
      "Ġflees": 7343,
      "Ġfrag": 7344,
      "Ġdressed": 7345,
      "Ġinnov": 7346,
      "Ġinnovation": 7347,
      "Ġnetwork": 7348,
      "Ġlength": 7349,
      "Ġlengthy": 7350,
      "Ġeuro": 7351,
      "Ġeuros": 7352,
      "Ġhole": 7353,
      "Ġanti": 7354,
      "ĠAvatar": 7355,
      "Ġdegrees": 7356,
      "ĠBabylon": 7357,
      "ĠFinancial": 7358,
      "ĠFrank": 7359,
      "Ġvolunt": 7360,
      "Ġvideo": 7361,
      "Ġvideos": 7362,
      "Ġaggressor": 7363,
      "Ġfoolish": 7364,
      "Sooner": 7365,
      "ĠUpon": 7366,
      "Ġaccompany": 7367,
      "Ġaccompanied": 7368,
      "Ġexperienced": 7369,
      "Ġexperiencing": 7370,
      "Ġadvancement": 7371,
      "Ġexclusively": 7372,
      "Ġvictims": 7373,
      "Ġinstructions": 7374,
      "Ġapostle": 7375,
      "Ġnegotiated": 7376,
      "Ġcelebrate": 7377,
      "Brothers": 7378,
      "ĠAustralia": 7379,
      "Finding": 7380,
      "areness": 7381,
      "doing": 7382,
      "hilated": 7383,
      "laration": 7384,
      "Ġfacil": 7385,
      "Ġfurnace": 7386,
      "Ġyields": 7387,
      "Ġinjured": 7388,
      "Ġinquir": 7389,
      "ĠGuardian": 7390,
      "ĠGaza": 7391,
      "lendar": 7392,
      "Ġhurt": 7393,
      "Ġholpen": 7394,
      "Ġhostility": 7395,
      "Ġredeem": 7396,
      "Ġwithdraw": 7397,
      "Ġselected": 7398,
      "Ġprimarily": 7399,
      "Ġannounced": 7400,
      "ĠASP": 7401,
      "Ġalternative": 7402,
      "Ġdebates": 7403,
      "ĠBeck": 7404,
      "ĠBulgaria": 7405,
      "ĠTwo": 7406,
      "ĠFourth": 7407,
      "Ġprocedures": 7408,
      "ĠKorea": 7409,
      "ĠYahweh": 7410,
      "Ġtribes": 7411,
      "Ġgrandmother": 7412,
      "ĠUniversity": 7413,
      "ĠAfghanistan": 7414,
      "Ġgovernments": 7415,
      "Ġinspired": 7416,
      "Ġresolutely": 7417,
      "Ġcameras": 7418,
      "Ġlimitations": 7419,
      "Ġelevate": 7420,
      "Ġprofessional": 7421,
      "ĠSecretary": 7422,
      "ĠService": 7423,
      "Confess": 7424,
      "Ġeducation": 7425,
      "Ġfashioned": 7426,
      "Consider": 7427,
      "Hardy": 7428,
      "Number": 7429,
      "Resolution": 7430,
      "Update": 7431,
      "Verses": 7432,
      "Yoga": 7433,
      "shall": 7434,
      "ydro": 7435,
      "Ġtunnels": 7436,
      "Ġsustainable": 7437,
      "Ġclients": 7438,
      "Ġtolerance": 7439,
      "Ġmutual": 7440,
      "Ġpackage": 7441,
      "Ġinevitable": 7442,
      "Ġlaying": 7443,
      "utrition": 7444,
      "ĠIMF": 7445,
      "ĠAgreement": 7446,
      "ĠAzerbaijan": 7447,
      "ĠMajesty": 7448,
      "ĠCuba": 7449,
      "ĠCambod": 7450,
      "Ġstranger": 7451,
      "Ġstretch": 7452,
      "ĠWolf": 7453,
      "ĠWizards": 7454,
      "ĠElijah": 7455,
      "ĠEnergy": 7456,
      "ĠTokyo": 7457,
      "ĠRemembrance": 7458,
      "ĠRabbi": 7459,
      "Ġritual": 7460,
      "Ġintimid": 7461,
      "Ġintegrated": 7462,
      "Ġfocused": 7463,
      "Ġunexpected": 7464,
      "Ġimperfection": 7465,
      "Ġcomprehens": 7466,
      "ĠSpecial": 7467,
      "Ġeliminated": 7468,
      "ĠPrincess": 7469,
      "Ġbeliefs": 7470,
      "Ġdiscloses": 7471,
      "Ġdefinition": 7472,
      "ĠNovak": 7473,
      "Ġsolidarity": 7474,
      "Ġdoctrine": 7475,
      "Ġpurchase": 7476,
      "valuation": 7477,
      "Regarding": 7478,
      "Ġdiplomatic": 7479,
      "ĠThanksgiving": 7480,
      "Ġrepeatedly": 7481,
      "Ġanticipated": 7482,
      "Gedulah": 7483,
      "Leave": 7484,
      "Return": 7485,
      "Roger": 7486,
      "Touching": 7487,
      "Ukraine": 7488,
      "Ġingenuity": 7489,
      "Ġaircraft": 7490,
      "Ġsomeday": 7491,
      "Ġsometime": 7492,
      "Ġbarely": 7493,
      "Ġfemale": 7494,
      "Ġphenomen": 7495,
      "Ġpilgrim": 7496,
      "Ġpiece": 7497,
      "Ġdignity": 7498,
      "Ġdilemma": 7499,
      "Ġdiminished": 7500,
      "ednesday": 7501,
      "Ġinfected": 7502,
      "Ġinhabitants": 7503,
      "Ġnonsense": 7504,
      "Ġthoroughly": 7505,
      "ĠGoshen": 7506,
      "ĠGabriel": 7507,
      "Ġeighth": 7508,
      "Ġepisodes": 7509,
      "ifferent": 7510,
      "ĠSacred": 7511,
      "ĠSanctify": 7512,
      "Ġanxiety": 7513,
      "ĠMiami": 7514,
      "ĠMIGUEL": 7515,
      "Ġlivestock": 7516,
      "established": 7517,
      "Ġsabbath": 7518,
      "Ġstimulated": 7519,
      "Ġmanuscript": 7520,
      "Ġframework": 7521,
      "ĠEmpire": 7522,
      "ĠTunis": 7523,
      "ĠTetteh": 7524,
      "ĠKuwait": 7525,
      "ĠKurds": 7526,
      "Ġarticles": 7527,
      "Ġmisfortune": 7528,
      "Ġproperties": 7529,
      "Ġindispensable": 7530,
      "awaii": 7531,
      "Ġoverthrowing": 7532,
      "Ġdecrepitude": 7533,
      "Ġconsensus": 7534,
      "ĠQuestions": 7535,
      "Ġpatriarchs": 7536,
      "Ġharshness": 7537,
      "ĠZombie": 7538,
      "Ġadministration": 7539,
      "ĠBarbara": 7540,
      "ĠBelgium": 7541,
      "\"(": 7542,
      "%!": 7543,
      "%)": 7544,
      "%,": 7545,
      "''": 7546,
      "'?âĢĿ": 7547,
      "(...)": 7548,
      ")!": 7549,
      ");": 7550,
      ")...": 7551,
      ")...âĢĿ": 7552,
      "++": 7553,
      ",âĢľ": 7554,
      ",âĢĶ": 7555,
      ",âĢĵ": 7556,
      ".!": 7557,
      ".Ā": 7558,
      ".âĢľ": 7559,
      "05": 7560,
      "06": 7561,
      "07": 7562,
      "09": 7563,
      "226": 7564,
      "338": 7565,
      "46": 7566,
      "426": 7567,
      "55": 7568,
      "59": 7569,
      "5000": 7570,
      "61": 7571,
      "67": 7572,
      "69": 7573,
      "80": 7574,
      "81": 7575,
      "87": 7576,
      "96": 7577,
      "==": 7578,
      "?...": 7579,
      "?âĢĶ": 7580,
      "AD": 7581,
      "AF": 7582,
      "Ac": 7583,
      "Ad": 7584,
      "Av": 7585,
      "Ay": 7586,
      "Aad": 7587,
      "App": 7588,
      "Ang": 7589,
      "Americ": 7590,
      "Alex": 7591,
      "Ba": 7592,
      "Ben": 7593,
      "Best": 7594,
      "Bart": 7595,
      "Both": 7596,
      "Baby": 7597,
      "Bring": 7598,
      "Bulgar": 7599,
      "Baba": 7600,
      "Between": 7601,
      "Co": 7602,
      "Cain": 7603,
      "Cong": 7604,
      "Cause": 7605,
      "Cob": 7606,
      "Check": 7607,
      "Current": 7608,
      "DI": 7609,
      "DK": 7610,
      "Da": 7611,
      "De": 7612,
      "Dis": 7613,
      "Ding": 7614,
      "Dem": 7615,
      "Dol": 7616,
      "DRA": 7617,
      "Drink": 7618,
      "EB": 7619,
      "EE": 7620,
      "EH": 7621,
      "EU": 7622,
      "El": 7623,
      "Eng": 7624,
      "Ext": 7625,
      "Event": 7626,
      "FO": 7627,
      "Four": 7628,
      "Fare": 7629,
      "Food": 7630,
      "False": 7631,
      "Fran": 7632,
      "Faith": 7633,
      "Fuck": 7634,
      "Faithfulness": 7635,
      "FUL": 7636,
      "Ferrari": 7637,
      "GE": 7638,
      "Gal": 7639,
      "Get": 7640,
      "Gover": 7641,
      "Glory": 7642,
      "HI": 7643,
      "Him": 7644,
      "Hear": 7645,
      "HAT": 7646,
      "Hallow": 7647,
      "Happiness": 7648,
      "IS": 7649,
      "Int": 7650,
      "Ign": 7651,
      "Jose": 7652,
      "Jude": 7653,
      "Jeff": 7654,
      "KI": 7655,
      "Ka": 7656,
      "Ker": 7657,
      "Kat": 7658,
      "Kim": 7659,
      "LE": 7660,
      "Le": 7661,
      "Lo": 7662,
      "Lot": 7663,
      "Long": 7664,
      "Life": 7665,
      "Later": 7666,
      "LOS": 7667,
      "MM": 7668,
      "MO": 7669,
      "Mo": 7670,
      "Mor": 7671,
      "Mal": 7672,
      "Mart": 7673,
      "Most": 7674,
      "Mak": 7675,
      "Money": 7676,
      "Mins": 7677,
      "MAN": 7678,
      "Music": 7679,
      "Macedon": 7680,
      "NL": 7681,
      "Norm": 7682,
      "NOT": 7683,
      "Nearly": 7684,
      "Out": 7685,
      "Over": 7686,
      "Oct": 7687,
      "OOD": 7688,
      "Pr": 7689,
      "Pod": 7690,
      "Port": 7691,
      "Page": 7692,
      "Prop": 7693,
      "Pray": 7694,
      "Peter": 7695,
      "Priest": 7696,
      "Picture": 7697,
      "Phil": 7698,
      "PMI": 7699,
      "Right": 7700,
      "Rec": 7701,
      "Rob": 7702,
      "Roy": 7703,
      "Read": 7704,
      "Rabb": 7705,
      "RON": 7706,
      "SO": 7707,
      "Sm": 7708,
      "Sir": 7709,
      "Save": 7710,
      "Shar": 7711,
      "Science": 7712,
      "SEL": 7713,
      "Solomon": 7714,
      "SUN": 7715,
      "Sols": 7716,
      "SHU": 7717,
      "Sustain": 7718,
      "Supp": 7719,
      "Surah": 7720,
      "TA": 7721,
      "TC": 7722,
      "TS": 7723,
      "Try": 7724,
      "TOD": 7725,
      "Truly": 7726,
      "UB": 7727,
      "UM": 7728,
      "UR": 7729,
      "VID": 7730,
      "Waj": 7731,
      "Woe": 7732,
      "WAY": 7733,
      "Work": 7734,
      "Wednesday": 7735,
      "Ye": 7736,
      "Yah": 7737,
      "YOU": 7738,
      "]:": 7739,
      "aer": 7740,
      "aan": 7741,
      "aire": 7742,
      "aign": 7743,
      "avel": 7744,
      "aised": 7745,
      "author": 7746,
      "ahara": 7747,
      "bl": 7748,
      "bo": 7749,
      "bas": 7750,
      "bad": 7751,
      "big": 7752,
      "boy": 7753,
      "bank": 7754,
      "bring": 7755,
      "bby": 7756,
      "between": 7757,
      "brethren": 7758,
      "cs": 7759,
      "cha": 7760,
      "can": 7761,
      "car": 7762,
      "com": 7763,
      "cow": 7764,
      "cause": 7765,
      "cort": 7766,
      "cast": 7767,
      "cru": 7768,
      "cript": 7769,
      "comp": 7770,
      "cases": 7771,
      "conscious": 7772,
      "dis": 7773,
      "des": 7774,
      "ders": 7775,
      "dec": 7776,
      "determined": 7777,
      "difficult": 7778,
      "eer": 7779,
      "ean": 7780,
      "every": 7781,
      "eem": 7782,
      "eating": 7783,
      "either": 7784,
      "eurs": 7785,
      "fing": 7786,
      "fly": 7787,
      "fall": 7788,
      "find": 7789,
      "four": 7790,
      "first": 7791,
      "fty": 7792,
      "foli": 7793,
      "gu": 7794,
      "gis": 7795,
      "gies": 7796,
      "gare": 7797,
      "good": 7798,
      "gement": 7799,
      "grow": 7800,
      "gory": 7801,
      "giveness": 7802,
      "gotten": 7803,
      "hi": 7804,
      "ho": 7805,
      "hou": 7806,
      "hov": 7807,
      "hua": 7808,
      "iority": 7809,
      "iots": 7810,
      "jam": 7811,
      "jaer": 7812,
      "ki": 7813,
      "kha": 7814,
      "kur": 7815,
      "kish": 7816,
      "kins": 7817,
      "kjaer": 7818,
      "ls": 7819,
      "lit": 7820,
      "ling": 7821,
      "lation": 7822,
      "lad": 7823,
      "list": 7824,
      "lpl": 7825,
      "little": 7826,
      "love": 7827,
      "leness": 7828,
      "ltered": 7829,
      "loyal": 7830,
      "mm": 7831,
      "mar": 7832,
      "mel": 7833,
      "mand": 7834,
      "mond": 7835,
      "mare": 7836,
      "mists": 7837,
      "medi": 7838,
      "mitting": 7839,
      "mploy": 7840,
      "mKer": 7841,
      "ns": 7842,
      "nam": 7843,
      "night": 7844,
      "nost": 7845,
      "nual": 7846,
      "national": 7847,
      "nacle": 7848,
      "oo": 7849,
      "ois": 7850,
      "oor": 7851,
      "oices": 7852,
      "pa": 7853,
      "pit": 7854,
      "ping": 7855,
      "pher": 7856,
      "pers": 7857,
      "pable": 7858,
      "pare": 7859,
      "pass": 7860,
      "people": 7861,
      "preme": 7862,
      "pended": 7863,
      "phew": 7864,
      "qq": 7865,
      "ras": 7866,
      "rist": 7867,
      "rich": 7868,
      "rated": 7869,
      "rick": 7870,
      "rang": 7871,
      "rants": 7872,
      "ritten": 7873,
      "rists": 7874,
      "ratul": 7875,
      "rkes": 7876,
      "sen": 7877,
      "sing": 7878,
      "say": 7879,
      "sign": 7880,
      "such": 7881,
      "sential": 7882,
      "siders": 7883,
      "tail": 7884,
      "uy": 7885,
      "uer": 7886,
      "uing": 7887,
      "uise": 7888,
      "uable": 7889,
      "ube": 7890,
      "understand": 7891,
      "uasion": 7892,
      "vin": 7893,
      "vant": 7894,
      "ville": 7895,
      "wan": 7896,
      "want": 7897,
      "wide": 7898,
      "write": 7899,
      "words": 7900,
      "xes": 7901,
      "xemb": 7902,
      "yan": 7903,
      "yber": 7904,
      "ystem": 7905,
      "yash": 7906,
      "yalty": 7907,
      "zz": 7908,
      "zhe": 7909,
      "zone": 7910,
      "zens": 7911,
      "Ã¡": 7912,
      "ãĢ": 7913,
      "ðŁ": 7914,
      "Ġ.âĢĿ": 7915,
      "Ġver": 7916,
      "Ġ00": 7917,
      "ĠThen": 7918,
      "ĠðŁ": 7919,
      "Ĥ¬": 7920,
      "ĭâĢĭ": 7921,
      "ĳri": 7922,
      "ĻĤ": 7923,
      "Ġtal": 7924,
      "Ġtant": 7925,
      "Ġtort": 7926,
      "Ġtough": 7927,
      "Ġtens": 7928,
      "Ġtries": 7929,
      "Ġtilt": 7930,
      "Ġtune": 7931,
      "heel": 7932,
      "help": 7933,
      "heistic": 7934,
      "Ġaim": 7935,
      "Ġaver": 7936,
      "Ġaided": 7937,
      "Ġaxis": 7938,
      "Ġwid": 7939,
      "Ġwest": 7940,
      "Ġwise": 7941,
      "Ġwiz": 7942,
      "Ġwound": 7943,
      "Ġwilt": 7944,
      "Ġwaste": 7945,
      "Ġwanna": 7946,
      "Ġtherap": 7947,
      "inc": 7948,
      "ino": 7949,
      "inent": 7950,
      "inations": 7951,
      "inner": 7952,
      "inema": 7953,
      "ref": 7954,
      "rem": 7955,
      "rell": 7956,
      "real": 7957,
      "rete": 7958,
      "reced": 7959,
      "replace": 7960,
      "Ġoven": 7961,
      "Ġomn": 7962,
      "isha": 7963,
      "issi": 7964,
      "isations": 7965,
      "isdom": 7966,
      "outhern": 7967,
      "Ġsqu": 7968,
      "Ġstern": 7969,
      "Ġsurp": 7970,
      "Ġsize": 7971,
      "Ġsigh": 7972,
      "Ġsides": 7973,
      "Ġsoph": 7974,
      "Ġsouthern": 7975,
      "has": 7976,
      "haust": 7977,
      "eron": 7978,
      "erus": 7979,
      "erness": 7980,
      "ervation": 7981,
      "eroes": 7982,
      "erior": 7983,
      "ndered": 7984,
      "onom": 7985,
      "onent": 7986,
      "onia": 7987,
      "onardo": 7988,
      "onounce": 7989,
      "Ġbes": 7990,
      "Ġbri": 7991,
      "Ġball": 7992,
      "Ġband": 7993,
      "Ġburp": 7994,
      "Ġbright": 7995,
      "Ġblend": 7996,
      "Ġbaked": 7997,
      "Ġchat": 7998,
      "Ġcas": 7999,
      "Ġcul": 8000,
      "Ġcake": 8001,
      "Ġcure": 8002,
      "Ġcook": 8003,
      "Ġcries": 8004,
      "Ġcents": 8005,
      "Ġcogn": 8006,
      "Ġcreed": 8007,
      "Ġcattle": 8008,
      "Ġcert": 8009,
      "lled": 8010,
      "lling": 8011,
      "llar": 8012,
      "llah": 8013,
      "itar": 8014,
      "itic": 8015,
      "itter": 8016,
      "itect": 8017,
      "itope": 8018,
      "itably": 8019,
      "itiveness": 8020,
      "itially": 8021,
      "ituted": 8022,
      "itler": 8023,
      "itzer": 8024,
      "itcases": 8025,
      "oral": 8026,
      "orter": 8027,
      "orous": 8028,
      "orpor": 8029,
      "orado": 8030,
      "Ġtoile": 8031,
      "Ġfat": 8032,
      "Ġfill": 8033,
      "Ġfly": 8034,
      "Ġfres": 8035,
      "Ġfans": 8036,
      "Ġfish": 8037,
      "Ġfals": 8038,
      "Ġfled": 8039,
      "Ġfaced": 8040,
      "Ġfitting": 8041,
      "ena": 8042,
      "ening": 8043,
      "ench": 8044,
      "enance": 8045,
      "encies": 8046,
      "essel": 8047,
      "Ġmg": 8048,
      "Ġmas": 8049,
      "Ġmand": 8050,
      "Ġmort": 8051,
      "Ġmud": 8052,
      "Ġmage": 8053,
      "Ġmedi": 8054,
      "Ġmeter": 8055,
      "Ġmale": 8056,
      "Ġmigration": 8057,
      "Ġmortal": 8058,
      "Ġmusc": 8059,
      "Ġmerry": 8060,
      "Ġmandra": 8061,
      "anc": 8062,
      "anor": 8063,
      "aning": 8064,
      "anim": 8065,
      "anish": 8066,
      "anches": 8067,
      "ancing": 8068,
      "anwhile": 8069,
      "Ġpor": 8070,
      "Ġpet": 8071,
      "Ġpant": 8072,
      "Ġpand": 8073,
      "Ġpope": 8074,
      "Ġpag": 8075,
      "Ġpian": 8076,
      "Ġpick": 8077,
      "Ġparad": 8078,
      "Ġparent": 8079,
      "Ġpsy": 8080,
      "Ġdw": 8081,
      "Ġdad": 8082,
      "Ġdate": 8083,
      "Ġdise": 8084,
      "Ġduc": 8085,
      "Ġdens": 8086,
      "Ġdates": 8087,
      "Ġdual": 8088,
      "Ġdup": 8089,
      "Ġdread": 8090,
      "Ġdrive": 8091,
      "Ġdrug": 8092,
      "Ġdrowning": 8093,
      "Ġdinner": 8094,
      "Ġyach": 8095,
      "Ġyoke": 8096,
      "edies": 8097,
      "edges": 8098,
      "ingly": 8099,
      "ingers": 8100,
      "atch": 8101,
      "atified": 8102,
      "atement": 8103,
      "atient": 8104,
      "atically": 8105,
      "atima": 8106,
      "Ġinacc": 8107,
      "Ġinfection": 8108,
      "Ġineff": 8109,
      "Ġnur": 8110,
      "Ġnest": 8111,
      "Ġnour": 8112,
      "Ġnig": 8113,
      "Ġnice": 8114,
      "Ġnaked": 8115,
      "Ġisol": 8116,
      "oda": 8117,
      "Ġbees": 8118,
      "Ġbefall": 8119,
      "arr": 8120,
      "arat": 8121,
      "arage": 8122,
      "aria": 8123,
      "arians": 8124,
      "velling": 8125,
      "Ġlion": 8126,
      "Ġlate": 8127,
      "Ġlitt": 8128,
      "Ġloud": 8129,
      "Ġlamp": 8130,
      "Ġlucky": 8131,
      "omot": 8132,
      "omiss": 8133,
      "omiting": 8134,
      "Ġhaha": 8135,
      "Ġhall": 8136,
      "Ġhang": 8137,
      "ĠGre": 8138,
      "ĠGur": 8139,
      "ĠGather": 8140,
      "ĠGrow": 8141,
      "ĠGrace": 8142,
      "ĠGyÅ": 8143,
      "âĢĻâĢĻ": 8144,
      "seas": 8145,
      "severe": 8146,
      "owl": 8147,
      "âĢĿ)": 8148,
      "âĢĿ;": 8149,
      "âĢĿ?": 8150,
      "âĢĿ.âĢĻ": 8151,
      "still": 8152,
      "stic": 8153,
      "stant": 8154,
      "step": 8155,
      "stitutional": 8156,
      "Ġeh": 8157,
      "Ġether": 8158,
      "Ġeast": 8159,
      "Ġelig": 8160,
      "Ġego": 8161,
      "otes": 8162,
      "otion": 8163,
      "otal": 8164,
      "otection": 8165,
      "illa": 8166,
      "ills": 8167,
      "illes": 8168,
      "ayer": 8169,
      "aylor": 8170,
      "lee": 8171,
      "ley": 8172,
      "lets": 8173,
      "legal": 8174,
      "leton": 8175,
      "leby": 8176,
      "Ġhik": 8177,
      "Ġhydro": 8178,
      "ldo": 8179,
      "uting": 8180,
      "utra": 8181,
      "Ġheir": 8182,
      "Ġheres": 8183,
      "Ġheav": 8184,
      "Ġhelpl": 8185,
      "Ġreli": 8186,
      "Ġreap": 8187,
      "Ġreread": 8188,
      "Ġreference": 8189,
      "Ġreaches": 8190,
      "Ġrewrite": 8191,
      "Ġgre": 8192,
      "Ġgate": 8193,
      "Ġgang": 8194,
      "Ġgospel": 8195,
      "Ġgarage": 8196,
      "imer": 8197,
      "imir": 8198,
      "imals": 8199,
      "Ġweep": 8200,
      "Ġweary": 8201,
      "Ġwelf": 8202,
      ".âĢĿâĢĻ": 8203,
      "alu": 8204,
      "ales": 8205,
      "alal": 8206,
      "alist": 8207,
      "also": 8208,
      "alian": 8209,
      "alition": 8210,
      "almost": 8211,
      "alpa": 8212,
      "ida": 8213,
      "iden": 8214,
      "ĠII": 8215,
      "ĠIP": 8216,
      "ĠIV": 8217,
      "ĠInt": 8218,
      "ĠIDF": 8219,
      "Ġonto": 8220,
      "ura": 8221,
      "urated": 8222,
      "asm": 8223,
      "asso": 8224,
      "entially": 8225,
      "ica": 8226,
      "ici": 8227,
      "icy": 8228,
      "icans": 8229,
      "ichel": 8230,
      "Ġund": 8231,
      "ift": 8232,
      "Ġnoted": 8233,
      "irable": 8234,
      "ctions": 8235,
      "âĢľ(": 8236,
      "âĢľ.": 8237,
      "âĢľâĢĺ": 8238,
      "open": 8239,
      "opment": 8240,
      "opian": 8241,
      "operation": 8242,
      "Ġwhites": 8243,
      "hero": 8244,
      "Ġwithheld": 8245,
      "ete": 8246,
      "ethe": 8247,
      "eters": 8248,
      "eties": 8249,
      "etite": 8250,
      "etime": 8251,
      "amo": 8252,
      "aming": 8253,
      "amah": 8254,
      "ample": 8255,
      "amib": 8256,
      "amples": 8257,
      "Ġkn": 8258,
      "Ġkar": 8259,
      "Ġkne": 8260,
      "Ġseas": 8261,
      "Ġseated": 8262,
      "Ġseats": 8263,
      "Ġsectors": 8264,
      "Ġseventh": 8265,
      "ĠSu": 8266,
      "ĠShan": 8267,
      "ĠSuch": 8268,
      "ĠSene": 8269,
      "ĠSaid": 8270,
      "ĠSup": 8271,
      "ĠShar": 8272,
      "ĠSchool": 8273,
      "ĠSays": 8274,
      "ĠSik": 8275,
      "ĠSaba": 8276,
      "ĠSeeds": 8277,
      "ĠSupp": 8278,
      "ĠSUE": 8279,
      "ĠSystem": 8280,
      "Ġprint": 8281,
      "Ġprosp": 8282,
      "Ġdozens": 8283,
      "Ġannual": 8284,
      "ĠAc": 8285,
      "ĠAle": 8286,
      "ĠAri": 8287,
      "ĠApp": 8288,
      "ĠAction": 8289,
      "ĠAff": 8290,
      "ĠAvi": 8291,
      "ĠAunt": 8292,
      "ĠAgency": 8293,
      "ĠAGA": 8294,
      "ĠHI": 8295,
      "ĠHu": 8296,
      "ĠHas": 8297,
      "ĠHad": 8298,
      "ĠHand": 8299,
      "ĠHiz": 8300,
      "ĠHua": 8301,
      "ĠHIV": 8302,
      "ĠHae": 8303,
      "ĠHawaii": 8304,
      "ĠHeroes": 8305,
      "ĠHitler": 8306,
      "Ġasp": 8307,
      "Ġascend": 8308,
      "Ġasylum": 8309,
      "rast": 8310,
      "raight": 8311,
      "raced": 8312,
      "rade": 8313,
      "Ġcanals": 8314,
      "thur": 8315,
      "third": 8316,
      "aded": 8317,
      "adays": 8318,
      "adulter": 8319,
      "kees": 8320,
      "keys": 8321,
      "ĠMes": 8322,
      "ĠMount": 8323,
      "ĠMost": 8324,
      "ĠMage": 8325,
      "ĠMove": 8326,
      "ĠMoney": 8327,
      "ĠMars": 8328,
      "ĠMax": 8329,
      "ĠMemb": 8330,
      "ĠMigration": 8331,
      "ĠMED": 8332,
      "ĠMalt": 8333,
      "Andy": 8334,
      "Androm": 8335,
      "chol": 8336,
      "chiat": 8337,
      "chitect": 8338,
      "ores": 8339,
      "Ġalle": 8340,
      "Ġalliance": 8341,
      "Ġlied": 8342,
      "rice": 8343,
      "riger": 8344,
      "Ġalter": 8345,
      "Ġalche": 8346,
      "ante": 8347,
      "antly": 8348,
      "antity": 8349,
      "alley": 8350,
      "term": 8351,
      "ters": 8352,
      "terview": 8353,
      "termin": 8354,
      "Ġpeers": 8355,
      "ĠChe": 8356,
      "ĠCle": 8357,
      "ĠCas": 8358,
      "ĠCore": 8359,
      "ĠCain": 8360,
      "ĠChan": 8361,
      "ĠCong": 8362,
      "ĠCred": 8363,
      "ĠCol": 8364,
      "ĠCry": 8365,
      "ĠCather": 8366,
      "ĠCare": 8367,
      "ĠCap": 8368,
      "ĠCities": 8369,
      "ĠCents": 8370,
      "ĠCohn": 8371,
      "ĠCoke": 8372,
      "ĠCock": 8373,
      "ĠCey": 8374,
      "ĠColom": 8375,
      "ĠCross": 8376,
      "ĠCarl": 8377,
      "ĠCamp": 8378,
      "ĠCRE": 8379,
      "ĠCheck": 8380,
      "ĠCulture": 8381,
      "ĠCLOS": 8382,
      "Ġneur": 8383,
      "Ġnearest": 8384,
      "Ġnephew": 8385,
      "Ġcommented": 8386,
      "ested": 8387,
      "estion": 8388,
      "estant": 8389,
      "elf": 8390,
      "eless": 8391,
      "Ġknowed": 8392,
      "Ġsaith": 8393,
      "Ġsaving": 8394,
      "Ġorbit": 8395,
      "Ġorche": 8396,
      "Ġmere": 8397,
      "Ġmeasures": 8398,
      "Ġmeek": 8399,
      "Ġstil": 8400,
      "Ġstone": 8401,
      "Ġstake": 8402,
      "Ġstable": 8403,
      "Ġstage": 8404,
      "Ġstreet": 8405,
      "Ġstoned": 8406,
      "Ġstability": 8407,
      "Ġstraight": 8408,
      "ulpt": 8409,
      "ulum": 8410,
      "ulance": 8411,
      "ulations": 8412,
      "ularly": 8413,
      "ulses": 8414,
      "ilarly": 8415,
      "ilson": 8416,
      "Ġtruck": 8417,
      "Ġtricked": 8418,
      "Ġexag": 8419,
      "Ġexcess": 8420,
      "Ġexceed": 8421,
      "Ġexhib": 8422,
      "Ġexhaust": 8423,
      "Ġextermin": 8424,
      "Ġconcession": 8425,
      "Ġwholly": 8426,
      "emen": 8427,
      "emos": 8428,
      "emitope": 8429,
      "osa": 8430,
      "osc": 8431,
      "ossi": 8432,
      "osov": 8433,
      "ositive": 8434,
      "ando": 8435,
      "usive": 8436,
      "usade": 8437,
      "usual": 8438,
      "Ġuser": 8439,
      "Ġusers": 8440,
      "Ġfrank": 8441,
      "aude": 8442,
      "ppe": 8443,
      "ppi": 8444,
      "pper": 8445,
      "Ġdecept": 8446,
      "Ġdeceive": 8447,
      "Ġdeceived": 8448,
      "ĠLa": 8449,
      "ĠLis": 8450,
      "ĠLos": 8451,
      "ĠLog": 8452,
      "ĠLook": 8453,
      "ĠLevel": 8454,
      "ĠLoud": 8455,
      "ĠLav": 8456,
      "ĠLeb": 8457,
      "ĠLAN": 8458,
      "Heaven": 8459,
      "Throw": 8460,
      "Thursday": 8461,
      "liers": 8462,
      "Ġtherein": 8463,
      "ĠWhere": 8464,
      "ĠWars": 8465,
      "ĠWILL": 8466,
      "ĠWorship": 8467,
      "ĠWisdom": 8468,
      "ĠWilson": 8469,
      "Ġsucc": 8470,
      "Ġsupreme": 8471,
      "Ġsuitcases": 8472,
      "ĠâĢĭâĢĭ": 8473,
      "thermore": 8474,
      "Ġshit": 8475,
      "Ġshot": 8476,
      "Ġshut": 8477,
      "Ġshoe": 8478,
      "Ġshocked": 8479,
      "Ġshorter": 8480,
      "Ġjury": 8481,
      "Ġjokes": 8482,
      "ĠJr": 8483,
      "ĠJos": 8484,
      "ĠJake": 8485,
      "ĠJudg": 8486,
      "ĠJoy": 8487,
      "ĠJang": 8488,
      "ĠJup": 8489,
      "ĠJON": 8490,
      "ĠJerry": 8491,
      "ĠJerus": 8492,
      "istance": 8493,
      "istered": 8494,
      "Ġathe": 8495,
      "Ġ101": 8496,
      "Ġ112": 8497,
      "Ġ[...]": 8498,
      "eable": 8499,
      "Ġgoats": 8500,
      "soever": 8501,
      "ĠEv": 8502,
      "ĠEle": 8503,
      "ĠEmb": 8504,
      "ĠEternal": 8505,
      "ĠEritrea": 8506,
      "ĠEGF": 8507,
      "ĠEagle": 8508,
      "Ġloot": 8509,
      "Ġlover": 8510,
      "Ġlogo": 8511,
      "Ġlocked": 8512,
      "Ġlofty": 8513,
      "Ġloyalty": 8514,
      "ĠPot": 8515,
      "ĠPad": 8516,
      "ĠPun": 8517,
      "ĠPap": 8518,
      "ĠPull": 8519,
      "ĠPlease": 8520,
      "ĠPakistan": 8521,
      "ĠPasso": 8522,
      "ĠPositive": 8523,
      "resent": 8524,
      "outs": 8525,
      "outique": 8526,
      "ateurs": 8527,
      "Ġabode": 8528,
      "Ġabrog": 8529,
      "ectacle": 8530,
      "accept": 8531,
      "aculate": 8532,
      "Ġmyster": 8533,
      "ĠBC": 8534,
      "ĠBer": 8535,
      "ĠBad": 8536,
      "ĠBus": 8537,
      "ĠBang": 8538,
      "ĠBene": 8539,
      "ĠBOD": 8540,
      "ĠBened": 8541,
      "ĠBern": 8542,
      "ĠBaba": 8543,
      "ĠBelievers": 8544,
      "ĠBeast": 8545,
      "ĠTha": 8546,
      "ĠTer": 8547,
      "ĠTra": 8548,
      "ĠTest": 8549,
      "ĠTake": 8550,
      "ĠTable": 8551,
      "ĠTalk": 8552,
      "ĠTues": 8553,
      "ĠTyp": 8554,
      "ĠTax": 8555,
      "ĠTai": 8556,
      "ĠTex": 8557,
      "ĠTemitope": 8558,
      "orty": 8559,
      "astroph": 8560,
      "olt": 8561,
      "olic": 8562,
      "Italy": 8563,
      "Ġplot": 8564,
      "Ġplants": 8565,
      "Ġplenty": 8566,
      "Ġpledges": 8567,
      "ĠDin": 8568,
      "ĠDen": 8569,
      "ĠDes": 8570,
      "ĠDian": 8571,
      "ĠDark": 8572,
      "ĠDave": 8573,
      "ĠDuring": 8574,
      "ĠDevel": 8575,
      "ĠDecision": 8576,
      "ĠDisc": 8577,
      "ĠDreams": 8578,
      "ĠDifferent": 8579,
      "Ġnovel": 8580,
      "Ġnoblem": 8581,
      "Ġ250": 8582,
      "inda": 8583,
      "uming": 8584,
      "ĠFu": 8585,
      "ĠFir": 8586,
      "ĠFore": 8587,
      "ĠFall": 8588,
      "ĠFab": 8589,
      "ĠFood": 8590,
      "ĠFalse": 8591,
      "ĠFern": 8592,
      "ĠFUN": 8593,
      "ĠFishing": 8594,
      "ĠFBI": 8595,
      "ĠFuture": 8596,
      "ĠFatima": 8597,
      "ĠFlee": 8598,
      "ours": 8599,
      "ourse": 8600,
      "igm": 8601,
      "igion": 8602,
      "Interview": 8603,
      "Ġprob": 8604,
      "Ġproven": 8605,
      "quis": 8606,
      "quem": 8607,
      "question": 8608,
      "Ġspit": 8609,
      "Ġspar": 8610,
      "Ġspell": 8611,
      "Ġspare": 8612,
      "Ġspite": 8613,
      "Ġspouse": 8614,
      "Ġsplit": 8615,
      "Ġspectacle": 8616,
      "rences": 8617,
      "ĠHeat": 8618,
      "ureth": 8619,
      "ureau": 8620,
      "oker": 8621,
      "oked": 8622,
      "Ġvices": 8623,
      "Ġvari": 8624,
      "Ġvacc": 8625,
      "Ġvoters": 8626,
      "Ġvoices": 8627,
      "Ġvomiting": 8628,
      "Ġvotes": 8629,
      "unfor": 8630,
      "Ġages": 8631,
      "Ġagric": 8632,
      "ously": 8633,
      "Ġfaults": 8634,
      "ĠRE": 8635,
      "ĠRw": 8636,
      "ĠRic": 8637,
      "ĠRam": 8638,
      "ĠReed": 8639,
      "ĠRemember": 8640,
      "ĠRuss": 8641,
      "ĠRona": 8642,
      "Ġran": 8643,
      "Ġrub": 8644,
      "Ġrock": 8645,
      "Ġruled": 8646,
      "Ġruin": 8647,
      "Ġratified": 8648,
      "Ġenhan": 8649,
      "Ġenfor": 8650,
      "Ġenorm": 8651,
      "Ġensu": 8652,
      "Ġenables": 8653,
      "Ġshaped": 8654,
      "Ġanywhere": 8655,
      "ĠNF": 8656,
      "ĠNO": 8657,
      "ĠNou": 8658,
      "ĠNever": 8659,
      "ĠNine": 8660,
      "ĠNile": 8661,
      "ĠNorm": 8662,
      "ĠNED": 8663,
      "ĠNeeds": 8664,
      "ĠNicolas": 8665,
      "ĠNecessary": 8666,
      "ĠNeither": 8667,
      "ĠNamib": 8668,
      "ansion": 8669,
      "anscend": 8670,
      "bert": 8671,
      "beral": 8672,
      "berately": 8673,
      "bernacle": 8674,
      "endureth": 8675,
      "Ġamid": 8676,
      "Ġamaz": 8677,
      "Ġamateurs": 8678,
      "ecca": 8679,
      "econom": 8680,
      "Ġadoration": 8681,
      "abit": 8682,
      "abilities": 8683,
      "Ġimitate": 8684,
      "Ġjustify": 8685,
      "Ġaccel": 8686,
      "Ġcreating": 8687,
      "Whenever": 8688,
      "sied": 8689,
      "sile": 8690,
      "sieur": 8691,
      "ountries": 8692,
      "ountered": 8693,
      "Ġneedy": 8694,
      "Ġcontempt": 8695,
      "Ġcontempl": 8696,
      "Ġpartly": 8697,
      "Ġpartake": 8698,
      "Ġgreatness": 8699,
      "aking": 8700,
      "ineas": 8701,
      "ĠSons": 8702,
      "Ġremedies": 8703,
      "Whoso": 8704,
      "Ġupd": 8705,
      "Ġupheld": 8706,
      "Ġupset": 8707,
      "plants": 8708,
      "roll": 8709,
      "roat": 8710,
      "roved": 8711,
      "achi": 8712,
      "ĠKal": 8713,
      "ĠKir": 8714,
      "ĠKitt": 8715,
      "ĠKiv": 8716,
      "ĠKey": 8717,
      "ĠKabb": 8718,
      "ĠKyle": 8719,
      "ĠKathy": 8720,
      "ĠKosov": 8721,
      "Ġpreserves": 8722,
      "Ġprescribed": 8723,
      "Ġserving": 8724,
      "Ġsermon": 8725,
      "Ġunified": 8726,
      "Ġunknow": 8727,
      "Ġunbelief": 8728,
      "Ġunanim": 8729,
      "Ġunadulter": 8730,
      "Ġunusual": 8731,
      "Ġunquestion": 8732,
      "ationship": 8733,
      "Ġoutsiders": 8734,
      "acked": 8735,
      "Ġdisse": 8736,
      "Ġdisag": 8737,
      "Ġdisasters": 8738,
      "Ġdisloyal": 8739,
      "ishment": 8740,
      "ishness": 8741,
      "Ġperceive": 8742,
      "Ġperceived": 8743,
      "Ġperils": 8744,
      "Ġperception": 8745,
      "Ġsomewhat": 8746,
      "ciety": 8747,
      "agn": 8748,
      "ager": 8749,
      "aged": 8750,
      "agement": 8751,
      "izing": 8752,
      "izable": 8753,
      "Ġreside": 8754,
      "Ġresidence": 8755,
      "Ġbrush": 8756,
      "Ġbranches": 8757,
      "ivors": 8758,
      "Ġripens": 8759,
      "Ġdesper": 8760,
      "Ġdeserves": 8761,
      "Ġdesirable": 8762,
      "Ġhappier": 8763,
      "Ġmayor": 8764,
      "Ġshed": 8765,
      "Ġsheep": 8766,
      "Ġsheltered": 8767,
      "Ġshepher": 8768,
      "Ġsinner": 8769,
      "ĠChucky": 8770,
      "Ġ38": 8771,
      "Ġ39": 8772,
      "Ġ301": 8773,
      "Ġ350": 8774,
      "Ġundergo": 8775,
      "Ġnewborn": 8776,
      "Ġblame": 8777,
      "Ġbloc": 8778,
      "Ġbluff": 8779,
      "Ġblades": 8780,
      "Ġblaming": 8781,
      "Ġgrid": 8782,
      "Ġcommence": 8783,
      "Ġcommend": 8784,
      "Ġcommits": 8785,
      "Ġgoods": 8786,
      "igned": 8787,
      "Ġaddress": 8788,
      "ĠOs": 8789,
      "ĠOz": 8790,
      "ĠOwn": 8791,
      "ĠOla": 8792,
      "ĠOtt": 8793,
      "ĠOUN": 8794,
      "Ġarre": 8795,
      "Ġarrog": 8796,
      "Ġarrang": 8797,
      "Ġarchitect": 8798,
      "Ġappeal": 8799,
      "Ġapportion": 8800,
      "Ġappetite": 8801,
      "Ġhereafter": 8802,
      "Ġcounting": 8803,
      "Ġcountless": 8804,
      "ogues": 8805,
      "Ġ49": 8806,
      "Ġ430": 8807,
      "Ġowns": 8808,
      "Ġfaithfully": 8809,
      "Ġclan": 8810,
      "Ġclarity": 8811,
      "Ġimpart": 8812,
      "Ġimpress": 8813,
      "Ġimpulses": 8814,
      "Ġrecited": 8815,
      "Ġrecession": 8816,
      "Ġrecovered": 8817,
      "Ġrecovery": 8818,
      "Ġrecourse": 8819,
      "ĠUt": 8820,
      "ĠUse": 8821,
      "ĠUrkes": 8822,
      "ĠUpper": 8823,
      "Ġquit": 8824,
      "Ġqueen": 8825,
      "Ġquarter": 8826,
      "Ġquantity": 8827,
      "cepts": 8828,
      "Doctor": 8829,
      "theists": 8830,
      "Ġglobe": 8831,
      "Ġmisgu": 8832,
      "Ġmissile": 8833,
      "ruits": 8834,
      "Ġpositing": 8835,
      "Ġleans": 8836,
      "Ġprompt": 8837,
      "assing": 8838,
      "assies": 8839,
      "actions": 8840,
      "activity": 8841,
      "Forget": 8842,
      "Ġleaving": 8843,
      "Ġhanding": 8844,
      "Ġexport": 8845,
      "Ġexpression": 8846,
      "Ġexpansion": 8847,
      "Noah": 8848,
      "iang": 8849,
      "Ġreply": 8850,
      "Ġrepress": 8851,
      "Ġrepents": 8852,
      "before": 8853,
      "Ġthrown": 8854,
      "Ġhumility": 8855,
      "Ġproposed": 8856,
      "Ġactor": 8857,
      "Ġacting": 8858,
      "Ġactors": 8859,
      "Ġactual": 8860,
      "Ġactively": 8861,
      "Ġcompar": 8862,
      "Ġcompels": 8863,
      "Ġcomposition": 8864,
      "Ġcomponent": 8865,
      "Ġglorious": 8866,
      "Ġglorifies": 8867,
      "Ġindign": 8868,
      "Ġindirect": 8869,
      "ĠThem": 8870,
      "Ġpoly": 8871,
      "Ġpock": 8872,
      "Ġcoins": 8873,
      "Ġcovenant": 8874,
      "Ġcoalition": 8875,
      "ĠAndrew": 8876,
      "Ġ1915": 8877,
      "Ġ1933": 8878,
      "Ġ1942": 8879,
      "Ġoperate": 8880,
      "aterial": 8881,
      "Ġinvocation": 8882,
      "Ġwriter": 8883,
      "awa": 8884,
      "Ġovercome": 8885,
      "Ġovercoming": 8886,
      "Ġguilt": 8887,
      "Ġguineas": 8888,
      "Ġdecade": 8889,
      "Ġdecreed": 8890,
      "Nowadays": 8891,
      "Ġevalu": 8892,
      "Ġendure": 8893,
      "Ġendurance": 8894,
      "ocal": 8895,
      "ocate": 8896,
      "ocris": 8897,
      "Ġ52": 8898,
      "Ġ53": 8899,
      "Ġ54": 8900,
      "Ġfinds": 8901,
      "rents": 8902,
      "Ġlethal": 8903,
      "ictory": 8904,
      "ictines": 8905,
      "Ġconscious": 8906,
      "Ġconservation": 8907,
      "Yesterday": 8908,
      "Ġbacked": 8909,
      "Ġbackgr": 8910,
      "Ġcriti": 8911,
      "Ġcrops": 8912,
      "Ġcrusade": 8913,
      "ĠSpanish": 8914,
      "Ġexisting": 8915,
      "ements": 8916,
      "Ġdifferences": 8917,
      "Ġdonkey": 8918,
      "cessor": 8919,
      "cessful": 8920,
      "Ġrarely": 8921,
      "Ġhumanitar": 8922,
      "merciful": 8923,
      "Ġprophesied": 8924,
      "Ġ97": 8925,
      "Ġentry": 8926,
      "Ġfinest": 8927,
      "Ġfinances": 8928,
      "Ġplanes": 8929,
      "Ġplanning": 8930,
      "Ġbeggar": 8931,
      "Ġattend": 8932,
      "Ġattended": 8933,
      "Ġchaos": 8934,
      "Ġchains": 8935,
      "Ġrespective": 8936,
      "enses": 8937,
      "ensive": 8938,
      "Ġobedient": 8939,
      "Ġbugs": 8940,
      "Ġfears": 8941,
      "00033": 8942,
      "tereth": 8943,
      "Ġfutility": 8944,
      "ĠStar": 8945,
      "ĠStud": 8946,
      "ĠSteve": 8947,
      "ĠStreng": 8948,
      "ĠStreet": 8949,
      "ĠAbs": 8950,
      "ĠAbu": 8951,
      "Ġimports": 8952,
      "Ġsmart": 8953,
      "Ġpasses": 8954,
      "Ġpassages": 8955,
      "Ġpassengers": 8956,
      "Ġpassports": 8957,
      "Ġforgot": 8958,
      "Ġsuppliers": 8959,
      "Ġ65": 8960,
      "Ġ68": 8961,
      "Ġ666": 8962,
      "Ġincome": 8963,
      "Ġincomple": 8964,
      "Ġincorpor": 8965,
      "ĠQian": 8966,
      "return": 8967,
      "retched": 8968,
      "Ġfighters": 8969,
      "Ġinstitution": 8970,
      "Ġinstitutional": 8971,
      "Ġrefers": 8972,
      "Ġrefined": 8973,
      "Ġrefriger": 8974,
      "Ġchooses": 8975,
      "ĠVis": 8976,
      "ĠVers": 8977,
      "ĠVol": 8978,
      "ĠViet": 8979,
      "ĠVlad": 8980,
      "ĠValley": 8981,
      "Ġopenings": 8982,
      "Ġkey": 8983,
      "Ġdestroys": 8984,
      "103": 8985,
      "104": 8986,
      "ĠYemen": 8987,
      "ĠYquem": 8988,
      "Ġoffend": 8989,
      "Ġoffense": 8990,
      "Ġeverlasting": 8991,
      "Ġregime": 8992,
      "Ġregistered": 8993,
      "Ġexamine": 8994,
      "Ġexamined": 8995,
      "Ġexamining": 8996,
      "ĠInternal": 8997,
      "ĠInfinity": 8998,
      "ĠInstitutional": 8999,
      "Ġconflic": 9000,
      "Ġconfession": 9001,
      "Ġconfisc": 9002,
      "Ġconfidence": 9003,
      "Ġconfessions": 9004,
      "Ġconfessed": 9005,
      "Ġretired": 9006,
      "Ġfactors": 9007,
      "Ġ73": 9008,
      "into": 9009,
      "inton": 9010,
      "Ġcarried": 9011,
      "angle": 9012,
      "cedes": 9013,
      "Ġscope": 9014,
      "Ġscaff": 9015,
      "Ġscribe": 9016,
      "Ġsculpt": 9017,
      "Ġtesting": 9018,
      "issal": 9019,
      "issive": 9020,
      "issance": 9021,
      "Ġsynag": 9022,
      "Ġforemost": 9023,
      "Ġthoughtless": 9024,
      "Ġ2002": 9025,
      "Ġremainder": 9026,
      "Shell": 9027,
      "ommun": 9028,
      "Ġgenius": 9029,
      "114": 9030,
      "119": 9031,
      "Ġsubsequ": 9032,
      "formation": 9033,
      "Ġharam": 9034,
      "Ġrestart": 9035,
      "Ġrestitution": 9036,
      "Ġrestored": 9037,
      "Ġmeetings": 9038,
      "Ġacceptable": 9039,
      "Ġtraged": 9040,
      "Ġtrained": 9041,
      "Ġtravelling": 9042,
      "Ġbelow": 9043,
      "ĠPrime": 9044,
      "Ġcontinually": 9045,
      "Ġdiscreet": 9046,
      "Ġdiscouraged": 9047,
      "nerstone": 9048,
      "Ġminority": 9049,
      "Ġminimal": 9050,
      "ĠItalian": 9051,
      "entional": 9052,
      "Ġpresently": 9053,
      "Ġbestow": 9054,
      "Ġreasonable": 9055,
      "Ġreasonably": 9056,
      "Ġcommanded": 9057,
      "Ġsecondary": 9058,
      "Ġelsewhere": 9059,
      "Ġ800": 9060,
      "Ġgraves": 9061,
      "Ġgradu": 9062,
      "Ġsincere": 9063,
      "ĠThough": 9064,
      "ĠThursday": 9065,
      "Ġwitnessed": 9066,
      "Ġconcrete": 9067,
      "ubis": 9068,
      "Ġsites": 9069,
      "183": 9070,
      "185": 9071,
      "186": 9072,
      "187": 9073,
      "189": 9074,
      "ranean": 9075,
      "Ġagenda": 9076,
      "Ġseeming": 9077,
      "Ġproducer": 9078,
      "ricts": 9079,
      "riculum": 9080,
      "viet": 9081,
      "âĢĺâĢĻ": 9082,
      "Ġinterfered": 9083,
      "Ġintercession": 9084,
      "lectron": 9085,
      "ĠMyster": 9086,
      "ribly": 9087,
      "Ġlistened": 9088,
      "undae": 9089,
      "Ġnorth": 9090,
      "ĠArt": 9091,
      "ĠAratt": 9092,
      "Ġextingu": 9093,
      "Toast": 9094,
      "Ġhousehold": 9095,
      "ificant": 9096,
      "ifications": 9097,
      "ĠCreated": 9098,
      "Ġprotecting": 9099,
      "158": 9100,
      "159": 9101,
      "Ġoppress": 9102,
      "Ġpays": 9103,
      "Ġsupports": 9104,
      "Ġgenerally": 9105,
      "kinds": 9106,
      "Ġpractically": 9107,
      "Ġmeanwhile": 9108,
      "Ġseekers": 9109,
      "Ġ2019": 9110,
      "Ġimmoral": 9111,
      "Ġimmaculate": 9112,
      "Ġappearance": 9113,
      "Ġappearances": 9114,
      "!âĢĿ)": 9115,
      ".''": 9116,
      "Ġpaths": 9117,
      "Ġlands": 9118,
      "Ġforming": 9119,
      "Ġformulate": 9120,
      "Ġrecognise": 9121,
      "Ġrecognizable": 9122,
      "Ġentering": 9123,
      "193": 9124,
      "195": 9125,
      "198": 9126,
      "Somebody": 9127,
      "Somewhere": 9128,
      "lair": 9129,
      "Ġescort": 9130,
      "Ġmatch": 9131,
      "Ġmatches": 9132,
      "Ġmatured": 9133,
      "Ġyoungest": 9134,
      "ĠMankind": 9135,
      "Ġtranscend": 9136,
      "Ġtransaction": 9137,
      "ĠUnfortunately": 9138,
      "Ġbuildings": 9139,
      "Ġsingers": 9140,
      "Ġcondu": 9141,
      "Ġpleases": 9142,
      "Ġpleasing": 9143,
      "Ġlesson": 9144,
      "Ġhalfway": 9145,
      "Ġrejection": 9146,
      "ĠAlb": 9147,
      "ĠAlim": 9148,
      "ĠAlic": 9149,
      "ĠAlban": 9150,
      "ĠAlmighty": 9151,
      "ĠAlzhe": 9152,
      "ĠAlbert": 9153,
      "Ġthankless": 9154,
      "Ġproduction": 9155,
      "----": 9156,
      "iba": 9157,
      "ibly": 9158,
      "ibility": 9159,
      "Ġsurprising": 9160,
      "Ġdemocratic": 9161,
      "ĠMessiah": 9162,
      "Ġcomplex": 9163,
      "Ġreminding": 9164,
      "beyond": 9165,
      "128": 9166,
      "129": 9167,
      "Ġauthorized": 9168,
      "Ġmarry": 9169,
      "Ġmarks": 9170,
      "Ġmarvel": 9171,
      "Ġmarches": 9172,
      "Ġdeterior": 9173,
      "ĠJohnny": 9174,
      "ĠPresent": 9175,
      "Ġadvent": 9176,
      "Ġadvanced": 9177,
      "Ġadvancing": 9178,
      "Ġarms": 9179,
      "Ġarmed": 9180,
      "Â».": 9181,
      "Ġtremb": 9182,
      "Ġtreatment": 9183,
      "Ġwondered": 9184,
      "Ġdivided": 9185,
      "Ġdivisions": 9186,
      "Ġdivorce": 9187,
      "ĠSociety": 9188,
      "ĠSoviet": 9189,
      "Ġassured": 9190,
      "Ġassuredly": 9191,
      "Ġassume": 9192,
      "Ġstands": 9193,
      "Ġstandards": 9194,
      "Ġperfection": 9195,
      "phins": 9196,
      "ĠZin": 9197,
      "ĠZion": 9198,
      "Ġestate": 9199,
      "Ġestimate": 9200,
      "Ġflower": 9201,
      "Ġflock": 9202,
      "Ġflamed": 9203,
      "Ġfloor": 9204,
      "Ġmoves": 9205,
      "ĠMuse": 9206,
      "Ġpointed": 9207,
      "isms": 9208,
      "Ġbehold": 9209,
      "Ġbehoves": 9210,
      "cking": 9211,
      "yss": 9212,
      "Ġawareness": 9213,
      "Ġwinner": 9214,
      "Ġobeying": 9215,
      "Ġburst": 9216,
      "Ġdreaming": 9217,
      "Ġseparately": 9218,
      "ĠMusa": 9219,
      "ĠMusic": 9220,
      "cont": 9221,
      "ĠArabic": 9222,
      "emption": 9223,
      "Ġencouraged": 9224,
      "Ġencountered": 9225,
      "Ġmissiles": 9226,
      "Ġcapital": 9227,
      "Ġcapitals": 9228,
      "Ġcapability": 9229,
      "Ġcapacity": 9230,
      "Ġcapabilities": 9231,
      "Ġ142": 9232,
      "Ġ144": 9233,
      "Ġ1400": 9234,
      "Ġ152": 9235,
      "Ġ153": 9236,
      "Ġ1500": 9237,
      "Ġdistur": 9238,
      "Ġdistant": 9239,
      "ĠSean": 9240,
      "ĠSept": 9241,
      "Ġdepress": 9242,
      "Ġgoverning": 9243,
      "Ġpolitically": 9244,
      "Ġdeveloped": 9245,
      "Ġdevelopments": 9246,
      "About": 9247,
      "Ġidiots": 9248,
      "Ġbasically": 9249,
      "Ġmodes": 9250,
      "Ġmodified": 9251,
      "Ġmodels": 9252,
      "Ġmodule": 9253,
      "Ġparcel": 9254,
      "Ġparallel": 9255,
      "Ġpurposes": 9256,
      "ĠHowever": 9257,
      "Ġuniversity": 9258,
      "Ġapproved": 9259,
      "232": 9260,
      "Still": 9261,
      "Steve": 9262,
      "Strange": 9263,
      "Ġallowing": 9264,
      "Ġjoining": 9265,
      "Ġsecretly": 9266,
      "Ġsecretaries": 9267,
[...]
