{
  "version": "1.0",
  "truncation": null,
  "padding": null,
  "added_tokens": [
    {
      "id": 0,
      "content": "<pad>",
      "single_word": false,
      "lstrip": false,
      "rstrip": false,
      "normalized": false,
      "special": true
    },
    {
      "id": 1,
      "content": "<s>",
      "single_word": false,
      "lstrip": false,
      "rstrip": false,
      "normalized": false,
      "special": true
    },
    {
      "id": 2,
      "content": "</s>",
      "single_word": false,
      "lstrip": false,
      "rstrip": false,
      "normalized": false,
      "special": true
    },
    {
      "id": 3,
      "content": "<unk>",
      "single_word": false,
      "lstrip": false,
      "rstrip": false,
      "normalized": false,
      "special": true
    },
    {
      "id": 4,
      "content": "<mask>",
      "single_word": false,
      "lstrip": false,
      "rstrip": false,
      "normalized": false,
      "special": true
    }
  ],
  "normalizer": {
    "type": "NFKC"
  },
  "pre_tokenizer": {
    "type": "ByteLevel",
    "add_prefix_space": false,
    "trim_offsets": true,
    "use_regex": true
  },
  "post_processor": null,
  "decoder": null,
  "model": {
    "type": "BPE",
    "dropout": null,
    "unk_token": null,
    "continuing_subword_prefix": null,
    "end_of_word_suffix": null,
    "fuse_unk": false,
    "byte_fallback": false,
    "ignore_merges": false,
    "vocab": {
      "<pad>": 0,
      "<s>": 1,
      "</s>": 2,
      "<unk>": 3,
      "<mask>": 4,
      "!": 5,
      "\"": 6,
      "#": 7,
      "$": 8,
      "%": 9,
      "&": 10,
      "'": 11,
      "(": 12,
      ")": 13,
      "*": 14,
      "+": 15,
      ",": 16,
      "-": 17,
      ".": 18,
      "/": 19,
      "0": 20,
      "1": 21,
      "2": 22,
      "3": 23,
      "4": 24,
      "5": 25,
      "6": 26,
      "7": 27,
      "8": 28,
      "9": 29,
      ":": 30,
      ";": 31,
      "<": 32,
      "=": 33,
      ">": 34,
      "?": 35,
      "@": 36,
      "A": 37,
      "B": 38,
      "C": 39,
      "D": 40,
      "E": 41,
      "F": 42,
      "G": 43,
      "H": 44,
      "I": 45,
      "J": 46,
      "K": 47,
      "L": 48,
      "M": 49,
      "N": 50,
      "O": 51,
      "P": 52,
      "Q": 53,
      "R": 54,
      "S": 55,
      "T": 56,
      "U": 57,
      "V": 58,
      "W": 59,
      "X": 60,
      "Y": 61,
      "Z": 62,
      "[": 63,
      "\\": 64,
      "]": 65,
      "^": 66,
      "_": 67,
      "`": 68,
      "a": 69,
      "b": 70,
      "c": 71,
      "d": 72,
      "e": 73,
      "f": 74,
      "g": 75,
      "h": 76,
      "i": 77,
      "j": 78,
      "k": 79,
      "l": 80,
      "m": 81,
      "n": 82,
      "o": 83,
      "p": 84,
      "q": 85,
      "r": 86,
      "s": 87,
      "t": 88,
      "u": 89,
      "v": 90,
      "w": 91,
      "x": 92,
      "y": 93,
      "z": 94,
      "{": 95,
      "|": 96,
      "}": 97,
      "~": 98,
      "¡": 99,
      "¢": 100,
      "£": 101,
      "¤": 102,
      "¥": 103,
      "¦": 104,
      "§": 105,
      "¨": 106,
      "©": 107,
      "ª": 108,
      "«": 109,
      "¬": 110,
      "®": 111,
      "¯": 112,
      "°": 113,
      "±": 114,
      "²": 115,
      "³": 116,
      "´": 117,
      "µ": 118,
      "¶": 119,
      "·": 120,
      "¸": 121,
      "¹": 122,
      "º": 123,
      "»": 124,
      "¼": 125,
      "½": 126,
      "¾": 127,
      "¿": 128,
      "À": 129,
      "Á": 130,
      "Â": 131,
      "Ã": 132,
      "Ä": 133,
      "Å": 134,
      "Æ": 135,
      "Ç": 136,
      "È": 137,
      "É": 138,
      "Ê": 139,
      "Ë": 140,
      "Ì": 141,
      "Í": 142,
      "Î": 143,
      "Ï": 144,
      "Ð": 145,
      "Ñ": 146,
      "Ò": 147,
      "Ó": 148,
      "Ô": 149,
      "Õ": 150,
      "Ö": 151,
      "×": 152,
      "Ø": 153,
      "Ù": 154,
      "Ú": 155,
      "Û": 156,
      "Ü": 157,
      "Ý": 158,
      "Þ": 159,
      "ß": 160,
      "à": 161,
      "á": 162,
      "â": 163,
      "ã": 164,
      "ä": 165,
      "å": 166,
      "æ": 167,
      "ç": 168,
      "è": 169,
      "é": 170,
      "ê": 171,
      "ë": 172,
      "ì": 173,
      "í": 174,
      "î": 175,
      "ï": 176,
      "ð": 177,
      "ñ": 178,
      "ò": 179,
      "ó": 180,
      "ô": 181,
      "õ": 182,
      "ö": 183,
      "÷": 184,
      "ø": 185,
      "ù": 186,
      "ú": 187,
      "û": 188,
      "ü": 189,
      "ý": 190,
      "þ": 191,
      "ÿ": 192,
      "Ā": 193,
      "ā": 194,
      "Ă": 195,
      "ă": 196,
      "Ą": 197,
      "ą": 198,
      "Ć": 199,
      "ć": 200,
      "Ĉ": 201,
      "ĉ": 202,
      "Ċ": 203,
      "ċ": 204,
      "Č": 205,
      "č": 206,
      "Ď": 207,
      "ď": 208,
      "Đ": 209,
      "đ": 210,
      "Ē": 211,
      "ē": 212,
      "Ĕ": 213,
      "ĕ": 214,
      "Ė": 215,
      "ė": 216,
      "Ę": 217,
      "ę": 218,
      "Ě": 219,
      "ě": 220,
      "Ĝ": 221,
      "ĝ": 222,
      "Ğ": 223,
      "ğ": 224,
      "Ġ": 225,
      "ġ": 226,
      "Ģ": 227,
      "ģ": 228,
      "Ĥ": 229,
      "ĥ": 230,
      "Ħ": 231,
      "ħ": 232,
      "Ĩ": 233,
      "ĩ": 234,
      "Ī": 235,
      "ī": 236,
      "Ĭ": 237,
      "ĭ": 238,
      "Į": 239,
      "į": 240,
      "İ": 241,
      "ı": 242,
      "Ĳ": 243,
      "ĳ": 244,
      "Ĵ": 245,
      "ĵ": 246,
      "Ķ": 247,
      "ķ": 248,
      "ĸ": 249,
      "Ĺ": 250,
      "ĺ": 251,
      "Ļ": 252,
      "ļ": 253,
      "Ľ": 254,
      "ľ": 255,
      "Ŀ": 256,
      "ŀ": 257,
      "Ł": 258,
      "ł": 259,
      "Ń": 260,
      "Ġt": 261,
      "he": 262,
      "Ġa": 263,
      "in": 264,
      "re": 265,
      "Ġw": 266,
      "Ġthe": 267,
      "Ġo": 268,
      "Ġs": 269,
      "er": 270,
      "at": 271,
      "ou": 272,
      "on": 273,
      "an": 274,
      "is": 275,
      "Ġc": 276,
      "it": 277,
      "en": 278,
      "Ġb": 279,
      "es": 280,
      "or": 281,
      "Ġm": 282,
      "Ġth": 283,
      "Ġf": 284,
      "Ġp": 285,
      "Ġto": 286,
      "ll": 287,
      "Ġin": 288,
      "Ġof": 289,
      "Ġan": 290,
      "Ġh": 291,
      "Ġd": 292,
      "ed": 293,
      "ar": 294,
      "âĢ": 295,
      "ing": 296,
      "Ġn": 297,
      "al": 298,
      "Ġy": 299,
      "ion": 300,
      "le": 301,
      "om": 302,
      "ve": 303,
      "Ġand": 304,
      "ic": 305,
      "Ġbe": 306,
      "st": 307,
      "Ġyou": 308,
      "Ġe": 309,
      "Ġre": 310,
      "Ġl": 311,
      "Ġis": 312,
      "as": 313,
      "ot": 314,
      "Ġthat": 315,
      "ent": 316,
      "ow": 317,
      "se": 318,
      "Ġwe": 319,
      "ut": 320,
      "ur": 321,
      "ly": 322,
      "Ġg": 323,
      "ct": 324,
      "ver": 325,
      "ld": 326,
      "im": 327,
      "ay": 328,
      "ill": 329,
      "Ġha": 330,
      "ĠI": 331,
      "Ġon": 332,
      "Ġfor": 333,
      "Ġit": 334,
      "Ġwh": 335,
      "id": 336,
      "et": 337,
      "ro": 338,
      "Ġu": 339,
      "ce": 340,
      "Ġare": 341,
      "ation": 342,
      "Ġhe": 343,
      "The": 344,
      "op": 345,
      "Ġwill": 346,
      "Ġnot": 347,
      "Ġthis": 348,
      "ir": 349,
      "âĢĻ": 350,
      "ig": 351,
      "Ġst": 352,
      "if": 353,
      "Ġhave": 354,
      "am": 355,
      "ch": 356,
      "ith": 357,
      "âĢľ": 358,
      "Ġne": 359,
      "ra": 360,
      "her": 361,
      "Ġwith": 362,
      "all": 363,
      "Ġas": 364,
      "nd": 365,
      "ould": 366,
      "Ġal": 367,
      "ore": 368,
      "ant": 369,
      "Ġcan": 370,
      "Ġdo": 371,
      "ke": 372,
      "ter": 373,
      "ol": 374,
      "Ġcon": 375,
      "Ġse": 376,
      "ad": 377,
      "âĢĿ": 378,
      "od": 379,
      "Ġpro": 380,
      "us": 381,
      "ĠA": 382,
      "nt": 383,
      "em": 384,
      "Ġor": 385,
      "Ġthey": 386,
      "ul": 387,
      "ies": 388,
      "Ġcom": 389,
      "Ġex": 390,
      "ort": 391,
      "Ġwas": 392,
      "est": 393,
      "ate": 394,
      "Ġab": 395,
      "ist": 396,
      "ess": 397,
      "il": 398,
      "ive": 399,
      "ers": 400,
      "Ġsu": 401,
      "Ġk": 402,
      "pp": 403,
      "ĠS": 404,
      "out": 405,
      "Ġwor": 406,
      "Ġall": 407,
      "Ġde": 408,
      "ain": 409,
      "Ġfr": 410,
      "and": 411,
      "art": 412,
      "ĠC": 413,
      "Ġyour": 414,
      "ally": 415,
      "Ġat": 416,
      "We": 417,
      "very": 418,
      "ear": 419,
      "ust": 420,
      "ment": 421,
      "ome": 422,
      "ht": 423,
      "ect": 424,
      "Ġ1": 425,
      "ble": 426,
      "Ġsh": 427,
      "Ġgo": 428,
      "ge": 429,
      "ity": 430,
      "Th": 431,
      "Ġme": 432,
      "Ġle": 433,
      "os": 434,
      "ĠE": 435,
      "Ġch": 436,
      "Ġour": 437,
      "Ġso": 438,
      "ĠM": 439,
      "th": 440,
      "Ġkn": 441,
      "ci": 442,
      "Ġpe": 443,
      "ther": 444,
      "iv": 445,
      "so": 446,
      "Ġcou": 447,
      "Ġfrom": 448,
      "Ġabout": 449,
      "ople": 450,
      "Ġus": 451,
      "res": 452,
      "ia": 453,
      "ĠG": 454,
      "Ġwhat": 455,
      "el": 456,
      "end": 457,
      "Ġhas": 458,
      "Ġmore": 459,
      "Ġwhe": 460,
      "ight": 461,
      "Ġknow": 462,
      "Ġyear": 463,
      "qu": 464,
      "Ġpeople": 465,
      "Ġ2": 466,
      "ian": 467,
      "Ġbec": 468,
      "ions": 469,
      "Ġalso": 470,
      "Ġthem": 471,
      "Ġlo": 472,
      "au": 473,
      "Ġr": 474,
      ".âĢĿ": 475,
      "imp": 476,
      "Ġone": 477,
      "Ġbut": 478,
      "ast": 479,
      "ie": 480,
      "Ġtr": 481,
      "Ġv": 482,
      "Ġmy": 483,
      "Ġtheir": 484,
      "Ġwant": 485,
      "one": 486,
      "ac": 487,
      "ere": 488,
      "um": 489,
      "In": 490,
      "Ġman": 491,
      "Ġ(": 492,
      "ĠP": 493,
      "Ġwho": 494,
      "Ġthere": 495,
      "Ġother": 496,
      "Ġif": 497,
      "ĠU": 498,
      "But": 499,
      "You": 500,
      "ven": 501,
      "ure": 502,
      "..": 503,
      "Ġwould": 504,
      "Ġpl": 505,
      "ĠâĢ": 506,
      "ime": 507,
      "00": 508,
      "ame": 509,
      "Ġj": 510,
      "ĠB": 511,
      "ĠR": 512,
      "ost": 513,
      "Ġonly": 514,
      "Ġag": 515,
      "ong": 516,
      "ous": 517,
      "Ġli": 518,
      "Ġpr": 519,
      "Ġthese": 520,
      "It": 521,
      "un": 522,
      "Ġcount": 523,
      "Ġcomp": 524,
      "Ġcountr": 525,
      "Ġimp": 526,
      "Ġsp": 527,
      "Ġwere": 528,
      "Ġsa": 529,
      "oug": 530,
      "ause": 531,
      "ays": 532,
      "And": 533,
      "Ġpart": 534,
      "ake": 535,
      "Ġtime": 536,
      "Wh": 537,
      "ical": 538,
      "Ġthan": 539,
      "ak": 540,
      "ose": 541,
      "ich": 542,
      "ope": 543,
      "Ġlike": 544,
      "Ġby": 545,
      "ok": 546,
      "ĠâĢľ": 547,
      "pt": 548,
      "Ġneed": 549,
      "Ġyears": 550,
      "act": 551,
      "our": 552,
      "This": 553,
      "Ġany": 554,
      "Ġexp": 555,
      "Ġhow": 556,
      "Ġsome": 557,
      "Ġcont": 558,
      "Ġint": 559,
      "Ġwork": 560,
      "Ġen": 561,
      "og": 562,
      "reat": 563,
      "ink": 564,
      "cc": 565,
      "iz": 566,
      "ĠN": 567,
      "ber": 568,
      "Ġnew": 569,
      "ans": 570,
      "Ġwhen": 571,
      "ĠF": 572,
      "Ġbecause": 573,
      "ud": 574,
      "Ġevery": 575,
      "ine": 576,
      "ap": 577,
      "are": 578,
      "ide": 579,
      "ĠH": 580,
      "Ġres": 581,
      "ations": 582,
      "Ġsee": 583,
      "Ġte": 584,
      "ĠT": 585,
      "ard": 586,
      "Ġad": 587,
      "ind": 588,
      "ĠJ": 589,
      "ree": 590,
      "ue": 591,
      "ace": 592,
      "Ġno": 593,
      "Ġhis": 594,
      "Ġshould": 595,
      "uss": 596,
      "ult": 597,
      ".\"": 598,
      "Ġwhich": 599,
      "ag": 600,
      "Ġvery": 601,
      "Ġmany": 602,
      "con": 603,
      "Ġeven": 604,
      "'s": 605,
      "Ġhad": 606,
      "irst": 607,
      "Ġnow": 608,
      "ary": 609,
      "How": 610,
      "ough": 611,
      "ever": 612,
      "vel": 613,
      "ĠD": 614,
      "Ġun": 615,
      "Ġ\"": 616,
      "urope": 617,
      "Ġam": 618,
      "Ġbeen": 619,
      "Ġthink": 620,
      "tern": 621,
      "ff": 622,
      "ire": 623,
      "ep": 624,
      "Ġworld": 625,
      "ab": 626,
      "Ġcould": 627,
      "Ġits": 628,
      "ite": 629,
      "Ġtw": 630,
      "ĠâĢĵ": 631,
      "ice": 632,
      "hing": 633,
      "ew": 634,
      "ĠEurope": 635,
      "Ġsay": 636,
      "Ġchan": 637,
      "Ġjust": 638,
      "He": 639,
      "ence": 640,
      "Ġqu": 641,
      "Ġact": 642,
      "ĠL": 643,
      "Ġcl": 644,
      "They": 645,
      "ip": 646,
      "Ġdid": 647,
      "Ġfirst": 648,
      "Ġwhy": 649,
      "ĠW": 650,
      "Ġpol": 651,
      "cial": 652,
      "ild": 653,
      "sel": 654,
      "Ġhim": 655,
      "ĠCh": 656,
      "Ġar": 657,
      "ign": 658,
      "ife": 659,
      "Ġmost": 660,
      "orm": 661,
      "Ġtwo": 662,
      "iff": 663,
      "able": 664,
      "If": 665,
      "ish": 666,
      "Ġmay": 667,
      "Ġbel": 668,
      "nder": 669,
      "Ġbet": 670,
      "ack": 671,
      "ach": 672,
      "ition": 673,
      "Ġimport": 674,
      "oc": 675,
      "ri": 676,
      "fter": 677,
      "Ġco": 678,
      "Ġdiff": 679,
      "Ġhapp": 680,
      "Ġsaid": 681,
      "Ġper": 682,
      "Ġreg": 683,
      "mer": 684,
      "ĠRuss": 685,
      "ational": 686,
      "Ġdis": 687,
      "other": 688,
      "Ġstr": 689,
      "ren": 690,
      "ors": 691,
      "ings": 692,
      "Ġdon": 693,
      "ance": 694,
      "du": 695,
      "Ġsuch": 696,
      "Ġsame": 697,
      "Ġpos": 698,
      "fore": 699,
      "Ġunder": 700,
      "Ġpre": 701,
      "si": 702,
      "ious": 703,
      "day": 704,
      "Ġout": 705,
      "ady": 706,
      "ated": 707,
      "Ġcountries": 708,
      "ents": 709,
      "Ġthose": 710,
      "ord": 711,
      "ial": 712,
      "ways": 713,
      "ĠK": 714,
      "Ġ20": 715,
      "age": 716,
      "ound": 717,
      "pport": 718,
      "'t": 719,
      "There": 720,
      "ase": 721,
      "Ġinc": 722,
      "omet": 723,
      "Ġcountry": 724,
      "Ġlife": 725,
      "Ġimportant": 726,
      "...": 727,
      "ens": 728,
      "Ġ-": 729,
      "Ġtra": 730,
      "lp": 731,
      "Ġalways": 732,
      "Ġgr": 733,
      "Ġbelie": 734,
      "Ġrem": 735,
      "uch": 736,
      "wn": 737,
      "ark": 738,
      "Ġgood": 739,
      "However": 740,
      "Ġhelp": 741,
      "Ġdec": 742,
      "Ġsy": 743,
      "Ġcons": 744,
      "ful": 745,
      "Ġagain": 746,
      "Ġspe": 747,
      "Ġind": 748,
      "Ġright": 749,
      "ĠGod": 750,
      "Ġget": 751,
      "Ġher": 752,
      "Ġdoes": 753,
      "Ġ19": 754,
      "Ġapp": 755,
      "ress": 756,
      "Ġreal": 757,
      "Ġrel": 758,
      "Ġrep": 759,
      "ks": 760,
      "ject": 761,
      "ates": 762,
      "Ġmake": 763,
      "ces": 764,
      "ities": 765,
      "ub": 766,
      "Ġshe": 767,
      "stem": 768,
      "Ġ3": 769,
      "Ġnever": 770,
      "Ġlong": 771,
      "form": 772,
      "Ġmust": 773,
      "ob": 774,
      "ĠIs": 775,
      "ert": 776,
      "Ġinv": 777,
      "Ġuse": 778,
      "Ġlook": 779,
      "Ġown": 780,
      "lic": 781,
      "Ġop": 782,
      "Ġsomet": 783,
      "Ġmuch": 784,
      "Ġup": 785,
      "ry": 786,
      "Ġser": 787,
      "ory": 788,
      "As": 789,
      "ĠO": 790,
      "Ġfact": 791,
      "ved": 792,
      "ments": 793,
      "erm": 794,
      "any": 795,
      "ily": 796,
      "rit": 797,
      "So": 798,
      "Ġacc": 799,
      "Ġsystem": 800,
      "Ġcomm": 801,
      "ru": 802,
      "gy": 803,
      "Ġreally": 804,
      "ater": 805,
      "Ġafter": 806,
      "urn": 807,
      "Ġday": 808,
      "hen": 809,
      "Ġtoday": 810,
      "alk": 811,
      "Ġhere": 812,
      "Ġrec": 813,
      "amp": 814,
      "What": 815,
      "Ġwhere": 816,
      "Ġoff": 817,
      "Ġbu": 818,
      "Ġfin": 819,
      "Ġstill": 820,
      "we": 821,
      "vern": 822,
      "Ġpolit": 823,
      "Ġdiffere": 824,
      "Ġdes": 825,
      "self": 826,
      "Ġask": 827,
      ").": 828,
      "ass": 829,
      "thing": 830,
      "get": 831,
      "kra": 832,
      "ves": 833,
      "uth": 834,
      "Ġway": 835,
      "Ġchild": 836,
      "sible": 837,
      "blem": 838,
      "conom": 839,
      "cess": 840,
      "meric": 841,
      "ually": 842,
      "ons": 843,
      "xt": 844,
      "Ġfind": 845,
      "ident": 846,
      "Ġthen": 847,
      "Ġproblem": 848,
      "ready": 849,
      "ince": 850,
      "Ġover": 851,
      "ĠSt": 852,
      "Ġunderst": 853,
      "ited": 854,
      "Ġstart": 855,
      "uture": 856,
      "Ġalready": 857,
      "Ġinto": 858,
      "Ġbelieve": 859,
      "Ġfe": 860,
      "ied": 861,
      "Ġsomething": 862,
      "gr": 863,
      "Ġatt": 864,
      "vers": 865,
      "velop": 866,
      "On": 867,
      "ise": 868,
      "ĠAmeric": 869,
      "For": 870,
      "red": 871,
      "Ġfuture": 872,
      "oin": 873,
      "Ġtoo": 874,
      "Ġsupport": 875,
      "ution": 876,
      "ang": 877,
      "Ġfu": 878,
      "ĠUkra": 879,
      "Ġtake": 880,
      "ove": 881,
      "Ġthree": 882,
      "Ġfo": 883,
      "Ġhappen": 884,
      "Ġintern": 885,
      "Ġtalk": 886,
      "arket": 887,
      "Ġmon": 888,
      "ific": 889,
      "Ġcontin": 890,
      "ade": 891,
      "ists": 892,
      "pe": 893,
      "Ġeconom": 894,
      "rael": 895,
      "Ġgovern": 896,
      "Ġ5": 897,
      "ians": 898,
      "Ġunderstand": 899,
      "Ġbr": 900,
      "itt": 901,
      "Ġpres": 902,
      "Ġdevelop": 903,
      "ives": 904,
      "ĠUn": 905,
      "That": 906,
      "ĠChin": 907,
      "ĠRussia": 908,
      "als": 909,
      "ĠEuropean": 910,
      "ict": 911,
      "Ġpers": 912,
      "Ġ4": 913,
      "imes": 914,
      "Ġbl": 915,
      "les": 916,
      "gan": 917,
      "Ġwom": 918,
      "Ġlast": 919,
      "Ġmarket": 920,
      "Ġquest": 921,
      "ction": 922,
      "olog": 923,
      "ten": 924,
      "Ġfam": 925,
      "Ġreas": 926,
      "Ġwell": 927,
      "ember": 928,
      "Ġprodu": 929,
      "Ġcome": 930,
      "Ġ201": 931,
      "Ġdem": 932,
      "Ġresp": 933,
      "Ġev": 934,
      "ĠIsrael": 935,
      "Ġgreat": 936,
      "Ġthings": 937,
      "lear": 938,
      "Ġcour": 939,
      "ave": 940,
      "Ġbefore": 941,
      "Ġph": 942,
      "Ġob": 943,
      "Ġadd": 944,
      "cept": 945,
      "Ġbecome": 946,
      "Ġdifferent": 947,
      "ook": 948,
      "Ġplan": 949,
      "ond": 950,
      "Ġ200": 951,
      "ism": 952,
      "Ġthr": 953,
      "ile": 954,
      "Ġsm": 955,
      "ning": 956,
      "ative": 957,
      "ual": 958,
      "ues": 959,
      "Ġanother": 960,
      "iness": 961,
      "Why": 962,
      "Ġro": 963,
      "ced": 964,
      "av": 965,
      "oney": 966,
      "Ġbetter": 967,
      "Ġeff": 968,
      "Ġra": 969,
      "cond": 970,
      "Ġlove": 971,
      "oy": 972,
      "ention": 973,
      "Ġcall": 974,
      "erest": 975,
      "ween": 976,
      "ends": 977,
      "Ġnum": 978,
      "Ġtry": 979,
      "ered": 980,
      "li": 981,
      "Ġinst": 982,
      "Ġpolitical": 983,
      "Ġfri": 984,
      "Ġinvest": 985,
      "Ġexamp": 986,
      "Ġleast": 987,
      "Ġmade": 988,
      "Ġable": 989,
      "Ġsit": 990,
      "Ġgoing": 991,
      "Ġbetween": 992,
      "ail": 993,
      "lud": 994,
      "Ġeach": 995,
      "Ġperson": 996,
      "Ġthrough": 997,
      "be": 998,
      "Ġconf": 999,
      "Ġshow": 1000,
      "cy": 1001,
      "Ġbus": 1002,
      "ath": 1003,
      "ility": 1004,
      "Ġmoney": 1005,
      "Ġend": 1006,
      "te": 1007,
      "Ġgen": 1008,
      "Ġfeel": 1009,
      "Ġcourse": 1010,
      "Ġproject": 1011,
      "Ġmill": 1012,
      "ng": 1013,
      "Ġplay": 1014,
      "ov": 1015,
      "Ġent": 1016,
      "iss": 1017,
      "ĠâĢĶ": 1018,
      "Ġchange": 1019,
      "Ġcreat": 1020,
      "Ġinterest": 1021,
      "Ġwar": 1022,
      "uman": 1023,
      "oint": 1024,
      "Ġtell": 1025,
      "aw": 1026,
      "Ġprot": 1027,
      "Ġchildren": 1028,
      "Ġchang": 1029,
      "Do": 1030,
      "Ġback": 1031,
      "chn": 1032,
      "Ġret": 1033,
      "ertain": 1034,
      "Ġgu": 1035,
      "ands": 1036,
      "Ġsign": 1037,
      "hip": 1038,
      "Ġlead": 1039,
      "ought": 1040,
      "When": 1041,
      "ec": 1042,
      "Ġtrans": 1043,
      "Ġbest": 1044,
      "Ġlevel": 1045,
      "Ġpossible": 1046,
      "Ġmonth": 1047,
      "ular": 1048,
      "uring": 1049,
      "Ġgovernment": 1050,
      "oth": 1051,
      "Ġplace": 1052,
      "Ġago": 1053,
      "hed": 1054,
      "Ġac": 1055,
      "igh": 1056,
      "Ġinternational": 1057,
      "Ġexample": 1058,
      "ody": 1059,
      "Ġsec": 1060,
      "Ġcar": 1061,
      "ract": 1062,
      "gin": 1063,
      "Ġpartic": 1064,
      "Ġgive": 1065,
      "Ġim": 1066,
      "Ġ[": 1067,
      "Ġused": 1068,
      "Ġdisc": 1069,
      "ĠAr": 1070,
      "Ġcomple": 1071,
      "ately": 1072,
      "ccess": 1073,
      "Ġvis": 1074,
      "Ġele": 1075,
      "Ġthing": 1076,
      "Ġfew": 1077,
      "Ġbusiness": 1078,
      "ublic": 1079,
      "not": 1080,
      "Ġsur": 1081,
      "Ġnext": 1082,
      "uc": 1083,
      "Ġsince": 1084,
      "ount": 1085,
      "Ġwithout": 1086,
      "Ġopen": 1087,
      "ric": 1088,
      "Ġmin": 1089,
      "Ġtrad": 1090,
      "gram": 1091,
      "Ġke": 1092,
      "Ġconsid": 1093,
      "Ġword": 1094,
      "eration": 1095,
      "Ġless": 1096,
      "Ġnumber": 1097,
      "Ġlot": 1098,
      "Ġide": 1099,
      "ĠYou": 1100,
      "Ġcur": 1101,
      "Ġexist": 1102,
      "Ġtechn": 1103,
      "Ġmod": 1104,
      "Ġsimp": 1105,
      "Ġem": 1106,
      "ower": 1107,
      "Ġbig": 1108,
      "Ġ10": 1109,
      "ather": 1110,
      "ĠIn": 1111,
      "ĠUkraine": 1112,
      "Ġlet": 1113,
      "Ġstud": 1114,
      "Ġfore": 1115,
      "Ġfour": 1116,
      "Ġmight": 1117,
      "Ġhuman": 1118,
      "Ġfamily": 1119,
      "ris": 1120,
      "Ġsitu": 1121,
      "Ġwee": 1122,
      "arch": 1123,
      "Ġprov": 1124,
      "ern": 1125,
      "Ġcertain": 1126,
      "000": 1127,
      "Now": 1128,
      "ergy": 1129,
      "Ġseem": 1130,
      "Ġresult": 1131,
      "Ġbegin": 1132,
      "Ġsuccess": 1133,
      "here": 1134,
      "Ġsmall": 1135,
      "alth": 1136,
      "ize": 1137,
      "llow": 1138,
      "Ġeverything": 1139,
      "ices": 1140,
      "ics": 1141,
      "ĠThe": 1142,
      "Ġinclud": 1143,
      "ank": 1144,
      "Ġremain": 1145,
      "akes": 1146,
      "Ġreturn": 1147,
      "ese": 1148,
      "Ġstate": 1149,
      "unity": 1150,
      "oup": 1151,
      "Ġrequ": 1152,
      "Ġcannot": 1153,
      "Ġwr": 1154,
      "Ġref": 1155,
      "ood": 1156,
      "cially": 1157,
      "Ġlive": 1158,
      "Ġexper": 1159,
      "Ġprotect": 1160,
      "ral": 1161,
      "Ġgl": 1162,
      "Ġsecond": 1163,
      "Ġquestion": 1164,
      "Ġprogram": 1165,
      "ural": 1166,
      "ĠUS": 1167,
      "Ġorgan": 1168,
      "old": 1169,
      "Ġmeans": 1170,
      "Ġpartn": 1171,
      "ys": 1172,
      "Ġsol": 1173,
      "omm": 1174,
      "Ġform": 1175,
      "Ġcre": 1176,
      "Ġdef": 1177,
      "Ġfinan": 1178,
      "Ġwomen": 1179,
      "ĠChina": 1180,
      "sw": 1181,
      "Ġcent": 1182,
      "Ġboth": 1183,
      "Ġaw": 1184,
      "pl": 1185,
      "Ġclear": 1186,
      "Ġlaw": 1187,
      "Ġagainst": 1188,
      "Ġeconomic": 1189,
      "Ġlar": 1190,
      "ety": 1191,
      "Ġsocial": 1192,
      "Ġconc": 1193,
      "ital": 1194,
      "Ġdays": 1195,
      "Ġter": 1196,
      "atic": 1197,
      "Ġleg": 1198,
      "ick": 1199,
      "ures": 1200,
      "most": 1201,
      "Ġfive": 1202,
      "Ġinform": 1203,
      "Ġexpl": 1204,
      "ably": 1205,
      "ittle": 1206,
      "Al": 1207,
      "ĠV": 1208,
      "Ġmed": 1209,
      "âĢĶ": 1210,
      "ts": 1211,
      "Ġduring": 1212,
      "Ġstrate": 1213,
      "Ġ9": 1214,
      "Ġfull": 1215,
      "Ġass": 1216,
      "Ġmain": 1217,
      "Ġfriends": 1218,
      "ft": 1219,
      "Ġtruth": 1220,
      "Ġwanted": 1221,
      "Ġbas": 1222,
      "ai": 1223,
      "ĠRussian": 1224,
      "land": 1225,
      "Ġlist": 1226,
      "Ġenergy": 1227,
      "az": 1228,
      "the": 1229,
      "Ġes": 1230,
      "selves": 1231,
      "Ġoften": 1232,
      "Ġcho": 1233,
      "own": 1234,
      "urity": 1235,
      "Ġsituation": 1236,
      "ĠGerm": 1237,
      "Ġiss": 1238,
      "ib": 1239,
      "Ġcontinue": 1240,
      "At": 1241,
      "Ġserv": 1242,
      "ute": 1243,
      "Ġmeet": 1244,
      "ived": 1245,
      "aking": 1246,
      "pecially": 1247,
      "ran": 1248,
      "Ġlittle": 1249,
      "Ġ6": 1250,
      "Ġdone": 1251,
      "Ġadv": 1252,
      "She": 1253,
      "ating": 1254,
      "Ġfound": 1255,
      "Ġhist": 1256,
      "ĠStates": 1257,
      "ĠâĢĺ": 1258,
      "Ġold": 1259,
      "Ġexpect": 1260,
      "Ġactually": 1261,
      "Ġansw": 1262,
      "ared": 1263,
      "ized": 1264,
      "Ġord": 1265,
      "Ġgroup": 1266,
      "Ġreason": 1267,
      "Ġfollow": 1268,
      "Ġmillion": 1269,
      "Ġproduct": 1270,
      "Ġrest": 1271,
      "Ġcoll": 1272,
      "ĠUnited": 1273,
      "vious": 1274,
      "Ġdecis": 1275,
      "Ġpolic": 1276,
      "less": 1277,
      "Ġmean": 1278,
      "Ġneeds": 1279,
      "Ġfar": 1280,
      "Ġext": 1281,
      "Ġhope": 1282,
      "ty": 1283,
      "Ġbeing": 1284,
      "Ġkill": 1285,
      "All": 1286,
      "iew": 1287,
      "Ġproblems": 1288,
      "rent": 1289,
      "Ġcase": 1290,
      "pect": 1291,
      "Ġ7": 1292,
      "itions": 1293,
      "aps": 1294,
      "ness": 1295,
      "zer": 1296,
      "Ġeffect": 1297,
      "Ġpower": 1298,
      "Ġprop": 1299,
      "Ġrelations": 1300,
      "ĠY": 1301,
      "ars": 1302,
      "Ġdoing": 1303,
      "ĠGo": 1304,
      "ird": 1305,
      "cal": 1306,
      "ph": 1307,
      "ants": 1308,
      "Ġdire": 1309,
      "Ġallow": 1310,
      "Ġstrong": 1311,
      "icult": 1312,
      "Ġcontro": 1313,
      "ork": 1314,
      "Ġrece": 1315,
      "Ġothers": 1316,
      "Ġprocess": 1317,
      "Ġbuild": 1318,
      "Ġtimes": 1319,
      "anies": 1320,
      "ctions": 1321,
      "ĠEU": 1322,
      "Ġpast": 1323,
      "ement": 1324,
      "ilit": 1325,
      "Ġsure": 1326,
      "Ġwants": 1327,
      "20": 1328,
      "An": 1329,
      "Ġread": 1330,
      "Ġcomplete": 1331,
      "Ġfinancial": 1332,
      "Ġpay": 1333,
      "Ġname": 1334,
      "Ġworking": 1335,
      "ĠIt": 1336,
      "Ġenough": 1337,
      "Ġcor": 1338,
      "Ġins": 1339,
      "Ġpoint": 1340,
      "These": 1341,
      "ically": 1342,
      "arth": 1343,
      "Ġsub": 1344,
      "iving": 1345,
      "arn": 1346,
      "Ġgrow": 1347,
      "Ġlonger": 1348,
      "Ġuni": 1349,
      "Ġel": 1350,
      "Ġtrue": 1351,
      "iven": 1352,
      "Ġhu": 1353,
      "Ġhome": 1354,
      "Ġdifficult": 1355,
      "ĠAf": 1356,
      "ided": 1357,
      "Ġinformation": 1358,
      "Ġmet": 1359,
      "Ġcompany": 1360,
      "Ġeas": 1361,
      "ages": 1362,
      "orth": 1363,
      "Is": 1364,
      "reed": 1365,
      "Ġcompanies": 1366,
      "âĢĿ.": 1367,
      "Ġrespon": 1368,
      "Ġmonths": 1369,
      "Ġmat": 1370,
      "ient": 1371,
      "Ġsaf": 1372,
      "ience": 1373,
      "Ġcurrent": 1374,
      "ene": 1375,
      "ards": 1376,
      "chie": 1377,
      "Ġalmost": 1378,
      "Ġinter": 1379,
      "obal": 1380,
      "ĠAmerican": 1381,
      "its": 1382,
      "Ġfree": 1383,
      "Ġ...": 1384,
      "bably": 1385,
      "Ġart": 1386,
      "Ġ8": 1387,
      "Ġachie": 1388,
      "haps": 1389,
      "Ġunt": 1390,
      "gest": 1391,
      "Ġyoung": 1392,
      "Ġcult": 1393,
      "Ġespecially": 1394,
      "Ġinf": 1395,
      "Ġthous": 1396,
      "Ġwhole": 1397,
      "Ġbook": 1398,
      "Ġever": 1399,
      "ization": 1400,
      "Ġdep": 1401,
      "ĠTur": 1402,
      "Ġwords": 1403,
      "inian": 1404,
      "ĠHe": 1405,
      "ional": 1406,
      "Ġtechnolog": 1407,
      "Ġhealth": 1408,
      "Ġeveryone": 1409,
      "Ġhigh": 1410,
      "Ġdest": 1411,
      "Ġnat": 1412,
      "orts": 1413,
      "men": 1414,
      "ax": 1415,
      "aug": 1416,
      "Ġav": 1417,
      "Ġappro": 1418,
      "aj": 1419,
      "Ġcompet": 1420,
      "ix": 1421,
      "Ġnational": 1422,
      "Ġconst": 1423,
      "Ġcreate": 1424,
      "Ġnecess": 1425,
      "Ġopport": 1426,
      "Ġnothing": 1427,
      "Ġsoci": 1428,
      "Ġdet": 1429,
      "Ġweek": 1430,
      "Ġindust": 1431,
      "Ġbuy": 1432,
      "Ġlater": 1433,
      "ee": 1434,
      "No": 1435,
      "Ġcreated": 1436,
      "rib": 1437,
      "ĠWe": 1438,
      "Ġgener": 1439,
      "Some": 1440,
      "Ġcare": 1441,
      "ogle": 1442,
      "Ġrev": 1443,
      "Ġsecurity": 1444,
      "Ġdiscuss": 1445,
      "led": 1446,
      "ĠAs": 1447,
      "Ġaddition": 1448,
      "hes": 1449,
      "oday": 1450,
      "rist": 1451,
      "ames": 1452,
      "Ġdemoc": 1453,
      "bers": 1454,
      "ote": 1455,
      "itive": 1456,
      "Ġstop": 1457,
      "Ġcap": 1458,
      "Ġstand": 1459,
      "olution": 1460,
      "ead": 1461,
      "Ġprobably": 1462,
      "Ġprof": 1463,
      "eg": 1464,
      "Ġauth": 1465,
      "Ġdevelopment": 1466,
      "Ġdidn": 1467,
      "Ġturn": 1468,
      "epend": 1469,
      "Even": 1470,
      "stan": 1471,
      "ases": 1472,
      "Ġimm": 1473,
      "?âĢĿ": 1474,
      "ters": 1475,
      "Ġstep": 1476,
      "My": 1477,
      "ait": 1478,
      "ense": 1479,
      "yr": 1480,
      "Ġpublic": 1481,
      "Ġthought": 1482,
      "Ġval": 1483,
      "ible": 1484,
      "Ġsc": 1485,
      "Ġpur": 1486,
      "apan": 1487,
      "Ġprom": 1488,
      "ilitary": 1489,
      "ah": 1490,
      "Ġincre": 1491,
      "Ġtold": 1492,
      "iron": 1493,
      "Ġdr": 1494,
      "Ġpeace": 1495,
      "Ġche": 1496,
      "ĠInd": 1497,
      "Ġseen": 1498,
      "Ġaround": 1499,
      "Ġparticular": 1500,
      "Ġknows": 1501,
      "ug": 1502,
      "ording": 1503,
      "Ġpolicy": 1504,
      "Ġuntil": 1505,
      "app": 1506,
      "cip": 1507,
      "'re": 1508,
      "Ġfight": 1509,
      "Ġready": 1510,
      "Ġglobal": 1511,
      "jan": 1512,
      "ool": 1513,
      "itiz": 1514,
      "arli": 1515,
      "Then": 1516,
      "ament": 1517,
      "Every": 1518,
      "orn": 1519,
      "ently": 1520,
      "Ġincluding": 1521,
      "Ġmen": 1522,
      "ex": 1523,
      "Of": 1524,
      "ret": 1525,
      "Ġmem": 1526,
      "cient": 1527,
      "bai": 1528,
      "irl": 1529,
      "Ġremember": 1530,
      "Ġchanges": 1531,
      "Ġdeath": 1532,
      "Ġpo": 1533,
      "Ġprin": 1534,
      "Ġtoget": 1535,
      "Ġtogether": 1536,
      "Today": 1537,
      "Ġspeak": 1538,
      "nce": 1539,
      "Ġmom": 1540,
      "Ġ15": 1541,
      "Ġhappened": 1542,
      "zerbai": 1543,
      "zerbaijan": 1544,
      "air": 1545,
      "Ġlarge": 1546,
      "Ġreasons": 1547,
      "ior": 1548,
      "Ġfun": 1549,
      "angu": 1550,
      "Ġorder": 1551,
      "Ġterm": 1552,
      "Ġ199": 1553,
      "Ġanything": 1554,
      "ouse": 1555,
      "sib": 1556,
      "Ġwhether": 1557,
      "uly": 1558,
      "ving": 1559,
      "Ġspecial": 1560,
      "Ġris": 1561,
      "alf": 1562,
      "per": 1563,
      "ĠChrist": 1564,
      "ell": 1565,
      "eed": 1566,
      "Ġfl": 1567,
      "Ġspec": 1568,
      "Ġknew": 1569,
      "ources": 1570,
      "ration": 1571,
      "Ġmention": 1572,
      "ential": 1573,
      "ĠJapan": 1574,
      "Ġcontrol": 1575,
      "Ġty": 1576,
      "Ġhour": 1577,
      "\".": 1578,
      "Ġmilitary": 1579,
      "Ġpat": 1580,
      "resident": 1581,
      "Ġasked": 1582,
      "veral": 1583,
      "Ġcond": 1584,
      "Ġsomeone": 1585,
      "Ġcitiz": 1586,
      "Ġpass": 1587,
      "Ġwithin": 1588,
      "Ġserious": 1589,
      "ality": 1590,
      "ctor": 1591,
      "Ġauthor": 1592,
      "ĠAmerica": 1593,
      "Ġkeep": 1594,
      "Ġseveral": 1595,
      "arm": 1596,
      "oh": 1597,
      "arly": 1598,
      "Ġpresent": 1599,
      "Ġtrying": 1600,
      "Ġsaw": 1601,
      "Ġsoon": 1602,
      "arent": 1603,
      "chool": 1604,
      "Ġleaders": 1605,
      "Ġelse": 1606,
      "ajor": 1607,
      "Ġanswer": 1608,
      "Ġsociety": 1609,
      "ck": 1610,
      "Ġpartners": 1611,
      "Ġnecessary": 1612,
      "Ġaccept": 1613,
      "ĠChinese": 1614,
      "bt": 1615,
      "Ġcoop": 1616,
      "Ġrequire": 1617,
      "Ġequ": 1618,
      "Ġlangu": 1619,
      "ock": 1620,
      "Ġmove": 1621,
      "pr": 1622,
      "Ġamong": 1623,
      "Ġfund": 1624,
      "imate": 1625,
      "Ġjob": 1626,
      "ĠFr": 1627,
      "Ġlearn": 1628,
      "Ġlost": 1629,
      "Ġexplain": 1630,
      "Our": 1631,
      "Ġstat": 1632,
      "Ġthemselves": 1633,
      "Ġindepend": 1634,
      "After": 1635,
      "viron": 1636,
      "Ġprojects": 1637,
      "ĠCan": 1638,
      "Ġcame": 1639,
      "ĠAzerbaijan": 1640,
      "Ġcity": 1641,
      "Ġmajor": 1642,
      "Ġhear": 1643,
      "iod": 1644,
      "aut": 1645,
      "ĠGoogle": 1646,
      "ror": 1647,
      "Ġpract": 1648,
      "ĠBel": 1649,
      "Ġconsider": 1650,
      "Ġneg": 1651,
      "ither": 1652,
      "Ġusing": 1653,
      "Ġforeign": 1654,
      ".)": 1655,
      "ished": 1656,
      "Who": 1657,
      "Ġhistory": 1658,
      "ange": 1659,
      "vironment": 1660,
      "Ġmakes": 1661,
      "Ġdat": 1662,
      "aly": 1663,
      "lement": 1664,
      "ĠPol": 1665,
      "Ġkind": 1666,
      "Ġoffic": 1667,
      "Therefore": 1668,
      "Ġimpro": 1669,
      "Ġbeh": 1670,
      "utions": 1671,
      "Ġonce": 1672,
      "reedom": 1673,
      "Or": 1674,
      "ised": 1675,
      "ĠNew": 1676,
      "Ġagre": 1677,
      "Ġmiss": 1678,
      "pite": 1679,
      "Ġmar": 1680,
      "aken": 1681,
      "Ġvisit": 1682,
      "Ġwait": 1683,
      "Ġhand": 1684,
      "osed": 1685,
      "Ġsimply": 1686,
      "Ġpop": 1687,
      "ĠIran": 1688,
      "istan": 1689,
      "though": 1690,
      "One": 1691,
      "Ġaff": 1692,
      "Ġopt": 1693,
      "Ġdou": 1694,
      "Ġcompletely": 1695,
      "To": 1696,
      "Ġ$": 1697,
      "Ġwoman": 1698,
      "Ġexperience": 1699,
      "ĠAfric": 1700,
      "Ġcalled": 1701,
      "ines": 1702,
      "Ġsays": 1703,
      "rem": 1704,
      "Ġregard": 1705,
      "Ġpot": 1706,
      "Ġhowever": 1707,
      "Ġstarted": 1708,
      "cent": 1709,
      "Ġcr": 1710,
      "Ġrelig": 1711,
      "bs": 1712,
      "Ġthreat": 1713,
      "ased": 1714,
      "Ġprincip": 1715,
      "Ġperiod": 1716,
      "Ġentire": 1717,
      "Ġmodel": 1718,
      "Ġput": 1719,
      "Ġlim": 1720,
      "With": 1721,
      "ull": 1722,
      "Ġgame": 1723,
      "Ġschool": 1724,
      "alest": 1725,
      "Ġyourself": 1726,
      "Ġaccess": 1727,
      "Ġdirect": 1728,
      "fort": 1729,
      "Ġclose": 1730,
      "key": 1731,
      "Ġdoesn": 1732,
      "XX": 1733,
      "Ġsim": 1734,
      "up": 1735,
      "ĠPresident": 1736,
      "Ġenvironment": 1737,
      "Many": 1738,
      "ides": 1739,
      "Ġsing": 1740,
      "ger": 1741,
      "Ġban": 1742,
      "Ġmanag": 1743,
      "port": 1744,
      "Ġabs": 1745,
      "Ġyet": 1746,
      "anger": 1747,
      "Ġwin": 1748,
      "ories": 1749,
      "Ġquestions": 1750,
      "Ġlocal": 1751,
      "aces": 1752,
      "ont": 1753,
      "Ġbad": 1754,
      "Ġinit": 1755,
      "Ġshort": 1756,
      "Ġdata": 1757,
      "Ġfreedom": 1758,
      "iet": 1759,
      "Ġocc": 1760,
      "Ġsuff": 1761,
      "ner": 1762,
      "Ġdist": 1763,
      "Ġtalking": 1764,
      "Ġbeginning": 1765,
      "'m": 1766,
      "urther": 1767,
      "Ġgiven": 1768,
      "ĠSp": 1769,
      "Ġ100": 1770,
      "Ġidea": 1771,
      "Ġcommun": 1772,
      "Ġfood": 1773,
      "Ġindustry": 1774,
      "Ġstay": 1775,
      "ogn": 1776,
      "ĠIntern": 1777,
      "body": 1778,
      "Ġgot": 1779,
      "Ġwon": 1780,
      "gress": 1781,
      "Ġwrit": 1782,
      "Ġnight": 1783,
      "Ġleave": 1784,
      "Ġset": 1785,
      "Ġgirl": 1786,
      "Ġview": 1787,
      "Ġmoment": 1788,
      "imin": 1789,
      "Ġheard": 1790,
      "ĠMos": 1791,
      "Ġrepres": 1792,
      "Ġseems": 1793,
      "Not": 1794,
      "Ch": 1795,
      "Ġrese": 1796,
      "roy": 1797,
      "outh": 1798,
      "Ġcitizens": 1799,
      "Ġthird": 1800,
      "Ġeconomy": 1801,
      "ĠTh": 1802,
      "Ġitself": 1803,
      "Ġwater": 1804,
      "Ġstates": 1805,
      "Ġpercent": 1806,
      "ĠAust": 1807,
      "ively": 1808,
      "Ġcommunity": 1809,
      "Ġneeded": 1810,
      "Ġactiv": 1811,
      "Let": 1812,
      "Ġplanet": 1813,
      "Ġside": 1814,
      "Ġbody": 1815,
      "Ġyes": 1816,
      "Ġrights": 1817,
      "par": 1818,
      "Ġknown": 1819,
      "ĠArmen": 1820,
      "Ġstrateg": 1821,
      "Ġ'": 1822,
      "Ġlooking": 1823,
      "Ġachieve": 1824,
      ".âĢĻ": 1825,
      "row": 1826,
      "where": 1827,
      "Ġdecision": 1828,
      "ting": 1829,
      "ecause": 1830,
      "Ġhalf": 1831,
      "lish": 1832,
      "Ġlos": 1833,
      "ĠPalest": 1834,
      "ĠBrit": 1835,
      "Ġspace": 1836,
      "Ġbring": 1837,
      "Ġimplement": 1838,
      "Ġparticip": 1839,
      "ĠSe": 1840,
      "ĠKore": 1841,
      "ims": 1842,
      "),": 1843,
      "oun": 1844,
      "ified": 1845,
      "Ġcomes": 1846,
      "ĠGermany": 1847,
      "Ġdanger": 1848,
      "ne": 1849,
      "idd": 1850,
      "Ġoffer": 1851,
      "Ġtrade": 1852,
      "Ġdestroy": 1853,
      "Ġregion": 1854,
      "Ġrole": 1855,
      "eor": 1856,
      "estern": 1857,
      "Ġbeaut": 1858,
      "Ġ30": 1859,
      "Ġresults": 1860,
      "Yes": 1861,
      "atives": 1862,
      "ister": 1863,
      "ĠComm": 1864,
      "Ġsix": 1865,
      "Ġcrit": 1866,
      "ulation": 1867,
      "eople": 1868,
      "ward": 1869,
      "Ġsupp": 1870,
      "Ġtechnology": 1871,
      "Ġair": 1872,
      "Ġheart": 1873,
      "ivil": 1874,
      "Ġshall": 1875,
      "EO": 1876,
      "mber": 1877,
      "Ġmor": 1878,
      "Ġdown": 1879,
      "Ġrul": 1880,
      "unately": 1881,
      "Ġcooperation": 1882,
      "Because": 1883,
      "work": 1884,
      "Ġmatter": 1885,
      "Ġleft": 1886,
      "Ġlose": 1887,
      "io": 1888,
      "Ġcris": 1889,
      "ĠSw": 1890,
      "Ġtest": 1891,
      "arus": 1892,
      "lease": 1893,
      "icle": 1894,
      "utes": 1895,
      "Ġarm": 1896,
      "rom": 1897,
      "Ġlives": 1898,
      "irm": 1899,
      "ability": 1900,
      "Ġest": 1901,
      "ĠDe": 1902,
      "Ġphys": 1903,
      "Ġproducts": 1904,
      "Ġrelationship": 1905,
      "Ġrecogn": 1906,
      "Ġclass": 1907,
      "ify": 1908,
      "Ġhappy": 1909,
      "Ġaway": 1910,
      "ted": 1911,
      "Ġanim": 1912,
      "Ġbecame": 1913,
      "come": 1914,
      "ĠJew": 1915,
      "ĠUnion": 1916,
      "Ġmembers": 1917,
      "Ġhard": 1918,
      "oud": 1919,
      "Ġbank": 1920,
      "ilar": 1921,
      "Ġadm": 1922,
      "Ġed": 1923,
      "ream": 1924,
      "used": 1925,
      "vent": 1926,
      "Ġservices": 1927,
      "Ġsystems": 1928,
      "Ġ18": 1929,
      "ĠUkrainian": 1930,
      "Ġpotential": 1931,
      "Ġquick": 1932,
      "Ġspecific": 1933,
      "Ġexact": 1934,
      "Ġinstit": 1935,
      "Ġbene": 1936,
      "Ġnet": 1937,
      "Ġinteresting": 1938,
      "augh": 1939,
      "Ġrespect": 1940,
      "Ġpersonal": 1941,
      "Ġconsidered": 1942,
      "Ġforget": 1943,
      "Ġstrategy": 1944,
      "Ġopportunity": 1945,
      "Ġprofess": 1946,
      "Ġthough": 1947,
      "Ġaccount": 1948,
      "ĠAra": 1949,
      "Ġsignific": 1950,
      "pris": 1951,
      "ially": 1952,
      "Ġwond": 1953,
      "Ġhours": 1954,
      "Ġposition": 1955,
      "Ġhappens": 1956,
      "Ġchanged": 1957,
      "Ġsafe": 1958,
      "cu": 1959,
      "rench": 1960,
      "Ġattack": 1961,
      "Ġissues": 1962,
      "ploy": 1963,
      "Ġopp": 1964,
      "Un": 1965,
      "Ġteam": 1966,
      "Ġfear": 1967,
      "10": 1968,
      "19": 1969,
      "ĠEast": 1970,
      "Can": 1971,
      "Ġ12": 1972,
      "Ġpresident": 1973,
      "Ġsimilar": 1974,
      "Ġbenef": 1975,
      "Ġliving": 1976,
      "'ve": 1977,
      "ier": 1978,
      "ruct": 1979,
      "Ġwrong": 1980,
      "!âĢĿ": 1981,
      "Ġissue": 1982,
      "ndred": 1983,
      "ĠSyr": 1984,
      "ĠTurkey": 1985,
      "ients": 1986,
      "Since": 1987,
      "Ġaut": 1988,
      "Ġreality": 1989,
      "urd": 1990,
      "Ġshare": 1991,
      "Ġoper": 1992,
      "Ġnorm": 1993,
      "racy": 1994,
      "Ġsex": 1995,
      "ried": 1996,
      "Ġthousands": 1997,
      "Ġlanguage": 1998,
      "Ġcost": 1999,
      "âĢĺ": 2000,
      "Ġanyone": 2001,
      "Ġmaybe": 2002,
      "Ġmentioned": 2003,
      "ĠBelarus": 2004,
      "Ġmeas": 2005,
      "Ġrepresent": 2006,
      "More": 2007,
      "Ġsense": 2008,
      "Ġperhaps": 2009,
      "Ġsimple": 2010,
      "ully": 2011,
      "ton": 2012,
      "arian": 2013,
      "Ġbecom": 2014,
      "Ġvict": 2015,
      "Ġsuccessful": 2016,
      "Ġcivil": 2017,
      "Ġcrisis": 2018,
      "fer": 2019,
      "omp": 2020,
      "ĠMus": 2021,
      "Ġfriend": 2022,
      "iful": 2023,
      "ustom": 2024,
      "Ġquite": 2025,
      "Ġdisapp": 2026,
      "Ġsell": 2027,
      "?\"": 2028,
      "Ġattention": 2029,
      "Ġscient": 2030,
      "Ġgave": 2031,
      "Ġspend": 2032,
      "ledge": 2033,
      "Ġill": 2034,
      "ined": 2035,
      "Ġpriv": 2036,
      "Ġpositive": 2037,
      "sibility": 2038,
      "Ġreform": 2039,
      "ĠSEO": 2040,
      "Ġlegal": 2041,
      "ison": 2042,
      "Ġsl": 2043,
      "Ġwhile": 2044,
      "rad": 2045,
      "Ġabove": 2046,
      "Ġprovide": 2047,
      "Ġage": 2048,
      "Ġfoc": 2049,
      "raph": 2050,
      "olute": 2051,
      "Ġfully": 2052,
      "ros": 2053,
      "Ġdesc": 2054,
      "ned": 2055,
      "Ġcoming": 2056,
      "fully": 2057,
      "side": 2058,
      "Ġconflic": 2059,
      "Ġey": 2060,
      "ĠFrench": 2061,
      "ency": 2062,
      "Ġmus": 2063,
      "ĠFrance": 2064,
      "orrow": 2065,
      "Ġtook": 2066,
      "'ll": 2067,
      ",âĢĿ": 2068,
      "tain": 2069,
      "atch": 2070,
      "Ġmist": 2071,
      "Ġhig": 2072,
      "Ġrisk": 2073,
      "iol": 2074,
      "Ġmess": 2075,
      "Ġhouse": 2076,
      "Ġhundred": 2077,
      "ĠGree": 2078,
      "igin": 2079,
      "ĠGeor": 2080,
      "Ġconsum": 2081,
      "ĠEng": 2082,
      "Only": 2083,
      "Ġprevious": 2084,
      "Ġterror": 2085,
      "onst": 2086,
      "Ġcases": 2087,
      "Ġdecided": 2088,
      "Your": 2089,
      "line": 2090,
      "Ġdiv": 2091,
      "irit": 2092,
      "ĠAll": 2093,
      "Ġconditions": 2094,
      "Ġtaken": 2095,
      "Ġborn": 2096,
      "Ġpartner": 2097,
      "Ġchoose": 2098,
      "ĠEarth": 2099,
      "mb": 2100,
      "ratic": 2101,
      "Ġplaces": 2102,
      "Ġrepl": 2103,
      "ges": 2104,
      "oid": 2105,
      "Ġsold": 2106,
      "Ġnews": 2107,
      "St": 2108,
      "ivers": 2109,
      "ommend": 2110,
      "Ġimprove": 2111,
      "joy": 2112,
      "over": 2113,
      "Ġways": 2114,
      "Ġtop": 2115,
      "Ġtax": 2116,
      "Ġbill": 2117,
      "Ġnatural": 2118,
      "eral": 2119,
      "Ġfast": 2120,
      "udget": 2121,
      "Ġparent": 2122,
      "Ġdeal": 2123,
      "empt": 2124,
      "Ġchoice": 2125,
      "lect": 2126,
      "rect": 2127,
      "Ġtruly": 2128,
      "ource": 2129,
      "Ġeduc": 2130,
      "AT": 2131,
      "Ġreport": 2132,
      "Ġ50": 2133,
      "Ġevents": 2134,
      "Ġlisten": 2135,
      "11": 2136,
      "By": 2137,
      "First": 2138,
      "Ġtour": 2139,
      "Ġtrust": 2140,
      "Ġvar": 2141,
      "Ġmodern": 2142,
      "book": 2143,
      "ators": 2144,
      "que": 2145,
      "Ġofficial": 2146,
      "ext": 2147,
      "ilt": 2148,
      "Ġstudy": 2149,
      "Ġearth": 2150,
      "Ġevent": 2151,
      "Ġreceived": 2152,
      "Ġculture": 2153,
      "Ġsignificant": 2154,
      "Ġwonder": 2155,
      "Ġrules": 2156,
      "eag": 2157,
      "edi": 2158,
      "Ġfinally": 2159,
      "uclear": 2160,
      "ins": 2161,
      "Ġsend": 2162,
      "Ġsingle": 2163,
      "man": 2164,
      "Ġface": 2165,
      "ield": 2166,
      "Ġwrite": 2167,
      "Ġconcern": 2168,
      "cil": 2169,
      "Ġfurther": 2170,
      "Ġelect": 2171,
      "Ġprotection": 2172,
      "ĠArab": 2173,
      "Ġenjoy": 2174,
      "ĠNorth": 2175,
      "Ġtravel": 2176,
      "Ġpress": 2177,
      "Ġsurv": 2178,
      "Se": 2179,
      "Ġbegan": 2180,
      "ĠDo": 2181,
      "Ġmillions": 2182,
      "Ġauthorities": 2183,
      "Thus": 2184,
      "Ġterrit": 2185,
      "Ġorigin": 2186,
      "Also": 2187,
      "Ġchance": 2188,
      "Ġinfl": 2189,
      "Ġabsolute": 2190,
      "Ġexactly": 2191,
      "ĠMusl": 2192,
      "Ġvers": 2193,
      "Ġtreat": 2194,
      "Ġrepe": 2195,
      "arliament": 2196,
      "Ġindependent": 2197,
      "Ġareas": 2198,
      "Ġlikely": 2199,
      "Ġkey": 2200,
      "ross": 2201,
      "Here": 2202,
      "ged": 2203,
      "ser": 2204,
      "igital": 2205,
      "ĠRep": 2206,
      "Ġestab": 2207,
      "Ġhappening": 2208,
      "lus": 2209,
      "Ġca": 2210,
      "Ġdie": 2211,
      "Ġdoubt": 2212,
      "Ġann": 2213,
      "ury": 2214,
      "Ġhimself": 2215,
      "Ġbudget": 2216,
      "idence": 2217,
      "wh": 2218,
      "Ġmother": 2219,
      "Ġfav": 2220,
      "Ġtradition": 2221,
      "Ġmind": 2222,
      "Ġdemand": 2223,
      "ohn": 2224,
      "Be": 2225,
      "ats": 2226,
      "Ġweap": 2227,
      "Ġfollowing": 2228,
      "Ġagreement": 2229,
      "egr": 2230,
      "Ġaltern": 2231,
      "arant": 2232,
      "Ġkid": 2233,
      "Ġviol": 2234,
      "Ġrecommend": 2235,
      "Ġ11": 2236,
      "Ġfil": 2237,
      "Ġbrother": 2238,
      "ike": 2239,
      "Ġcustom": 2240,
      "ĠAl": 2241,
      "Ġsurpris": 2242,
      "Ġten": 2243,
      "Ġdream": 2244,
      "Ġson": 2245,
      "Ġtool": 2246,
      "Ġappear": 2247,
      "Ġchar": 2248,
      "ĠBe": 2249,
      "Ġresources": 2250,
      "May": 2251,
      "inist": 2252,
      "els": 2253,
      "Ġdemocracy": 2254,
      "Ġbeautiful": 2255,
      "Ġfather": 2256,
      "Ġactions": 2257,
      "Ġopin": 2258,
      "nect": 2259,
      "Ġdespite": 2260,
      "People": 2261,
      "ium": 2262,
      "ĠQ": 2263,
      "allen": 2264,
      "ĠTr": 2265,
      "Ġeither": 2266,
      "ivid": 2267,
      "Ask": 2268,
      "ĠAfrica": 2269,
      "use": 2270,
      "Ġinvestment": 2271,
      "Ġresearch": 2272,
      "Most": 2273,
      "ina": 2274,
      "âĢĵ": 2275,
      "ĠGerman": 2276,
      "Ġiniti": 2277,
      "hod": 2278,
      "Ġworks": 2279,
      "icient": 2280,
      "Ġwebs": 2281,
      "Ġdoll": 2282,
      "Ġexcept": 2283,
      "ĠRe": 2284,
      "Ġsave": 2285,
      "Ġcontact": 2286,
      "Ġ198": 2287,
      "Ġunivers": 2288,
      "Ġdesign": 2289,
      "Ġeffective": 2290,
      "com": 2291,
      "ones": 2292,
      "Ġarea": 2293,
      "Ġstory": 2294,
      "Ġprice": 2295,
      "Ġgroups": 2296,
      "Per": 2297,
      "cing": 2298,
      "lam": 2299,
      "Ġwent": 2300,
      "ĠWestern": 2301,
      "ĠCanad": 2302,
      "osp": 2303,
      "acebook": 2304,
      "term": 2305,
      "Ġbased": 2306,
      "Ġsal": 2307,
      "Ġfail": 2308,
      "Ġhead": 2309,
      "istic": 2310,
      "Ġsum": 2311,
      "Ġplans": 2312,
      "fortunately": 2313,
      "Ġquickly": 2314,
      "Ġtre": 2315,
      "Ġoutside": 2316,
      "Ġguarant": 2317,
      "Ġweeks": 2318,
      "Ġmusic": 2319,
      "ĠPr": 2320,
      "Ġprior": 2321,
      "Ġbanks": 2322,
      "Ġearly": 2323,
      "utin": 2324,
      "Ġminutes": 2325,
      "ĠMy": 2326,
      "Ġusers": 2327,
      "ĠAustral": 2328,
      "Are": 2329,
      "Ġintegr": 2330,
      "ission": 2331,
      "ria": 2332,
      "Ġbre": 2333,
      "Ġinn": 2334,
      "Ġ13": 2335,
      "Ġsometimes": 2336,
      "Ġ40": 2337,
      "Ġ.": 2338,
      "Ġcities": 2339,
      "Ġdev": 2340,
      "ĠPro": 2341,
      "ĠSouth": 2342,
      "Ġtherefore": 2343,
      "Ġmeeting": 2344,
      "Ġpar": 2345,
      "irc": 2346,
      "ĠBritish": 2347,
      "ĠKorea": 2348,
      "Ġredu": 2349,
      "Ġmedia": 2350,
      "Ġinflu": 2351,
      "year": 2352,
      "Ġeat": 2353,
      "Ġdocu": 2354,
      "Ġknowledge": 2355,
      "Ġsaying": 2356,
      "Ġcommon": 2357,
      "Ġcertainly": 2358,
      "inians": 2359,
      "Ġobvious": 2360,
      "pects": 2361,
      "Ġdue": 2362,
      "Ġusually": 2363,
      "ung": 2364,
      "ipl": 2365,
      "Ġmethod": 2366,
      "Ġeyes": 2367,
      "akh": 2368,
      "Ġexpert": 2369,
      "Ġblog": 2370,
      "sequ": 2371,
      "ĠAn": 2372,
      "Ġenter": 2373,
      "ĠGeorg": 2374,
      "ĠIndia": 2375,
      "Ġdangerous": 2376,
      "cow": 2377,
      "ements": 2378,
      "Ġapproach": 2379,
      "ĠWest": 2380,
      "Ġthousand": 2381,
      "reme": 2382,
      "ĠRepublic": 2383,
      "Ġident": 2384,
      "orld": 2385,
      "Ġexc": 2386,
      "Ġgoal": 2387,
      "Ġ25": 2388,
      "Ġworked": 2389,
      "Ġindivid": 2390,
      "Ġones": 2391,
      "Ġhuge": 2392,
      "Ġclimate": 2393,
      "Ġcontinu": 2394,
      "Ġrevolution": 2395,
      "Ġparents": 2396,
      "br": 2397,
      "now": 2398,
      "oke": 2399,
      "Ġseven": 2400,
      "ĠAnd": 2401,
      "Ġ14": 2402,
      "Ġreceive": 2403,
      "Â«": 2404,
      "Ġnuclear": 2405,
      "Ġarr": 2406,
      "Ġdecisions": 2407,
      "lished": 2408,
      "Ġservice": 2409,
      "Ġimmedi": 2410,
      "Ġsent": 2411,
      "Ġcamp": 2412,
      "Ġdeep": 2413,
      "Perhaps": 2414,
      "Ġaccording": 2415,
      "Ġlaws": 2416,
      "Ġcollect": 2417,
      "iplom": 2418,
      "Ġmaking": 2419,
      "Ġpath": 2420,
      "Ġmarkets": 2421,
      "Ġobser": 2422,
      "Ġforg": 2423,
      "Ġjoin": 2424,
      "reng": 2425,
      "Ġavail": 2426,
      "Ġterms": 2427,
      "Ġdefin": 2428,
      "Ġtyp": 2429,
      "Ġmember": 2430,
      "ired": 2431,
      "ological": 2432,
      "Ġcolleag": 2433,
      "Ġgrowth": 2434,
      "Ġeasy": 2435,
      "Ġtot": 2436,
      "Ġdead": 2437,
      "Ġobject": 2438,
      "Ġorganiz": 2439,
      "Ġaffect": 2440,
      "Acc": 2441,
      "Ġtried": 2442,
      "agine": 2443,
      "anu": 2444,
      "Ġbit": 2445,
      "ĠSo": 2446,
      "Ġinterested": 2447,
      "Ġideas": 2448,
      "uct": 2449,
      "Ġcol": 2450,
      "Ġprep": 2451,
      "Ġhistor": 2452,
      "ires": 2453,
      "ator": 2454,
      "oti": 2455,
      "Ġemploy": 2456,
      "Ġbo": 2457,
      "Ġconv": 2458,
      "ption": 2459,
      "Ġbuilt": 2460,
      "Ġaf": 2461,
      "Ġlight": 2462,
      "Ġsepar": 2463,
      "ĠIslam": 2464,
      "ites": 2465,
      "urch": 2466,
      "ĠCent": 2467,
      "Ġassist": 2468,
      "Ġcorrect": 2469,
      "iddle": 2470,
      "aid": 2471,
      "ĠArmenia": 2472,
      "Ġwish": 2473,
      "ony": 2474,
      "ots": 2475,
      "Ġagree": 2476,
      "Ġexpress": 2477,
      "Ġdigital": 2478,
      "Ġconnect": 2479,
      "Ġchallen": 2480,
      "Ġamount": 2481,
      "ĠLord": 2482,
      "Ġattempt": 2483,
      "Ġhon": 2484,
      "Ġstreng": 2485,
      "Ġmyself": 2486,
      "Ġjour": 2487,
      "Ġpray": 2488,
      "ograph": 2489,
      "Ġamb": 2490,
      "Ġkilled": 2491,
      "Ġreach": 2492,
      "atform": 2493,
      "iter": 2494,
      "Ġ--": 2495,
      "ĠAmericans": 2496,
      "like": 2497,
      "Ġwel": 2498,
      "Ġjud": 2499,
      "Ġfamil": 2500,
      "Ġavoid": 2501,
      "Ġsteps": 2502,
      "Ġdrink": 2503,
      "Ġcirc": 2504,
      "Ġeight": 2505,
      "igration": 2506,
      "Ġadop": 2507,
      "Ġgovernments": 2508,
      "azakh": 2509,
      "Ġstrategic": 2510,
      "According": 2511,
      "Ġsk": 2512,
      "Ġbord": 2513,
      "esus": 2514,
      "Don": 2515,
      "Ġrather": 2516,
      "Ġthank": 2517,
      "Ġphysical": 2518,
      "por": 2519,
      "igr": 2520,
      "ĠMr": 2521,
      "Ġcapital": 2522,
      "Ġoil": 2523,
      "Ġfa": 2524,
      "Ġdiplom": 2525,
      "Ġavailable": 2526,
      "Ġhands": 2527,
      "ĠFacebook": 2528,
      "Ġpurp": 2529,
      "From": 2530,
      "cies": 2531,
      "Ġaction": 2532,
      "Ġconflict": 2533,
      "ien": 2534,
      "Ġstudents": 2535,
      "Ġnegoti": 2536,
      "lex": 2537,
      "ĠMay": 2538,
      "Ġmorning": 2539,
      "Ġtar": 2540,
      "Ġsan": 2541,
      "raid": 2542,
      "ades": 2543,
      "Ġ17": 2544,
      "ĠMoscow": 2545,
      "Ġtom": 2546,
      "rodu": 2547,
      "Ġgeneral": 2548,
      "ober": 2549,
      "ron": 2550,
      "Ġmag": 2551,
      "Ġclos": 2552,
      "Ġstruct": 2553,
      "gypt": 2554,
      "ĠInternet": 2555,
      "verse": 2556,
      "ialog": 2557,
      "Ġrecently": 2558,
      "Ġcars": 2559,
      "Ġremains": 2560,
      "reen": 2561,
      "Ġwife": 2562,
      "âĢ¢": 2563,
      "Ġanimals": 2564,
      "unities": 2565,
      "Ġspirit": 2566,
      "Ġincrease": 2567,
      "ĠSyria": 2568,
      "ler": 2569,
      "Ġnon": 2570,
      "ctors": 2571,
      "Although": 2572,
      "Maybe": 2573,
      "Ġmov": 2574,
      "ĠCoun": 2575,
      "Ġhold": 2576,
      "Ġwhom": 2577,
      "hers": 2578,
      "olved": 2579,
      "Ġplatform": 2580,
      "Ġprefer": 2581,
      "Ġafraid": 2582,
      "att": 2583,
      "oul": 2584,
      "Ġge": 2585,
      "road": 2586,
      "raz": 2587,
      "Ġtomorrow": 2588,
      "Ġallowed": 2589,
      "Ġunique": 2590,
      "Ġprinciples": 2591,
      "Ġfocus": 2592,
      "Never": 2593,
      "wards": 2594,
      "Ġwatch": 2595,
      "aced": 2596,
      "ĠWas": 2597,
      "erve": 2598,
      "Ġisn": 2599,
      "Ġonline": 2600,
      "atever": 2601,
      "ensive": 2602,
      "Ġinstead": 2603,
      "Any": 2604,
      "Ġfield": 2605,
      "Ġgra": 2606,
      "ama": 2607,
      "une": 2608,
      "ĠWorld": 2609,
      "anuary": 2610,
      "eb": 2611,
      "Ġpopulation": 2612,
      "Ġinvestors": 2613,
      "Ġoccur": 2614,
      "Ġeducation": 2615,
      "ision": 2616,
      "Ġhelped": 2617,
      "ighb": 2618,
      "Ġcolleagues": 2619,
      "Ġreact": 2620,
      "Ġrun": 2621,
      "Ġarticle": 2622,
      "ĠCouncil": 2623,
      "Ġland": 2624,
      "Ġregul": 2625,
      "Ġinterests": 2626,
      "lev": 2627,
      "aterial": 2628,
      "Ġcommunic": 2629,
      "Ġmessage": 2630,
      "His": 2631,
      "Ġliber": 2632,
      "Ġinstitutions": 2633,
      "Will": 2634,
      "Ġenem": 2635,
      "Ġcla": 2636,
      "Ġrad": 2637,
      "Ġdemocratic": 2638,
      "Ġopinion": 2639,
      "azakhstan": 2640,
      "way": 2641,
      "Ġce": 2642,
      "Ġ16": 2643,
      "oved": 2644,
      "stain": 2645,
      "Ġalone": 2646,
      "hington": 2647,
      "Ġpred": 2648,
      "Ġprograms": 2649,
      "Ġopportunities": 2650,
      "Ġuseful": 2651,
      "ĠUN": 2652,
      "Ġproud": 2653,
      "itted": 2654,
      "nces": 2655,
      "Ġsource": 2656,
      "ĠMar": 2657,
      "Ġtype": 2658,
      "Ġprivate": 2659,
      "Ġweapons": 2660,
      "gs": 2661,
      "ises": 2662,
      "Ġdialog": 2663,
      "ĠBr": 2664,
      "ĠJohn": 2665,
      "abor": 2666,
      "Ġrecent": 2667,
      "Ġadded": 2668,
      "Ġinside": 2669,
      "Ġnetwork": 2670,
      "ATO": 2671,
      "Ġvarious": 2672,
      "Ġworth": 2673,
      "ilities": 2674,
      "ilater": 2675,
      "Ġattract": 2676,
      "Ġ2015": 2677,
      "Ġbiggest": 2678,
      "Ġsuffer": 2679,
      "Ġforce": 2680,
      "Ġforces": 2681,
      "Ġprogress": 2682,
      "Ġgoals": 2683,
      "Ġens": 2684,
      "Ġvo": 2685,
      "Ġbooks": 2686,
      "Second": 2687,
      "Russ": 2688,
      "Ġsearch": 2689,
      "ĠMe": 2690,
      "Ġdeterm": 2691,
      "Ġversion": 2692,
      "itution": 2693,
      "cience": 2694,
      "ruction": 2695,
      "Does": 2696,
      "Ġpractice": 2697,
      "ĠWhat": 2698,
      "rag": 2699,
      "Ġconstant": 2700,
      "Ġfavor": 2701,
      "Ġharm": 2702,
      "Ġexch": 2703,
      "Ġsug": 2704,
      "Ġourselves": 2705,
      "ĠJanuary": 2706,
      "Ġactive": 2707,
      "Ġtaking": 2708,
      "Ġphot": 2709,
      "Ġfilm": 2710,
      "Ind": 2711,
      "Ġmaterial": 2712,
      "raq": 2713,
      "Ġquality": 2714,
      "Ġclearly": 2715,
      "15": 2716,
      "ĠEgypt": 2717,
      "ĠPoland": 2718,
      "Ġorganizations": 2719,
      "ple": 2720,
      "Ġneighb": 2721,
      "Ġgold": 2722,
      "ĠPutin": 2723,
      "While": 2724,
      "Ġteach": 2725,
      "Ġvalues": 2726,
      "Ġsanctions": 2727,
      "Ġgames": 2728,
      "Ġlik": 2729,
      "Ġnormal": 2730,
      "ny": 2731,
      "Ġteac": 2732,
      "Ġabsolutely": 2733,
      "Ġalternative": 2734,
      "for": 2735,
      "ination": 2736,
      "Ġpain": 2737,
      "Ġloc": 2738,
      "Ġtechnical": 2739,
      "Ġenc": 2740,
      "Ġsecret": 2741,
      "ĠJapanese": 2742,
      "asing": 2743,
      "erence": 2744,
      "Ġcontrib": 2745,
      "Ġregional": 2746,
      "more": 2747,
      "ored": 2748,
      "Ġextreme": 2749,
      "Ġmeasures": 2750,
      "Ġer": 2751,
      "Ġblack": 2752,
      "Ġexperim": 2753,
      "Ġsolution": 2754,
      "Ġaware": 2755,
      "ĠZ": 2756,
      "ceed": 2757,
      "rast": 2758,
      "ptember": 2759,
      "Ġeng": 2760,
      "Ġexisting": 2761,
      "Ġforever": 2762,
      "Ġwritten": 2763,
      "Ġhigher": 2764,
      "Ġsustain": 2765,
      "Ġparticularly": 2766,
      "God": 2767,
      "han": 2768,
      "ival": 2769,
      "Ġprison": 2770,
      "ilateral": 2771,
      "Well": 2772,
      "Ġseek": 2773,
      "Ġdepend": 2774,
      "Ġkids": 2775,
      "dd": 2776,
      "Ġ24": 2777,
      "Ġupon": 2778,
      "uck": 2779,
      "arlier": 2780,
      "Ġcomput": 2781,
      "ĠAsia": 2782,
      "eal": 2783,
      "fect": 2784,
      "lt": 2785,
      "ateg": 2786,
      "fact": 2787,
      "Ġlow": 2788,
      "alled": 2789,
      "Ġrich": 2790,
      "Ġparts": 2791,
      "Ġthanks": 2792,
      "Ġlevels": 2793,
      "Ġimmediately": 2794,
      "Ġdialogue": 2795,
      "ounds": 2796,
      "Ġphone": 2797,
      "ĠHis": 2798,
      "Ġinstru": 2799,
      "Ġcultural": 2800,
      "Just": 2801,
      "Ġpub": 2802,
      "Ġnation": 2803,
      "ĠItaly": 2804,
      "idents": 2805,
      "Ġbelieved": 2806,
      "Ġresponsibility": 2807,
      "Ġinnov": 2808,
      "Ġboy": 2809,
      "ĠJesus": 2810,
      "XXXX": 2811,
      "apt": 2812,
      "ĠIraq": 2813,
      "acy": 2814,
      "Ġcontext": 2815,
      "Ġbasis": 2816,
      "theless": 2817,
      "Ġmajority": 2818,
      "wo": 2819,
      "Ġmult": 2820,
      "ĠPar": 2821,
      "Ġregions": 2822,
      "Ġprogramm": 2823,
      "ĠTurk": 2824,
      "stances": 2825,
      "Ġlimited": 2826,
      "ĠWashington": 2827,
      "dom": 2828,
      "ik": 2829,
      "ĠNo": 2830,
      "ĠKazakhstan": 2831,
      "Ġ2020": 2832,
      "Ġbillion": 2833,
      "Ġwebsite": 2834,
      "Ġsoul": 2835,
      "Ġlived": 2836,
      "Ġgives": 2837,
      "ets": 2838,
      "Ġpresence": 2839,
      "Ġstandards": 2840,
      "ees": 2841,
      "lin": 2842,
      "Ġsector": 2843,
      "elt": 2844,
      "ĠYour": 2845,
      "Ġarmy": 2846,
      "Ġdollars": 2847,
      "Ġtarget": 2848,
      "Ġtal": 2849,
      "Those": 2850,
      "ondon": 2851,
      "Ġnature": 2852,
      "Ġfaith": 2853,
      "Other": 2854,
      "erv": 2855,
      "ossible": 2856,
      "ured": 2857,
      "Ġarg": 2858,
      "Ġresponsible": 2859,
      "ev": 2860,
      "Ġfinal": 2861,
      "Ġcurren": 2862,
      "Ġwaiting": 2863,
      "Fin": 2864,
      "itor": 2865,
      "Ġvot": 2866,
      "Ġcentury": 2867,
      "Yet": 2868,
      "leased": 2869,
      "vere": 2870,
      "Ġbuilding": 2871,
      "Ġsources": 2872,
      "Ġalthough": 2873,
      "uge": 2874,
      "Ġpost": 2875,
      "Ġweak": 2876,
      "ĠHim": 2877,
      "Ġbelong": 2878,
      "ovember": 2879,
      "ĠYork": 2880,
      "Ġcurrently": 2881,
      "Ġdetail": 2882,
      "ĠChristian": 2883,
      "ĠAb": 2884,
      "iable": 2885,
      "Inst": 2886,
      "ĠNATO": 2887,
      "ĠFor": 2888,
      "Ġroom": 2889,
      "aven": 2890,
      "ched": 2891,
      "Ġtas": 2892,
      "Ġhaving": 2893,
      "12": 2894,
      "rict": 2895,
      "arily": 2896,
      "Ġblood": 2897,
      "ology": 2898,
      "chan": 2899,
      "Ġconcept": 2900,
      "Ġpolitic": 2901,
      "Ġconfirm": 2902,
      "Ġdirectly": 2903,
      "Ġdom": 2904,
      "Ġpolice": 2905,
      "Ġdifference": 2906,
      "Ġloss": 2907,
      "Ġvir": 2908,
      "Ġimpact": 2909,
      "Ġelections": 2910,
      "Ġreligious": 2911,
      "Ġcustomers": 2912,
      "Ġsw": 2913,
      "itarian": 2914,
      "ash": 2915,
      "Ġeasily": 2916,
      "Ġpoor": 2917,
      "Ġsong": 2918,
      "leep": 2919,
      "Ġthinking": 2920,
      "Ġindeed": 2921,
      "Ġdeveloped": 2922,
      "Ġgeneration": 2923,
      "imately": 2924,
      "Ġru": 2925,
      "Unfortunately": 2926,
      "Ġtypes": 2927,
      "Ġdied": 2928,
      "ĠPh": 2929,
      "ternal": 2930,
      "ĠGeorgia": 2931,
      "200": 2932,
      "Ġz": 2933,
      "Ġremind": 2934,
      "Ġ2008": 2935,
      "ĠEnglish": 2936,
      "lig": 2937,
      "Ġsite": 2938,
      "Ġfelt": 2939,
      "Ġindic": 2940,
      "Ġreligion": 2941,
      "Ġoppos": 2942,
      "Ġve": 2943,
      "Ġign": 2944,
      "usb": 2945,
      "Ġimportance": 2946,
      "Ġgetting": 2947,
      "50": 2948,
      "Qu": 2949,
      "].": 2950,
      "itable": 2951,
      "Ġearlier": 2952,
      "Ġassum": 2953,
      "ĠSeptember": 2954,
      "Ġsuggest": 2955,
      "Europe": 2956,
      "Ġi": 2957,
      "Ġreject": 2958,
      "Ġparties": 2959,
      "Ġdesire": 2960,
      "Ġrequest": 2961,
      "Ġpurch": 2962,
      ",\"": 2963,
      "cious": 2964,
      "Ġunderstanding": 2965,
      "Ġpowerful": 2966,
      "ĠCanada": 2967,
      "!\"": 2968,
      "Â»": 2969,
      "gel": 2970,
      "Ġcontinues": 2971,
      "Ġ2014": 2972,
      "Ġdemonst": 2973,
      "Ġexchange": 2974,
      "Instead": 2975,
      "ĠSov": 2976,
      "Ġpressure": 2977,
      "ĠSoviet": 2978,
      "ech": 2979,
      "Ġant": 2980,
      "Ġhot": 2981,
      "Ġimagine": 2982,
      "Ġprofessional": 2983,
      "isl": 2984,
      "Ġred": 2985,
      "Ġimpossible": 2986,
      "ĠLondon": 2987,
      "Ġdecades": 2988,
      "Ġfunction": 2989,
      "Ġnegative": 2990,
      "Ġpopular": 2991,
      "Ġmanaged": 2992,
      "Ġinfluence": 2993,
      "Ġlau": 2994,
      "Ġship": 2995,
      "Ġlooks": 2996,
      "Another": 2997,
      "Ġfamilies": 2998,
      "ĠNovember": 2999,
      "ĠIsraeli": 3000,
      "Ġtransport": 3001,
      "ĠHow": 3002,
      "Ġbrought": 3003,
      "ying": 3004,
      "Ġur": 3005,
      "Ġfig": 3006,
      "Ġfif": 3007,
      "Ġnoted": 3008,
      "ĠMarch": 3009,
      "soci": 3010,
      "Ġdeveloping": 3011,
      "Ġbecomes": 3012,
      "na": 3013,
      "Ġbal": 3014,
      "Ġnames": 3015,
      "Ġexists": 3016,
      "ĠPalestinian": 3017,
      ".'": 3018,
      "sy": 3019,
      "ences": 3020,
      "Ġwilling": 3021,
      "ĠJuly": 3022,
      "Ġdise": 3023,
      "ification": 3024,
      "Ġplayers": 3025,
      "Ġresponse": 3026,
      "ĠJews": 3027,
      "Somet": 3028,
      "ane": 3029,
      "Ġcal": 3030,
      "Ġpros": 3031,
      "ĠBl": 3032,
      "Ġrealize": 3033,
      "ugg": 3034,
      "ains": 3035,
      "aper": 3036,
      "Ġrespond": 3037,
      "Ġefforts": 3038,
      "Ġlargest": 3039,
      "Ġstandard": 3040,
      "Like": 3041,
      "ĠKing": 3042,
      "Ġ197": 3043,
      "Ġbreak": 3044,
      "to": 3045,
      "Ġparty": 3046,
      "Ġfair": 3047,
      "Ġcentral": 3048,
      "Ġadditional": 3049,
      "then": 3050,
      "Ġmechan": 3051,
      "ĠFin": 3052,
      "Ġsafety": 3053,
      "ĠAustralia": 3054,
      "Ġcircum": 3055,
      "uan": 3056,
      "Ġcle": 3057,
      "Ġthroughout": 3058,
      "Ġsubject": 3059,
      "nal": 3060,
      "oon": 3061,
      "icles": 3062,
      "cember": 3063,
      "itely": 3064,
      "Ġtools": 3065,
      "usband": 3066,
      "Ġtakes": 3067,
      "ĠSec": 3068,
      "aud": 3069,
      "Ġperfect": 3070,
      "Ġprinciple": 3071,
      "Ġhundreds": 3072,
      "of": 3073,
      "Ġap": 3074,
      "omen": 3075,
      "rain": 3076,
      "Ġshows": 3077,
      "ĠItal": 3078,
      "Ġbehav": 3079,
      "Ġmission": 3080,
      "Ġlimit": 3081,
      "Des": 3082,
      "Where": 3083,
      "mit": 3084,
      "hest": 3085,
      "Ġhor": 3086,
      "irth": 3087,
      "ĠSh": 3088,
      "Ġregular": 3089,
      "Ġpatients": 3090,
      "Ġgirls": 3091,
      "ĠThis": 3092,
      "rely": 3093,
      "Ġhosp": 3094,
      "ĠEx": 3095,
      "Ġleader": 3096,
      "Ġgrowing": 3097,
      "ĠAfg": 3098,
      "aughter": 3099,
      "Ġterritory": 3100,
      "Did": 3101,
      "Ġoriginal": 3102,
      "igrants": 3103,
      "Ġ21": 3104,
      "Ġseriously": 3105,
      "Ġcharact": 3106,
      "Ġnations": 3107,
      "ĠMon": 3108,
      "rible": 3109,
      "Ġinternet": 3110,
      "Ġ/": 3111,
      "Ġforward": 3112,
      "Ġdecl": 3113,
      "ĠOr": 3114,
      "Ġexistence": 3115,
      "aign": 3116,
      "called": 3117,
      "unt": 3118,
      "Ġanaly": 3119,
      "ason": 3120,
      "Ġadvant": 3121,
      "lf": 3122,
      "Ġnear": 3123,
      "estion": 3124,
      "ffic": 3125,
      "Ġachieved": 3126,
      "by": 3127,
      "eared": 3128,
      "yond": 3129,
      "Ġhate": 3130,
      "ights": 3131,
      "Ġmaintain": 3132,
      "inary": 3133,
      "Ġdru": 3134,
      "uses": 3135,
      "Ġcommer": 3136,
      "ĠMin": 3137,
      "Ġwrote": 3138,
      "Ġvoice": 3139,
      "Ġmot": 3140,
      "Ġgoes": 3141,
      "Ġvol": 3142,
      "ĠJune": 3143,
      "ĠInternational": 3144,
      "gent": 3145,
      "iam": 3146,
      "Ġsat": 3147,
      "Ġvide": 3148,
      "Ġcontent": 3149,
      "Ġprevent": 3150,
      "Ġoptions": 3151,
      "Ġactivities": 3152,
      "ĠSwed": 3153,
      "ĠMuslim": 3154,
      "Ġsurprised": 3155,
      "Ġexperts": 3156,
      "Ġdemonstr": 3157,
      "Go": 3158,
      "go": 3159,
      "wise": 3160,
      "Ġmass": 3161,
      "Ġasse": 3162,
      "Ġappl": 3163,
      "Ġapply": 3164,
      "Ġproduction": 3165,
      "Ġhealthy": 3166,
      "Ġmarria": 3167,
      "Ġtraditional": 3168,
      "ped": 3169,
      "Ġtem": 3170,
      "enty": 3171,
      "Ġwhite": 3172,
      "raft": 3173,
      "Ġrefuge": 3174,
      "Ġlegisl": 3175,
      "Ġpropos": 3176,
      "Ġadminist": 3177,
      "Nevertheless": 3178,
      "Ġextremely": 3179,
      "Finally": 3180,
      "ature": 3181,
      "Ġdark": 3182,
      "imum": 3183,
      "ended": 3184,
      "Ġunc": 3185,
      "pril": 3186,
      "Sh": 3187,
      "ael": 3188,
      "cise": 3189,
      "Ġclub": 3190,
      "Ġindividual": 3191,
      "Rem": 3192,
      "aster": 3193,
      "Ġpolitics": 3194,
      "Ġcloser": 3195,
      "Ġclaim": 3196,
      "ode": 3197,
      "Ġworry": 3198,
      "Ġdiscussed": 3199,
      "ĠCentral": 3200,
      "ĠWh": 3201,
      "Ġscience": 3202,
      "aries": 3203,
      "Ġself": 3204,
      "Ġcomb": 3205,
      "ached": 3206,
      "Ġcheck": 3207,
      "Ġmistake": 3208,
      "Ġcircumstances": 3209,
      "mp": 3210,
      "Ġtowards": 3211,
      "ctober": 3212,
      "Ġnote": 3213,
      "Ġwouldn": 3214,
      "Ġfighting": 3215,
      "Ġcampaign": 3216,
      "Ġensure": 3217,
      "lands": 3218,
      "Ġsleep": 3219,
      "Ġcy": 3220,
      "Ġparliament": 3221,
      "Ġaspects": 3222,
      "Ġworse": 3223,
      "ĠCon": 3224,
      "Ġsaved": 3225,
      "vernment": 3226,
      "Ġorganization": 3227,
      "Ġcrimin": 3228,
      "Ex": 3229,
      "Ġhusband": 3230,
      "Ġden": 3231,
      "Ġlack": 3232,
      "Ġaddress": 3233,
      "exic": 3234,
      "ĠDecember": 3235,
      "Such": 3236,
      "ĠWill": 3237,
      "Ġstrugg": 3238,
      "Ġtrend": 3239,
      "Ġassistance": 3240,
      "Ġlaun": 3241,
      "ĠâĢĿ": 3242,
      "Ġcateg": 3243,
      "Ġbi": 3244,
      "ateful": 3245,
      "istics": 3246,
      "ichael": 3247,
      "Ġintrodu": 3248,
      "iversity": 3249,
      "Ġsus": 3250,
      "Ġvalue": 3251,
      "ĠGreece": 3252,
      "son": 3253,
      "uro": 3254,
      "Ġeasier": 3255,
      "Ġfundament": 3256,
      "oly": 3257,
      "und": 3258,
      "Ġbirth": 3259,
      "iles": 3260,
      "Ġdirection": 3261,
      "aught": 3262,
      "Ġilleg": 3263,
      "Ġmob": 3264,
      "ara": 3265,
      "ĠSc": 3266,
      "hem": 3267,
      "ising": 3268,
      "Ġtalked": 3269,
      "Ġpurpose": 3270,
      "rastruct": 3271,
      "aily": 3272,
      "ster": 3273,
      "olit": 3274,
      "ĠApril": 3275,
      "Ġhonest": 3276,
      "oll": 3277,
      "Ġconvers": 3278,
      "Ġserve": 3279,
      "Ġreturned": 3280,
      "Ġdestroyed": 3281,
      "Ġprepared": 3282,
      "Ġpredict": 3283,
      "Despite": 3284,
      "ĠAfghan": 3285,
      "Ġchann": 3286,
      "ension": 3287,
      "Ġtrain": 3288,
      "ruary": 3289,
      "Ġasking": 3290,
      "Ġanswers": 3291,
      "Ġscientific": 3292,
      "Ġsurvive": 3293,
      "ĠPart": 3294,
      "Ġperform": 3295,
      "Ġ60": 3296,
      "Ġadvice": 3297,
      "Ġstrengthen": 3298,
      "Ġ196": 3299,
      "Ġrestrict": 3300,
      "Ġinfrastruct": 3301,
      "Ġjobs": 3302,
      "bama": 3303,
      "pri": 3304,
      "ĠWhy": 3305,
      "Ġpret": 3306,
      "Ġcompetition": 3307,
      "Ġreview": 3308,
      "ĠJewish": 3309,
      "Ġbecoming": 3310,
      "Ġsummer": 3311,
      "Ġcontinued": 3312,
      "Remember": 3313,
      "AS": 3314,
      "ball": 3315,
      "ulf": 3316,
      "Ġexpected": 3317,
      "Ġport": 3318,
      "arity": 3319,
      "Ġliter": 3320,
      "ĠAd": 3321,
      "Ġcommit": 3322,
      "Ġreforms": 3323,
      "Ġwelcome": 3324,
      "Ġhop": 3325,
      "ift": 3326,
      "Ġnearly": 3327,
      "duct": 3328,
      "Ġ2012": 3329,
      "Ġsolve": 3330,
      "Ġoption": 3331,
      "Ġautom": 3332,
      "Ġreplace": 3333,
      "Ġdefinitely": 3334,
      "Ġtotal": 3335,
      "Ġ#": 3336,
      "ĠSer": 3337,
      "Ġadapt": 3338,
      "Ġdecide": 3339,
      "Ġrelated": 3340,
      "Ġinternal": 3341,
      "Ġ90": 3342,
      "ebruary": 3343,
      "Each": 3344,
      "ches": 3345,
      "ling": 3346,
      "Ġgod": 3347,
      "Ġstage": 3348,
      "ĠMexic": 3349,
      "Ġmedical": 3350,
      "Ġchem": 3351,
      "Ġstatus": 3352,
      "Ġindependence": 3353,
      "Question": 3354,
      "Ġfac": 3355,
      "Ġconsequ": 3356,
      "ĠAre": 3357,
      "Ġworkers": 3358,
      "Ġ194": 3359,
      "Ġblock": 3360,
      "Ġbehind": 3361,
      "ĠAfrican": 3362,
      "ĠAllah": 3363,
      "ented": 3364,
      "Ġstability": 3365,
      "Ġwasn": 3366,
      "Ġvote": 3367,
      "Ġimpress": 3368,
      "Ġcreating": 3369,
      "Ġforgot": 3370,
      "ĠUK": 3371,
      "ĠRussians": 3372,
      "Ġactivity": 3373,
      "Ġconstantly": 3374,
      "verage": 3375,
      "Ġformer": 3376,
      "hern": 3377,
      "ulg": 3378,
      "Ġextent": 3379,
      "pid": 3380,
      "Ġfall": 3381,
      "Ġalong": 3382,
      "elie": 3383,
      "Ġcontract": 3384,
      "ĠNational": 3385,
      "Ġamaz": 3386,
      "Ġ2013": 3387,
      "Ġfourth": 3388,
      "Ġpolicies": 3389,
      "Ġadopted": 3390,
      "vention": 3391,
      "Ġcred": 3392,
      "ale": 3393,
      "Ġbeyond": 3394,
      "uted": 3395,
      "urally": 3396,
      "Ġgas": 3397,
      "Ġking": 3398,
      "Ġincred": 3399,
      "Ġstarting": 3400,
      "Ġlearned": 3401,
      "Ġviolence": 3402,
      "Russia": 3403,
      "Ġapplic": 3404,
      "ĠOctober": 3405,
      "ries": 3406,
      "ĠX": 3407,
      "inc": 3408,
      "Ġhum": 3409,
      "alse": 3410,
      "ĠAm": 3411,
      "ained": 3412,
      "gain": 3413,
      "Ġspent": 3414,
      "ape": 3415,
      "Ġgrateful": 3416,
      "Ġrequires": 3417,
      "Indeed": 3418,
      "Ġinfrastructure": 3419,
      "sec": 3420,
      "urs": 3421,
      "ider": 3422,
      "Ġlog": 3423,
      "Ġexpensive": 3424,
      "Ġexperien": 3425,
      "cale": 3426,
      "Ġjournal": 3427,
      "Ġcommercial": 3428,
      "30": 3429,
      "nam": 3430,
      "isation": 3431,
      "itors": 3432,
      "Ġheld": 3433,
      "Ġgreatest": 3434,
      "Ġbenefit": 3435,
      "Ġconcerned": 3436,
      "ĠItalian": 3437,
      "atory": 3438,
      "Ġlie": 3439,
      "Ġclosed": 3440,
      "Ġgreater": 3441,
      "Ġturned": 3442,
      "Ġdescrib": 3443,
      "ĠParis": 3444,
      "uel": 3445,
      "Ġdeb": 3446,
      "Moreover": 3447,
      "ES": 3448,
      "itness": 3449,
      "Ġpaid": 3450,
      "ederal": 3451,
      "Their": 3452,
      "ricult": 3453,
      "Ġincreasing": 3454,
      "Ġrisks": 3455,
      "Ġpriority": 3456,
      "Ġcurrency": 3457,
      "ham": 3458,
      "requ": 3459,
      "owers": 3460,
      "Ġsuper": 3461,
      "Ġhelps": 3462,
      "Ġlooked": 3463,
      "Ġbasic": 3464,
      "Ġfaster": 3465,
      "Ġconvin": 3466,
      "ĠTurkish": 3467,
      "Pro": 3468,
      "Ġeth": 3469,
      "Ġsea": 3470,
      "ĠMary": 3471,
      "Ġ2010": 3472,
      "ĠChristians": 3473,
      "Ġrequired": 3474,
      "Ġdisappoint": 3475,
      "het": 3476,
      "Ġfly": 3477,
      "Ġlat": 3478,
      "olve": 3479,
      "ĠPl": 3480,
      "Ġagricult": 3481,
      "Ġcompl": 3482,
      "Ġcarry": 3483,
      "Ġmeaning": 3484,
      "Ġenvironmental": 3485,
      "Ġcritic": 3486,
      "Ġscientists": 3487,
      "Ġnegotiations": 3488,
      "ER": 3489,
      "Ġbar": 3490,
      "Ġult": 3491,
      "ĠBank": 3492,
      "Ġunlike": 3493,
      "aving": 3494,
      "Ġpatient": 3495,
      "Ġencou": 3496,
      "audi": 3497,
      "iers": 3498,
      "Ġdoctors": 3499,
      "Ġcreation": 3500,
      "lled": 3501,
      "oph": 3502,
      "ĠMoses": 3503,
      "Ġsustainable": 3504,
      "sych": 3505,
      "Ġmarriage": 3506,
      "'d": 3507,
      "Ġheaven": 3508,
      "Ġrid": 3509,
      "Ġdisappear": 3510,
      "Ġengine": 3511,
      "equ": 3512,
      "Ġdoctor": 3513,
      "Ġprim": 3514,
      "rial": 3515,
      "Ġhumanity": 3516,
      "Ġprovided": 3517,
      "Ġmovement": 3518,
      "Ġsatis": 3519,
      "Have": 3520,
      "anish": 3521,
      "anced": 3522,
      "Ġplease": 3523,
      "Ġloves": 3524,
      "ĠTe": 3525,
      "Ġstrange": 3526,
      "Ġpromise": 3527,
      "Ġagreements": 3528,
      "Ġguarantee": 3529,
      "Ukra": 3530,
      "hib": 3531,
      "anks": 3532,
      "Ġund": 3533,
      "Ġfront": 3534,
      "Ġsupported": 3535,
      "Ġfoot": 3536,
      "Ġevidence": 3537,
      "Ġroad": 3538,
      "Ġfarm": 3539,
      "China": 3540,
      "Ġestablished": 3541,
      "Two": 3542,
      "ystem": 3543,
      "Ġfulf": 3544,
      "Ġstable": 3545,
      "ĠEn": 3546,
      "Ġtext": 3547,
      "ildren": 3548,
      "avid": 3549,
      "Sometimes": 3550,
      "Ġfalse": 3551,
      "Ġline": 3552,
      "Ġwhatever": 3553,
      "Ġassoci": 3554,
      "antic": 3555,
      "ĠFebruary": 3556,
      "Ġemot": 3557,
      "Ġlanguages": 3558,
      "ĠPolish": 3559,
      "Ġthreats": 3560,
      "14": 3561,
      "Over": 3562,
      "Ġworst": 3563,
      "Ġspiritual": 3564,
      "Both": 3565,
      "__": 3566,
      "Ġwalk": 3567,
      "Ġanal": 3568,
      "ĠNet": 3569,
      "ĠObama": 3570,
      "Ġfundamental": 3571,
      "my": 3572,
      "iced": 3573,
      "Ġreached": 3574,
      "Ġlaugh": 3575,
      "Ġuser": 3576,
      "Ġloved": 3577,
      "Ġjustice": 3578,
      "Ġregime": 3579,
      "Ġinvestig": 3580,
      "Ġshowed": 3581,
      "cer": 3582,
      "Ġcause": 3583,
      "Ġfire": 3584,
      "ilos": 3585,
      "Ġplayed": 3586,
      "Ġacross": 3587,
      "ĠPalestinians": 3588,
      "Ġargu": 3589,
      "Ġmechanism": 3590,
      "ufact": 3591,
      "Ġdeg": 3592,
      "ude": 3593,
      "ĠTo": 3594,
      "Ġhumanitarian": 3595,
      "Ġreading": 3596,
      "Ġcorru": 3597,
      "Ġschools": 3598,
      "Ġsexual": 3599,
      "Ġdocuments": 3600,
      "17": 3601,
      "Ġhy": 3602,
      "udd": 3603,
      "Ġclients": 3604,
      "ĠState": 3605,
      "Ġelements": 3606,
      "Ġtechnologies": 3607,
      "ugust": 3608,
      "Ġvictims": 3609,
      "Ġdiplomatic": 3610,
      "razil": 3611,
      "Ar": 3612,
      "hood": 3613,
      "Ġaud": 3614,
      "Ġangel": 3615,
      "Ġcand": 3616,
      "ĠCub": 3617,
      "oses": 3618,
      "ief": 3619,
      "ĠBulg": 3620,
      "Ġbelieves": 3621,
      "Ġ2007": 3622,
      "Ġsigned": 3623,
      "Ġsolid": 3624,
      "Ġmedic": 3625,
      "Ġ80": 3626,
      "Ġmodels": 3627,
      "ĠSpain": 3628,
      "Ġdocument": 3629,
      "ean": 3630,
      "ened": 3631,
      "iding": 3632,
      "Ġchanging": 3633,
      "ney": 3634,
      "Ġwonderful": 3635,
      "Ġenemy": 3636,
      "Ġillegal": 3637,
      "orks": 3638,
      "Ġdaily": 3639,
      "rage": 3640,
      "Ġdog": 3641,
      "Ġdel": 3642,
      "Ġmanufact": 3643,
      "Ġcouldn": 3644,
      "Ġoblig": 3645,
      "Ġseemed": 3646,
      "Ġoccup": 3647,
      "ĠCommission": 3648,
      "Ġtopic": 3649,
      "Ġexperiment": 3650,
      "gn": 3651,
      "Ġdate": 3652,
      "Ġstre": 3653,
      "Ġcouple": 3654,
      "Ġinvolved": 3655,
      "Ġregarding": 3656,
      "Ġrule": 3657,
      "ott": 3658,
      "Ġseeing": 3659,
      "Ġplaying": 3660,
      "Ġlosing": 3661,
      "Ġdescri": 3662,
      "cle": 3663,
      "esides": 3664,
      "omb": 3665,
      "Ġconduct": 3666,
      "Ġsuc": 3667,
      "ĠMiddle": 3668,
      "Ġhistorical": 3669,
      "Ġcharacter": 3670,
      "Ġpretty": 3671,
      "Ġcut": 3672,
      "Ġnone": 3673,
      "Ġinclude": 3674,
      "read": 3675,
      "reland": 3676,
      "Ġancient": 3677,
      "Ġhaven": 3678,
      "ously": 3679,
      "Ġintell": 3680,
      "Ġcomplex": 3681,
      "Ġbenefits": 3682,
      "Ġpoliticians": 3683,
      "rep": 3684,
      "Ġcop": 3685,
      "Ġtown": 3686,
      "Ġsovere": 3687,
      "Ġfactors": 3688,
      "Ġoffered": 3689,
      "Ġdifferences": 3690,
      "Ġreflect": 3691,
      "Ġrepeated": 3692,
      "Ġchallenges": 3693,
      "During": 3694,
      "Ġflex": 3695,
      "Ġpage": 3696,
      "icro": 3697,
      "ulner": 3698,
      "Ġagreed": 3699,
      "Ġarch": 3700,
      "Ġrecord": 3701,
      "Ġterrible": 3702,
      "Ġpromised": 3703,
      "ĠMuslims": 3704,
      "Ġsucceed": 3705,
      "13": 3706,
      "CO": 3707,
      "iation": 3708,
      "rest": 3709,
      "Ġpict": 3710,
      "....": 3711,
      "ffee": 3712,
      "ocol": 3713,
      "Ġgrand": 3714,
      "Ġassess": 3715,
      "Ġrecognize": 3716,
      "amb": 3717,
      "ulate": 3718,
      "Ġspoke": 3719,
      "Ġtransform": 3720,
      "Ġopened": 3721,
      "Ġinterp": 3722,
      "Ġcapable": 3723,
      "Ġcritical": 3724,
      "Ġcomputer": 3725,
      "af": 3726,
      "isters": 3727,
      "Ġmurd": 3728,
      "Ġgone": 3729,
      "ills": 3730,
      "illed": 3731,
      "Ġproced": 3732,
      "ĠGen": 3733,
      "Ġexamples": 3734,
      "Ġtransp": 3735,
      "Ġrepeat": 3736,
      "Last": 3737,
      "Ġcross": 3738,
      "Ġlink": 3739,
      "Ġchurch": 3740,
      "Ġdisp": 3741,
      "Ġproduce": 3742,
      "Ġtrading": 3743,
      "18": 3744,
      "head": 3745,
      "Ġlate": 3746,
      "ĠGr": 3747,
      "ĠHung": 3748,
      "Ġunderstood": 3749,
      "Ġinvestments": 3750,
      "ĠUSA": 3751,
      "enez": 3752,
      "Ġstopped": 3753,
      "Ġvalu": 3754,
      "Ġanimal": 3755,
      "Look": 3756,
      "Ġaverage": 3757,
      "Ġwitness": 3758,
      "ishing": 3759,
      "itation": 3760,
      "ĠMal": 3761,
      "irect": 3762,
      "Ġreliable": 3763,
      "prise": 3764,
      "enezuel": 3765,
      "Would": 3766,
      "ĠSaudi": 3767,
      "Ġvulner": 3768,
      "Ġrelative": 3769,
      "Ġevil": 3770,
      "Ġobtain": 3771,
      "Ġacqu": 3772,
      "Ġsuccessfully": 3773,
      "Ġforms": 3774,
      "Ġcareer": 3775,
      "16": 3776,
      "vert": 3777,
      "ĠApp": 3778,
      "Ġvac": 3779,
      "Ġwhose": 3780,
      "Ġaggress": 3781,
      "Ġplanning": 3782,
      "Ġ70": 3783,
      "Ġrequirements": 3784,
      "Ġestablish": 3785,
      "ĠMinister": 3786,
      "Ġrefugees": 3787,
      "Ġstruggle": 3788,
      "Ġanalys": 3789,
      "just": 3790,
      "Ġdaughter": 3791,
      "Ġreve": 3792,
      "Ġaren": 3793,
      "ĠAugust": 3794,
      "Ġability": 3795,
      "ĠSat": 3796,
      "ittee": 3797,
      "Ġequal": 3798,
      "Ġseparate": 3799,
      "ĠWhite": 3800,
      "Ġcandid": 3801,
      "gers": 3802,
      "itious": 3803,
      "Ġalive": 3804,
      "artment": 3805,
      "ĠMichael": 3806,
      "Ġmanage": 3807,
      "Ġ2011": 3808,
      "Ġrob": 3809,
      "Ġrapid": 3810,
      "Ġpropert": 3811,
      "idden": 3812,
      "Ġrelationships": 3813,
      "Ġmethods": 3814,
      "Ġborder": 3815,
      "Ġvideo": 3816,
      "ban": 3817,
      "nown": 3818,
      "Ġpsych": 3819,
      "Ġemer": 3820,
      "ĠIreland": 3821,
      "osen": 3822,
      "ĠLat": 3823,
      "Ġtransl": 3824,
      "Ġcenter": 3825,
      "Ġconsumers": 3826,
      "Ġsoldiers": 3827,
      "Ġbrothers": 3828,
      "Ġborders": 3829,
      "AN": 3830,
      "how": 3831,
      "ery": 3832,
      "eria": 3833,
      "encies": 3834,
      "Ġbought": 3835,
      "Ġbroad": 3836,
      "ston": 3837,
      "emoc": 3838,
      "ĠParliament": 3839,
      "Ġfacts": 3840,
      "Ġphilos": 3841,
      "Ġplanned": 3842,
      "Ġ2006": 3843,
      "Ġstronger": 3844,
      "Everyone": 3845,
      "Ġsufficient": 3846,
      "Ġbehavior": 3847,
      "co": 3848,
      "ya": 3849,
      "yle": 3850,
      "Ġdam": 3851,
      "Ġseason": 3852,
      "Ġsho": 3853,
      "Ġcoord": 3854,
      "Ġinstance": 3855,
      "Ġfeeling": 3856,
      "ĠIslamic": 3857,
      "Ġbalance": 3858,
      "cl": 3859,
      "works": 3860,
      "Ġisland": 3861,
      "estic": 3862,
      "Ġclot": 3863,
      "ĠKurd": 3864,
      "itting": 3865,
      "Ġinteract": 3866,
      "Ġimplementation": 3867,
      "Ġdisease": 3868,
      "priate": 3869,
      "hold": 3870,
      "Ġcat": 3871,
      "Ġeverybody": 3872,
      "Ġcosts": 3873,
      "Ġcele": 3874,
      "Ġfifth": 3875,
      "rimin": 3876,
      "enly": 3877,
      "Ġnine": 3878,
      "oman": 3879,
      "ĠCl": 3880,
      "Ġoffice": 3881,
      "ĠEngland": 3882,
      "Ġamazing": 3883,
      "Ġbatt": 3884,
      "Ġmount": 3885,
      "Ġpun": 3886,
      "terday": 3887,
      "Ġprices": 3888,
      "Ġexpand": 3889,
      "Ġnumbers": 3890,
      "Ġdefend": 3891,
      "Ġaccepted": 3892,
      "Ġmarried": 3893,
      "Ġeventually": 3894,
      "Ġadvantage": 3895,
      "olitical": 3896,
      "after": 3897,
      "Ġaim": 3898,
      "iting": 3899,
      "Ġment": 3900,
      "Ġfrequ": 3901,
      "Ġnor": 3902,
      "Ġsudd": 3903,
      "Ġchosen": 3904,
      "izing": 3905,
      "ĠTV": 3906,
      "Ġconscious": 3907,
      "Ġletter": 3908,
      "ĠGovernment": 3909,
      "Ġuniverse": 3910,
      "Ġpractical": 3911,
      "Ġinitiative": 3912,
      "su": 3913,
      "erves": 3914,
      "Ġfirm": 3915,
      "aria": 3916,
      "Ġcoun": 3917,
      "Ġgets": 3918,
      "ĠOne": 3919,
      "Ġreduce": 3920,
      "ĠAfghanistan": 3921,
      "ij": 3922,
      "ĠCy": 3923,
      "Ġshown": 3924,
      "Ġguess": 3925,
      "Ġbuying": 3926,
      "Ġslow": 3927,
      "Ġcru": 3928,
      "Ġwear": 3929,
      "Ġsun": 3930,
      "Ġ22": 3931,
      "Ġ23": 3932,
      "Ġ2009": 3933,
      "Ġbegins": 3934,
      "Ġindustrial": 3935,
      "Ġelectric": 3936,
      "Ġtask": 3937,
      "ey": 3938,
      "ring": 3939,
      "Ġbase": 3940,
      "Ġlabor": 3941,
      "Ġwealth": 3942,
      "raw": 3943,
      "âĢĿ,": 3944,
      "ĠJack": 3945,
      "Ġpossib": 3946,
      "Ġimportantly": 3947,
      "Ġconsult": 3948,
      "Ġextra": 3949,
      "Ġprocesses": 3950,
      "Ġcommunication": 3951,
      "Ġsuffering": 3952,
      "aur": 3953,
      "aves": 3954,
      "ners": 3955,
      "reg": 3956,
      "Ġthus": 3957,
      "ĠIf": 3958,
      "irty": 3959,
      "ĠAt": 3960,
      "Ġ27": 3961,
      "ĠBrazil": 3962,
      "Ġemb": 3963,
      "Ġbilateral": 3964,
      "Ġrelev": 3965,
      "Ġgreen": 3966,
      "amer": 3967,
      "Ġtrip": 3968,
      "Ġnobody": 3969,
      "Ġactively": 3970,
      "Ġprecise": 3971,
      "Ġ35": 3972,
      "Ġdeserve": 3973,
      "Ġsigns": 3974,
      "Ġminister": 3975,
      "Ġsituations": 3976,
      "Ġpeaceful": 3977,
      "ĠArmenian": 3978,
      "ĠGreek": 3979,
      "Ġintegration": 3980,
      "Ġinterpret": 3981,
      "Ġaid": 3982,
      "reci": 3983,
      "Ġmiddle": 3984,
      "let": 3985,
      "odies": 3986,
      "Ġcomfort": 3987,
      "ump": 3988,
      "ĠRes": 3989,
      "ĠNor": 3990,
      "ĠWar": 3991,
      "ĠVenezuel": 3992,
      "Ġconstruction": 3993,
      "Ġfunny": 3994,
      "Ġstrategies": 3995,
      "Ġattacks": 3996,
      "Ġmistakes": 3997,
      "Ġstructure": 3998,
      "Ġgeograph": 3999,
      "ipp": 4000,
      "mm": 4001,
      "Ġtou": 4002,
      "itzer": 4003,
      "Ġhous": 4004,
      "Ġstress": 4005,
      "Ġtwice": 4006,
      "Ġappeared": 4007,
      "Ġconference": 4008,
      "Ġelection": 4009,
      "Ġsolutions": 4010,
      "Ġimplemented": 4011,
      "mbol": 4012,
      "Ġtalks": 4013,
      "Ġvolunt": 4014,
      "itzerland": 4015,
      "ON": 4016,
      "Ġir": 4017,
      "Ġwis": 4018,
      "Ġpersonally": 4019,
      "Ġguy": 4020,
      "Ġguys": 4021,
      "Ġstudent": 4022,
      "iveness": 4023,
      "Ġgradu": 4024,
      "Ġliked": 4025,
      "Ġhospital": 4026,
      "Ġchemical": 4027,
      "Ġconvinced": 4028,
      "Please": 4029,
      "known": 4030,
      "rs": 4031,
      "Ġprove": 4032,
      "Ġmeant": 4033,
      "ĠDr": 4034,
      "ĠChurch": 4035,
      "Ġperm": 4036,
      "Ġpossibility": 4037,
      "Ġconsist": 4038,
      "Ġdistrib": 4039,
      "Ġhighest": 4040,
      "Ġ&": 4041,
      "Ġye": 4042,
      "eth": 4043,
      "oss": 4044,
      "Ġ26": 4045,
      "akistan": 4046,
      "ĠLib": 4047,
      "Ġcommunities": 4048,
      "Ġambitious": 4049,
      "Ġvirt": 4050,
      "ĠMexico": 4051,
      "Ġconsequences": 4052,
      "Ġpages": 4053,
      "Ġstories": 4054,
      "Ġcompon": 4055,
      "Ġbelow": 4056,
      "Ġpositions": 4057,
      "Ġincome": 4058,
      "Ġseries": 4059,
      "conomic": 4060,
      "Ġdepends": 4061,
      "Ġexplained": 4062,
      "Further": 4063,
      "view": 4064,
      "Ġearn": 4065,
      "urance": 4066,
      "ctic": 4067,
      "Ġstars": 4068,
      "Ġprepar": 4069,
      "Ġmarketing": 4070,
      "Ġconclus": 4071,
      "Ġclean": 4072,
      "ĠSecurity": 4073,
      "Again": 4074,
      "verty": 4075,
      "ĠMan": 4076,
      "Ġappreci": 4077,
      "Ġolder": 4078,
      "Ġpoverty": 4079,
      "Ġfailed": 4080,
      "Ġmagic": 4081,
      "Ph": 4082,
      "Ġforced": 4083,
      "cell": 4084,
      "ĠHouse": 4085,
      "sels": 4086,
      "Ġsymbol": 4087,
      "Ġcarried": 4088,
      "Ġbusinesses": 4089,
      "Ġminor": 4090,
      "Ġpartnership": 4091,
      "Ġentirely": 4092,
      "Ġuniversity": 4093,
      "uddh": 4094,
      "ĠThere": 4095,
      "Ġahead": 4096,
      "aste": 4097,
      "overed": 4098,
      "Ġprotected": 4099,
      "Ġimmigration": 4100,
      "Ġincreased": 4101,
      "Ġfunding": 4102,
      "Ġnetworks": 4103,
      "Ġvictory": 4104,
      "new": 4105,
      "Ġmer": 4106,
      "alu": 4107,
      "cel": 4108,
      "Ġ28": 4109,
      "Ġrout": 4110,
      "Ġcoffee": 4111,
      "Ġglad": 4112,
      "Ġmeetings": 4113,
      "Ġparticipate": 4114,
      "lo": 4115,
      "Ġwind": 4116,
      "onom": 4117,
      "Ġcompared": 4118,
      "Ġexport": 4119,
      "Ġupd": 4120,
      "Ġefficient": 4121,
      "Ġinstitution": 4122,
      "Ġmoving": 4123,
      "Ġfavorite": 4124,
      "Ġanalysis": 4125,
      "Ġ0": 4126,
      "Ġhost": 4127,
      "ĠDavid": 4128,
      "bek": 4129,
      "Ġequip": 4130,
      "Ġmanagement": 4131,
      "Ġanti": 4132,
      "Ġfootball": 4133,
      "Ġreveal": 4134,
      "Ġcelebr": 4135,
      "zbek": 4136,
      "Ġhide": 4137,
      "arc": 4138,
      "Ġeverywhere": 4139,
      "gyz": 4140,
      "Ġsites": 4141,
      "ĠArt": 4142,
      "yrgyz": 4143,
      "Ġoptim": 4144,
      "ĠSpanish": 4145,
      "ĠSocial": 4146,
      "Ġcriminal": 4147,
      "\",": 4148,
      "bum": 4149,
      "rary": 4150,
      "uals": 4151,
      "Ġtaught": 4152,
      "Ġluck": 4153,
      "ĠDon": 4154,
      "ĠDay": 4155,
      "avy": 4156,
      "Ġeffort": 4157,
      "Ġremained": 4158,
      "Ġafford": 4159,
      "Ġpublished": 4160,
      "Ġlegislation": 4161,
      "Ġforgotten": 4162,
      "Ġmir": 4163,
      "Ġpleased": 4164,
      "olid": 4165,
      "adem": 4166,
      "Ġovercome": 4167,
      "Ġvision": 4168,
      "Ġlegit": 4169,
      "Ġwriting": 4170,
      "Ġofficials": 4171,
      "ĠArabia": 4172,
      "!)": 4173,
      "Dr": 4174,
      "pro": 4175,
      "ware": 4176,
      "Ġwall": 4177,
      "Ġsides": 4178,
      "enda": 4179,
      "ĠTw": 4180,
      "Ġspeaking": 4181,
      "Ġrealized": 4182,
      "Ġplayer": 4183,
      "ĠEastern": 4184,
      "Ġopposition": 4185,
      "Ġrelevant": 4186,
      "craft": 4187,
      "Ġbodies": 4188,
      "stand": 4189,
      "entially": 4190,
      "Ġgiving": 4191,
      "Ġhero": 4192,
      "auc": 4193,
      "ĠBar": 4194,
      "Ġbless": 4195,
      "Ġvisited": 4196,
      "Ġcooper": 4197,
      "ĠBritain": 4198,
      "Ġhearts": 4199,
      "levision": 4200,
      "Ġpurchase": 4201,
      "Ġliterally": 4202,
      "bit": 4203,
      "ĠWho": 4204,
      "Ġstated": 4205,
      "Ġreports": 4206,
      "Ġmonitor": 4207,
      "Ġcalls": 4208,
      "ĠIndian": 4209,
      "ĠSerb": 4210,
      "Ġsil": 4211,
      "Ġbed": 4212,
      "Ġmis": 4213,
      "ĠAg": 4214,
      "Ġ2005": 4215,
      "Ġrefused": 4216,
      "Ġexplan": 4217,
      "Ġproper": 4218,
      "Ġsubst": 4219,
      "Without": 4220,
      "ĠSweden": 4221,
      "Ġequipment": 4222,
      "ray": 4223,
      "Ġtro": 4224,
      "ĠBible": 4225,
      "Ġcommand": 4226,
      "Before": 4227,
      "Ġobviously": 4228,
      "Ġliberal": 4229,
      "aff": 4230,
      "wide": 4231,
      "Ġfish": 4232,
      "Ġisol": 4233,
      "resp": 4234,
      "Ġvill": 4235,
      "Ġ193": 4236,
      "Ġowners": 4237,
      "Ġeffects": 4238,
      "Ġpoints": 4239,
      "Ġarticles": 4240,
      "Ġcompetitive": 4241,
      "Ġconstitution": 4242,
      "rade": 4243,
      "Ġteacher": 4244,
      "25": 4245,
      "ĠBut": 4246,
      "ĠThey": 4247,
      "Ġbro": 4248,
      "arter": 4249,
      "Ġnoticed": 4250,
      "Ġexternal": 4251,
      "ests": 4252,
      "Ġdebt": 4253,
      "Ġshock": 4254,
      "ĠMed": 4255,
      "Ġadult": 4256,
      "ĠOn": 4257,
      "Ġfamous": 4258,
      "Ġraise": 4259,
      "Ġconfident": 4260,
      "ĠYes": 4261,
      "ĠYear": 4262,
      "Ġfunds": 4263,
      "Ġregardless": 4264,
      "ĠSwitzerland": 4265,
      "Ġterrorism": 4266,
      "Ġtourists": 4267,
      "Ġdescribed": 4268,
      "Was": 4269,
      "Ġess": 4270,
      "Ġfem": 4271,
      "Ġdict": 4272,
      "ctually": 4273,
      "Ġalbum": 4274,
      "Ġuses": 4275,
      "ibility": 4276,
      "Ġsurprising": 4277,
      "Ġinitiatives": 4278,
      "Ġmobile": 4279,
      "Ġsuddenly": 4280,
      "Es": 4281,
      "Ġsac": 4282,
      "itude": 4283,
      "Ġsees": 4284,
      "ĠCo": 4285,
      "ĠCong": 4286,
      "Ġ29": 4287,
      "ĠUzbek": 4288,
      "Ġincluded": 4289,
      "Ġallows": 4290,
      "ĠBelg": 4291,
      "ĠQur": 4292,
      "Ġdrugs": 4293,
      "Ġvaluable": 4294,
      "rew": 4295,
      "omes": 4296,
      "Ġdeli": 4297,
      "ĠBuddh": 4298,
      "Ġcompar": 4299,
      "Ġsomewhere": 4300,
      "Ġregist": 4301,
      "Ġ500": 4302,
      "Ġideal": 4303,
      "ĠAsian": 4304,
      "Ġpassed": 4305,
      "Ġtotally": 4306,
      "Ġinnovation": 4307,
      "XXXXXXXX": 4308,
      "Ġdegree": 4309,
      "Ġcorruption": 4310,
      "Ġmanufacture": 4311,
      "Con": 4312,
      "uine": 4313,
      "Ġton": 4314,
      "Ġallies": 4315,
      "ĠPort": 4316,
      "Ġresolution": 4317,
      "rene": 4318,
      "Ġoffers": 4319,
      "ĠArgent": 4320,
      "Ġrepresentatives": 4321,
      "40": 4322,
      "Ab": 4323,
      "erous": 4324,
      "Ġsoft": 4325,
      "Ġagenda": 4326,
      "Ġunp": 4327,
      "Ġcrime": 4328,
      "Ġsett": 4329,
      "Ġfigure": 4330,
      "Ġassets": 4331,
      "Oh": 4332,
      "hab": 4333,
      "Ġver": 4334,
      "Ġlab": 4335,
      "âĢĻ.": 4336,
      "ĠSam": 4337,
      "Ġcoal": 4338,
      "Ġperman": 4339,
      "Ġbelief": 4340,
      "Ġfactor": 4341,
      "Ġcommitted": 4342,
      "Ġ2000": 4343,
      "Ġsurprise": 4344,
      "Ġmotiv": 4345,
      "Tr": 4346,
      "belie": 4347,
      "Ġtable": 4348,
      "Ġhur": 4349,
      "ĠII": 4350,
      "Ġforum": 4351,
      "iest": 4352,
      "ession": 4353,
      "Ġhelping": 4354,
      "Ġsolidarity": 4355,
      "IS": 4356,
      "OR": 4357,
      "Ġsize": 4358,
      "emb": 4359,
      "Ġcomment": 4360,
      "ĠConst": 4361,
      "Ġthinks": 4362,
      "ĠEuropeans": 4363,
      "Ġhappiness": 4364,
      "Ġspeed": 4365,
      "Ġfeelings": 4366,
      "Ġvisa": 4367,
      "Ġconclud": 4368,
      "Ġdifficulties": 4369,
      "Ġscen": 4370,
      "Ġdetails": 4371,
      "Ġdomestic": 4372,
      "Ġzone": 4373,
      "Ġultimately": 4374,
      "reprene": 4375,
      "ĠApple": 4376,
      "Am": 4377,
      "Could": 4378,
      "IN": 4379,
      "New": 4380,
      "pir": 4381,
      "Ġscale": 4382,
      "ithuan": 4383,
      "Ġneither": 4384,
      "ĠComp": 4385,
      "ĠPeople": 4386,
      "aby": 4387,
      "Ġarrest": 4388,
      "Ġcover": 4389,
      "Ġcold": 4390,
      "Ġadministration": 4391,
      "Ġdisappointed": 4392,
      "Americ": 4393,
      "ole": 4394,
      "Ġlower": 4395,
      "ows": 4396,
      "Ġselect": 4397,
      "ussels": 4398,
      "ĠPakistan": 4399,
      "Ġcheap": 4400,
      "Ġleadership": 4401,
      "Ġconnection": 4402,
      "Ġchallenge": 4403,
      "razy": 4404,
      "gment": 4405,
      "Ġburn": 4406,
      "Ġbrain": 4407,
      "oring": 4408,
      "Ġpaper": 4409,
      "edly": 4410,
      "Ġec": 4411,
      "Ġrelease": 4412,
      "ush": 4413,
      "Ġtelevision": 4414,
      "Ġoperation": 4415,
      "Ġbrings": 4416,
      "gen": 4417,
      "rough": 4418,
      "Ġyouth": 4419,
      "Ġrecon": 4420,
      "ador": 4421,
      "Third": 4422,
      "ĠMars": 4423,
      "ivity": 4424,
      "erences": 4425,
      "ĠUkrainians": 4426,
      "Ġexisted": 4427,
      "Ġcontrolled": 4428,
      "Ġcompetitors": 4429,
      "Ġpresented": 4430,
      "Ġaircraft": 4431,
      "Ġterrorists": 4432,
      "Ġsongs": 4433,
      "Ġjournalists": 4434,
      "ĠThat": 4435,
      "ops": 4436,
      "ĠSu": 4437,
      "ĠKyrgyz": 4438,
      "Ġadvis": 4439,
      "Ġdiscussion": 4440,
      "Ġprofession": 4441,
      "Ġfocused": 4442,
      "Ġcomplain": 4443,
      "Ġsatisf": 4444,
      "cellent": 4445,
      "Im": 4446,
      "vest": 4447,
      "Ġpack": 4448,
      "Ġaspect": 4449,
      "Ġcomplic": 4450,
      "Ġesc": 4451,
      "Ġinsurance": 4452,
      "Ġappropriate": 4453,
      "Ġdreams": 4454,
      "Ġenemies": 4455,
      "Ġattractive": 4456,
      "Ġlikes": 4457,
      "Ġphilosoph": 4458,
      "CE": 4459,
      "lobal": 4460,
      "uros": 4461,
      "Ġfru": 4462,
      "Ġcontinent": 4463,
      "Ġcompleted": 4464,
      "Ġstudies": 4465,
      "viously": 4466,
      "Ġhighly": 4467,
      "Ġgenerations": 4468,
      "ĠKorean": 4469,
      "ounced": 4470,
      "Ġappears": 4471,
      "Ukraine": 4472,
      "ĠCuba": 4473,
      "AR": 4474,
      "cers": 4475,
      "Ġdri": 4476,
      "Ġled": 4477,
      "Ġstar": 4478,
      "rap": 4479,
      "andon": 4480,
      "Ġsports": 4481,
      "ĠWord": 4482,
      "Ġtraffic": 4483,
      "Ġdecent": 4484,
      "Ġ300": 4485,
      "phas": 4486,
      "Israel": 4487,
      "Ġtreatment": 4488,
      "Ġexclus": 4489,
      "Ġreaction": 4490,
      "ĠBrussels": 4491,
      "Ġconversation": 4492,
      "Ġlatest": 4493,
      "Ġtheory": 4494,
      "itter": 4495,
      "Ġmut": 4496,
      "orthern": 4497,
      "ĠGreat": 4498,
      "ĠFather": 4499,
      "Ġtelling": 4500,
      "Ġsecure": 4501,
      "Ġyesterday": 4502,
      "Ġautonom": 4503,
      "Ġpreviously": 4504,
      "Ġstrength": 4505,
      "Secondly": 4506,
      "Ġdetermine": 4507,
      "Ġhotel": 4508,
      "Google": 4509,
      "Ġtraining": 4510,
      "Ġdescribe": 4511,
      "Ġtit": 4512,
      "Ġstyle": 4513,
      "iev": 4514,
      "ĠNow": 4515,
      "Ġstarts": 4516,
      "Ġ2003": 4517,
      "Ġ2004": 4518,
      "Ġlawy": 4519,
      "Ġcorpor": 4520,
      "Everything": 4521,
      "Ġparticipants": 4522,
      "Ġmeasure": 4523,
      "Ġanalyz": 4524,
      "Ġincredible": 4525,
      "Ġvulnerable": 4526,
      "Ġrelatively": 4527,
      "Ġbattle": 4528,
      "60": 4529,
      "US": 4530,
      "Ġple": 4531,
      "leg": 4532,
      "ompl": 4533,
      "Ġjoint": 4534,
      "ĠNations": 4535,
      "ression": 4536,
      "Ġaccord": 4537,
      "Ġopenly": 4538,
      "Ġtourism": 4539,
      "Ġveh": 4540,
      "Ġassume": 4541,
      "Re": 4542,
      "Ġinev": 4543,
      "Ġrely": 4544,
      "iance": 4545,
      "Ġtrou": 4546,
      "Ġanymore": 4547,
      "Ġrealistic": 4548,
      "Ġtells": 4549,
      "pective": 4550,
      "Ġinitial": 4551,
      "Ġmoral": 4552,
      "ox": 4553,
      "Ġ:": 4554,
      "rets": 4555,
      "Ġsad": 4556,
      "Ġcrazy": 4557,
      "Ġmigration": 4558,
      "asc": 4559,
      "Ġresist": 4560,
      "ĠJer": 4561,
      "henomen": 4562,
      "Ġevolution": 4563,
      "Ġproposed": 4564,
      "Ġflag": 4565,
      "Ġbeauty": 4566,
      "ĠSyrian": 4567,
      "ĠTruth": 4568,
      "Ġoccurred": 4569,
      "Ġignore": 4570,
      "Ġproperty": 4571,
      "iber": 4572,
      "itect": 4573,
      "Ġbeg": 4574,
      "ĠRome": 4575,
      "Ġdiscrimin": 4576,
      "Ġelectron": 4577,
      "Ġjourney": 4578,
      "Ġchannels": 4579,
      "Ġaudience": 4580,
      "de": 4581,
      "ĠÂ«": 4582,
      "Ġsens": 4583,
      "Ġsounds": 4584,
      "Ġcry": 4585,
      "Ġphenomen": 4586,
      "ari": 4587,
      "Ġexec": 4588,
      "Ġrate": 4589,
      "apter": 4590,
      "Ġaccur": 4591,
      "Ġtransition": 4592,
      "Ġkept": 4593,
      "Ġeffectively": 4594,
      "prus": 4595,
      "Ġrecognized": 4596,
      "useum": 4597,
      "Ġattempts": 4598,
      "Ġradio": 4599,
      "ĠGeneral": 4600,
      "Fort": 4601,
      "Us": 4602,
      "yal": 4603,
      "Ġwide": 4604,
      "eter": 4605,
      "erson": 4606,
      "ĠLe": 4607,
      "ĠLithuan": 4608,
      "Ġtrack": 4609,
      "Ġdecade": 4610,
      "Ġwarm": 4611,
      "ĠArctic": 4612,
      "airs": 4613,
      "Ġofficially": 4614,
      "ĠCommittee": 4615,
      "Ġapplied": 4616,
      "Ġbiological": 4617,
      "ĠVenezuela": 4618,
      "ports": 4619,
      "Ġut": 4620,
      "Ġexcellent": 4621,
      "Ġunus": 4622,
      "ĠLaw": 4623,
      "Ġaccompl": 4624,
      "issions": 4625,
      "Ġminute": 4626,
      "Ġemphas": 4627,
      "ĠIranian": 4628,
      "Ġresearc": 4629,
      "Ġpriorities": 4630,
      "Ġexpressed": 4631,
      "Ġteachers": 4632,
      "Ġlocation": 4633,
      "Ġpunish": 4634,
      "ĠCongress": 4635,
      "you": 4636,
      "Ġreleased": 4637,
      "etic": 4638,
      "Ġcomments": 4639,
      "Ġabroad": 4640,
      "cipl": 4641,
      "Ġrace": 4642,
      "Ġnumerous": 4643,
      "Ġentreprene": 4644,
      "Ġcreative": 4645,
      "Ġwars": 4646,
      "atically": 4647,
      "Ġcitizen": 4648,
      "Ġexplains": 4649,
      "Ġprepare": 4650,
      "Ġprogramme": 4651,
      "Ġconfirmed": 4652,
      "ĠBulgaria": 4653,
      "oe": 4654,
      "Ġmax": 4655,
      "atell": 4656,
      "Ġchose": 4657,
      "Whatever": 4658,
      "Ġspeech": 4659,
      "Ġsmart": 4660,
      "Ġdiscovered": 4661,
      "Ġminimum": 4662,
      "Ġlarger": 4663,
      "Ġjoined": 4664,
      "ID": 4665,
      "rid": 4666,
      "ux": 4667,
      "Ġcell": 4668,
      "itals": 4669,
      "ulated": 4670,
      "ĠMad": 4671,
      "ĠNot": 4672,
      "aren": 4673,
      "Ġunf": 4674,
      "Ġworldwide": 4675,
      "Ġtwenty": 4676,
      "Ġgoods": 4677,
      "Ġmatters": 4678,
      "Ġcaused": 4679,
      "Should": 4680,
      "Ġlaunch": 4681,
      "know": 4682,
      "uff": 4683,
      "erning": 4684,
      "Ġcamer": 4685,
      "Ġpil": 4686,
      "alt": 4687,
      "set": 4688,
      "obody": 4689,
      "Ġfinance": 4690,
      "Ġtransfer": 4691,
      "Ġconcerning": 4692,
      "Ġrestaur": 4693,
      "upid": 4694,
      "Ġarrived": 4695,
      "ĠUzbekistan": 4696,
      "Ġpermanent": 4697,
      ");": 4698,
      "Her": 4699,
      "rate": 4700,
      "Ġfate": 4701,
      "icial": 4702,
      "Ġyours": 4703,
      "Ġ195": 4704,
      "ova": 4705,
      "Ġcompete": 4706,
      "Ġadopt": 4707,
      "Ġregularly": 4708,
      "Ġincreasingly": 4709,
      "Ġmand": 4710,
      "oms": 4711,
      "Ġdoor": 4712,
      "ĠCar": 4713,
      "iab": 4714,
      "Ġcontrary": 4715,
      "Ġqual": 4716,
      "Ġremaining": 4717,
      "Ġrefer": 4718,
      "Ġcareful": 4719,
      "Ġthoughts": 4720,
      "Ġbanking": 4721,
      "Ġangels": 4722,
      "24": 4723,
      "zech": 4724,
      "ino": 4725,
      "asure": 4726,
      "Ġunless": 4727,
      "Ġmostly": 4728,
      "Ġstrict": 4729,
      "Ġ45": 4730,
      "Ġended": 4731,
      "Ġstatement": 4732,
      "Ġparticipation": 4733,
      "Ġdevices": 4734,
      "Ġemployees": 4735,
      "Ġcredit": 4736,
      "Ġarchitect": 4737,
      "Ġappreciate": 4738,
      "kind": 4739,
      "light": 4740,
      "nic": 4741,
      "ona": 4742,
      "Ġpowers": 4743,
      "rop": 4744,
      "Ġnotice": 4745,
      "Ġabandon": 4746,
      "ĠSon": 4747,
      "urely": 4748,
      "ĠBer": 4749,
      "Ġtraged": 4750,
      "Ġgenuine": 4751,
      "Ġbigger": 4752,
      "Ġexpectations": 4753,
      "while": 4754,
      "Ġconnected": 4755,
      "ĠSatan": 4756,
      "Ġsoftware": 4757,
      "OT": 4758,
      "Ġmoved": 4759,
      "Ġfederal": 4760,
      "Ġdut": 4761,
      "Ġexer": 4762,
      "Ġspread": 4763,
      "ĠHuman": 4764,
      "Ġletters": 4765,
      "Ġcondition": 4766,
      "Ġjudge": 4767,
      "Ġpurposes": 4768,
      "Ġradical": 4769,
      "ĠKingdom": 4770,
      "Ġagriculture": 4771,
      "Ġrapidly": 4772,
      "Ġclothes": 4773,
      "Actually": 4774,
      "inated": 4775,
      "Ġsound": 4776,
      "Ġcompare": 4777,
      "Ġclient": 4778,
      "Ġrefuse": 4779,
      "Ġorganized": 4780,
      "Ġordinary": 4781,
      "Ġconstruct": 4782,
      "Ġstatements": 4783,
      "Ġdouble": 4784,
      "Ġrecommendations": 4785,
      "Ġmovie": 4786,
      "ĠCyprus": 4787,
      "Especially": 4788,
      "Ġtonight": 4789,
      "Ġunusual": 4790,
      "een": 4791,
      "uild": 4792,
      "rehen": 4793,
      "Ġpen": 4794,
      "Ġgain": 4795,
      "Ġframe": 4796,
      "ĠCzech": 4797,
      "ĠEl": 4798,
      "Ġanywhere": 4799,
      "ĠHave": 4800,
      "Ġcondem": 4801,
      "Ġviews": 4802,
      "Ġterrorist": 4803,
      "Ġskills": 4804,
      "Ġemerg": 4805,
      "Ġgradually": 4806,
      "Ġpie": 4807,
      "entions": 4808,
      "Ġleaving": 4809,
      "aches": 4810,
      "ĠFirst": 4811,
      "Ġactual": 4812,
      "ĠWhen": 4813,
      "Ġimmigrants": 4814,
      "Ġwinter": 4815,
      "199": 4816,
      "ĠPrime": 4817,
      "Ġcolor": 4818,
      "Ġpicture": 4819,
      "Furthermore": 4820,
      "NA": 4821,
      "iar": 4822,
      "iant": 4823,
      "mas": 4824,
      "oo": 4825,
      "Ġtree": 4826,
      "Ġthee": 4827,
      "Ġdear": 4828,
      "astic": 4829,
      "Ġmyster": 4830,
      "abil": 4831,
      "Ġkilling": 4832,
      "Ġpaying": 4833,
      "Ġclosely": 4834,
      "Ġoperations": 4835,
      "Ġconflicts": 4836,
      "Ġannounced": 4837,
      "Ġplatforms": 4838,
      "European": 4839,
      "ASA": 4840,
      "Ġprecisely": 4841,
      "Ġwat": 4842,
      "Ġmach": 4843,
      "Ġeuro": 4844,
      "Ġlic": 4845,
      "Ġlines": 4846,
      "uries": 4847,
      "ĠAir": 4848,
      "ĠRoman": 4849,
      "Ġcollabor": 4850,
      "Ġstatistics": 4851,
      "ĠBelarusian": 4852,
      "Ġuniversities": 4853,
      "Ġidentified": 4854,
      "Ġdetermined": 4855,
      "Ġfilms": 4856,
      "ĠBlack": 4857,
      "iamond": 4858,
      "Ġrestrictions": 4859,
      "ĠArticle": 4860,
      "Reg": 4861,
      "but": 4862,
      "ky": 4863,
      "sh": 4864,
      "ounce": 4865,
      "Ġmigrants": 4866,
      "utral": 4867,
      "Ġhell": 4868,
      "Ġstupid": 4869,
      "ĠMold": 4870,
      "Ġprime": 4871,
      "abilities": 4872,
      "Ġcloud": 4873,
      "Ġbuildings": 4874,
      "Ġsurely": 4875,
      "Ġelimin": 4876,
      "Ġsales": 4877,
      "Ġrejected": 4878,
      "Ġbarri": 4879,
      "ijing": 4880,
      "):": 4881,
      "EC": 4882,
      "Rec": 4883,
      "Say": 4884,
      "zen": 4885,
      "Ġreward": 4886,
      "Thank": 4887,
      "Ġcontain": 4888,
      "ĠHere": 4889,
      "Ġunity": 4890,
      "ĠChildren": 4891,
      "Ġacadem": 4892,
      "Ġprovides": 4893,
      "Ġ99": 4894,
      "Ġgenerally": 4895,
      "Ġcontacts": 4896,
      "porary": 4897,
      "Ġphotos": 4898,
      "Ġtasks": 4899,
      "%.": 4900,
      "vation": 4901,
      "with": 4902,
      "yl": 4903,
      "Ġmicro": 4904,
      "lymp": 4905,
      "Ġdogs": 4906,
      "Ġrefere": 4907,
      "Ġinterview": 4908,
      "Ġdistance": 4909,
      "Ġexception": 4910,
      "Ġprospects": 4911,
      "Ġtouch": 4912,
      "ĠConstitution": 4913,
      "Nobody": 4914,
      "ares": 4915,
      "mar": 4916,
      "sess": 4917,
      "Ġweight": 4918,
      "Ġworried": 4919,
      "Ġrat": 4920,
      "Ġconfidence": 4921,
      "Ġincludes": 4922,
      "Ġapproved": 4923,
      "Ġ150": 4924,
      "Ġ1990": 4925,
      "Ġcrimes": 4926,
      "Ġwebsites": 4927,
      "Ġcomputers": 4928,
      "ĠPortug": 4929,
      "Ġbegun": 4930,
      "iver": 4931,
      "Ġsatell": 4932,
      "itc": 4933,
      "Ġang": 4934,
      "Ġweb": 4935,
      "ĠMor": 4936,
      "ĠGu": 4937,
      "Ġrom": 4938,
      "Ġjoy": 4939,
      "Ġdeserves": 4940,
      "Once": 4941,
      "Ġproduced": 4942,
      "Ġformed": 4943,
      "ibet": 4944,
      "Ġequally": 4945,
      "Ġconsidering": 4946,
      "ĠSwiss": 4947,
      "Ġcivilization": 4948,
      "coming": 4949,
      "ĠTwitter": 4950,
      "Ġexplanation": 4951,
      "ering": 4952,
      "Ġmoon": 4953,
      "edd": 4954,
      "ederation": 4955,
      "ignt": 4956,
      "Ġexam": 4957,
      "ĠCol": 4958,
      "ender": 4959,
      "Ġmankind": 4960,
      "Ġagencies": 4961,
      "Ġpref": 4962,
      "Ġowner": 4963,
      "Ġfeed": 4964,
      "Ġperspective": 4965,
      "Ġcourt": 4966,
      "Ġsupposed": 4967,
      "Ġadmit": 4968,
      "Ġreplaced": 4969,
      "osphere": 4970,
      "Ġexperienced": 4971,
      "Ġlegitimate": 4972,
      "ignty": 4973,
      "29": 4974,
      "Spe": 4975,
      "rete": 4976,
      "Ġhomes": 4977,
      "ici": 4978,
      "Ġgift": 4979,
      "ĠOur": 4980,
      "Ġforest": 4981,
      "Ġpromises": 4982,
      "Ġimproved": 4983,
      "Ġdoub": 4984,
      "Ġsupply": 4985,
      "Ġconsumer": 4986,
      "what": 4987,
      "Ġalternatives": 4988,
      "ĠAustralian": 4989,
      "Ġindividuals": 4990,
      "Ġboat": 4991,
      "Ġsky": 4992,
      "Ġwatching": 4993,
      "Ġcontribution": 4994,
      "Ġinstruments": 4995,
      "ĠPhil": 4996,
      "Ġships": 4997,
      "Ġcategory": 4998,
      "Nat": 4999,
      "OS": 5000,
      "Ġsister": 5001,
      "Ġheal": 5002,
      "usal": 5003,
      "Ġatm": 5004,
      "ĠEston": 5005,
      "Ġshouldn": 5006,
      "Ġdiscover": 5007,
      "Ġadvance": 5008,
      "Ġanswered": 5009,
      "Ġprosper": 5010,
      "Ġhouses": 5011,
      "Fortunately": 5012,
      ")?": 5013,
      "cast": 5014,
      "Ġbott": 5015,
      "Ġdy": 5016,
      "ndum": 5017,
      "usiness": 5018,
      "ĠSm": 5019,
      "ĠCal": 5020,
      "Ġshared": 5021,
      "osystem": 5022,
      "Ġlibr": 5023,
      "Ġrepublic": 5024,
      "Ġseconds": 5025,
      "Ġrestore": 5026,
      "Ġmemory": 5027,
      "ĠChristmas": 5028,
      "Ġdollar": 5029,
      "Ġuniversal": 5030,
      "ĠProt": 5031,
      "Ġobjective": 5032,
      "Ġcolon": 5033,
      "Ġgeop": 5034,
      "Ġproposals": 5035,
      "Ġsovereignty": 5036,
      "Comp": 5037,
      "De": 5038,
      "no": 5039,
      "isions": 5040,
      "Ġcas": 5041,
      "Ġreb": 5042,
      "Ġheavy": 5043,
      "ĠCont": 5044,
      "ection": 5045,
      "ours": 5046,
      "Ġadvert": 5047,
      "ĠOlymp": 5048,
      "Ġdefe": 5049,
      "irds": 5050,
      "Ġnaturally": 5051,
      "Ġdivided": 5052,
      "Ġterritories": 5053,
      "Ġexperiments": 5054,
      "Ġprisoners": 5055,
      "Ġlosses": 5056,
      "ĠParty": 5057,
      "ĠEnergy": 5058,
      "Ġmental": 5059,
      ".,": 5060,
      "fri": 5061,
      "iverse": 5062,
      "Ġwestern": 5063,
      "Ġmid": 5064,
      "Ġproved": 5065,
      "Ġsomehow": 5066,
      "apers": 5067,
      "ĠTibet": 5068,
      "Ġunfortunately": 5069,
      "ĠLife": 5070,
      "Ġrarely": 5071,
      "Ġconcent": 5072,
      "Ġtechnological": 5073,
      "Ġcapt": 5074,
      "Ġmaterials": 5075,
      "Ġbelongs": 5076,
      "Ġvacc": 5077,
      "Ġvirtual": 5078,
      "Ġbrok": 5079,
      "Ġframework": 5080,
      "Part": 5081,
      "RA": 5082,
      "Ġtired": 5083,
      "Ġoce": 5084,
      "Ġtoler": 5085,
      "Ġlif": 5086,
      "Ġneutral": 5087,
      "herlands": 5088,
      "acles": 5089,
      "Ġotherwise": 5090,
      "Ġevening": 5091,
      "Ġpregn": 5092,
      "Ġdifferently": 5093,
      "teen": 5094,
      "Ġsmaller": 5095,
      "Ġsubs": 5096,
      "Ġmathem": 5097,
      "Ġspecies": 5098,
      "ĠCommun": 5099,
      "Ġsusp": 5100,
      "Ġfulfill": 5101,
      "Ġemotional": 5102,
      "Ġmedicine": 5103,
      "ĠGroup": 5104,
      "Ġvolunte": 5105,
      "ĠBerlin": 5106,
      "Ġreferendum": 5107,
      "Besides": 5108,
      "IV": 5109,
      "Ob": 5110,
      "rish": 5111,
      "Ġsick": 5112,
      "Ġhair": 5113,
      "Ġsevent": 5114,
      "Think": 5115,
      "Which": 5116,
      "Ġfinish": 5117,
      "Ġ2019": 5118,
      "Ġelement": 5119,
      "ĠPalestine": 5120,
      "Ġclasses": 5121,
      "Ġoperating": 5122,
      "Ġselling": 5123,
      "Ġidentify": 5124,
      "Ġlaunched": 5125,
      "araoh": 5126,
      "Ġassociated": 5127,
      "26": 5128,
      "Germ": 5129,
      "Mean": 5130,
      "RE": 5131,
      "rors": 5132,
      "ront": 5133,
      "ances": 5134,
      "Ġmuseum": 5135,
      "Ġfaced": 5136,
      "Ġdance": 5137,
      "Ġdivers": 5138,
      "oples": 5139,
      "ĠSing": 5140,
      "Ġimper": 5141,
      "ĠWith": 5142,
      "Ġperce": 5143,
      "Ġ33": 5144,
      "Ġraised": 5145,
      "Ġstudied": 5146,
      "Ġmainly": 5147,
      "Ġpassen": 5148,
      "Ġbehalf": 5149,
      "ĠSpirit": 5150,
      "ĠAustria": 5151,
      "Ġspecifically": 5152,
      "Ġrevolutionary": 5153,
      "ĠNetherlands": 5154,
      "celona": 5155,
      "ĠKyrgyzstan": 5156,
      "lor": 5157,
      "Ġ?": 5158,
      "itute": 5159,
      "enn": 5160,
      "adise": 5161,
      "Ġlear": 5162,
      "Ġusual": 5163,
      "Ġrise": 5164,
      "Ġvital": 5165,
      "ĠRed": 5166,
      "ĠReg": 5167,
      "ĠHar": 5168,
      "ĠHoly": 5169,
      "ĠJames": 5170,
      "rupt": 5171,
      "Ġdemands": 5172,
      "Ġcreates": 5173,
      "ĠInst": 5174,
      "ĠSea": 5175,
      "Ġconcerns": 5176,
      "Ġcontribute": 5177,
      "Ġopposite": 5178,
      "Ġfigures": 5179,
      "80": 5180,
      "EU": 5181,
      "Given": 5182,
      "Ġcode": 5183,
      "ening": 5184,
      "Ġbure": 5185,
      "Ġeuros": 5186,
      "idge": 5187,
      "âĢĿ?": 5188,
      "resh": 5189,
      "Ġresidents": 5190,
      "Ġevalu": 5191,
      "Ġobst": 5192,
      "Ġdrive": 5193,
      "Unlike": 5194,
      "Ġneighbors": 5195,
      "Ġweakness": 5196,
      "Ġproposal": 5197,
      "Ġhumans": 5198,
      "ĠPlan": 5199,
      "Ġstreet": 5200,
      "Ġintellig": 5201,
      "Ġcooperate": 5202,
      "Ġaccordance": 5203,
      "Ġelectronic": 5204,
      "Ġatmosphere": 5205,
      "500": 5206,
      "Note": 5207,
      "ses": 5208,
      "iny": 5209,
      "Ġsort": 5210,
      "Ġeast": 5211,
      "urches": 5212,
      "ntil": 5213,
      "emen": 5214,
      "Though": 5215,
      "Ġpeoples": 5216,
      "Ġvia": 5217,
      "ĠJust": 5218,
      "Ġproducers": 5219,
      "Ġconcrete": 5220,
      "Ġproductive": 5221,
      "Ġcapac": 5222,
      "Ġfunctions": 5223,
      "Ġauthority": 5224,
      "Ġsignificantly": 5225,
      "Ġsurvival": 5226,
      "inistry": 5227,
      "sequently": 5228,
      "Ġcollective": 5229,
      "Ġinstrument": 5230,
      "Ġdeny": 5231,
      "Ġpreparing": 5232,
      "Ġecosystem": 5233,
      "Ġtragedy": 5234,
      "aul": 5235,
      "Ġsitting": 5236,
      "Ġbaby": 5237,
      "Ġhidden": 5238,
      "Ġmeat": 5239,
      "Ġknowing": 5240,
      "Ġsport": 5241,
      "izes": 5242,
      "ĠTom": 5243,
      "aged": 5244,
      "Ġ31": 5245,
      "Ġsurr": 5246,
      "Ġsolar": 5247,
      "Ġdefense": 5248,
      "arma": 5249,
      "Ġvisitors": 5250,
      "Ġdivor": 5251,
      "mbly": 5252,
      "Ġcalc": 5253,
      "Ġsuspect": 5254,
      "Ġcomfortable": 5255,
      "ĠLibya": 5256,
      "Ġfemale": 5257,
      "Ġfle": 5258,
      "Ġdraw": 5259,
      "Ġlies": 5260,
      "Ġislands": 5261,
      "elp": 5262,
      "acle": 5263,
      "Ġagency": 5264,
      "Ġdisaster": 5265,
      "ĠKong": 5266,
      "Ġremoved": 5267,
      "arks": 5268,
      "Ġ36": 5269,
      "Ġunderstands": 5270,
      "Ġimage": 5271,
      "Ġdiscussing": 5272,
      "Ġacceptable": 5273,
      "Ġguarantees": 5274,
      "Ġexclud": 5275,
      "Ġchannel": 5276,
      "Ġrepeatedly": 5277,
      "ĠNorway": 5278,
      "ĠSerbia": 5279,
      "Ġresearchers": 5280,
      "arency": 5281,
      "rehens": 5282,
      "23": 5283,
      "70": 5284,
      "En": 5285,
      "Iran": 5286,
      "Ġfant": 5287,
      "Ġdiversity": 5288,
      "Ġstaff": 5289,
      "ĠAlex": 5290,
      "ĠCity": 5291,
      "ĠMer": 5292,
      "ript": 5293,
      "ĠOf": 5294,
      "Ġphr": 5295,
      "Ġacknow": 5296,
      "Ġopening": 5297,
      "Ġcenters": 5298,
      "ibly": 5299,
      "ĠAzerbaijani": 5300,
      "Ġsuppli": 5301,
      "Ġarmed": 5302,
      "Ġpainful": 5303,
      "Ġvoted": 5304,
      "Ġdrug": 5305,
      "Ġdynam": 5306,
      "ma": 5307,
      "oubt": 5308,
      "ica": 5309,
      "eties": 5310,
      "Ġsection": 5311,
      "Ġadequ": 5312,
      "Ġherself": 5313,
      "Ġrecall": 5314,
      "Ġrac": 5315,
      "Ġfeels": 5316,
      "Ġorders": 5317,
      "Ġdestruction": 5318,
      "Ġdesigned": 5319,
      "Ġprayer": 5320,
      "Ġdebate": 5321,
      "Ġprimarily": 5322,
      "Ġflexible": 5323,
      "Ġconsciousness": 5324,
      "Ġdiscrimination": 5325,
      "Ġangry": 5326,
      "28": 5327,
      "John": 5328,
      "Mr": 5329,
      "Tell": 5330,
      "la": 5331,
      "nes": 5332,
      "inct": 5333,
      "Ġhit": 5334,
      "ingu": 5335,
      "ula": 5336,
      "ĠMinistry": 5337,
      "ĠRights": 5338,
      "Ġintention": 5339,
      "ago": 5340,
      "agraph": 5341,
      "ĠDep": 5342,
      "Ġunknown": 5343,
      "ensions": 5344,
      "Ġinvited": 5345,
      "ailand": 5346,
      "Ġlessons": 5347,
      "they": 5348,
      "Ġ75": 5349,
      "Ġweapon": 5350,
      "Ġobjectives": 5351,
      "aneously": 5352,
      "Ġfairly": 5353,
      "Ġadministr": 5354,
      "Ġtrends": 5355,
      "Ġtroops": 5356,
      "Ġfruit": 5357,
      "vis": 5358,
      "Ġsons": 5359,
      "Ġreven": 5360,
      "Ġcancer": 5361,
      "Ġdoors": 5362,
      "olutions": 5363,
      "Ġjoke": 5364,
      "Ġpossess": 5365,
      "Ġconserv": 5366,
      "Ġsupports": 5367,
      "Ġempt": 5368,
      "Ġsolved": 5369,
      "Ġrepresents": 5370,
      "Ġoperate": 5371,
      "Ġmessages": 5372,
      "Still": 5373,
      "Ġintegrated": 5374,
      "Ġgeopolitical": 5375,
      "Obviously": 5376,
      "Te": 5377,
      "eff": 5378,
      "hether": 5379,
      "Ġcert": 5380,
      "orial": 5381,
      "Ġthirty": 5382,
      "Ġtoward": 5383,
      "amed": 5384,
      "Ġweren": 5385,
      "Ġrelatives": 5386,
      "ovo": 5387,
      "Ġentered": 5388,
      "Ġwarn": 5389,
      "Ġsignal": 5390,
      "Ġsecrets": 5391,
      "Ġpayment": 5392,
      "Ġnecessarily": 5393,
      "Ġauthors": 5394,
      "Ġmoments": 5395,
      "Ġsooner": 5396,
      "Ġequality": 5397,
      "Ġoppon": 5398,
      "Ġfriendly": 5399,
      "Ġboys": 5400,
      "Ġapplies": 5401,
      "Ġfacing": 5402,
      "Ġconclusion": 5403,
      "Ġcomplicated": 5404,
      "Ġtrouble": 5405,
      "Ġmaximum": 5406,
      "?âĢĻ": 5407,
      "Su": 5408,
      "bon": 5409,
      "part": 5410,
      "Ġwedd": 5411,
      "isations": 5412,
      "Ġdiamond": 5413,
      "Ġprohib": 5414,
      "ulations": 5415,
      "Its": 5416,
      "ĠNaz": 5417,
      "well": 5418,
      "Ġfinding": 5419,
      "Ġdiscussions": 5420,
      "Nothing": 5421,
      "Ġaccounts": 5422,
      "Ġrepresentative": 5423,
      "Ġseeking": 5424,
      "Ġunclear": 5425,
      "Ġhyp": 5426,
      "Ġlucky": 5427,
      "Ġregistered": 5428,
      "Meanwhile": 5429,
      "rehensive": 5430,
      "Bl": 5431,
      "do": 5432,
      "face": 5433,
      "orters": 5434,
      "Ġdin": 5435,
      "asant": 5436,
      "iforn": 5437,
      "usion": 5438,
      "Thanks": 5439,
      "ĠDemoc": 5440,
      "Ġaccomp": 5441,
      "Ġwherever": 5442,
      "Ġrare": 5443,
      "Ġprotocol": 5444,
      "Ġleads": 5445,
      "Ġprotecting": 5446,
      "Ġcenturies": 5447,
      "ĠGermans": 5448,
      "Ġcarefully": 5449,
      "Ġkinds": 5450,
      "Ġcitizenship": 5451,
      "Ġtaxes": 5452,
      "ĠCanadian": 5453,
      "Ġhistoric": 5454,
      "Ġmultilateral": 5455,
      "Ġgods": 5456,
      "Ġencourage": 5457,
      "Ġfarmers": 5458,
      "ĠArgentina": 5459,
      "Imagine": 5460,
      "Four": 5461,
      "Ġ,": 5462,
      "rel": 5463,
      "Ġbreat": 5464,
      "Ġdies": 5465,
      "icip": 5466,
      "Ġbear": 5467,
      "Ġproof": 5468,
      "ĠEvery": 5469,
      "umn": 5470,
      "Ġsomebody": 5471,
      "apore": 5472,
      "Ġunable": 5473,
      "ĠLove": 5474,
      "ensus": 5475,
      "Ġhelpful": 5476,
      "Ġinvite": 5477,
      "Ġbrief": 5478,
      "Ġblind": 5479,
      "Ġinvestor": 5480,
      "Ġreasonable": 5481,
      "Ġpoll": 5482,
      "Ġaccessible": 5483,
      "Ġachievements": 5484,
      "ĠGeorgian": 5485,
      "Russian": 5486,
      "ĠFinland": 5487,
      "ĠHungary": 5488,
      "Ġescape": 5489,
      "usalem": 5490,
      "100": 5491,
      "Five": 5492,
      "Make": 5493,
      "See": 5494,
      "Until": 5495,
      "real": 5496,
      "itler": 5497,
      "Ġbra": 5498,
      "Ġdim": 5499,
      "âĢĭ": 5500,
      "urg": 5501,
      "ĠGlobal": 5502,
      "ĠRober": 5503,
      "oken": 5504,
      "ĠNASA": 5505,
      "Ġdiscipl": 5506,
      "Ġoverall": 5507,
      "Almost": 5508,
      "Ġpotentially": 5509,
      "Ġsimult": 5510,
      "Ġvictim": 5511,
      "Ġspending": 5512,
      "Ġfailure": 5513,
      "Ġdefinition": 5514,
      "Ġaffected": 5515,
      "Ġobligations": 5516,
      "Ġtransparent": 5517,
      "Ġaccurate": 5518,
      "Bel": 5519,
      "Pr": 5520,
      "Under": 5521,
      "kh": 5522,
      "ms": 5523,
      "pire": 5524,
      "wan": 5525,
      "Ġfill": 5526,
      "Ġfresh": 5527,
      "Ġpension": 5528,
      "Ġeternal": 5529,
      "Ġlaug": 5530,
      "see": 5531,
      "Ġforb": 5532,
      "Ġstages": 5533,
      "amas": 5534,
      "ĠMac": 5535,
      "elve": 5536,
      "ĠNig": 5537,
      "Ġactors": 5538,
      "ĠUniversity": 5539,
      "Ġlesson": 5540,
      "Ġpercentage": 5541,
      "Ġteams": 5542,
      "Ġcauses": 5543,
      "Ġcommunicate": 5544,
      "Ġdomin": 5545,
      "ĠOrgan": 5546,
      "Ġtransparency": 5547,
      "Ġcandidates": 5548,
      "Ġromantic": 5549,
      "Ġbureauc": 5550,
      "22": 5551,
      "35": 5552,
      "dict": 5553,
      "min": 5554,
      "pert": 5555,
      "Ġwake": 5556,
      "Ġwine": 5557,
      "Ġbound": 5558,
      "ĠIrish": 5559,
      "Ġwors": 5560,
      "Three": 5561,
      "that": 5562,
      "Ġbeloved": 5563,
      "Ġincident": 5564,
      "Ġapparent": 5565,
      "Soon": 5566,
      "Ġfuel": 5567,
      "Ġphase": 5568,
      "Ġguide": 5569,
      "Ġtraditions": 5570,
      "Ġchoices": 5571,
      "Ġpassport": 5572,
      "Ġbanned": 5573,
      "ĠThailand": 5574,
      "Ġannounce": 5575,
      "which": 5576,
      "Ġuncertain": 5577,
      "Ġprocedure": 5578,
      "Ġdamage": 5579,
      "Ġmountains": 5580,
      "Ġpossibly": 5581,
      "About": 5582,
      "Ġphenomenon": 5583,
      "Ġempty": 5584,
      "'.": 5585,
      "Cons": 5586,
      "EN": 5587,
      "Next": 5588,
      "coh": 5589,
      "Ġast": 5590,
      "Ġwise": 5591,
      "Ġfans": 5592,
      "Ġet": 5593,
      "Ġshame": 5594,
      "ĠMother": 5595,
      "ume": 5596,
      "Ġquiet": 5597,
      "Ġsupporting": 5598,
      "Ġsmile": 5599,
      "Ġreaders": 5600,
      "Ġsafer": 5601,
      "Ġpromot": 5602,
      "Ġ1991": 5603,
      "Ġairport": 5604,
      "Ġtests": 5605,
      "ĠQu": 5606,
      "Ġstreets": 5607,
      "Ġmutual": 5608,
      "ĠCaliforn": 5609,
      "Ġcapacity": 5610,
      "cohol": 5611,
      "mon": 5612,
      "orry": 5613,
      "ario": 5614,
      "Ġnice": 5615,
      "imal": 5616,
      "Ġdeleg": 5617,
      "Ġmanip": 5618,
      "ĠUs": 5619,
      "Ġquant": 5620,
      "Ġregret": 5621,
      "Ġ2017": 5622,
      "Ġrock": 5623,
      "Ġinvesting": 5624,
      "Ġsocieties": 5625,
      "ĠAss": 5626,
      "Ġcapabilities": 5627,
      "Ġflight": 5628,
      "Ġmissions": 5629,
      "Ġinnoc": 5630,
      "Ġignored": 5631,
      "Ġcategories": 5632,
      "Ġintroduced": 5633,
      "Ġagricultural": 5634,
      "ĠLatv": 5635,
      "Ġadults": 5636,
      "ĠJerusalem": 5637,
      "Ġsurround": 5638,
      "oubtedly": 5639,
      "Tur": 5640,
      "Take": 5641,
      "Ġbomb": 5642,
      "Ġdress": 5643,
      "Ġdying": 5644,
      "edic": 5645,
      "ingly": 5646,
      "lete": 5647,
      "Ġweather": 5648,
      "illion": 5649,
      "rol": 5650,
      "Ġstation": 5651,
      "ortion": 5652,
      "accept": 5653,
      "ĠDut": 5654,
      "Ġpreserve": 5655,
      "Ġconfront": 5656,
      "ĠArmy": 5657,
      "Ġsimpl": 5658,
      "Ġlargely": 5659,
      "Ġforeigners": 5660,
      "Ġelected": 5661,
      "Ġguaranteed": 5662,
      "Ġdeeper": 5663,
      "Ġcorrectly": 5664,
      "Ġdiseases": 5665,
      "Ġcalm": 5666,
      "Ġdemonstrate": 5667,
      "Ġcommitment": 5668,
      "Ġkingdom": 5669,
      "Ġvillage": 5670,
      "Ġdeliver": 5671,
      "ĠLithuania": 5672,
      "ĠMoldova": 5673,
      "ĠHereafter": 5674,
      "44": 5675,
      "Gen": 5676,
      "lov": 5677,
      "erved": 5678,
      "icago": 5679,
      "Ġgun": 5680,
      "ĠIM": 5681,
      "Ġfort": 5682,
      "ĠCreat": 5683,
      "ĠEuro": 5684,
      "Ġcomprehensive": 5685,
      "ĠTH": 5686,
      "Ġclar": 5687,
      "Ġsym": 5688,
      "assy": 5689,
      "Ġplane": 5690,
      "Ġreturning": 5691,
      "Ġsocialist": 5692,
      "Ġstrongly": 5693,
      "ajik": 5694,
      "Ġreligions": 5695,
      "Ġmanager": 5696,
      "Ġbillions": 5697,
      "Ġidentity": 5698,
      "Ġcease": 5699,
      "Ġinnovative": 5700,
      "Ġdeclared": 5701,
      "Ġcommitments": 5702,
      "Ġintellect": 5703,
      "Ġcounter": 5704,
      "Ġelectricity": 5705,
      "ĠBarcelona": 5706,
      "Ġessential": 5707,
      "Ġpiece": 5708,
      "90": 5709,
      "Ver": 5710,
      "isc": 5711,
      "Ġbeings": 5712,
      "Ġrenew": 5713,
      "ĠIS": 5714,
      "Ġwithd": 5715,
      "Ġsuitable": 5716,
      "ĠSystem": 5717,
      "Ġric": 5718,
      "Ġvast": 5719,
      "ĠDNA": 5720,
      "ĠKnow": 5721,
      "assador": 5722,
      "Ġpersons": 5723,
      "Ġ48": 5724,
      "Ġ400": 5725,
      "ĠIsraelis": 5726,
      "Ġadvanced": 5727,
      "Ġturns": 5728,
      "ĠFrid": 5729,
      "Ġphysically": 5730,
      "ĠBeijing": 5731,
      "Ġtrees": 5732,
      "Ġprocedures": 5733,
      "Ġcomponents": 5734,
      "Ġrevealed": 5735,
      "Ġphilosophy": 5736,
      "Naturally": 5737,
      "ĠSingapore": 5738,
      "TI": 5739,
      "lantic": 5740,
      "pace": 5741,
      "Ġtick": 5742,
      "rection": 5743,
      "Ġsen": 5744,
      "Ġhun": 5745,
      "Ġrein": 5746,
      "ĠCr": 5747,
      "Ġours": 5748,
      "cont": 5749,
      "Ġgrant": 5750,
      "ube": 5751,
      "Ġoffices": 5752,
      "Ġbusy": 5753,
      "Ġleading": 5754,
      "aiwan": 5755,
      "Ġintervention": 5756,
      "Ġpromote": 5757,
      "Ġmissing": 5758,
      "ĠAbout": 5759,
      "Ġhopes": 5760,
      "ĠLatin": 5761,
      "ĠBelgium": 5762,
      "embered": 5763,
      "Ġentrepreneurs": 5764,
      "99": 5765,
      "LL": 5766,
      "aust": 5767,
      "ĠÂ": 5768,
      "erg": 5769,
      "eng": 5770,
      "Ġmine": 5771,
      "Ġfought": 5772,
      "Ġexhib": 5773,
      "ĠSal": 5774,
      "osing": 5775,
      "Ġspoken": 5776,
      "ables": 5777,
      "Ġchances": 5778,
      "Ġacts": 5779,
      "Ġoutcome": 5780,
      "ĠKiev": 5781,
      "Ġremove": 5782,
      "Ġremembered": 5783,
      "ĠThese": 5784,
      "ĠAsse": 5785,
      "Ġpassion": 5786,
      "ĠTrans": 5787,
      "Ġbox": 5788,
      "Ġclaims": 5789,
      "ĠConvention": 5790,
      "Ġunlikely": 5791,
      "Ġargument": 5792,
      "Ġshoot": 5793,
      "Ġconsistent": 5794,
      "Ġmanufacturers": 5795,
      "ĠEstonia": 5796,
      "Ġmathemat": 5797,
      "21": 5798,
      "27": 5799,
      "ege": 5800,
      "Ġice": 5801,
      "orter": 5802,
      "otic": 5803,
      "ether": 5804,
      "osovo": 5805,
      "Ġcha": 5806,
      "Ġplants": 5807,
      "ĠHong": 5808,
      "Ġresource": 5809,
      "Ġcoinc": 5810,
      "Ġ37": 5811,
      "Ġtransact": 5812,
      "Ġinformed": 5813,
      "remlin": 5814,
      "Ġplanets": 5815,
      "Ġcustomer": 5816,
      "Ġopinions": 5817,
      "Ġreduced": 5818,
      "Ġdeeply": 5819,
      "Ġexpression": 5820,
      "Ġfamiliar": 5821,
      "Anyone": 5822,
      "Ġregulations": 5823,
      "ĠSecret": 5824,
      "Ġincredibly": 5825,
      "Ġcopy": 5826,
      "Ġcandidate": 5827,
      "Ġwishes": 5828,
      "Ġlearning": 5829,
      "Ġsimultaneously": 5830,
      "kay": 5831,
      "mad": 5832,
      "itage": 5833,
      "Ġdiet": 5834,
      "aration": 5835,
      "Ġcongr": 5836,
      "using": 5837,
      "Ġchamp": 5838,
      "Ġplays": 5839,
      "ĠFund": 5840,
      "aret": 5841,
      "Ġconsensus": 5842,
      "Ġsignals": 5843,
      "Ġemissions": 5844,
      "Ġdefine": 5845,
      "Ġ95": 5846,
      "Ġcultures": 5847,
      "Ġflights": 5848,
      "Ġrecognition": 5849,
      "Ġsending": 5850,
      "Ġlogical": 5851,
      "Ġflexibility": 5852,
      "Ġfrequently": 5853,
      "Ġcrucial": 5854,
      "ĠCalifornia": 5855,
      "Ġcongrat": 5856,
      "App": 5857,
      "IA": 5858,
      "],": 5859,
      "word": 5860,
      "reced": 5861,
      "Ġswe": 5862,
      "Ġdad": 5863,
      "alax": 5864,
      "ley": 5865,
      "Ġforth": 5866,
      "anda": 5867,
      "ander": 5868,
      "Ġcomprom": 5869,
      "ĠDen": 5870,
      "itionally": 5871,
      "ĠKosovo": 5872,
      "Ġfewer": 5873,
      "Ġformal": 5874,
      "Ġpayments": 5875,
      "Ġabsence": 5876,
      "Ġconsumption": 5877,
      "Ġhospitals": 5878,
      "Ġcycle": 5879,
      "Ġethnic": 5880,
      "Ġinstitutional": 5881,
      "respond": 5882,
      "Ġvehicles": 5883,
      "Ġinevitable": 5884,
      "iciency": 5885,
      "Ġsympt": 5886,
      "ging": 5887,
      "int": 5888,
      "reement": 5889,
      "ani": 5890,
      "Ġfrag": 5891,
      "Ġinhab": 5892,
      "Ġhung": 5893,
      "ilk": 5894,
      "ĠEur": 5895,
      "ending": 5896,
      "asters": 5897,
      "Ġtries": 5898,
      "Ġplant": 5899,
      "Ġenorm": 5900,
      "ĠChicago": 5901,
      "ĠKremlin": 5902,
      "Ġtrag": 5903,
      "Ġappoint": 5904,
      "Ġpolitically": 5905,
      "Ġfool": 5906,
      "Ġblame": 5907,
      "Ġprotest": 5908,
      "Ġunto": 5909,
      "Ġflo": 5910,
      "Ġprivile": 5911,
      "Ġsale": 5912,
      "Others": 5913,
      "Ġsubstant": 5914,
      "Ġdecentral": 5915,
      "Ġtitle": 5916,
      "ĠFriday": 5917,
      "ĠAssembly": 5918,
      "Add": 5919,
      "IC": 5920,
      "Life": 5921,
      "Res": 5922,
      "can": 5923,
      "rat": 5924,
      "rian": 5925,
      "Ã©": 5926,
      "Ġiron": 5927,
      "Ġske": 5928,
      "Ġfake": 5929,
      "Ġtoys": 5930,
      "Ġgather": 5931,
      "iders": 5932,
      "Ġstore": 5933,
      "Ġsectors": 5934,
      "ĠSan": 5935,
      "ĠCour": 5936,
      "ĠCount": 5937,
      "Ġmerely": 5938,
      "Ġmanner": 5939,
      "Ġwarning": 5940,
      "Ġorganisations": 5941,
      "Ġmedium": 5942,
      "Ġinsist": 5943,
      "Ġdetect": 5944,
      "Ġlimits": 5945,
      "ĠGeorge": 5946,
      "Ġparall": 5947,
      "Ġcapitalism": 5948,
      "Ġprogrammes": 5949,
      "Ġargue": 5950,
      "ĠMonday": 5951,
      "ĠWilliam": 5952,
      "Ġsovereign": 5953,
      "Ġminority": 5954,
      "Ġresistance": 5955,
      "Ġwedding": 5956,
      "recedented": 5957,
      "Int": 5958,
      "Putin": 5959,
      "economic": 5960,
      "med": 5961,
      "atures": 5962,
      "Ġboss": 5963,
      "Ġeating": 5964,
      "Ġalcohol": 5965,
      "ĠSun": 5966,
      "Ġshut": 5967,
      "Through": 5968,
      "Ġchurches": 5969,
      "Ġpartly": 5970,
      "ĠFederal": 5971,
      "ĠTajik": 5972,
      "ĠDub": 5973,
      "...]": 5974,
      "Ġwarned": 5975,
      "Ġlots": 5976,
      "Ġproviding": 5977,
      "Ġmarry": 5978,
      "Ġsummit": 5979,
      "Ġparagraph": 5980,
      "Ġwelcom": 5981,
      "Ġlocated": 5982,
      "Ġtargets": 5983,
      "Ġcurrencies": 5984,
      "Ġcriminals": 5985,
      "Ġmechanisms": 5986,
      "Ġisolated": 5987,
      "Ġsacr": 5988,
      "Ġmysterious": 5989,
      "Ġacademic": 5990,
      "ĠDutch": 5991,
      "fin": 5992,
      "atri": 5993,
      "ancial": 5994,
      "Ġbesides": 5995,
      "Ġinher": 5996,
      "icy": 5997,
      "ids": 5998,
      "Ġstri": 5999,
      "Ġasks": 6000,
      "oret": 6001,
      "Ġintentions": 6002,
      "Ġeveryday": 6003,
      "Ġresolved": 6004,
      "ĠJuan": 6005,
      "Ġunited": 6006,
      "Ġunaccept": 6007,
      "Ġdisag": 6008,
      "Ġ2018": 6009,
      "Ġ2001": 6010,
      "Ġcorrespond": 6011,
      "Ġweekend": 6012,
      "ĠIndones": 6013,
      "Ġ1998": 6014,
      "Ġcriteria": 6015,
      "Ġtesting": 6016,
      "Ġarms": 6017,
      "Ġeducational": 6018,
      "Ġreported": 6019,
      "Ġimmediate": 6020,
      "Ġobserve": 6021,
      "Ġdrinking": 6022,
      "Ġera": 6023,
      "Otherwise": 6024,
      "Ġbalanced": 6025,
      "Ġtemporary": 6026,
      "Ġapplication": 6027,
      "Ġassessment": 6028,
      "Ġpossibilities": 6029,
      "OU": 6030,
      "Very": 6031,
      "fare": 6032,
      "reet": 6033,
      "Ġcatch": 6034,
      "Ġpick": 6035,
      "arl": 6036,
      "asion": 6037,
      "Ġgender": 6038,
      "Ġsup": 6039,
      "ĠMember": 6040,
      "Ġanybody": 6041,
      "ogether": 6042,
      "ĠTaiwan": 6043,
      "Ġfeet": 6044,
      "luding": 6045,
      "Ġassure": 6046,
      "Ġfollowed": 6047,
      "Ġyounger": 6048,
      "Ġpurs": 6049,
      "Ġ1992": 6050,
      "radict": 6051,
      "Ġannual": 6052,
      "Ġstructures": 6053,
      "eban": 6054,
      "Ġdarkness": 6055,
      "Ġlogic": 6056,
      "Ġpunishment": 6057,
      "friend": 6058,
      "DP": 6059,
      "Has": 6060,
      "che": 6061,
      "eous": 6062,
      "va": 6063,
      "Ġwaste": 6064,
      "onna": 6065,
      "ana": 6066,
      "Ġlady": 6067,
      "utation": 6068,
      "etter": 6069,
      "etary": 6070,
      "Ġste": 6071,
      "raight": 6072,
      "Ġshop": 6073,
      "Ġshape": 6074,
      "ĠBang": 6075,
      "ĠHer": 6076,
      "Ġpreced": 6077,
      "enses": 6078,
      "ĠOS": 6079,
      "Ġphones": 6080,
      "Ġimag": 6081,
      "ployment": 6082,
      "Ġnewsp": 6083,
      "ĠTrump": 6084,
      "Ġemployment": 6085,
      "Ġconvince": 6086,
      "Ġpublish": 6087,
      "Ġapart": 6088,
      "Ġprimary": 6089,
      "Ġconducted": 6090,
      "Ġrobots": 6091,
      "standing": 6092,
      "Ġselected": 6093,
      "Ġexclusively": 6094,
      "--": 6095,
      "President": 6096,
      "Sim": 6097,
      "Surely": 6098,
      "Whether": 6099,
      "fast": 6100,
      "father": 6101,
      "ference": 6102,
      "volution": 6103,
      "Ġtend": 6104,
      "atter": 6105,
      "Ġcards": 6106,
      "Ġthy": 6107,
      "Ġfaces": 6108,
      "Ġnamed": 6109,
      "vey": 6110,
      "illions": 6111,
      "Ġround": 6112,
      "...âĢĿ": 6113,
      "Ġjur": 6114,
      "Ġagents": 6115,
      "unk": 6116,
      "Ġcontradict": 6117,
      "Ġintend": 6118,
      "Ġresolve": 6119,
      "Ġtea": 6120,
      "Ġheritage": 6121,
      "Ġ32": 6122,
      "Ġrain": 6123,
      "Ġshowing": 6124,
      "Ġexplore": 6125,
      "ĠHell": 6126,
      "Ġcheaper": 6127,
      "Ġspeaks": 6128,
      "Ġ1994": 6129,
      "Ġelsewhere": 6130,
      "Ġimproving": 6131,
      "Ġeye": 6132,
      "ĠAlban": 6133,
      "Ġbread": 6134,
      "Ġerrors": 6135,
      "Ġadvantages": 6136,
      "Ġautomatically": 6137,
      "Ġshoes": 6138,
      "Ġcomponent": 6139,
      "Ġproperly": 6140,
      "Ġhurt": 6141,
      "Ġautonomy": 6142,
      "Ġlawyers": 6143,
      "Ġbarriers": 6144,
      "Ġadequate": 6145,
      "ĠRobert": 6146,
      "Ġhungry": 6147,
      "Ġenormous": 6148,
      "Ġtragic": 6149,
      "Belie": 6150,
      "Pre": 6151,
      "TO": 6152,
      "gor": 6153,
      "yes": 6154,
      "Ġcard": 6155,
      "Ġinner": 6156,
      "Ġdedic": 6157,
      "ĠAnt": 6158,
      "ems": 6159,
      "Ġath": 6160,
      "ĠMore": 6161,
      "ĠâĢĭ": 6162,
      "Ġunex": 6163,
      "itional": 6164,
      "Ġfinished": 6165,
      "Ġbases": 6166,
      "ĠYemen": 6167,
      "Ġslight": 6168,
      "Ġtreaty": 6169,
      "Ġfavour": 6170,
      "Ġdiplomacy": 6171,
      "Ġrequests": 6172,
      "Ġapolog": 6173,
      "ĠSwedish": 6174,
      "Ġmountain": 6175,
      "Ġunprecedented": 6176,
      "Ġscenario": 6177,
      "Among": 6178,
      "Ġduty": 6179,
      "lovak": 6180,
      "45": 6181,
      "Nor": 6182,
      "mitted": 6183,
      "ta": 6184,
      "zens": 6185,
      "Ġtact": 6186,
      "Ġfix": 6187,
      "Ġgamb": 6188,
      "ĠShe": 6189,
      "Ġfright": 6190,
      "ĠChe": 6191,
      "ĠCor": 6192,
      "ĠMoon": 6193,
      "ĠGood": 6194,
      "Ġloyal": 6195,
      "Ġspite": 6196,
      "ĠTreat": 6197,
      "ĠDec": 6198,
      "Ġguard": 6199,
      "Ġlegally": 6200,
      "Ġfriendship": 6201,
      "Ġartific": 6202,
      "Ġpoison": 6203,
      "Ġmovements": 6204,
      "Ġloses": 6205,
      "Ġsignificance": 6206,
      "Ġimprovements": 6207,
      "Ġlistening": 6208,
      "Ġhonor": 6209,
      "ĠJohnson": 6210,
      "force": 6211,
      "ĠHungarian": 6212,
      "Ġpsychological": 6213,
      "Ġaccomplish": 6214,
      "Ġcollaboration": 6215,
      "Ġpassengers": 6216,
      "Ġetc": 6217,
      "Ġinhabit": 6218,
      "AD": 6219,
      "EL": 6220,
      "Le": 6221,
      "Rather": 6222,
      "Try": 6223,
      "ein": 6224,
      "ka": 6225,
      "nel": 6226,
      "uham": 6227,
      "ximately": 6228,
      "Ġcore": 6229,
      "Ġpan": 6230,
      "eds": 6231,
      "Ġna": 6232,
      "Ġproven": 6233,
      "ules": 6234,
      "outhern": 6235,
      "ĠEm": 6236,
      "Ġjok": 6237,
      "Ġindirect": 6238,
      "Ġ38": 6239,
      "ception": 6240,
      "Ġcalling": 6241,
      "Ġcreatures": 6242,
      "Ġguid": 6243,
      "Ġscene": 6244,
      "Ġ1995": 6245,
      "ietnam": 6246,
      "ĠDevelop": 6247,
      "ifying": 6248,
      "Ġstudying": 6249,
      "Ġtypical": 6250,
      "Ġprayers": 6251,
      "Ġvoters": 6252,
      "ĠPharaoh": 6253,
      "Ġmassive": 6254,
      "Ġintroduce": 6255,
      "ĠPortugal": 6256,
      "Ġdoubts": 6257,
      "Ġlibrary": 6258,
      "Verily": 6259,
      "Ġsymptoms": 6260,
      "Ġparallel": 6261,
      ".[": 6262,
      "?!": 6263,
      "Good": 6264,
      "Hence": 6265,
      "Tw": 6266,
      "Women": 6267,
      "cest": 6268,
      "ek": 6269,
      "even": 6270,
      "rance": 6271,
      "Ġhat": 6272,
      "arians": 6273,
      "omin": 6274,
      "irt": 6275,
      "Ġsteal": 6276,
      "Ġ120": 6277,
      "Ġjail": 6278,
      "Ġpartially": 6279,
      "ĠLeban": 6280,
      "Ġclin": 6281,
      "seless": 6282,
      "Ġpersec": 6283,
      "Ġground": 6284,
      "Ġattitude": 6285,
      "anges": 6286,
      "Ġblue": 6287,
      "azon": 6288,
      "ĠHealth": 6289,
      "egro": 6290,
      "Ġmissed": 6291,
      "Ġdisappeared": 6292,
      "insk": 6293,
      "onym": 6294,
      "Ġinstructions": 6295,
      "Â».": 6296,
      "Ġhorse": 6297,
      "Ġparliamentary": 6298,
      "____": 6299,
      "Ġinvestigation": 6300,
      "Ġoccupation": 6301,
      "Ġmurder": 6302,
      "Ġcondemn": 6303,
      "Ġdefeat": 6304,
      "Ġunacceptable": 6305,
      "Know": 6306,
      "Ne": 6307,
      "None": 6308,
      "oice": 6309,
      "yp": 6310,
      "Ġtough": 6311,
      "Ġfis": 6312,
      "Ġholy": 6313,
      "urrent": 6314,
      "Ġprob": 6315,
      "Ġchapter": 6316,
      "Ġsole": 6317,
      "ĠGaz": 6318,
      "ĠDes": 6319,
      "Ġactor": 6320,
      "Ġbloc": 6321,
      "Ġefficiency": 6322,
      "bec": 6323,
      "being": 6324,
      "Ġdefined": 6325,
      "Answ": 6326,
      "Ġindustries": 6327,
      "Ġscared": 6328,
      "Ġdriving": 6329,
      "ught": 6330,
      "Ġinitially": 6331,
      "Ġfears": 6332,
      "Ġdivine": 6333,
      "Ġenjoyed": 6334,
      "Ġtreated": 6335,
      "Ġdemanded": 6336,
      "Ġrecommended": 6337,
      "Ġambitions": 6338,
      "Ġmultip": 6339,
      "Ġswear": 6340,
      "Ġperfectly": 6341,
      "Ġethical": 6342,
      "Ġcomparison": 6343,
      "Ġpackage": 6344,
      "ylum": 6345,
      "ĠOlympic": 6346,
      "khaz": 6347,
      "Find": 6348,
      "Later": 6349,
      "Tube": 6350,
      "Ġought": 6351,
      "Ġmap": 6352,
      "aring": 6353,
      "Ġep": 6354,
      "entle": 6355,
      "celer": 6356,
      "Ġstraight": 6357,
      "Ġexceed": 6358,
      "ptions": 6359,
      "ĠFederation": 6360,
      "ĠHome": 6361,
      "ĠHitler": 6362,
      "Ġcoins": 6363,
      "Ġvisible": 6364,
      "ĠVietnam": 6365,
      "Ġrestored": 6366,
      "Ġattacked": 6367,
      "Ġterritorial": 6368,
      "Ġ1980": 6369,
      "ragm": 6370,
      "Ġphoto": 6371,
      "Ġpolitician": 6372,
      "ĠShould": 6373,
      "Ġconversations": 6374,
      "Ġobtained": 6375,
      "Ġcoordin": 6376,
      "Ġslowly": 6377,
      "Ġwisdom": 6378,
      "Ġmercy": 6379,
      "Ġcamera": 6380,
      "Ġbroken": 6381,
      "Ġdinner": 6382,
      "gorith": 6383,
      "ĠâĢĭâĢĭ": 6384,
      "Cl": 6385,
      "Tom": 6386,
      "bits": 6387,
      "Ġsession": 6388,
      "isdict": 6389,
      "Ġthou": 6390,
      "Ġfro": 6391,
      "Ġancest": 6392,
      "open": 6393,
      "Ġdozens": 6394,
      "ola": 6395,
      "ĠSpe": 6396,
      "soft": 6397,
      "Ġcourage": 6398,
      "Ġanyway": 6399,
      "Ġintended": 6400,
      "ograp": 6401,
      "ĠDis": 6402,
      "Ġquarter": 6403,
      "formation": 6404,
      "Ġaccident": 6405,
      "anged": 6406,
      "Ġbridge": 6407,
      "tenegro": 6408,
      "Ġrail": 6409,
      "Ġgenetic": 6410,
      "Ġfollows": 6411,
      "Ġstanding": 6412,
      "Ġprofit": 6413,
      "prises": 6414,
      "Ġpresidential": 6415,
      "Ġharmony": 6416,
      "ĠEgyptian": 6417,
      "Ġteaching": 6418,
      "Ġhotels": 6419,
      "Ġdemonstrated": 6420,
      "Ġoccupied": 6421,
      "ĠMalays": 6422,
      "Ġaggressive": 6423,
      "ĠKurdish": 6424,
      "Ġwindow": 6425,
      "Ġdictators": 6426,
      "XXXXXXXXXXXXXXXX": 6427,
      "Ġarrested": 6428,
      "Regard": 6429,
      "Ġsubsid": 6430,
      "ĠCourt": 6431,
      "Ġpursue": 6432,
      "uhammad": 6433,
      "33": 6434,
      "?'": 6435,
      "bl": 6436,
      "eep": 6437,
      "rats": 6438,
      "Ġâ": 6439,
      "Ġairl": 6440,
      "Ġmad": 6441,
      "Ġfine": 6442,
      "Ġpra": 6443,
      "lling": 6444,
      "Ġholid": 6445,
      "Ġnav": 6446,
      "ĠAct": 6447,
      "embers": 6448,
      "ĠCons": 6449,
      "ĠGames": 6450,
      "Ġtheme": 6451,
      "Ġrates": 6452,
      "ĠBill": 6453,
      "ĠBob": 6454,
      "Ġexpans": 6455,
      "ĠNOT": 6456,
      "Ġadjust": 6457,
      "ĠJud": 6458,
      "ternational": 6459,
      "Ġregulation": 6460,
      "Ġincomp": 6461,
      "Ġinvolve": 6462,
      "Ġentry": 6463,
      "ertainly": 6464,
      "appy": 6465,
      "Ġpatience": 6466,
      "Ġmanagers": 6467,
      "Ġnorms": 6468,
      "Ġdealing": 6469,
      "Ġversions": 6470,
      "Ġcharge": 6471,
      "Ġ1989": 6472,
      "Ġblogs": 6473,
      "Ġexciting": 6474,
      "Ġfields": 6475,
      "ĠAbkhaz": 6476,
      "going": 6477,
      "Ġimpressive": 6478,
      "Ġtransformation": 6479,
      "Ġinterpretation": 6480,
      "Ġgeographical": 6481,
      "Ġpermission": 6482,
      "Ġmonitoring": 6483,
      "ĠAgreement": 6484,
      "Ġsatisfied": 6485,
      "Ġdriver": 6486,
      "Ġcorporate": 6487,
      "Ġcells": 6488,
      "Ġimperial": 6489,
      "Ġdivorce": 6490,
      "Ġadministrative": 6491,
      "Ġworship": 6492,
      "ĠCreator": 6493,
      "ĠCrime": 6494,
      "Pol": 6495,
      "mark": 6496,
      "time": 6497,
      "Ġsouth": 6498,
      "Ġsisters": 6499,
      "Ġcats": 6500,
      "Ġfilled": 6501,
      "Ġlands": 6502,
      "Ġgard": 6503,
      "operation": 6504,
      "Ġstone": 6505,
      "Ġalgorith": 6506,
      "istry": 6507,
      "unch": 6508,
      "ichard": 6509,
      "ĠToday": 6510,
      "ĠDid": 6511,
      "Ġprem": 6512,
      "Ġdecre": 6513,
      "Ġreputation": 6514,
      "Ġbright": 6515,
      "Ġroles": 6516,
      "athol": 6517,
      "Ġ[...]": 6518,
      "Ġorganisation": 6519,
      "Ġfreely": 6520,
      "Ġpublicly": 6521,
      "Ġincreases": 6522,
      "Ġ1993": 6523,
      "Ġaffairs": 6524,
      "Ġphysics": 6525,
      "ĠDoes": 6526,
      "Ġheads": 6527,
      "ĠProp": 6528,
      "Ġworthy": 6529,
      "Ġerror": 6530,
      "Art": 6531,
      "Ġlinks": 6532,
      "ĠNigeria": 6533,
      "Ġinhabitants": 6534,
      "BI": 6535,
      "Read": 6536,
      "scale": 6537,
      "yan": 6538,
      "Ġtort": 6539,
      "Ġwave": 6540,
      "itch": 6541,
      "Ġmaster": 6542,
      "Ġmiles": 6543,
      "urb": 6544,
      "roat": 6545,
      "celand": 6546,
      "irable": 6547,
      "raged": 6548,
      "olving": 6549,
      "ili": 6550,
      "ective": 6551,
      "ĠEd": 6552,
      "Ġcontrast": 6553,
      "ĠHamas": 6554,
      "Ġtele": 6555,
      "ulture": 6556,
      "Ġtwelve": 6557,
      "orses": 6558,
      "Ġincor": 6559,
      "Ġdevelopments": 6560,
      "Ġsincere": 6561,
      "Ġcentre": 6562,
      "ĠWell": 6563,
      "Ġgenerate": 6564,
      "Ġmemories": 6565,
      "Ġpractices": 6566,
      "Ġrepresented": 6567,
      "Ġbloggers": 6568,
      "Ġjudges": 6569,
      "Ġphotograph": 6570,
      "Ġneighbor": 6571,
      "ĠTurkmen": 6572,
      "Ġurgent": 6573,
      "ĠMontenegro": 6574,
      "Ġexperiences": 6575,
      "Ġlatter": 6576,
      "Ġpictures": 6577,
      "Consider": 6578,
      "Ġskept": 6579,
      "Ġjurisdict": 6580,
      "Ġgambling": 6581,
      "AM": 6582,
      "PA": 6583,
      "PS": 6584,
      "oves": 6585,
      "Ġsought": 6586,
      "Ġcig": 6587,
      "Ġpure": 6588,
      "arr": 6589,
      "ioned": 6590,
      "Ġeg": 6591,
      "Ġnotes": 6592,
      "ifts": 6593,
      "ortal": 6594,
      "iling": 6595,
      "ĠGreen": 6596,
      "Ġplenty": 6597,
      "akers": 6598,
      "ourg": 6599,
      "ĠHoll": 6600,
      "Ġunion": 6601,
      "Ġbetray": 6602,
      "ordan": 6603,
      "ĠKen": 6604,
      "Ġ2002": 6605,
      "Ġroots": 6606,
      "Ġtransit": 6607,
      "Ġministers": 6608,
      "Ġformat": 6609,
      "Ġinfect": 6610,
      "Ġpursu": 6611,
      "Ġdeaths": 6612,
      "Ġvisiting": 6613,
      "Ġsuffered": 6614,
      "Ġtested": 6615,
      "ĠArabs": 6616,
      "ĠGreeks": 6617,
      "Ġreplied": 6618,
      "Ġwondering": 6619,
      "Ġthankful": 6620,
      "Ġdependent": 6621,
      "Ġapartment": 6622,
      "Ġbehavi": 6623,
      "Ġcontracts": 6624,
      "Ġcriticism": 6625,
      "Ġsatisfact": 6626,
      "Ġundoubtedly": 6627,
      "Ġdistribution": 6628,
      "Ġcelebrate": 6629,
      "Ġsacred": 6630,
      "Ġanalyze": 6631,
      "ĠLatvia": 6632,
      "Believe": 6633,
      "%,": 6634,
      "31": 6635,
      "32": 6636,
      "Ad": 6637,
      "EA": 6638,
      "sen": 6639,
      "ype": 6640,
      "inos": 6641,
      "Ġsins": 6642,
      "Ġsorry": 6643,
      "onia": 6644,
      "Ġbur": 6645,
      "Ġpragm": 6646,
      "Ġdraft": 6647,
      "Ġgrew": 6648,
      "ĠInt": 6649,
      "ethe": 6650,
      "ifth": 6651,
      "Ġasylum": 6652,
      "Ġsevere": 6653,
      "ĠServ": 6654,
      "aint": 6655,
      "ĠCom": 6656,
      "this": 6657,
      "...\"": 6658,
      "ĠBre": 6659,
      "Ġcompens": 6660,
      "Ġcontains": 6661,
      "ĠTime": 6662,
      "Ġremark": 6663,
      "Ġ190": 6664,
      "Ġserved": 6665,
      "Ġacceler": 6666,
      "Ġsurface": 6667,
      "Ġtruthful": 6668,
      "pected": 6669,
      "Ġmissiles": 6670,
      "Ġtopics": 6671,
      "Ġenterprises": 6672,
      "Ġarrive": 6673,
      "Ġstructural": 6674,
      "Ġrunning": 6675,
      "Ġvirus": 6676,
      "Ġtransportation": 6677,
      "Ġimpression": 6678,
      "ĠAmazon": 6679,
      "Probably": 6680,
      "Ġridic": 6681,
      "Ġarguments": 6682,
      "Ġinteraction": 6683,
      "Ġyeah": 6684,
      "ĠPhilipp": 6685,
      "Ġintelligence": 6686,
      "Ġinnocent": 6687,
      "Ġexpansion": 6688,
      "Either": 6689,
      "FA": 6690,
      "TA": 6691,
      "der": 6692,
      "val": 6693,
      "Ġ!": 6694,
      "Ġends": 6695,
      "Ġnorthern": 6696,
      "Ġexcess": 6697,
      "mentioned": 6698,
      "Ġ1000": 6699,
      "Ġshot": 6700,
      "ĠGene": 6701,
      "ĠPer": 6702,
      "ĠPeter": 6703,
      "ĠBusiness": 6704,
      "velation": 6705,
      "Ġdisbelie": 6706,
      "Ġvisits": 6707,
      "Ġreturns": 6708,
      "Ġinspir": 6709,
      "Ġfreedoms": 6710,
      "Ġdistingu": 6711,
      "Ġprofessor": 6712,
      "Ġmovies": 6713,
      "Ġzones": 6714,
      "Ġindicate": 6715,
      "Ġlimitations": 6716,
      "Ġvideos": 6717,
      "ĠAdam": 6718,
      "Ġaggression": 6719,
      "Ġdrivers": 6720,
      "Ġsensitive": 6721,
      "Ġadvertising": 6722,
      "Ġsuspic": 6723,
      "Ġvolunteers": 6724,
      "Ġphrase": 6725,
      "Ġchaos": 6726,
      "Cont": 6727,
      "eace": 6728,
      "lishing": 6729,
      "rong": 6730,
      "Ġburd": 6731,
      "eters": 6732,
      "Ġstations": 6733,
      "adow": 6734,
      "ĠEconomic": 6735,
      "ivate": 6736,
      "Ġrange": 6737,
      "Ġmanif": 6738,
      "ĠBalt": 6739,
      "ĠRo": 6740,
      "Ġsphere": 6741,
      "Ġexports": 6742,
      "Ġunits": 6743,
      "Ġgrown": 6744,
      "uthor": 6745,
      "ĠYouTube": 6746,
      "Ġcrew": 6747,
      "Ġexplo": 6748,
      "Ġnamely": 6749,
      "Ġsixth": 6750,
      "Ġobserved": 6751,
      "ĠMarx": 6752,
      "Ġdepending": 6753,
      "Ġdetailed": 6754,
      "Ġindicators": 6755,
      "Ġfacilit": 6756,
      "Ġapplications": 6757,
      "Ġengineers": 6758,
      "Ġdelay": 6759,
      "Ġcharacteristics": 6760,
      "ĠJackson": 6761,
      "respon": 6762,
      "Ġconcluded": 6763,
      "Ġpilot": 6764,
      "Ġrestaurant": 6765,
      "Ġexercise": 6766,
      "Ġocean": 6767,
      "Ġopponents": 6768,
      "ĠIMF": 6769,
      "Certainly": 6770,
      "Due": 6771,
      "Man": 6772,
      "Mus": 6773,
      "gu": 6774,
      "ius": 6775,
      "ping": 6776,
      "ram": 6777,
      "ze": 6778,
      "atible": 6779,
      "isons": 6780,
      "Ġmilk": 6781,
      "Ġfasc": 6782,
      "vered": 6783,
      "ears": 6784,
      "ĠMot": 6785,
      "ĠMod": 6786,
      "ĠPaul": 6787,
      "Ġwhenever": 6788,
      "ĠFore": 6789,
      "ĠHol": 6790,
      "ĠHour": 6791,
      "ĠJordan": 6792,
      "ocal": 6793,
      "ocide": 6794,
      "Ġemail": 6795,
      "Ġdefence": 6796,
      "Ġmeditation": 6797,
      "Ġpropose": 6798,
      "Ġpointed": 6799,
      "Ġdeport": 6800,
      "ĠFrom": 6801,
      "Whoever": 6802,
      ".âĢĻâĢĿ": 6803,
      "Ġnormally": 6804,
      "Ġcamps": 6805,
      "Ġpreferred": 6806,
      "ĠZeal": 6807,
      "Ġhonestly": 6808,
      "Ġstressed": 6809,
      "Ġsilent": 6810,
      "Ġconstitutional": 6811,
      "Ġcoalition": 6812,
      "Ġprofessionals": 6813,
      "Usually": 6814,
      "Ġunfair": 6815,
      "Ġsuppliers": 6816,
      "Ġforbidden": 6817,
      "Answer": 6818,
      "ĠZealand": 6819,
      "\"?": 6820,
      "Palest": 6821,
      "TH": 6822,
      "ique": 6823,
      "lav": 6824,
      "overy": 6825,
      "occ": 6826,
      "point": 6827,
      "yo": 6828,
      "Ġtaste": 6829,
      "ancing": 6830,
      "Ġcash": 6831,
      "Ġbirds": 6832,
      "Ġmark": 6833,
      "Ġmix": 6834,
      "Ġfing": 6835,
      "Ġfra": 6836,
      "Ġfigh": 6837,
      "Ġhated": 6838,
      "icide": 6839,
      "Ġbeer": 6840,
      "oted": 6841,
      "Ġgalax": 6842,
      "odes": 6843,
      "Ġorient": 6844,
      "ĠSome": 6845,
      "Ġdece": 6846,
      "ĠMet": 6847,
      "ĠMinsk": 6848,
      "iagn": 6849,
      "Ġspring": 6850,
      "ĠFran": 6851,
      "ĠHIV": 6852,
      "Ġunite": 6853,
      "Ġunbelie": 6854,
      "ordinary": 6855,
      "Ġ42": 6856,
      "Ġsincerely": 6857,
      "Ġfinancing": 6858,
      "Ġadvent": 6859,
      "Ġcollege": 6860,
      "Ġextrem": 6861,
      "Ġprophet": 6862,
      "Ġdram": 6863,
      "ĠSpace": 6864,
      "Ġbeneficial": 6865,
      "Ġsurvived": 6866,
      "Ġforgive": 6867,
      "Ġboard": 6868,
      "Ġvoices": 6869,
      "bye": 6870,
      "Ġclaimed": 6871,
      "Ġcyber": 6872,
      "Ġdenied": 6873,
      "ĠBulgarian": 6874,
      "icrosoft": 6875,
      "Ġconclusions": 6876,
      "Phone": 6877,
      "Ġroute": 6878,
      "Ġheroes": 6879,
      "Ġmandate": 6880,
      "Ġprosperity": 6881,
      "ĠTajikistan": 6882,
      "ĠTreaty": 6883,
      "400": 6884,
      "bal": 6885,
      "from": 6886,
      "lies": 6887,
      "ollow": 6888,
      "oided": 6889,
      "pay": 6890,
      "right": 6891,
      "rated": 6892,
      "ued": 6893,
      "xit": 6894,
      "Ġ+": 6895,
      "ancy": 6896,
      "isible": 6897,
      "Ġmouth": 6898,
      "Ġpark": 6899,
      "Ġhorses": 6900,
      "iche": 6901,
      "etween": 6902,
      "room": 6903,
      "Ġstim": 6904,
      "Ġstabil": 6905,
      "Ġsegment": 6906,
      "ulous": 6907,
      "ilarly": 6908,
      "ĠSum": 6909,
      "Ġalliance": 6910,
      "ĠBalk": 6911,
      "Ġsomewhat": 6912,
      "ĠNeed": 6913,
      "Ġregimes": 6914,
      "Ġbelievers": 6915,
      "Ġappeal": 6916,
      "Ġinvented": 6917,
      "Ġideology": 6918,
      "Ġaward": 6919,
      "Ġfollowers": 6920,
      "Ġprophe": 6921,
      "phone": 6922,
      "Ġavoided": 6923,
      "Ġapproximately": 6924,
      "roduct": 6925,
      "Something": 6926,
      "Ġcharacters": 6927,
      "Ġhoped": 6928,
      "Ġemotions": 6929,
      "Ġcoordination": 6930,
      "ĠKurds": 6931,
      "holders": 6932,
      "Consequently": 6933,
      "American": 6934,
      "Ġwidely": 6935,
      "Germany": 6936,
      "Ġdynamic": 6937,
      "ĠDenmark": 6938,
      "ĠDevelopment": 6939,
      "Ġancestors": 6940,
      "etheless": 6941,
      "ĠGeneva": 6942,
      "Current": 6943,
      "Japan": 6944,
      "Sp": 6945,
      "ixt": 6946,
      "Ġtheoret": 6947,
      "Ġowe": 6948,
      "Ġpounds": 6949,
      "Ġinj": 6950,
      "Ġinequ": 6951,
      "Ġanger": 6952,
      "edia": 6953,
      "Ġgained": 6954,
      "iment": 6955,
      "antly": 6956,
      "ĠSir": 6957,
      "ĠCathol": 6958,
      "Ġleaves": 6959,
      "ĠMc": 6960,
      "Ġsav": 6961,
      "ĠWork": 6962,
      "Ġdiffer": 6963,
      "ologists": 6964,
      "Ġcourts": 6965,
      "Ġminimal": 6966,
      "Ġorganic": 6967,
      "zero": 6968,
      "Ġartists": 6969,
      "Ġdepart": 6970,
      "Ġhearing": 6971,
      "Ġdatab": 6972,
      "Ġthreatened": 6973,
      "rades": 6974,
      "Ġimprovement": 6975,
      "Ġcombat": 6976,
      "Ġbirthday": 6977,
      "Ġfulfilled": 6978,
      "Ġdelive": 6979,
      "Ġupdated": 6980,
      "Ġblessing": 6981,
      "ĠOnly": 6982,
      "Ġpleasure": 6983,
      "Ġabandoned": 6984,
      "Ġsatellite": 6985,
      "Ġhealing": 6986,
      "Ġfantastic": 6987,
      "Ġacknowledge": 6988,
      "Ġintellectual": 6989,
      "!).": 6990,
      "65": 6991,
      "Azerbaijan": 6992,
      "Give": 6993,
      "MS": 6994,
      "aited": 6995,
      "cks": 6996,
      "ecess": 6997,
      "spe": 6998,
      "under": 6999,
      "Ġlying": 7000,
      "Ġgentle": 7001,
      "olves": 7002,
      "ĠSund": 7003,
      "ĠCO": 7004,
      "Ġchain": 7005,
      "Ġhasn": 7006,
      "ĠBig": 7007,
      "ĠRight": 7008,
      "ĠNorthern": 7009,
      "ĠFour": 7010,
      "cons": 7011,
      "ĠLike": 7012,
      "Ġrelation": 7013,
      "Ġdesper": 7014,
      "Ġpresidents": 7015,
      "Ġretain": 7016,
      "Ġguests": 7017,
      "Ġelite": 7018,
      "Ġflow": 7019,
      "Ġofficers": 7020,
      "Christ": 7021,
      "Ġillness": 7022,
      "Ġdescend": 7023,
      "Ġsalary": 7024,
      "Ġdevice": 7025,
      "ĠProgram": 7026,
      "Ġobserv": 7027,
      "Ġskin": 7028,
      "ĠForum": 7029,
      "Ġclubs": 7030,
      "Ġunderest": 7031,
      "Ġwitnesses": 7032,
      "True": 7033,
      "Ġmachines": 7034,
      "Ġuncertainty": 7035,
      "''": 7036,
      "37": 7037,
      "Sm": 7038,
      "Ye": 7039,
      "bas": 7040,
      "she": 7041,
      "za": 7042,
      "Ġtens": 7043,
      "Ġcow": 7044,
      "itative": 7045,
      "utive": 7046,
      "imated": 7047,
      "ĠIP": 7048,
      "ifies": 7049,
      "amily": 7050,
      "ĠAc": 7051,
      "esty": 7052,
      "Ġkarma": 7053,
      "Ġalleg": 7054,
      "Ġyourselves": 7055,
      "Ġchair": 7056,
      "ĠMuhammad": 7057,
      "ques": 7058,
      "acro": 7059,
      "Ġimpose": 7060,
      "oker": 7061,
      "oking": 7062,
      "okyo": 7063,
      "Ġunl": 7064,
      "ĠLight": 7065,
      "Ġcovered": 7066,
      "Ġregister": 7067,
      "Ġowned": 7068,
      "Ġopens": 7069,
      "Ġcommission": 7070,
      "weg": 7071,
      "angers": 7072,
      "Ġ2016": 7073,
      "Ġinvested": 7074,
      "Ġprotests": 7075,
      "Ġproviders": 7076,
      "Ġglory": 7077,
      "Ġorganize": 7078,
      "Ġdefic": 7079,
      "ranean": 7080,
      "Ġordered": 7081,
      "exist": 7082,
      "Ġ1999": 7083,
      "Ġmistaken": 7084,
      "Ġearthqu": 7085,
      "Ġkeyword": 7086,
      "Being": 7087,
      "Ġentering": 7088,
      "Ġdiplomats": 7089,
      "Ġtemper": 7090,
      "including": 7091,
      "Ġaimed": 7092,
      "aucas": 7093,
      "ĠCompany": 7094,
      "ĠMadrid": 7095,
      "Ġrestaurants": 7096,
      "Ġarchitecture": 7097,
      "ĠRomania": 7098,
      "ĠSmith": 7099,
      "Ġpregnant": 7100,
      "Turkey": 7101,
      "because": 7102,
      "Ġfrozen": 7103,
      "Ġmanifest": 7104,
      "Ġdelivered": 7105,
      "?)": 7106,
      "Jesus": 7107,
      "TC": 7108,
      "burg": 7109,
      "free": 7110,
      "look": 7111,
      "will": 7112,
      "erry": 7113,
      "enry": 7114,
      "Ġbatter": 7115,
      "ald": 7116,
      "Ġrecip": 7117,
      "Ġhabits": 7118,
      "ĠIm": 7119,
      "ĠAli": 7120,
      "Ġplaced": 7121,
      "Ġagent": 7122,
      "Ġpride": 7123,
      "ĠJim": 7124,
      "Ġamend": 7125,
      "Ġacting": 7126,
      "Ġempire": 7127,
      "Ġprovisions": 7128,
      "Isn": 7129,
      "Ġartist": 7130,
      "Ġprofound": 7131,
      "Ġschem": 7132,
      "Ġpatri": 7133,
      "Ġwinner": 7134,
      "Ġtourist": 7135,
      "iterranean": 7136,
      "Ġmagical": 7137,
      "Ġsearching": 7138,
      "Ġharmful": 7139,
      "Ġneighbours": 7140,
      "Ġconcepts": 7141,
      "Ġlegislative": 7142,
      "Ġfirms": 7143,
      "Ġbeliefs": 7144,
      "iability": 7145,
      "Ġsubstantial": 7146,
      "Geor": 7147,
      "Together": 7148,
      "ps": 7149,
      "Ġ000": 7150,
      "Ġball": 7151,
      "Ġmacro": 7152,
      "Ġdiagn": 7153,
      "lection": 7154,
      "urday": 7155,
      "Ġgiant": 7156,
      "igation": 7157,
      "Ġorg": 7158,
      "ĠEC": 7159,
      "ĠEr": 7160,
      "Ġloans": 7161,
      "ĠBol": 7162,
      "Ġrealities": 7163,
      "Ġinvisible": 7164,
      "Ġserves": 7165,
      "ĠOld": 7166,
      "uesday": 7167,
      "Ġforecast": 7168,
      "Ġawaken": 7169,
      "Ġexplos": 7170,
      "Ġmatch": 7171,
      "Ġspecialists": 7172,
      "Ġflowers": 7173,
      "ĠThings": 7174,
      "Ġparticipated": 7175,
      "Ġtraveling": 7176,
      "Ġreducing": 7177,
      "sequent": 7178,
      "Ġobservers": 7179,
      "Ġseparately": 7180,
      "ĠMrs": 7181,
      "ĠChristianity": 7182,
      "fficial": 7183,
      "Ġhoping": 7184,
      "Ġflying": 7185,
      "Ġobstacles": 7186,
      "Ġconservative": 7187,
      "Ġwithdraw": 7188,
      "Ġcompromise": 7189,
      "Ġwelcomed": 7190,
      "Ġartificial": 7191,
      "39": 7192,
      "Dear": 7193,
      "Few": 7194,
      "GO": 7195,
      "Ult": 7196,
      "aire": 7197,
      "fe": 7198,
      "fess": 7199,
      "lades": 7200,
      "tr": 7201,
      "ua": 7202,
      "zone": 7203,
      "inent": 7204,
      "Ġwild": 7205,
      "enced": 7206,
      "Ġeld": 7207,
      "Ġuseless": 7208,
      "Ġstuff": 7209,
      "ĠMost": 7210,
      "ciety": 7211,
      "Ġvamp": 7212,
      "ĠPark": 7213,
      "ĠRob": 7214,
      "Ġimposed": 7215,
      "Ġintens": 7216,
      "Ġengin": 7217,
      "aging": 7218,
      "Ġjustify": 7219,
      "ĠWay": 7220,
      "order": 7221,
      "ĠOff": 7222,
      "Ġdesert": 7223,
      "ĠStar": 7224,
      "Ġeconomies": 7225,
      "Ġrespons": 7226,
      "Ġpharm": 7227,
      "Always": 7228,
      "Ġreceives": 7229,
      "Ġhunt": 7230,
      "Ġresponsib": 7231,
      "Ġgenerous": 7232,
      "Ġstatist": 7233,
      "Ġregarded": 7234,
      "Ġputting": 7235,
      "ĠAustrian": 7236,
      "ĠSecond": 7237,
      "Ġmothers": 7238,
      "ĠProject": 7239,
      "Ġreduction": 7240,
      "ĠAngel": 7241,
      "Ġmagn": 7242,
      "Ġprogressive": 7243,
      "Ġfavorable": 7244,
      "Ġphotograp": 7245,
      "ursday": 7246,
      "Ġcatast": 7247,
      "letes": 7248,
      "Ġwalls": 7249,
      "Ġlawyer": 7250,
      "Ġconstructive": 7251,
      "Ġwatched": 7252,
      "Ġboundaries": 7253,
      "Ġhunger": 7254,
      "ĠBaltic": 7255,
      "Ultimately": 7256,
      "ladesh": 7257,
      "Ġengines": 7258,
      "75": 7259,
      "Come": 7260,
      "Michael": 7261,
      "Pl": 7262,
      "aim": 7263,
      "comm": 7264,
      "human": 7265,
      "wood": 7266,
      "Ġid": 7267,
      "asons": 7268,
      "ĠIceland": 7269,
      "Ġongoing": 7270,
      "adays": 7271,
      "Ġally": 7272,
      "ĠCaucas": 7273,
      "ĠMag": 7274,
      "ĠGold": 7275,
      "International": 7276,
      "ĠJoe": 7277,
      "everal": 7278,
      "ĠDirect": 7279,
      "Ġdonor": 7280,
      "ĠKim": 7281,
      "Ġ39": 7282,
      "ĠOs": 7283,
      "Ġdecisive": 7284,
      "Ġreceiving": 7285,
      "ĠHeaven": 7286,
      "Ġ1996": 7287,
      "Ġbehave": 7288,
      "Ġstayed": 7289,
      "Ġimplementing": 7290,
      "Ġparticipating": 7291,
      "Ġharder": 7292,
      "Ġcollection": 7293,
      "Ġharmon": 7294,
      "Ġvoting": 7295,
      "Ġswim": 7296,
      "ĠiPhone": 7297,
      "Ġrecords": 7298,
      "Ġrecorded": 7299,
      "Ġtranslation": 7300,
      "Ġextraordinary": 7301,
      "Ġroutes": 7302,
      "ĠMediterranean": 7303,
      "Ġsettle": 7304,
      "Ġlabour": 7305,
      "Ġconclude": 7306,
      "rategy": 7307,
      "Ġseventh": 7308,
      "Ġperceived": 7309,
      "ĠDepartment": 7310,
      "Ġdimension": 7311,
      "ĠIndonesia": 7312,
      "Ġdedicated": 7313,
      "ĠGaza": 7314,
      "ĠMalaysia": 7315,
      "ĠCrimea": 7316,
      "ĠTurkmenistan": 7317,
      "Ġfraud": 7318,
      "47": 7319,
      "Che": 7320,
      "lis": 7321,
      "lad": 7322,
      "xic": 7323,
      "Â·": 7324,
      "Ġtheories": 7325,
      "Ġsin": 7326,
      "orse": 7327,
      "Ġreun": 7328,
      "Ġweaken": 7329,
      "Ġnoting": 7330,
      "olen": 7331,
      "ĠSlovak": 7332,
      "ĠCroat": 7333,
      "osition": 7334,
      "ĠMarket": 7335,
      "Ġrural": 7336,
      "Ġrating": 7337,
      "Inc": 7338,
      "unis": 7339,
      "active": 7340,
      "ĠNever": 7341,
      "ĠFord": 7342,
      "ĠTokyo": 7343,
      "ĠLos": 7344,
      "duc": 7345,
      "Ġupcoming": 7346,
      "ĠIsraelites": 7347,
      "Ġadds": 7348,
      "archy": 7349,
      "Ġsmallest": 7350,
      "Ġdifficulty": 7351,
      "Ġ800": 7352,
      "Ġcompeting": 7353,
      "Ġpassports": 7354,
      "Ġpractically": 7355,
      "Ġsuppose": 7356,
      "Ġhardly": 7357,
      "198": 7358,
      "ructive": 7359,
      "Ġcivilian": 7360,
      "Stud": 7361,
      "Ġdevil": 7362,
      "Ġcontinuing": 7363,
      "Ġsuggested": 7364,
      "Ġdeclare": 7365,
      "Ġanalyst": 7366,
      "Ġrefugee": 7367,
      "Ġhousing": 7368,
      "Ġautonomous": 7369,
      "Ġutil": 7370,
      "Ġadoption": 7371,
      "Ġexerc": 7372,
      "Ġeliminate": 7373,
      "Ġcigaret": 7374,
      "ED": 7375,
      "Human": 7376,
      "Non": 7377,
      "care": 7378,
      "fol": 7379,
      "five": 7380,
      "tes": 7381,
      "Ġties": 7382,
      "organ": 7383,
      "Ġpig": 7384,
      "Ġanonym": 7385,
      "Ġforty": 7386,
      "etition": 7387,
      "Ġasham": 7388,
      "keep": 7389,
      "Ġshadow": 7390,
      "ĠMax": 7391,
      "ĠPres": 7392,
      "Ġplus": 7393,
      "Ġspl": 7394,
      "aked": 7395,
      "izations": 7396,
      "ĠTuesday": 7397,
      "Ġunem": 7398,
      "Ġworlds": 7399,
      "Ġcovers": 7400,
      "Ġconsolid": 7401,
      "Ġrighteous": 7402,
      "ifications": 7403,
      "Ġ44": 7404,
      "Ġthrow": 7405,
      "Ġdiscl": 7406,
      "Ġsocialism": 7407,
      "Ġlegend": 7408,
      "Ġadvise": 7409,
      "Ġsubstances": 7410,
      "Ġachieving": 7411,
      "Ġdestiny": 7412,
      "Ġturning": 7413,
      "Everybody": 7414,
      "Ġsinger": 7415,
      "Ġwinning": 7416,
      "Ġachievement": 7417,
      "Ġwondered": 7418,
      "Ġtraditionally": 7419,
      "Ġarrival": 7420,
      "Ġjudgment": 7421,
      "Ġurban": 7422,
      "Ġroads": 7423,
      "ĠNorweg": 7424,
      "Ġupdate": 7425,
      "ĠBuddha": 7426,
      "Ġcomplaints": 7427,
      "IDS": 7428,
      "Ġpilots": 7429,
      "Ġpollution": 7430,
      "Ġlaughed": 7431,
      "Ġtransactions": 7432,
      "Ġcongratulate": 7433,
      "Ġsweet": 7434,
      "Ġunexpected": 7435,
      "Ġburden": 7436,
      "Ġashamed": 7437,
      "Clear": 7438,
      "France": 7439,
      "Having": 7440,
      "Me": 7441,
      "RO": 7442,
      "bab": 7443,
      "me": 7444,
      "Ġzero": 7445,
      "Ġsight": 7446,
      "Ġports": 7447,
      "Ġdiverse": 7448,
      "Ġrej": 7449,
      "Ġlists": 7450,
      "rog": 7451,
      "Ġalt": 7452,
      "kel": 7453,
      "oles": 7454,
      "olar": 7455,
      "olks": 7456,
      "add": 7457,
      "Ġabortion": 7458,
      "osis": 7459,
      "Ġviable": 7460,
      "Ġsake": 7461,
      "ĠFree": 7462,
      "apse": 7463,
      "Ġresc": 7464,
      "ĠJones": 7465,
      "agement": 7466,
      "ĠWhere": 7467,
      "Ġarise": 7468,
      "Ġincidents": 7469,
      "Ġfinds": 7470,
      "Ġobey": 7471,
      "Ġplanes": 7472,
      "Ġretire": 7473,
      "Ġprovin": 7474,
      "Ġglob": 7475,
      "Ġorganism": 7476,
      "Ġconcert": 7477,
      "Ġlegacy": 7478,
      "Someone": 7479,
      "Ġvalid": 7480,
      "Often": 7481,
      "Ġrequirement": 7482,
      "Within": 7483,
      "Firstly": 7484,
      "Ġaffects": 7485,
      "Ġtariff": 7486,
      "ĠIraqi": 7487,
      "Ġhorrible": 7488,
      "Ġencourag": 7489,
      "claim": 7490,
      "Ġirrespon": 7491,
      "Ġadvisor": 7492,
      "Ġsatisfy": 7493,
      "uxemb": 7494,
      "Ġeastern": 7495,
      "Ġdiscipline": 7496,
      "ergies": 7497,
      "ĠBangladesh": 7498,
      "Ġhatred": 7499,
      "Currently": 7500,
      "ĠSunday": 7501,
      "Rel": 7502,
      "Right": 7503,
      "Several": 7504,
      "ciful": 7505,
      "good": 7506,
      "mother": 7507,
      "ples": 7508,
      "there": 7509,
      "vil": 7510,
      "¿½": 7511,
      "ï¿½": 7512,
      "rees": 7513,
      "itably": 7514,
      "Ġpir": 7515,
      "Ġnin": 7516,
      "Ġnorth": 7517,
      "level": 7518,
      "stein": 7519,
      "etime": 7520,
      "Ġstolen": 7521,
      "ada": 7522,
      "Ġalloc": 7523,
      "earch": 7524,
      "ĠGDP": 7525,
      "ĠBu": 7526,
      "ĠBen": 7527,
      "Ġspons": 7528,
      "Ġenable": 7529,
      "ĠSte": 7530,
      "Ġroyal": 7531,
      "Ġimages": 7532,
      "Ġconsideration": 7533,
      "place": 7534,
      "Ġ65": 7535,
      "Ġfoundation": 7536,
      "Ġcollapse": 7537,
      "Ġdirections": 7538,
      "ĠWeb": 7539,
      "Ġscreen": 7540,
      "Ġkeeps": 7541,
      "ĠIranians": 7542,
      "Ġperiods": 7543,
      "Ġoffering": 7544,
      "Ġairports": 7545,
      "Ġmembership": 7546,
      "ĠAnge": 7547,
      "Ġseparated": 7548,
      "Ġdrinks": 7549,
      "Ġmurdered": 7550,
      "Ġlinked": 7551,
      "Ġclothing": 7552,
      "Ġchemicals": 7553,
      "Ġpermitted": 7554,
      "Ġmiracle": 7555,
      "Ġshocked": 7556,
      "ĠQuran": 7557,
      "Ġwarming": 7558,
      "Ġcameras": 7559,
      "Ġevaluate": 7560,
      "ĠDubai": 7561,
      "Ġslightly": 7562,
      "ĠLebanon": 7563,
      "Ġburied": 7564,
      "Ġinequality": 7565,
      "BA": 7566,
      "IT": 7567,
      "Keep": 7568,
      "Mar": 7569,
      "SR": 7570,
      "Sw": 7571,
      "Time": 7572,
      "ih": 7573,
      "hered": 7574,
      "Ġcast": 7575,
      "Ġcaught": 7576,
      "omed": 7577,
      "icing": 7578,
      "ota": 7579,
      "enth": 7580,
      "Ġgonna": 7581,
      "Ġhack": 7582,
      "Ġheat": 7583,
      "aming": 7584,
      "Ġconqu": 7585,
      "Ġconven": 7586,
      "ĠMart": 7587,
      "Ġtrial": 7588,
      "acific": 7589,
      "umber": 7590,
      "ĠBook": 7591,
      "Ġteen": 7592,
      "ĠTwo": 7593,
      "oughly": 7594,
      "ĠLet": 7595,
      "ĠLeag": 7596,
      "ĠWik": 7597,
      "Ġinvitation": 7598,
      "Ġrecover": 7599,
      "Ġdesires": 7600,
      "ĠStud": 7601,
      "anging": 7602,
      "Ġmonop": 7603,
      "Ġconferences": 7604,
      "Ġgenocide": 7605,
      "play": 7606,
      "Ġeconomically": 7607,
      "Ġservant": 7608,
      "Ġsubmitted": 7609,
      "Ġsubsequent": 7610,
      "ĠTurks": 7611,
      "Ġaviation": 7612,
      "Ġopposed": 7613,
      "Ġinfluential": 7614,
      "Ġforgiveness": 7615,
      "Ġlowest": 7616,
      "Ġvotes": 7617,
      "Ġaddressed": 7618,
      "Ġperformed": 7619,
      "Ġapplicable": 7620,
      "Ġcriticize": 7621,
      "Ġminorities": 7622,
      "Ġflags": 7623,
      "ĠCommunist": 7624,
      "Ġapparently": 7625,
      "senal": 7626,
      "ĠLeague": 7627,
      "**": 7628,
      "back": 7629,
      "ios": 7630,
      "mail": 7631,
      "minist": 7632,
      "pon": 7633,
      "ument": 7634,
      "van": 7635,
      "hel": 7636,
      "Ġmoves": 7637,
      "arles": 7638,
      "Ġgifts": 7639,
      "idency": 7640,
      "ifice": 7641,
      "Ġprost": 7642,
      "Ġshift": 7643,
      "iah": 7644,
      "Ġrank": 7645,
      "Ġriver": 7646,
      "erent": 7647,
      "ĠRec": 7648,
      "Ġspect": 7649,
      "ĠTex": 7650,
      "ager": 7651,
      "Ġcool": 7652,
      "Ġcoach": 7653,
      "ĠKy": 7654,
      "Ġtrave": 7655,
      "Ġgoodbye": 7656,
      "Ġconsent": 7657,
      "ground": 7658,
      "Ġmonetary": 7659,
      "Ġraises": 7660,
      "Ġgenes": 7661,
      "Ġmonthly": 7662,
      "icked": 7663,
      "Ġchoosing": 7664,
      "Ġexpecting": 7665,
      "Ġdirector": 7666,
      "Ġstrongest": 7667,
      "appro": 7668,
      "ĠThird": 7669,
      "ĠThursday": 7670,
      "Ġcrises": 7671,
      "ventions": 7672,
      "Ġslave": 7673,
      "Ġconsume": 7674,
      "Ġdivide": 7675,
      "Ġdivision": 7676,
      "Ġsoldier": 7677,
      "Ġgrave": 7678,
      "Ġoccurs": 7679,
      "Ġpredecess": 7680,
      "ĠBrother": 7681,
      "Ġawareness": 7682,
      "Ġasset": 7683,
      "Ġcombination": 7684,
      "Ġblocked": 7685,
      "Ġgrandfather": 7686,
      "afe": 7687,
      "Ġcruel": 7688,
      "Ġwealthy": 7689,
      "Ġsymbols": 7690,
      "ĠAgency": 7691,
      "Ġburned": 7692,
      "Thirdly": 7693,
      "Ġemphasize": 7694,
      "Ġexcluded": 7695,
      "Ġracism": 7696,
      "Ġgranted": 7697,
      "Ġstrike": 7698,
      "Ġdisagree": 7699,
      "Ġathletes": 7700,
      "Ġpraise": 7701,
      "Ġgarden": 7702,
      "Ġtorture": 7703,
      "ĠPhilippines": 7704,
      "Ġresponses": 7705,
      "ĠAngeles": 7706,
      "48": 7707,
      "66": 7708,
      "BRA": 7709,
      "DA": 7710,
      "Par": 7711,
      "Plus": 7712,
      "hd": 7713,
      "ming": 7714,
      "oody": 7715,
      "pass": 7716,
      "atal": 7717,
      "atural": 7718,
      "anied": 7719,
      "Ġcope": 7720,
      "itime": 7721,
      "Ġbom": 7722,
      "oration": 7723,
      "Ġhier": 7724,
      "versi": 7725,
      "ida": 7726,
      "Ġsuicide": 7727,
      "ĠCivil": 7728,
      "Were": 7729,
      "quar": 7730,
      "ĠTal": 7731,
      "ĠTrade": 7732,
      "ĠTunis": 7733,
      "ĠDiv": 7734,
      "Ġprev": 7735,
      "Ġfell": 7736,
      "Ġfeatures": 7737,
      "ĠUniverse": 7738,
      "Ġevident": 7739,
      "ucks": 7740,
      "ĠInter": 7741,
      "Ġprovoc": 7742,
      "Ġfinancially": 7743,
      "ĠVen": 7744,
      "Ġbasically": 7745,
      "Ġmetal": 7746,
      "Ġdepartment": 7747,
      "ĠAssoci": 7748,
      "Ġprofile": 7749,
      "ĠIndians": 7750,
      "Ġequival": 7751,
      "Ġminds": 7752,
      "Ġintegrity": 7753,
      "Ġfault": 7754,
      "Ġregulated": 7755,
      "Ġresponded": 7756,
      "Ġmeaningful": 7757,
      "Ġcorrupt": 7758,
      "Ġrobot": 7759,
      "Ġembassy": 7760,
      "Ġdistributed": 7761,
      "Ġvehicle": 7762,
      "Ġemergency": 7763,
      "Ġsatellites": 7764,
      "ĠColomb": 7765,
      "Ġbottle": 7766,
      "Ġexhibition": 7767,
      "ĠOSCE": 7768,
      "Ġnaive": 7769,
      "ĠAbkhazia": 7770,
      "ĠProphet": 7771,
      "ducation": 7772,
      "Bar": 7773,
      "Brit": 7774,
      "CC": 7775,
      "Much": 7776,
      "cles": 7777,
      "field": 7778,
      "iety": 7779,
      "nish": 7780,
      "press": 7781,
      "rateg": 7782,
      "hedu": 7783,
      "reate": 7784,
      "Ġwaited": 7785,
      "ata": 7786,
      "arah": 7787,
      "Ġlunch": 7788,
      "Ġgap": 7789,
      "Ġstere": 7790,
      "Ġprosec": 7791,
      "Ġcomrades": 7792,
      "pped": 7793,
      "ĠSen": 7794,
      "ĠSee": 7795,
      "ĠSchool": 7796,
      "Invest": 7797,
      "ĠPan": 7798,
      "ĠRoy": 7799,
      "agon": 7800,
      "agen": 7801,
      "Ġuns": 7802,
      "ĠLab": 7803,
      "ĠWTO": 7804,
      "Ġregards": 7805,
      "Ġundert": 7806,
      "Ġremote": 7807,
      "Ġdecides": 7808,
      "Ġnevertheless": 7809,
      "hengen": 7810,
      "chnology": 7811,
      "Ġideological": 7812,
      "Ġcontroversi": 7813,
      "Ġapproaches": 7814,
      "Ġbuyers": 7815,
      "Ġpromising": 7816,
      "Ġ1997": 7817,
      "Ġnightm": 7818,
      "Ġ180": 7819,
      "Ġkidn": 7820,
      "Ġ1987": 7821,
      "Ġcollected": 7822,
      "Ġjoining": 7823,
      "Ġamounts": 7824,
      "Ġregulatory": 7825,
      "Ġlocations": 7826,
      "Ġencoun": 7827,
      "ĠParadise": 7828,
      "Ġreminder": 7829,
      "Ġurge": 7830,
      "Ġhoriz": 7831,
      "Ġdebts": 7832,
      "ĠSaturday": 7833,
      "Ġbroader": 7834,
      "Ġvillages": 7835,
      "Ġforums": 7836,
      "ING": 7837,
      "Ġmachine": 7838,
      "Ġastron": 7839,
      "Additionally": 7840,
      "Ġindirectly": 7841,
      "Ġdictatorship": 7842,
      "Ġbehaviour": 7843,
      "ĠDirective": 7844,
      "Nonetheless": 7845,
      "ĠTexas": 7846,
      "hedule": 7847,
      "%)": 7848,
      "Co": 7849,
      "LD": 7850,
      "Real": 7851,
      "comp": 7852,
      "gments": 7853,
      "host": 7854,
      "pen": 7855,
      "pired": 7856,
      "uk": 7857,
      "inal": 7858,
      "Ġsn": 7859,
      "Ġcere": 7860,
      "Ġborrow": 7861,
      "Ġfishing": 7862,
      "Ġhiding": 7863,
      "Ġdates": 7864,
      "Ġleng": 7865,
      "raham": 7866,
      "ĠAv": 7867,
      "ĠAcc": 7868,
      "ĠAng": 7869,
      "Ġabilities": 7870,
      "Ġkil": 7871,
      "ĠSup": 7872,
      "endar": 7873,
      "Ġrational": 7874,
      "Ġsaving": 7875,
      "ĠTour": 7876,
      "aghd": 7877,
      "ĠLuxemb": 7878,
      "Ġarises": 7879,
      "Ġdiss": 7880,
      "ĠOK": 7881,
      "Ġfellow": 7882,
      "Ġeconomics": 7883,
      "Ġconsiders": 7884,
      "Ġtechnically": 7885,
      "Ġglass": 7886,
      "Ġeffectiveness": 7887,
      "Ġadmitted": 7888,
      "Ġslaves": 7889,
      "Ġdemanding": 7890,
      "Ġrecommendation": 7891,
      "ĠQue": 7892,
      "Ġ1988": 7893,
      "Ġparam": 7894,
      "Ġcolors": 7895,
      "Ġmagaz": 7896,
      "Ġtalent": 7897,
      "ĠFinancial": 7898,
      "Ġcampaigns": 7899,
      "ĠScot": 7900,
      "Ġpredicted": 7901,
      "Ġstrengthening": 7902,
      "Ġportfol": 7903,
      "Ġliterature": 7904,
      "ĠTele": 7905,
      "Ġsucceeded": 7906,
      "Ġacquired": 7907,
      "Ġproperties": 7908,
      "Ġwearing": 7909,
      "Ġmotivation": 7910,
      "ĠIII": 7911,
      "Ġaccomplished": 7912,
      "Ġdiamonds": 7913,
      "Ġaccompanied": 7914,
      "ĠOrganization": 7915,
      "perts": 7916,
      "Ġfloat": 7917,
      "Ġinspiration": 7918,
      "Ġdramatic": 7919,
      "aghdad": 7920,
      "!âĢĻ": 7921,
      ".]": 7922,
      "Facebook": 7923,
      "Gu": 7924,
      "Gree": 7925,
      "HO": 7926,
      "Love": 7927,
      "ule": 7928,
      "Ġwood": 7929,
      "atar": 7930,
      "Ġpapers": 7931,
      "ask": 7932,
      "owd": 7933,
      "Ġali": 7934,
      "olf": 7935,
      "ntic": 7936,
      "Ġkiss": 7937,
      "andal": 7938,
      "oslav": 7939,
      "ĠMicrosoft": 7940,
      "acu": 7941,
      "umb": 7942,
      "ĠBos": 7943,
      "Ġjustified": 7944,
      "Ġacted": 7945,
      "Ġcoast": 7946,
      "Ġtrained": 7947,
      "Ġ34": 7948,
      "Social": 7949,
      "Ġ49": 7950,
      "lesh": 7951,
      "Ġadding": 7952,
      "chnical": 7953,
      "Ġsigning": 7954,
      "Ġstudio": 7955,
      "plan": 7956,
      "Ġadvoc": 7957,
      "Ġfounded": 7958,
      "ĠYOU": 7959,
      "Ġ85": 7960,
      "Ġschedule": 7961,
      "ugoslav": 7962,
      "Ġfunded": 7963,
      "Ġactivists": 7964,
      "necess": 7965,
      "ĠDef": 7966,
      "Ġoppose": 7967,
      "Ġscientist": 7968,
      "Ġtaxpay": 7969,
      "Ġexcited": 7970,
      "Ġhistorically": 7971,
      "ographic": 7972,
      "Ġregulate": 7973,
      "Ġneighbour": 7974,
      "Ġsword": 7975,
      "Ġindicated": 7976,
      "Ġassumptions": 7977,
      "Ġtemple": 7978,
      "ĠSchengen": 7979,
      "justice": 7980,
      "Ġsilence": 7981,
      "Ġmanufacturer": 7982,
      "America": 7983,
      "Ġreferred": 7984,
      "Ġlicense": 7985,
      "Ġpreferences": 7986,
      "Ġfleet": 7987,
      "Ġdelegation": 7988,
      "ĠAssad": 7989,
      "ypes": 7990,
      "Ġridiculous": 7991,
      "Ġsavings": 7992,
      "Ġrescue": 7993,
      "Ġcontroversial": 7994,
      "EM": 7995,
      "Qur": 7996,
      "SA": 7997,
      "hentic": 7998,
      "ining": 7999,
      "Ġcup": 8000,
      "itutes": 8001,
      "Ġbeat": 8002,
      "Ġlay": 8003,
      "uting": 8004,
      "Ġneare": 8005,
      "ĠAmb": 8006,
      "Ġabol": 8007,
      "ĠCould": 8008,
      "earn": 8009,
      "ths": 8010,
      "ĠFar": 8011,
      "ĠFuture": 8012,
      "ĠFlor": 8013,
      "Ġrescu": 8014,
      "Ġresidence": 8015,
      "Ġnoise": 8016,
      "Ġunh": 8017,
      "about": 8018,
      "ressed": 8019,
      "Ġchildhood": 8020,
      "Ġattend": 8021,
      "ĠTheir": 8022,
      "Ġformula": 8023,
      "Ġfinances": 8024,
      "Ġlisted": 8025,
      "Allah": 8026,
      "Ġsubmit": 8027,
      "Ġnecessity": 8028,
      "ĠPolit": 8029,
      "Ġcrowd": 8030,
      "ĠCommunity": 8031,
      "Ġoperators": 8032,
      "Ġtravelers": 8033,
      "ĠReal": 8034,
      "ĠRevolution": 8035,
      "Ġdesigners": 8036,
      "Ġ250": 8037,
      "Ġpraying": 8038,
      "Ġengage": 8039,
      "Ġinnovations": 8040,
      "Ġreminds": 8041,
      "Ġfunctioning": 8042,
      "ĠScott": 8043,
      "COBRA": 8044,
      "Ġestablishment": 8045,
      "Ġexpanded": 8046,
      "Ġcouncil": 8047,
      "Ġconsultations": 8048,
      "Ġpreparation": 8049,
      "ĠYears": 8050,
      "Ġpleasant": 8051,
      "Ġinevitably": 8052,
      "Ġtransferred": 8053,
      "Ġbrave": 8054,
      "ĠSecretary": 8055,
      "Ġsacrifice": 8056,
      "Ġjokes": 8057,
      "Ġprobability": 8058,
      "Ġpragmatic": 8059,
      "ĠBrexit": 8060,
      "ĠAssociation": 8061,
      "Ġlength": 8062,
      "Ġaliens": 8063,
      "GB": 8064,
      "Help": 8065,
      "Sat": 8066,
      "gra": 8067,
      "inations": 8068,
      "Ġwider": 8069,
      "err": 8070,
      "Ġmilit": 8071,
      "alin": 8072,
      "Ġrevelation": 8073,
      "Ġloud": 8074,
      "ĠCas": 8075,
      "ĠMike": 8076,
      "through": 8077,
      "Ġloving": 8078,
      "ogan": 8079,
      "ips": 8080,
      "ĠWed": 8081,
      "Ġrealise": 8082,
      "Ġbrand": 8083,
      "Ġevolved": 8084,
      "Ġ96": 8085,
      "Ġprofitable": 8086,
      "ĠArmenians": 8087,
      "Ġdestroying": 8088,
      "Ġbudgets": 8089,
      "Ġsalvation": 8090,
      "Ġtreasure": 8091,
      "ĠCenter": 8092,
      "igrant": 8093,
      "Ġholding": 8094,
      "Ġceased": 8095,
      "Ġpurchased": 8096,
      "government": 8097,
      "Ġcombine": 8098,
      "ĠMexican": 8099,
      "Ġultimate": 8100,
      "Overall": 8101,
      "Ġdispute": 8102,
      "Ġacquire": 8103,
      "itchen": 8104,
      "ĠHarry": 8105,
      "Similarly": 8106,
      "ĠCaucasus": 8107,
      "ĠNorwegian": 8108,
      "Ġirresponsible": 8109,
      "Ġstereot": 8110,
      "38": 8111,
      "Work": 8112,
      "Western": 8113,
      "avery": 8114,
      "chen": 8115,
      "makers": 8116,
      "uis": 8117,
      "ywood": 8118,
      "Ġ)": 8119,
      "Ġaims": 8120,
      "inction": 8121,
      "inux": 8122,
      "Ġolig": 8123,
      "Ġsnow": 8124,
      "isa": 8125,
      "Ġbag": 8126,
      "Ġpus": 8127,
      "asm": 8128,
      "oto": 8129,
      "Ġitems": 8130,
      "Ġstands": 8131,
      "anta": 8132,
      "ĠAut": 8133,
      "ĠAfter": 8134,
      "Ġsharing": 8135,
      "ĠGirl": 8136,
      "ĠPacific": 8137,
      "Ġjump": 8138,
      "oseph": 8139,
      "Ġenergies": 8140,
      "Ġreserves": 8141,
      "Ġresolutions": 8142,
      "ĠLen": 8143,
      "Ġimports": 8144,
      "Ġdonors": 8145,
      "Ġprecious": 8146,
      "ĠOther": 8147,
      "Ġcommittee": 8148,
      "Ġsmell": 8149,
      "Ġinstinct": 8150,
      "Ġcarbon": 8151,
      "althy": 8152,
      "Ġrefuses": 8153,
      "Ġservants": 8154,
      "ĠYugoslav": 8155,
      "Ġmeters": 8156,
      "Ġdestructive": 8157,
      "ĠNews": 8158,
      "Ġmarine": 8159,
      "Ġwriter": 8160,
      "Ġslavery": 8161,
      "Ġtaxi": 8162,
      "Ġlistened": 8163,
      "Ġenjoying": 8164,
      "who": 8165,
      "Ġinitiated": 8166,
      "Ġparad": 8167,
      "ĠForce": 8168,
      "ashion": 8169,
      "Ġfifty": 8170,
      "ĠBlue": 8171,
      "Ġbreakfast": 8172,
      "ĠFinnish": 8173,
      "ĠPartners": 8174,
      "security": 8175,
      "ĠMaryam": 8176,
      "Ġencouraged": 8177,
      "Ġengineering": 8178,
      "Ġdelight": 8179,
      "Ġtranslate": 8180,
      "Ġsufficiently": 8181,
      "Ġmuseums": 8182,
      "nesday": 8183,
      "Ġrevenue": 8184,
      "Ġcertific": 8185,
      "Ġprohibited": 8186,
      "General": 8187,
      "Ġclarify": 8188,
      "Ġnewspapers": 8189,
      "Neither": 8190,
      "ĠSummit": 8191,
      "Ġdatabase": 8192,
      "Ġtemperature": 8193,
      "Ġorgans": 8194,
      "Clearly": 8195,
      "76": 8196,
      "Com": 8197,
      "Get": 8198,
      "Ten": 8199,
      "making": 8200,
      "night": 8201,
      "nov": 8202,
      "oes": 8203,
      "Ġtrem": 8204,
      "inem": 8205,
      "Ġwest": 8206,
      "onts": 8207,
      "Ġbold": 8208,
      "Ġmale": 8209,
      "Ġflesh": 8210,
      "Ġdare": 8211,
      "Ġug": 8212,
      "children": 8213,
      "adies": 8214,
      "Ġproceed": 8215,
      "ĠCold": 8216,
      "Ġsocially": 8217,
      "ĠMake": 8218,
      "elines": 8219,
      "Ġlob": 8220,
      "ĠBaghdad": 8221,
      "Ġcompatible": 8222,
      "ĠFI": 8223,
      "ĠFire": 8224,
      "ĠHapp": 8225,
      "ĠHenry": 8226,
      "ague": 8227,
      "Ġunple": 8228,
      "ĠLOR": 8229,
      "ĠLiber": 8230,
      "ĠWant": 8231,
      "ifferent": 8232,
      "Ġunderm": 8233,
      "Ġafterwards": 8234,
      "Ġbull": 8235,
      "Ġdesirable": 8236,
      "ĠStrategy": 8237,
      "Ġ46": 8238,
      "Ġevacu": 8239,
      "Ġideals": 8240,
      "range": 8241,
      "Ġ600": 8242,
      "Ġexpects": 8243,
      "2012": 8244,
      "Ġpoore": 8245,
      "elled": 8246,
      "Ġstrategically": 8247,
      "Ġbringing": 8248,
      "Ġsupporters": 8249,
      "ĠDeath": 8250,
      "Ġrespects": 8251,
      "Ġrespected": 8252,
      "Ġillusion": 8253,
      "Ġoriginally": 8254,
      "Ġfiles": 8255,
      "ĠPrin": 8256,
      "Ġconvict": 8257,
      "Ġfocusing": 8258,
      "Ġpublis": 8259,
      "Ġveget": 8260,
      "Ġ1970": 8261,
      "ĠConference": 8262,
      "Ġportra": 8263,
      "Ġdescription": 8264,
      "Ġreflected": 8265,
      "Ġdisputes": 8266,
      "ĠMalta": 8267,
      "Ġfrequency": 8268,
      "Ġlaboratory": 8269,
      "mma": 8270,
      "ĠSerbian": 8271,
      "Ġexclusive": 8272,
      "TION": 8273,
      "Ġmathematics": 8274,
      "Ġdistinguish": 8275,
      "Yeah": 8276,
      "ĠLuxembourg": 8277,
      "Ġunpleasant": 8278,
      "ĠLORD": 8279,
      ",âĢĻ": 8280,
      "David": 8281,
      "Follow": 8282,
      "car": 8283,
      "iot": 8284,
      "mes": 8285,
      "political": 8286,
      "sm": 8287,
      "sung": 8288,
      "Ġtempt": 8289,
      "Ġtherap": 8290,
      "erate": 8291,
      "athered": 8292,
      "isode": 8293,
      "esla": 8294,
      "Ġmort": 8295,
      "Ġfan": 8296,
      "Ġtoxic": 8297,
      "Ġdro": 8298,
      "Ġbeach": 8299,
      "Ġhabit": 8300,
      "igious": 8301,
      "ĠAN": 8302,
      "iled": 8303,
      "ilty": 8304,
      "ustain": 8305,
      "ĠMess": 8306,
      "ĠMany": 8307,
      "thod": 8308,
      "Ġspouse": 8309,
      "apital": 8310,
      "Ġresident": 8311,
      "Ġtech": 8312,
      "Ġteeth": 8313,
      "ĠWomen": 8314,
      "ĠChange": 8315,
      "ormal": 8316,
      "Ġsyn": 8317,
      "Ġsheep": 8318,
      "Ġfeared": 8319,
      "Ġ52": 8320,
      "Ġpreserved": 8321,
      "Ġproducing": 8322,
      "Ġgreatly": 8323,
      "oys": 8324,
      "Ġforemost": 8325,
      "Ġ64": 8326,
      "Ġdestabil": 8327,
      "Ġdeter": 8328,
      "Ġkeeping": 8329,
      "Ġdistinct": 8330,
      "Children": 8331,
      "Ġrecognised": 8332,
      "Ġclassified": 8333,
      "Ġfastest": 8334,
      "ĠPrince": 8335,
      "Ġarrang": 8336,
      "ĠSociety": 8337,
      "Ġambassador": 8338,
      "Ġprogramming": 8339,
      "Ġsouls": 8340,
      "Ġurg": 8341,
      "Ġmaintained": 8342,
      "Ġintroduction": 8343,
      "Ġadapted": 8344,
      "Ġdescribes": 8345,
      "Ġvacation": 8346,
      "Ġcoordinated": 8347,
      "ĠAtlantic": 8348,
      "ĠResolution": 8349,
      "Ġirre": 8350,
      "Ġearned": 8351,
      "Ġmandatory": 8352,
      "Ġduties": 8353,
      "uilding": 8354,
      "ĠProtocol": 8355,
      "Ġcasino": 8356,
      "Ġdiversification": 8357,
      "ĠTHE": 8358,
      "Ġchampions": 8359,
      "Ġappointed": 8360,
      "ĠAlbania": 8361,
      "Tomorrow": 8362,
      "Ġnavigation": 8363,
      "Musl": 8364,
      "ĠFranc": 8365,
      "roductive": 8366,
      "Ġscheme": 8367,
      "Ġsplit": 8368,
      "ĠFlorida": 8369,
      "\":": 8370,
      ".âĢľ": 8371,
      "34": 8372,
      "Av": 8373,
      "Aust": 8374,
      "IP": 8375,
      "Person": 8376,
      "national": 8377,
      "ois": 8378,
      "Ġtill": 8379,
      "inter": 8380,
      "Ġwives": 8381,
      "Ġfit": 8382,
      "Ġfed": 8383,
      "Ġpull": 8384,
      "Ġdual": 8385,
      "Ġgreet": 8386,
      "Ġgathered": 8387,
      "cts": 8388,
      "imony": 8389,
      "iller": 8390,
      "Ġhast": 8391,
      "iger": 8392,
      "Ġdozen": 8393,
      "oler": 8394,
      "ĠCode": 8395,
      "ĠEmb": 8396,
      "Ġlied": 8397,
      "opefully": 8398,
      "oga": 8399,
      "ĠNe": 8400,
      "ĠTimes": 8401,
      "Ġunnecess": 8402,
      "ĠLeg": 8403,
      "merce": 8404,
      "Ġincent": 8405,
      "Ġproblematic": 8406,
      "Ġ57": 8407,
      "Ġ41": 8408,
      "Ġ47": 8409,
      "uese": 8410,
      "Ġelector": 8411,
      "ĠInvest": 8412,
      "aires": 8413,
      "Ġissued": 8414,
      "Ġ66": 8415,
      "arming": 8416,
      "Ġhandle": 8417,
      "Ġshortly": 8418,
      "Ġdistant": 8419,
      "Ġadmire": 8420,
      "ventually": 8421,
      "Ġprivat": 8422,
      "Ġrisky": 8423,
      "Ġcustoms": 8424,
      "Ġobserver": 8425,
      "Ġobservation": 8426,
      "Ġemployer": 8427,
      "ĠCentre": 8428,
      "ography": 8429,
      "Ġcapitalist": 8430,
      "Ġregulators": 8431,
      "Ġsugar": 8432,
      "Ġposts": 8433,
      "Ġfifteen": 8434,
      "Ġcalendar": 8435,
      "Ġdeclaration": 8436,
      "Ġautomatic": 8437,
      "ESCO": 8438,
      "ĠGrand": 8439,
      "ĠBrazilian": 8440,
      "ipped": 8441,
      "Ġoptimistic": 8442,
      "Ġmiracles": 8443,
      "Ġverily": 8444,
      "Ġcasinos": 8445,
      "Ġguns": 8446,
      "Ġrenewable": 8447,
      "Ġrichest": 8448,
      "Ġguidance": 8449,
      "Ġsuspicious": 8450,
      "Ġprovinces": 8451,
      "Ġencouraging": 8452,
      "ĠWednesday": 8453,
      "Eventually": 8454,
      "IM": 8455,
      "Mary": 8456,
      "Millions": 8457,
      "OW": 8458,
      "Rep": 8459,
      "crib": 8460,
      "hus": 8461,
      "haust": 8462,
      "iants": 8463,
      "oot": 8464,
      "two": 8465,
      "Ġ=": 8466,
      "Ġtons": 8467,
      "Ġtanks": 8468,
      "rey": 8469,
      "erly": 8470,
      "asy": 8471,
      "utor": 8472,
      "imited": 8473,
      "iring": 8474,
      "chain": 8475,
      "odia": 8476,
      "Ġproclaim": 8477,
      "ĠAgain": 8478,
      "estival": 8479,
      "Ġfronts": 8480,
      "ĠMong": 8481,
      "Ġvib": 8482,
      "ĠBur": 8483,
      "ĠBest": 8484,
      "ĠBec": 8485,
      "Italy": 8486,
      "ourge": 8487,
      "Ġexped": 8488,
      "ĠFl": 8489,
      "arely": 8490,
      "ĠHas": 8491,
      "ĠTra": 8492,
      "ultural": 8493,
      "ĠChile": 8494,
      "Ġimported": 8495,
      "Ġdism": 8496,
      "Ġrelax": 8497,
      "obile": 8498,
      "assion": 8499,
      "Ġ51": 8500,
      "Ġ55": 8501,
      "Ġevolve": 8502,
      "Ġsmoke": 8503,
      "Ġcreator": 8504,
      "eches": 8505,
      "ccessful": 8506,
      "Ġcertainty": 8507,
      "Ġextended": 8508,
      "Ġpropag": 8509,
      "orthy": 8510,
      "Ġdepression": 8511,
      "ependent": 8512,
      "Ġcontrols": 8513,
      "Ġoccasion": 8514,
      "Ġcommunist": 8515,
      "Ġwrites": 8516,
      "Ġcivilized": 8517,
      "Ġmusical": 8518,
      "Ġ140": 8519,
      "Accordingly": 8520,
      "Ġnegotiating": 8521,
      "Ġattracted": 8522,
      "Ġveter": 8523,
      "Ġpurchases": 8524,
      "Wherever": 8525,
      "Ġmobility": 8526,
      "Ġjournalist": 8527,
      "Ġvoluntary": 8528,
      "Ġshocking": 8529,
      "Ġregistration": 8530,
      "Ġmotivated": 8531,
      "Ġcorporations": 8532,
      "Ġqualities": 8533,
      "Ġwaters": 8534,
      "Ġforests": 8535,
      "Ġexclude": 8536,
      "Belarus": 8537,
      "Ġbureaucratic": 8538,
      "Ġremarkable": 8539,
      "ĠCatholic": 8540,
      "Ġstatistical": 8541,
      "ĠCroatia": 8542,
      "Ġportfolio": 8543,
      "Ġugly": 8544,
      "thodox": 8545,
      "EV": 8546,
      "HA": 8547,
      "II": 8548,
      "hi": 8549,
      "Ġ*": 8550,
      "Ġx": 8551,
      "Ĥ¬": 8552,
      "inese": 8553,
      "anmar": 8554,
      "especially": 8555,
      "Ġpock": 8556,
      "Ġpush": 8557,
      "Ġpurely": 8558,
      "Ġpoker": 8559,
      "alty": 8560,
      "sters": 8561,
      "utical": 8562,
      "imir": 8563,
      "Ġstorm": 8564,
      "racies": 8565,
      "ĠAM": 8566,
      "ĠMo": 8567,
      "ĠPent": 8568,
      "Ġpled": 8569,
      "ĠBell": 8570,
      "ĠBush": 8571,
      "Ġexpenses": 8572,
      "ĠForm": 8573,
      "ĠHigh": 8574,
      "ĠHelp": 8575,
      "Ġamuse": 8576,
      "ĠLa": 8577,
      "ĠWars": 8578,
      "riends": 8579,
      "Ġspeeches": 8580,
      "Ġindex": 8581,
      "ĠOut": 8582,
      "Ġaccus": 8583,
      "Ġsystematic": 8584,
      "Ġdesired": 8585,
      "Ġunderstandable": 8586,
      "Ġendless": 8587,
      "oving": 8588,
      "Ġguilty": 8589,
      "Ġvisual": 8590,
      "Ġsurve": 8591,
      "ĠVien": 8592,
      "arsh": 8593,
      "Ġinspect": 8594,
      "Ġgrows": 8595,
      "Ġdepos": 8596,
      "aiting": 8597,
      "Ġsched": 8598,
      "Ġdrunk": 8599,
      "Ġconsiderable": 8600,
      "Ġwriters": 8601,
      "Ġsetting": 8602,
      "Ġmusicians": 8603,
      "Ġjudicial": 8604,
      "Ġsustainability": 8605,
      "Ġreminded": 8606,
      "Ġsuggests": 8607,
      "Ġmaintaining": 8608,
      "Ġmobil": 8609,
      "Ġreplacement": 8610,
      "ĠNetwork": 8611,
      "Ġgrandmother": 8612,
      "Ġphilosop": 8613,
      "Ġconsistently": 8614,
      "Ġyellow": 8615,
      "Ġentrepreneur": 8616,
      "ĠMorocc": 8617,
      "Ġlifetime": 8618,
      "Ġpregnancy": 8619,
      "Ġprotocols": 8620,
      "Ġticket": 8621,
      "Ġtickets": 8622,
      "Ġdecentralized": 8623,
      "Ġinherit": 8624,
      "Ġfiscal": 8625,
      "Ġalgorithm": 8626,
      "Ġdescendants": 8627,
      "Ġobservations": 8628,
      "ladimir": 8629,
      "Ġexercises": 8630,
      "ĠScotland": 8631,
      "300": 8632,
      "52": 8633,
      "57": 8634,
      "59": 8635,
      "Between": 8636,
      "Democ": 8637,
      "RS": 8638,
      "Red": 8639,
      "Ser": 8640,
      "Sub": 8641,
      "Use": 8642,
      "hran": 8643,
      "ko": 8644,
      "oom": 8645,
      "space": 8646,
      "heres": 8647,
      "Ġbird": 8648,
      "Ġpill": 8649,
      "Ġporn": 8650,
      "Ġinjustice": 8651,
      "Ġdrop": 8652,
      "Ġnut": 8653,
      "Ġnaked": 8654,
      "Ġears": 8655,
      "roid": 8656,
      "Ġcance": 8657,
      "Ġcongress": 8658,
      "ĠAI": 8659,
      "istory": 8660,
      "Wel": 8661,
      "early": 8662,
      "Ġtruck": 8663,
      "Ġvice": 8664,
      "ĠPat": 8665,
      "ĠPay": 8666,
      "ĠBak": 8667,
      "Ġcontained": 8668,
      "ĠFound": 8669,
      "ĠTor": 8670,
      "ĠTony": 8671,
      "ĠDays": 8672,
      "ĠLinux": 8673,
      "ocaust": 8674,
      "Ġserver": 8675,
      "Ġhereafter": 8676,
      "Ġrecovery": 8677,
      "redict": 8678,
      "Ġdevelopers": 8679,
      "Ġgenius": 8680,
      "Ġmillenn": 8681,
      "Ġsecondary": 8682,
      "Ġescal": 8683,
      "Ġextend": 8684,
      "Ġinspired": 8685,
      "Ġhighlight": 8686,
      "Ġapproval": 8687,
      "Ġbadly": 8688,
      "Ġrecognise": 8689,
      "Ġbankers": 8690,
      "Ġbankrupt": 8691,
      "Ġautumn": 8692,
      "Ġoperates": 8693,
      "Ġillust": 8694,
      "Ġestablishing": 8695,
      "Ġviolations": 8696,
      "Ġemployee": 8697,
      "Ġclosing": 8698,
      "Ġholds": 8699,
      "Ġreactions": 8700,
      "ĠUNESCO": 8701,
      "Ġswitch": 8702,
      "ĠItalians": 8703,
      "Ġconsequence": 8704,
      "Ġdegrees": 8705,
      "ĠCuban": 8706,
      "ocolate": 8707,
      "Ġmisunder": 8708,
      "Ġreconst": 8709,
      "Ġcrypt": 8710,
      "Ġcolonies": 8711,
      "Ġoceans": 8712,
      "German": 8713,
      "Ġracist": 8714,
      "Ġhypoc": 8715,
      "Ġsurrounded": 8716,
      "Ġmathematical": 8717,
      "Ġadventure": 8718,
      "ĠBalkans": 8719,
      "Ġtheoretical": 8720,
      "Ġmacroeconomic": 8721,
      "ĠOffice": 8722,
      "Ġtariffs": 8723,
      "Ġbombs": 8724,
      "Ġequivalent": 8725,
      "ĠColombia": 8726,
      "ĠMongol": 8727,
      "ourgeois": 8728,
      "Ġamusement": 8729,
      "36": 8730,
      "CP": 8731,
      "EB": 8732,
      "List": 8733,
      "TS": 8734,
      "bi": 8735,
      "bul": 8736,
      "dam": 8737,
      "hour": 8738,
      "non": 8739,
      "rical": 8740,
      "xy": 8741,
      "Ġokay": 8742,
      "Ġsouthern": 8743,
      "ero": 8744,
      "Ġbourgeois": 8745,
      "Ġmun": 8746,
      "Ġmood": 8747,
      "Ġhates": 8748,
      "Ġnerv": 8749,
      "otal": 8750,
      "urrection": 8751,
      "rawn": 8752,
      "Ġproves": 8753,
      "ĠAIDS": 8754,
      "ĠSky": 8755,
      "Ġdeeds": 8756,
      "ĠEconom": 8757,
      "ĠMa": 8758,
      "ĠMaster": 8759,
      "thur": 8760,
      "ĠGet": 8761,
      "Ġthemes": 8762,
      "unate": 8763,
      "okia": 8764,
      "bert": 8765,
      "aceutical": 8766,
      "ĠLive": 8767,
      "ĠLady": 8768,
      "ipedia": 8769,
      "Ġprest": 8770,
      "Ġservers": 8771,
      "ava": 8772,
      "ĠUSSR": 8773,
      "iban": 8774,
      "Ġoldest": 8775,
      "Ġinterven": 8776,
      "Ġprofits": 8777,
      "stanbul": 8778,
      "Ġabsurd": 8779,
      "Ġshareholders": 8780,
      "Ġhousehold": 8781,
      "Start": 8782,
      "ĠDoctor": 8783,
      "ĠAlger": 8784,
      "comings": 8785,
      "Ġattempted": 8786,
      "Ġreaching": 8787,
      "Ġwelfare": 8788,
      "Ġcontributed": 8789,
      "Ġmulti": 8790,
      "Ġassumed": 8791,
      "Ġdemonstrates": 8792,
      "Ġmarriages": 8793,
      "Ġ1967": 8794,
      "Ġconvincing": 8795,
      "Ukrainian": 8796,
      "ĠKurdistan": 8797,
      "Ġvirtually": 8798,
      "Ġisolation": 8799,
      "ĠSamsung": 8800,
      "Ġstrictly": 8801,
      "Ġvaccine": 8802,
      "ĠAlexander": 8803,
      "ĠNazi": 8804,
      "Ġhypot": 8805,
      "aniel": 8806,
      "Interest": 8807,
      "ĠDecl": 8808,
      "Ġholidays": 8809,
      "Ġincorrect": 8810,
      "Ġresponsibilities": 8811,
      "Check": 8812,
      "Ġunemployment": 8813,
      "Ġencounter": 8814,
      "ĠQueen": 8815,
      "ĠBosn": 8816,
      "ĠAmbassador": 8817,
      "Ġunhappy": 8818,
      "Ġoligarch": 8819,
      "ustainable": 8820,
      "ĠFrancis": 8821,
      "ĠVienna": 8822,
      "51": 8823,
      "Af": 8824,
      "Br": 8825,
      "Had": 8826,
      "Lord": 8827,
      "MA": 8828,
      "Six": 8829,
      "Talk": 8830,
      "Up": 8831,
      "fl": 8832,
      "rite": 8833,
      "Ġtight": 8834,
      "Ġwage": 8835,
      "only": 8836,
      "Ġcure": 8837,
      "Ġband": 8838,
      "orious": 8839,
      "eda": 8840,
      "eturn": 8841,
      "Ġstones": 8842,
      "alling": 8843,
      "ads": 8844,
      "ĠAS": 8845,
      "Ġexhaust": 8846,
      "istor": 8847,
      "essions": 8848,
      "Ġkitchen": 8849,
      "Ġfrank": 8850,
      "ĠMiss": 8851,
      "Ġplastic": 8852,
      "Ġspot": 8853,
      "Ġintu": 8854,
      "ĠFil": 8855,
      "ĠFBI": 8856,
      "Ġunions": 8857,
      "Ġuncond": 8858,
      "ĠCharles": 8859,
      "omething": 8860,
      "licate": 8861,
      "Ġupset": 8862,
      "ruly": 8863,
      "Ġgovernance": 8864,
      "Ġ54": 8865,
      "Ġbloody": 8866,
      "Ġcourses": 8867,
      "athy": 8868,
      "Ġentertain": 8869,
      "Ġenthus": 8870,
      "Ġguit": 8871,
      "Ġvisas": 8872,
      "Ġeleph": 8873,
      "ĠIns": 8874,
      "rison": 8875,
      "Ġfinanced": 8876,
      "Ġcorrection": 8877,
      "ledged": 8878,
      "Ġimmortal": 8879,
      "Ġpeacekeep": 8880,
      "Ġglobalization": 8881,
      "itizens": 8882,
      "Ġshortcomings": 8883,
      "Ġstaying": 8884,
      "Ġauthentic": 8885,
      "Ġcivilians": 8886,
      "iversal": 8887,
      "lected": 8888,
      "Ġcharity": 8889,
      "Ġ1985": 8890,
      "Ġdevoted": 8891,
      "Ġgrace": 8892,
      "Ġliberty": 8893,
      "Ġneighboring": 8894,
      "Ġrequested": 8895,
      "ĠOrder": 8896,
      "Ġpredictable": 8897,
      "Ġ1945": 8898,
      "Ġimpressed": 8899,
      "Ġcarrying": 8900,
      "Ġobligation": 8901,
      "Ġfirmly": 8902,
      "mmet": 8903,
      "ĠBelgian": 8904,
      "Ġphilosophical": 8905,
      "Ġeliminated": 8906,
      "Ġbarrier": 8907,
      "ĠInstitute": 8908,
      "Ġobstacle": 8909,
      "ĠNazis": 8910,
      "month": 8911,
      "Ġpersecution": 8912,
      "Ġmultiple": 8913,
      "Regardless": 8914,
      "Ġfighters": 8915,
      "Ġkeywords": 8916,
      "Ġcigarettes": 8917,
      "quarters": 8918,
      "rategic": 8919,
      "Ġnightmare": 8920,
      "uisine": 8921,
      "Ġunnecessary": 8922,
      "79": 8923,
      "James": 8924,
      "OM": 8925,
      "bac": 8926,
      "eel": 8927,
      "fire": 8928,
      "his": 8929,
      "iate": 8930,
      "limin": 8931,
      "lined": 8932,
      "tion": 8933,
      "ties": 8934,
      "Ġtied": 8935,
      "anim": 8936,
      "iture": 8937,
      "ena": 8938,
      "Ġmos": 8939,
      "Ġfashion": 8940,
      "Ġdrag": 8941,
      "Ġdangers": 8942,
      "Ġlaid": 8943,
      "Ġconce": 8944,
      "ĠAuthor": 8945,
      "Ġshares": 8946,
      "ĠEducation": 8947,
      "Ġsoil": 8948,
      "ĠMoney": 8949,
      "ĠGal": 8950,
      "elf": 8951,
      "iana": 8952,
      "acing": 8953,
      "Ġprisons": 8954,
      "unction": 8955,
      "Ġcomply": 8956,
      "Ġcompassion": 8957,
      "Ġnewly": 8958,
      "ĠFamily": 8959,
      "ĠFerr": 8960,
      "ĠType": 8961,
      "ĠJane": 8962,
      "Ġnowhere": 8963,
      "rior": 8964,
      "Ġdisasters": 8965,
      "Ġinvent": 8966,
      "Ġrecru": 8967,
      "Ġcontinents": 8968,
      "Ġeconomists": 8969,
      "Ġcreators": 8970,
      "Ġorganised": 8971,
      "Ġcorrid": 8972,
      "Ġinsane": 8973,
      "Ġhealthcare": 8974,
      "Ġnationalism": 8975,
      "Ġdemocracies": 8976,
      "Ġstops": 8977,
      "Ġpublication": 8978,
      "ĠIndust": 8979,
      "Ġfights": 8980,
      "Ġpoet": 8981,
      "Ġpresentation": 8982,
      "ĠFrank": 8983,
      "autious": 8984,
      "Ġprincipal": 8985,
      "Chinese": 8986,
      "Ġannually": 8987,
      "comes": 8988,
      "Ġparadise": 8989,
      "Ġcolleague": 8990,
      "Ġobjects": 8991,
      "Ġcircle": 8992,
      "ĠMaria": 8993,
      "Ġcombined": 8994,
      "Ġstruggling": 8995,
      "Ġcategor": 8996,
      "Ġreflects": 8997,
      "Ġacquis": 8998,
      "Ġexpanding": 8999,
      "Ġgeography": 9000,
      "Ġtouched": 9001,
      "Ġbroke": 9002,
      "ĠCoast": 9003,
      "habilit": 9004,
      "ĠPortuguese": 9005,
      "itcoin": 9006,
      "Ġperceive": 9007,
      "ĠJustice": 9008,
      "related": 9009,
      "Ġsenior": 9010,
      "Ġsatisfaction": 9011,
      "Ġfacilitate": 9012,
      "ĠBoliv": 9013,
      "Ġcatastrop": 9014,
      "ĠSteve": 9015,
      "Ġrescued": 9016,
      "Ġpropaganda": 9017,
      "Ġnervous": 9018,
      "ĠDeclaration": 9019,
      "Great": 9020,
      "TV": 9021,
      "aeda": 9022,
      "official": 9023,
      "put": 9024,
      "vin": 9025,
      "wer": 9026,
      "Ġ;": 9027,
      "Ġoh": 9028,
      "anna": 9029,
      "enger": 9030,
      "Ġpal": 9031,
      "Ġtoile": 9032,
      "Ġinex": 9033,
      "Ġineff": 9034,
      "Ġhar": 9035,
      "Ġhired": 9036,
      "Ġdign": 9037,
      "Ġdile": 9038,
      "state": 9039,
      "Ġease": 9040,
      "ctr": 9041,
      "illy": 9042,
      "Ġwhis": 9043,
      "ams": 9044,
      "aments": 9045,
      "Ġconvey": 9046,
      "Ġseats": 9047,
      "âĢĿ:": 9048,
      "ĠAff": 9049,
      "ĠClin": 9050,
      "ĠCIA": 9051,
      "Ġchocolate": 9052,
      "ĠBah": 9053,
      "ĠBetter": 9054,
      "Ġprince": 9055,
      "izza": 9056,
      "ĠNap": 9057,
      "Hey": 9058,
      "Ġsymp": 9059,
      "Ġreply": 9060,
      "vernments": 9061,
      "ĠStand": 9062,
      "ĠStep": 9063,
      "Ġstartup": 9064,
      "peace": 9065,
      "ologically": 9066,
      "Ġending": 9067,
      "Ġguilt": 9068,
      "ĠInc": 9069,
      "ĠUSD": 9070,
      "Ġ98": 9071,
      "Ġproductivity": 9072,
      "Ġdeput": 9073,
      "Ġcompetitor": 9074,
      "Ġrising": 9075,
      "Ġpatents": 9076,
      "arents": 9077,
      "Ġagrees": 9078,
      "Ġdirected": 9079,
      "Ġwins": 9080,
      "Ġrulers": 9081,
      "Ġtestimony": 9082,
      "Ġarmies": 9083,
      "ployed": 9084,
      "Ġtrusted": 9085,
      "Ġtraveled": 9086,
      "Ġtreaties": 9087,
      "Ġviolated": 9088,
      "ĠTrue": 9089,
      "Ġexceptions": 9090,
      "Ġexceptional": 9091,
      "ĠMyanmar": 9092,
      "Ġintegrate": 9093,
      "Ġ130": 9094,
      "Ġcolumn": 9095,
      "Ġteaches": 9096,
      "Ġtalented": 9097,
[...]
