{
  "version": "1.0",
  "truncation": null,
  "padding": null,
  "added_tokens": [
    {
      "id": 0,
      "content": "<pad>",
      "single_word": false,
      "lstrip": false,
      "rstrip": false,
      "normalized": false,
      "special": true
    },
    {
      "id": 1,
      "content": "<s>",
      "single_word": false,
      "lstrip": false,
      "rstrip": false,
      "normalized": false,
      "special": true
    },
    {
      "id": 2,
      "content": "</s>",
      "single_word": false,
      "lstrip": false,
      "rstrip": false,
      "normalized": false,
      "special": true
    },
    {
      "id": 3,
      "content": "<unk>",
      "single_word": false,
      "lstrip": false,
      "rstrip": false,
      "normalized": false,
      "special": true
    },
    {
      "id": 4,
      "content": "<mask>",
      "single_word": false,
      "lstrip": false,
      "rstrip": false,
      "normalized": false,
      "special": true
    }
  ],
  "normalizer": {
    "type": "NFKC"
  },
  "pre_tokenizer": {
    "type": "ByteLevel",
    "add_prefix_space": false,
    "trim_offsets": true,
    "use_regex": true
  },
  "post_processor": null,
  "decoder": null,
  "model": {
    "type": "BPE",
    "dropout": null,
    "unk_token": null,
    "continuing_subword_prefix": null,
    "end_of_word_suffix": null,
    "fuse_unk": false,
    "byte_fallback": false,
    "ignore_merges": false,
    "vocab": {
      "<pad>": 0,
      "<s>": 1,
      "</s>": 2,
      "<unk>": 3,
      "<mask>": 4,
      "!": 5,
      "\"": 6,
      "#": 7,
      "$": 8,
      "%": 9,
      "&": 10,
      "'": 11,
      "(": 12,
      ")": 13,
      "*": 14,
      "+": 15,
      ",": 16,
      "-": 17,
      ".": 18,
      "/": 19,
      "0": 20,
      "1": 21,
      "2": 22,
      "3": 23,
      "4": 24,
      "5": 25,
      "6": 26,
      "7": 27,
      "8": 28,
      "9": 29,
      ":": 30,
      ";": 31,
      "<": 32,
      "=": 33,
      ">": 34,
      "?": 35,
      "@": 36,
      "A": 37,
      "B": 38,
      "C": 39,
      "D": 40,
      "E": 41,
      "F": 42,
      "G": 43,
      "H": 44,
      "I": 45,
      "J": 46,
      "K": 47,
      "L": 48,
      "M": 49,
      "N": 50,
      "O": 51,
      "P": 52,
      "Q": 53,
      "R": 54,
      "S": 55,
      "T": 56,
      "U": 57,
      "V": 58,
      "W": 59,
      "X": 60,
      "Y": 61,
      "Z": 62,
      "[": 63,
      "\\": 64,
      "]": 65,
      "^": 66,
      "_": 67,
      "`": 68,
      "a": 69,
      "b": 70,
      "c": 71,
      "d": 72,
      "e": 73,
      "f": 74,
      "g": 75,
      "h": 76,
      "i": 77,
      "j": 78,
      "k": 79,
      "l": 80,
      "m": 81,
      "n": 82,
      "o": 83,
      "p": 84,
      "q": 85,
      "r": 86,
      "s": 87,
      "t": 88,
      "u": 89,
      "v": 90,
      "w": 91,
      "x": 92,
      "y": 93,
      "z": 94,
      "{": 95,
      "|": 96,
      "}": 97,
      "~": 98,
      "¡": 99,
      "¢": 100,
      "£": 101,
      "¤": 102,
      "¥": 103,
      "¦": 104,
      "§": 105,
      "¨": 106,
      "©": 107,
      "ª": 108,
      "«": 109,
      "¬": 110,
      "®": 111,
      "¯": 112,
      "°": 113,
      "±": 114,
      "²": 115,
      "³": 116,
      "´": 117,
      "µ": 118,
      "¶": 119,
      "·": 120,
      "¸": 121,
      "¹": 122,
      "º": 123,
      "»": 124,
      "¼": 125,
      "½": 126,
      "¾": 127,
      "¿": 128,
      "À": 129,
      "Á": 130,
      "Â": 131,
      "Ã": 132,
      "Ä": 133,
      "Å": 134,
      "Æ": 135,
      "Ç": 136,
      "È": 137,
      "É": 138,
      "Ê": 139,
      "Ë": 140,
      "Ì": 141,
      "Í": 142,
      "Î": 143,
      "Ï": 144,
      "Ð": 145,
      "Ñ": 146,
      "Ò": 147,
      "Ó": 148,
      "Ô": 149,
      "Õ": 150,
      "Ö": 151,
      "×": 152,
      "Ø": 153,
      "Ù": 154,
      "Ú": 155,
      "Û": 156,
      "Ü": 157,
      "Ý": 158,
      "Þ": 159,
      "ß": 160,
      "à": 161,
      "á": 162,
      "â": 163,
      "ã": 164,
      "ä": 165,
      "å": 166,
      "æ": 167,
      "ç": 168,
      "è": 169,
      "é": 170,
      "ê": 171,
      "ë": 172,
      "ì": 173,
      "í": 174,
      "î": 175,
      "ï": 176,
      "ð": 177,
      "ñ": 178,
      "ò": 179,
      "ó": 180,
      "ô": 181,
      "õ": 182,
      "ö": 183,
      "÷": 184,
      "ø": 185,
      "ù": 186,
      "ú": 187,
      "û": 188,
      "ü": 189,
      "ý": 190,
      "þ": 191,
      "ÿ": 192,
      "Ā": 193,
      "ā": 194,
      "Ă": 195,
      "ă": 196,
      "Ą": 197,
      "ą": 198,
      "Ć": 199,
      "ć": 200,
      "Ĉ": 201,
      "ĉ": 202,
      "Ċ": 203,
      "ċ": 204,
      "Č": 205,
      "č": 206,
      "Ď": 207,
      "ď": 208,
      "Đ": 209,
      "đ": 210,
      "Ē": 211,
      "ē": 212,
      "Ĕ": 213,
      "ĕ": 214,
      "Ė": 215,
      "ė": 216,
      "Ę": 217,
      "ę": 218,
      "Ě": 219,
      "ě": 220,
      "Ĝ": 221,
      "ĝ": 222,
      "Ğ": 223,
      "ğ": 224,
      "Ġ": 225,
      "ġ": 226,
      "Ģ": 227,
      "ģ": 228,
      "Ĥ": 229,
      "ĥ": 230,
      "Ħ": 231,
      "ħ": 232,
      "Ĩ": 233,
      "ĩ": 234,
      "Ī": 235,
      "ī": 236,
      "Ĭ": 237,
      "ĭ": 238,
      "Į": 239,
      "į": 240,
      "İ": 241,
      "ı": 242,
      "Ĳ": 243,
      "ĳ": 244,
      "Ĵ": 245,
      "ĵ": 246,
      "Ķ": 247,
      "ķ": 248,
      "ĸ": 249,
      "Ĺ": 250,
      "ĺ": 251,
      "Ļ": 252,
      "ļ": 253,
      "Ľ": 254,
      "ľ": 255,
      "Ŀ": 256,
      "ŀ": 257,
      "Ł": 258,
      "ł": 259,
      "Ń": 260,
      "Ġd": 261,
      "es": 262,
      "Ã©": 263,
      "en": 264,
      "Ġp": 265,
      "ou": 266,
      "on": 267,
      "Ġl": 268,
      "Ġc": 269,
      "Ġa": 270,
      "qu": 271,
      "re": 272,
      "Ġs": 273,
      "ai": 274,
      "Ġde": 275,
      "an": 276,
      "er": 277,
      "ent": 278,
      "Ġqu": 279,
      "Ġn": 280,
      "Ġm": 281,
      "âĢ": 282,
      "ti": 283,
      "Ġv": 284,
      "eu": 285,
      "ous": 286,
      "âĢĻ": 287,
      "le": 288,
      "is": 289,
      "Ġt": 290,
      "un": 291,
      "et": 292,
      "ar": 293,
      "in": 294,
      "our": 295,
      "il": 296,
      "Ġla": 297,
      "ĠÃ": 298,
      "it": 299,
      "ons": 300,
      "el": 301,
      "ment": 302,
      "Ġf": 303,
      "om": 304,
      "Ġun": 305,
      "est": 306,
      "Ġle": 307,
      "Ġque": 308,
      "or": 309,
      "us": 310,
      "Ġet": 311,
      "ro": 312,
      "Ã¨": 313,
      "te": 314,
      "as": 315,
      "Ġles": 316,
      "tre": 317,
      "ĠÃł": 318,
      "me": 319,
      "Ġr": 320,
      "Ġen": 321,
      "ve": 322,
      "ais": 323,
      "ant": 324,
      "ont": 325,
      "ĠÃ©": 326,
      "Ġj": 327,
      "ait": 328,
      "Ġpour": 329,
      "oi": 330,
      "Ġau": 331,
      "ce": 332,
      "au": 333,
      "ans": 334,
      "tion": 335,
      "ri": 336,
      "ra": 337,
      "Ġpar": 338,
      "Ġest": 339,
      "Ġpas": 340,
      "Ġb": 341,
      "eur": 342,
      "Ġdes": 343,
      "Ġcom": 344,
      "Ġnous": 345,
      "Ġvous": 346,
      "os": 347,
      "que": 348,
      "ne": 349,
      "al": 350,
      "ci": 351,
      "Ġpl": 352,
      "ur": 353,
      "Ġch": 354,
      "Ã©s": 355,
      "Ġdans": 356,
      "Ġce": 357,
      "Ġune": 358,
      "li": 359,
      "Ġg": 360,
      "ĠÂ": 361,
      "tÃ©": 362,
      "res": 363,
      "de": 364,
      "si": 365,
      "Ġpro": 366,
      "Ãª": 367,
      "Ġil": 368,
      "ain": 369,
      "Ġne": 370,
      "ch": 371,
      "Ġqui": 372,
      "em": 373,
      "ĠdÃ©": 374,
      "Ġav": 375,
      "Ġave": 376,
      "Ġplus": 377,
      "at": 378,
      "end": 379,
      "lement": 380,
      "ouv": 381,
      "ens": 382,
      "Ġre": 383,
      "ui": 384,
      "ag": 385,
      "Il": 386,
      "Ġtou": 387,
      "Ġpr": 388,
      "im": 389,
      "ie": 390,
      "Ġdu": 391,
      "Ġin": 392,
      "ers": 393,
      "onn": 394,
      "ation": 395,
      "Ġpeu": 396,
      "am": 397,
      "Ġavec": 398,
      "les": 399,
      "otre": 400,
      "ĠrÃ©": 401,
      "ĠC": 402,
      "ĠD": 403,
      "pp": 404,
      "ir": 405,
      "ĠÂ»": 406,
      "elle": 407,
      "ex": 408,
      "Ã¨re": 409,
      "ieu": 410,
      "Ġsur": 411,
      "aire": 412,
      "itÃ©": 413,
      "ab": 414,
      "and": 415,
      "ĠM": 416,
      "Ġcon": 417,
      "Ġou": 418,
      "ĠS": 419,
      "Â«": 420,
      "ĠÃª": 421,
      "Ã©e": 422,
      "Ġdi": 423,
      "Ġ1": 424,
      "ff": 425,
      "Ġh": 426,
      "Ġsi": 427,
      "..": 428,
      "Ġje": 429,
      "Ġtr": 430,
      "ois": 431,
      "oir": 432,
      "Ġ?": 433,
      "mes": 434,
      "ol": 435,
      "Ġsont": 436,
      "ien": 437,
      "pr": 438,
      "ter": 439,
      "ac": 440,
      "tes": 441,
      "av": 442,
      "Ã¨s": 443,
      "Ġmon": 444,
      "ati": 445,
      "oin": 446,
      "Ġ:": 447,
      "Ġo": 448,
      "ette": 449,
      "ĠP": 450,
      "Ġan": 451,
      "ĠÃ©t": 452,
      "Ġse": 453,
      "ez": 454,
      "eurs": 455,
      "Ãªme": 456,
      "Nous": 457,
      "Ġser": 458,
      "ĠÃªtre": 459,
      "Je": 460,
      "id": 461,
      "uis": 462,
      "Ġex": 463,
      "Ġont": 464,
      "Ã©r": 465,
      "ten": 466,
      "Ġcomme": 467,
      "Ġ(": 468,
      "di": 469,
      "ort": 470,
      "Ġ2": 471,
      "Ġdev": 472,
      "ess": 473,
      "ĠL": 474,
      "ĠA": 475,
      "eux": 476,
      "Ġcette": 477,
      "aient": 478,
      "ĠâĢ": 479,
      "ela": 480,
      "Et": 481,
      "ussi": 482,
      "Ãł": 483,
      "Ġy": 484,
      "ni": 485,
      "ĠDieu": 486,
      "00": 487,
      "ux": 488,
      "imp": 489,
      "Ġfait": 490,
      "ĠÃ©tÃ©": 491,
      "ouve": 492,
      "jour": 493,
      "Ġces": 494,
      "Ġchos": 495,
      "mi": 496,
      "rÃ©": 497,
      "tu": 498,
      "Ġmais": 499,
      "Ġpeut": 500,
      "ils": 501,
      "ĠÂ«": 502,
      "pÃ©": 503,
      "ys": 504,
      "pe": 505,
      "ques": 506,
      "ĠmÃªme": 507,
      "ĠB": 508,
      "ang": 509,
      "Ġquel": 510,
      "ors": 511,
      "Ġtout": 512,
      "ul": 513,
      "ble": 514,
      "Ġcons": 515,
      "Ġvotre": 516,
      "ert": 517,
      "En": 518,
      "emp": 519,
      "ĠT": 520,
      "Mais": 521,
      "Ġaussi": 522,
      "Ġent": 523,
      "Ġavons": 524,
      "tres": 525,
      "Ã©c": 526,
      "alement": 527,
      "oy": 528,
      "Ġcomm": 529,
      "se": 530,
      "Ġac": 531,
      "Ã©es": 532,
      "Ã¨me": 533,
      "Ġtra": 534,
      "Ġgr": 535,
      "ance": 536,
      "Ġnotre": 537,
      "fi": 538,
      "ĠJ": 539,
      "Ġcela": 540,
      "eau": 541,
      "ĠR": 542,
      "Ġ!": 543,
      "Ġ-": 544,
      "Ġal": 545,
      "uit": 546,
      "Ġfaire": 547,
      "ants": 548,
      "lis": 549,
      "Le": 550,
      "Ġils": 551,
      "ig": 552,
      "ion": 553,
      "Ġdit": 554,
      "Ġpers": 555,
      "Ġseu": 556,
      "rait": 557,
      "Ġapp": 558,
      "une": 559,
      "ainten": 560,
      "quoi": 561,
      "age": 562,
      "ĠâĢĵ": 563,
      "vent": 564,
      "Ġdeux": 565,
      "tions": 566,
      "bre": 567,
      "Ã©t": 568,
      "Vous": 569,
      "rai": 570,
      "oit": 571,
      "ĠÃ©g": 572,
      "La": 573,
      "Ġdis": 574,
      "Ġtous": 575,
      "ence": 576,
      "aintenant": 577,
      "ail": 578,
      "oup": 579,
      "Ġmonde": 580,
      "Ġson": 581,
      "Ġsu": 582,
      "ue": 583,
      "...": 584,
      "onne": 585,
      "onc": 586,
      "Ã©ri": 587,
      "Ġpa": 588,
      "ure": 589,
      "Ġjour": 590,
      "Ġparti": 591,
      "ot": 592,
      "Ce": 593,
      "ut": 594,
      "aÃ": 595,
      "endant": 596,
      "Ã´": 597,
      "Ġsa": 598,
      "Ġleur": 599,
      "ĠÃ©tait": 600,
      "ĠF": 601,
      "ler": 602,
      "aux": 603,
      "Ġtrav": 604,
      "ad": 605,
      "ici": 606,
      "Ġchose": 607,
      "ĠN": 608,
      "Ġ\"": 609,
      "lÃ©": 610,
      "uti": 611,
      "Ġvi": 612,
      "Ġnom": 613,
      "ĠÃ©galement": 614,
      "ap": 615,
      "rois": 616,
      "vous": 617,
      "elles": 618,
      "Les": 619,
      "co": 620,
      "Ġpens": 621,
      "Ġimp": 622,
      "Ġar": 623,
      "Ġeu": 624,
      "Ġme": 625,
      "Ã©n": 626,
      "ale": 627,
      "ct": 628,
      "ations": 629,
      "ord": 630,
      "endre": 631,
      "ĠI": 632,
      "ique": 633,
      "um": 634,
      "ces": 635,
      "ommes": 636,
      "ĠtrÃ¨s": 637,
      "ĠE": 638,
      "ard": 639,
      "Ġprop": 640,
      "Ġpouv": 641,
      "remi": 642,
      "Ġpos": 643,
      "Ġvrai": 644,
      "utilis": 645,
      "coup": 646,
      "aine": 647,
      "ĠG": 648,
      "eaucoup": 649,
      "Ġmaintenant": 650,
      "ouver": 651,
      "omme": 652,
      "Ġvou": 653,
      "tr": 654,
      "ille": 655,
      "Ġdire": 656,
      "hui": 657,
      "Ġbien": 658,
      "app": 659,
      "oli": 660,
      "og": 661,
      "oc": 662,
      "Ġsou": 663,
      "ains": 664,
      "Â»": 665,
      "jourd": 666,
      "ande": 667,
      "Ils": 668,
      "Ġfois": 669,
      "Ġpays": 670,
      "Ġpremi": 671,
      "Ġdiff": 672,
      "Ġtravail": 673,
      "oins": 674,
      "able": 675,
      "Ġli": 676,
      "Ġlui": 677,
      "ist": 678,
      "Ġnos": 679,
      "ill": 680,
      "Pour": 681,
      "ouvez": 682,
      "Qu": 683,
      "Ġann": 684,
      "ĠdÃ©c": 685,
      "Ġdem": 686,
      "Ġcomp": 687,
      "prÃ¨s": 688,
      "tin": 689,
      "Ãªtre": 690,
      "Ġaux": 691,
      "Ġam": 692,
      "Ġcert": 693,
      "tique": 694,
      "ement": 695,
      "vi": 696,
      "vez": 697,
      "Ġbeaucoup": 698,
      "Ġbes": 699,
      "Ġat": 700,
      "Ã»": 701,
      "Ġmo": 702,
      "jours": 703,
      "Ġter": 704,
      "Ġper": 705,
      "Ġavez": 706,
      "ond": 707,
      "Ġfin": 708,
      "Ġvie": 709,
      "tement": 710,
      "Ġpourquoi": 711,
      "Ġtoujours": 712,
      "Ġ3": 713,
      "Ġsera": 714,
      "Ġsem": 715,
      "Ġentre": 716,
      "Ġmar": 717,
      "Ġjus": 718,
      "Ġses": 719,
      "par": 720,
      "Ġans": 721,
      "Ġpersonn": 722,
      "Ġbesoin": 723,
      "Ġmil": 724,
      "Ġpouvez": 725,
      "Ġsav": 726,
      "orm": 727,
      "enir": 728,
      "Ġenf": 729,
      "Ġtemp": 730,
      "Ã¹": 731,
      "ine": 732,
      "che": 733,
      "enti": 734,
      "Ġprob": 735,
      "Ġma": 736,
      "amais": 737,
      "Ġutilis": 738,
      "enc": 739,
      "aque": 740,
      "ction": 741,
      "Ġgens": 742,
      "Ġjamais": 743,
      ".\"": 744,
      "vre": 745,
      "Ġmoi": 746,
      "core": 747,
      "eure": 748,
      "ace": 749,
      "aires": 750,
      "ĠcrÃ©": 751,
      "ge": 752,
      "ents": 753,
      "Ġ[": 754,
      "Ġelle": 755,
      "Ġcont": 756,
      "Ġavait": 757,
      "Ġtu": 758,
      "Ġas": 759,
      "Ġquelque": 760,
      "sion": 761,
      "Ġtemps": 762,
      "ic": 763,
      "Ġparce": 764,
      "ions": 765,
      "ĠH": 766,
      "ats": 767,
      "Ġtrois": 768,
      "Ġsommes": 769,
      "ĠÃ©c": 770,
      "aiss": 771,
      "Ġmoins": 772,
      "Ġsuis": 773,
      "jet": 774,
      "bli": 775,
      "ĠprÃ©s": 776,
      "Ġdonn": 777,
      "Un": 778,
      "Ġ20": 779,
      ").": 780,
      "Ġavoir": 781,
      "out": 782,
      "Ġder": 783,
      "Ġ19": 784,
      "Ġencore": 785,
      "Ġprod": 786,
      "Ġpoli": 787,
      "Ġquand": 788,
      "ĠoÃ¹": 789,
      "oci": 790,
      "rer": 791,
      "Ġautre": 792,
      "Ġnouve": 793,
      "nement": 794,
      "esp": 795,
      "Ġchoses": 796,
      "ĠrÃ©s": 797,
      "Ġvraiment": 798,
      "Ġmes": 799,
      "Ġseulement": 800,
      "ellement": 801,
      "Ġrais": 802,
      "st": 803,
      "Ġpeuvent": 804,
      "Ġcomment": 805,
      "Ġaujourd": 806,
      "ĠrÃ©p": 807,
      "Ã©ra": 808,
      "rez": 809,
      "ĠO": 810,
      "autres": 811,
      "Ġgrand": 812,
      "era": 813,
      "Ġfem": 814,
      "Ġrest": 815,
      "Ġici": 816,
      "Ġvoir": 817,
      "Ġimport": 818,
      "pendant": 819,
      "ĠÂ».": 820,
      "tern": 821,
      "ales": 822,
      "Ġst": 823,
      "ropÃ©": 824,
      "op": 825,
      "Ġ4": 826,
      "ite": 827,
      "ts": 828,
      "Ã§": 829,
      "ĠaprÃ¨s": 830,
      "Si": 831,
      "ĠCh": 832,
      "ĠV": 833,
      "Ġob": 834,
      "Ġpersonnes": 835,
      "Ġsig": 836,
      "Ġcompr": 837,
      "cu": 838,
      "Ġderni": 839,
      "vÃ©": 840,
      "eff": 841,
      "aines": 842,
      "cti": 843,
      "ĠdÃ©j": 844,
      "Ã¢": 845,
      "Ġveu": 846,
      "ign": 847,
      "Ġ5": 848,
      "Ġnouv": 849,
      "âĢĿ": 850,
      "Ġmilli": 851,
      "Ġautres": 852,
      "iste": 853,
      "Ġnombre": 854,
      "ĠprÃ©": 855,
      "lÃ¨": 856,
      "lle": 857,
      "ĠdÃ©jÃł": 858,
      "rit": 859,
      "Ġleurs": 860,
      "ani": 861,
      "Ã¨res": 862,
      "Ġconn": 863,
      "Ġchaque": 864,
      "Ġco": 865,
      "ver": 866,
      "ĠW": 867,
      "orte": 868,
      "Ġvoul": 869,
      "Ġpri": 870,
      "els": 871,
      "Ġcl": 872,
      "ĠJe": 873,
      "Ġcar": 874,
      "omm": 875,
      "ĠdiffÃ©r": 876,
      "puis": 877,
      "Ġtoutes": 878,
      "Ġfr": 879,
      "ante": 880,
      "Ġchang": 881,
      "ay": 882,
      "Ġrec": 883,
      "Ġnon": 884,
      "oire": 885,
      "aÃ®": 886,
      "Ġques": 887,
      "Ġpe": 888,
      "Au": 889,
      "Ġenv": 890,
      "iÃ¨me": 891,
      "olu": 892,
      "uro": 893,
      "Par": 894,
      "ob": 895,
      "ong": 896,
      "ĠeuropÃ©": 897,
      "ise": 898,
      "lent": 899,
      "Ġatt": 900,
      "Ġaut": 901,
      "ner": 902,
      "Ġpuis": 903,
      "ieux": 904,
      "yst": 905,
      "sra": 906,
      "Ġdonc": 907,
      "Ġlors": 908,
      "nes": 909,
      "Ġpu": 910,
      "ves": 911,
      "Ã©g": 912,
      "Ġnouveau": 913,
      "Ġdoit": 914,
      "Ã©tait": 915,
      "roit": 916,
      "ĠvÃ©r": 917,
      "itÃ©s": 918,
      "Ġeux": 919,
      "Ġmin": 920,
      "Ġvos": 921,
      "Ġpense": 922,
      "itu": 923,
      "ĠK": 924,
      "Ġeff": 925,
      "Ġpart": 926,
      "lez": 927,
      "Ġenfants": 928,
      "Ġfor": 929,
      "Ġpourrait": 930,
      "Ġconc": 931,
      "tÃ©g": 932,
      "Ġni": 933,
      "aut": 934,
      "erre": 935,
      "Ġavant": 936,
      "raient": 937,
      "Dans": 938,
      "enne": 939,
      "Ġpass": 940,
      "je": 941,
      "Ġ200": 942,
      "Ġalors": 943,
      "Ã©d": 944,
      "Ġcommenc": 945,
      "«l": 946,
      "âĢľ": 947,
      "cep": 948,
      "ph": 949,
      "Ġexp": 950,
      "Ġdemand": 951,
      "entre": 952,
      "Ġpossi": 953,
      "Ã«l": 954,
      "Ġvis": 955,
      "Ġpouvons": 956,
      "Ġacc": 957,
      "Ġass": 958,
      "urope": 959,
      "ments": 960,
      "alis": 961,
      "Ġsoci": 962,
      "Ġpeti": 963,
      "Ġ;": 964,
      "Ġmeill": 965,
      "Ġsyst": 966,
      "mp": 967,
      "Ġtoute": 968,
      "min": 969,
      "Ġsans": 970,
      "ente": 971,
      "cip": 972,
      "Ġjeu": 973,
      "Cela": 974,
      "Ġtant": 975,
      "Ġai": 976,
      "ĠÃªtes": 977,
      "ĠlÃł": 978,
      "Ġcro": 979,
      "ĠIl": 980,
      "Åĵ": 981,
      "Ġraison": 982,
      "sraÃ«l": 983,
      "Ġpendant": 984,
      "Ġva": 985,
      "ass": 986,
      "Ġsimp": 987,
      "aÃ§": 988,
      "Ġcommun": 989,
      "Ġgouver": 990,
      "Ġcontin": 991,
      "Ġceux": 992,
      "Ġcour": 993,
      "ĠsÃ»": 994,
      "Ã´t": 995,
      "Ġmal": 996,
      "Ġpersonne": 997,
      "ĠpremiÃ¨re": 998,
      "mer": 999,
      "opp": 1000,
      "Ġca": 1001,
      "ĠNous": 1002,
      "gent": 1003,
      "Ġdepuis": 1004,
      "īt": 1005,
      "ĠrÃ©g": 1006,
      "cher": 1007,
      "Al": 1008,
      "Ġ201": 1009,
      "la": 1010,
      "ĠgÃ©n": 1011,
      "Ġcor": 1012,
      "ĠannÃ©es": 1013,
      "emb": 1014,
      "oute": 1015,
      "vers": 1016,
      "Cependant": 1017,
      "ĠPar": 1018,
      "Ġjours": 1019,
      "ture": 1020,
      "ĠfaÃ§": 1021,
      "Ġvoy": 1022,
      "Ġte": 1023,
      "Ġad": 1024,
      "Ġph": 1025,
      "ront": 1026,
      "iss": 1027,
      "insi": 1028,
      "De": 1029,
      "alitÃ©": 1030,
      "Ġpartie": 1031,
      "Ġcas": 1032,
      "Ġsoit": 1033,
      "Ġfam": 1034,
      "ing": 1035,
      "mÃªme": 1036,
      "Ġmois": 1037,
      "titu": 1038,
      "Ã©di": 1039,
      "ire": 1040,
      "ĠÃ©taient": 1041,
      "Ġsigni": 1042,
      "Ġproduit": 1043,
      "Ġimportant": 1044,
      "Ġor": 1045,
      "Ġpolitique": 1046,
      "nous": 1047,
      "Ġgouvernement": 1048,
      "nent": 1049,
      "rop": 1050,
      "lar": 1051,
      "qui": 1052,
      "Ġrapp": 1053,
      "anc": 1054,
      "Ġsouv": 1055,
      "Ġdont": 1056,
      "tiques": 1057,
      "Ġcet": 1058,
      "Ġmani": 1059,
      "ĠLe": 1060,
      "Ġcontre": 1061,
      "ures": 1062,
      "fin": 1063,
      "ition": 1064,
      "Ã©ric": 1065,
      "ĠEt": 1066,
      "Ġarri": 1067,
      "ĠsystÃ¨me": 1068,
      "Ġnouvelle": 1069,
      "Com": 1070,
      "fs": 1071,
      "Une": 1072,
      "Ġju": 1073,
      "Ġconf": 1074,
      "000": 1075,
      "uc": 1076,
      "iti": 1077,
      "Ġtrans": 1078,
      "emple": 1079,
      "Ġcap": 1080,
      "Ġserait": 1081,
      "cid": 1082,
      "Ġess": 1083,
      "Ġprin": 1084,
      "lus": 1085,
      "enu": 1086,
      "Ġcin": 1087,
      "Ġseul": 1088,
      "Pourquoi": 1089,
      "Ġparler": 1090,
      "Ġ6": 1091,
      "Ġvu": 1092,
      "onse": 1093,
      "ĠdÃ©s": 1094,
      "Ġ9": 1095,
      "ole": 1096,
      "ĠdÃ©v": 1097,
      "nÃ©e": 1098,
      "ĠfaÃ§on": 1099,
      "Ġsau": 1100,
      "Ġjou": 1101,
      "Ġauc": 1102,
      "ĠsÃ»r": 1103,
      "ier": 1104,
      "ĠSe": 1105,
      "tis": 1106,
      "ident": 1107,
      "ĠannÃ©e": 1108,
      "Ã©cess": 1109,
      "Ġ10": 1110,
      "Ġprog": 1111,
      "dre": 1112,
      "Ġhum": 1113,
      "olog": 1114,
      "Ġquestion": 1115,
      "Ġpossible": 1116,
      "anis": 1117,
      "Ã©li": 1118,
      "Ġpropos": 1119,
      "ration": 1120,
      "onom": 1121,
      "Ġcomb": 1122,
      "elopp": 1123,
      "Ġmoment": 1124,
      "Ġjusqu": 1125,
      "form": 1126,
      "Ġpremier": 1127,
      "Ġreg": 1128,
      "Ġim": 1129,
      "ĠnÃ©cess": 1130,
      "ĠvÃ©ritÃ©": 1131,
      "Ġseront": 1132,
      "Ġci": 1133,
      "fie": 1134,
      "Ġpoin": 1135,
      "Ġsais": 1136,
      "Ġexemple": 1137,
      "Ġdevrait": 1138,
      "Ã©cur": 1139,
      "ablement": 1140,
      "Ġgrande": 1141,
      "Ġ...": 1142,
      "Ġlong": 1143,
      "Ġ7": 1144,
      "ult": 1145,
      "Ġquelques": 1146,
      "Ġveut": 1147,
      "Ġbon": 1148,
      "ĠdÃ©velopp": 1149,
      "ĠgÃ©nÃ©ra": 1150,
      "illes": 1151,
      "uire": 1152,
      "Ã©m": 1153,
      "ram": 1154,
      "Elle": 1155,
      "Ġfemmes": 1156,
      "endu": 1157,
      "Ġpres": 1158,
      "ateur": 1159,
      "ĠspÃ©": 1160,
      "Ġins": 1161,
      "Ġsui": 1162,
      "Ġcol": 1163,
      "Ġjuste": 1164,
      "Ġcr": 1165,
      "Ã©p": 1166,
      "liqu": 1167,
      "ĠÃīt": 1168,
      "ĠLa": 1169,
      "part": 1170,
      "lons": 1171,
      "chÃ©": 1172,
      "ĠsÃ©cur": 1173,
      "lig": 1174,
      "Ġaid": 1175,
      "ĠdÃ©p": 1176,
      "Ġinc": 1177,
      "Ġrien": 1178,
      "Ġfais": 1179,
      "atre": 1180,
      "ins": 1181,
      "uite": 1182,
      "ĠspÃ©ci": 1183,
      "Ġ8": 1184,
      "olution": 1185,
      "Ġmort": 1186,
      "tÃ©ri": 1187,
      "Ġpropre": 1188,
      "Ġlib": 1189,
      "ateurs": 1190,
      "Ġoff": 1191,
      "omp": 1192,
      "bles": 1193,
      "autre": 1194,
      "Ġmillions": 1195,
      "one": 1196,
      "ric": 1197,
      "\".": 1198,
      "ages": 1199,
      "ilitÃ©": 1200,
      "acc": 1201,
      "ĠâĢľ": 1202,
      "use": 1203,
      "Ġver": 1204,
      "Comme": 1205,
      "Ġcertains": 1206,
      "Ġpeux": 1207,
      "Ġon": 1208,
      "ient": 1209,
      "Ġfemme": 1210,
      "Ġpeup": 1211,
      "du": 1212,
      "Ġprojet": 1213,
      "agne": 1214,
      "Ġcontr": 1215,
      "Ġbl": 1216,
      "Ġnive": 1217,
      "Ġsec": 1218,
      "rais": 1219,
      "ettre": 1220,
      "vis": 1221,
      "Ġconsid": 1222,
      ".Â»": 1223,
      "Ġvoi": 1224,
      "Ġcontinu": 1225,
      "Ġnation": 1226,
      "riez": 1227,
      "Ġplu": 1228,
      "essus": 1229,
      "Ġveux": 1230,
      "Ġlorsque": 1231,
      "Ġsavoir": 1232,
      "Ġab": 1233,
      "Ġappel": 1234,
      "ĠsÃ©curitÃ©": 1235,
      "Ġparticu": 1236,
      "Ġdevons": 1237,
      "Ġid": 1238,
      "ises": 1239,
      "rib": 1240,
      "ternation": 1241,
      "ust": 1242,
      "Ġhomme": 1243,
      "lÃ¨me": 1244,
      "Ġquatre": 1245,
      "Ġmot": 1246,
      "Ġreconn": 1247,
      "ĠY": 1248,
      "Ġparticuli": 1249,
      "Ġrel": 1250,
      "20": 1251,
      "Ġfut": 1252,
      "ables": 1253,
      "mment": 1254,
      "ide": 1255,
      "ud": 1256,
      "ĠprÃ©sent": 1257,
      "rions": 1258,
      "Ġperm": 1259,
      "Ġproch": 1260,
      "ĠFr": 1261,
      "Ġcinq": 1262,
      "oivent": 1263,
      "ĠproblÃ¨me": 1264,
      "Ġlieu": 1265,
      "Ġpai": 1266,
      "tien": 1267,
      "ature": 1268,
      "Ġfer": 1269,
      "Ġgu": 1270,
      "emble": 1271,
      "Ġinter": 1272,
      "Est": 1273,
      "rent": 1274,
      "yp": 1275,
      "Ġmaison": 1276,
      "Ġseule": 1277,
      "att": 1278,
      "ĠMar": 1279,
      "ĠÃītats": 1280,
      "Comment": 1281,
      "cle": 1282,
      "Ġsemble": 1283,
      "rons": 1284,
      "Ġag": 1285,
      "iques": 1286,
      "Ġsujet": 1287,
      "igneur": 1288,
      "ĠdÃ©b": 1289,
      "Ġproc": 1290,
      "Ġplupart": 1291,
      "fois": 1292,
      "Ã©tÃ©": 1293,
      "Ġro": 1294,
      "Ġactu": 1295,
      "Ġvoit": 1296,
      "Ġtrouver": 1297,
      "Ġret": 1298,
      "§a": 1299,
      "ĠÃ§a": 1300,
      "Ġtech": 1301,
      "Ch": 1302,
      "Ġmieux": 1303,
      "Ãªmes": 1304,
      "Ġprof": 1305,
      "Ġservi": 1306,
      "ĠmaniÃ¨re": 1307,
      "ganis": 1308,
      "ich": 1309,
      "ieurs": 1310,
      "ĠdÃ©m": 1311,
      "Ġfamille": 1312,
      "Ġsignifie": 1313,
      "Ġplan": 1314,
      "ĠÃ©v": 1315,
      "Ġmis": 1316,
      "Europe": 1317,
      "iez": 1318,
      "Ġcrois": 1319,
      "ĠprÃª": 1320,
      "Ġpubli": 1321,
      "Ġconstr": 1322,
      "iter": 1323,
      "Ġgar": 1324,
      "ĠÃ©le": 1325,
      "Ġpeuple": 1326,
      "Ã©qu": 1327,
      "lu": 1328,
      "Ġdisp": 1329,
      "elui": 1330,
      "Ã¨rement": 1331,
      "Ġsimplement": 1332,
      "Ġsitu": 1333,
      "ress": 1334,
      "Ġtard": 1335,
      "Ġaura": 1336,
      "ĠVous": 1337,
      "ate": 1338,
      "Ġprogram": 1339,
      "rÃª": 1340,
      "Ã©lÃ©": 1341,
      "Ġsavez": 1342,
      "Ġhommes": 1343,
      "Uni": 1344,
      "Ġbas": 1345,
      "Ġdoivent": 1346,
      "Ġrev": 1347,
      "Ġbonne": 1348,
      "Ġaff": 1349,
      "fic": 1350,
      "ĠrÃ©pond": 1351,
      "Ġ.": 1352,
      "Ġtrop": 1353,
      "Ġesp": 1354,
      "Ġsous": 1355,
      "Ġheure": 1356,
      "eures": 1357,
      "Ġpris": 1358,
      "Ġappr": 1359,
      "rÃ©s": 1360,
      "ĠIn": 1361,
      "oupe": 1362,
      "Ã´le": 1363,
      "ĠSeigneur": 1364,
      "Tout": 1365,
      "aci": 1366,
      "Ġti": 1367,
      "od": 1368,
      "Ġprom": 1369,
      "ps": 1370,
      "Ġinternation": 1371,
      "chet": 1372,
      "Ġplusieurs": 1373,
      "Ġrepr": 1374,
      "ĠprÃ©c": 1375,
      "Ġpoint": 1376,
      "ues": 1377,
      "Alors": 1378,
      "Ġcent": 1379,
      "dez": 1380,
      "anci": 1381,
      "Ġterre": 1382,
      "enez": 1383,
      "ies": 1384,
      "Ġchois": 1385,
      "Ġquelqu": 1386,
      "Ġpouvoir": 1387,
      "Ġprincip": 1388,
      "Ġainsi": 1389,
      "Ġveulent": 1390,
      "Ġes": 1391,
      "Ġaim": 1392,
      "Ġfonc": 1393,
      "Ġmod": 1394,
      "Cette": 1395,
      "ĠpassÃ©": 1396,
      "tionn": 1397,
      "Ġens": 1398,
      "ĠLes": 1399,
      "Ġconnaiss": 1400,
      "vec": 1401,
      "ĠrÃ©f": 1402,
      "Ġoui": 1403,
      "Ġdroit": 1404,
      "ative": 1405,
      "aÃ®tre": 1406,
      "Ġessay": 1407,
      ".âĢĿ": 1408,
      "Ġentrepr": 1409,
      "gie": 1410,
      "Ġemp": 1411,
      "ussie": 1412,
      "homme": 1413,
      "ances": 1414,
      "tenir": 1415,
      "Ġcertaine": 1416,
      "ĠcommencÃ©": 1417,
      "Ġniveau": 1418,
      "Unis": 1419,
      "aÃ®t": 1420,
      "ange": 1421,
      "ari": 1422,
      "Ã¨te": 1423,
      "Ġress": 1424,
      "Ġprobablement": 1425,
      "argent": 1426,
      "Ġaurait": 1427,
      "Ġcli": 1428,
      "Donc": 1429,
      "agn": 1430,
      "ses": 1431,
      "rie": 1432,
      "Ġprendre": 1433,
      "Ġvol": 1434,
      "ros": 1435,
      "istoire": 1436,
      "Ġind": 1437,
      "icile": 1438,
      "Ġpaix": 1439,
      "avons": 1440,
      "Quand": 1441,
      "pÃ©ri": 1442,
      "Ġtrouv": 1443,
      "ĠIsraÃ«l": 1444,
      "ĠÃ©conom": 1445,
      "ĠrÃ©ponse": 1446,
      "Åĵur": 1447,
      "all": 1448,
      "esse": 1449,
      "Ġdevez": 1450,
      "Ġelles": 1451,
      "Ġsavons": 1452,
      "jecti": 1453,
      "Ġsouvent": 1454,
      "vant": 1455,
      "Ġvers": 1456,
      "Ġcher": 1457,
      "ĠCan": 1458,
      "Ġfont": 1459,
      "Ġvoulons": 1460,
      "aite": 1461,
      "rir": 1462,
      "ĠderniÃ¨re": 1463,
      "Ġsupp": 1464,
      "ĠdiffÃ©rent": 1465,
      "Ã¨g": 1466,
      "ÃĢ": 1467,
      "Ġdemande": 1468,
      "Ġsemaine": 1469,
      "Ġpresque": 1470,
      "air": 1471,
      "Ġrap": 1472,
      "ĠdÃ©cis": 1473,
      "UE": 1474,
      "mbre": 1475,
      "Ã©v": 1476,
      "Ġtravers": 1477,
      "ĠdonnÃ©": 1478,
      "Ġaj": 1479,
      "Ġmess": 1480,
      "ĠintÃ©": 1481,
      "Ġindi": 1482,
      "cc": 1483,
      "ĠRussie": 1484,
      "elon": 1485,
      "act": 1486,
      "Ġreste": 1487,
      "Ġenvir": 1488,
      "ah": 1489,
      "Ġcul": 1490,
      "ĠdÃ©clar": 1491,
      "ĠAl": 1492,
      "Ġdifficile": 1493,
      "ences": 1494,
      "Ġsouh": 1495,
      "ager": 1496,
      "ĠconsÃ©qu": 1497,
      "anger": 1498,
      "ode": 1499,
      "IsraÃ«l": 1500,
      "iens": 1501,
      "Ġgroupe": 1502,
      "Ġretour": 1503,
      "Ġpuiss": 1504,
      "ible": 1505,
      "auv": 1506,
      "Ġcroy": 1507,
      "ites": 1508,
      "Ġamis": 1509,
      "Ġavaient": 1510,
      "ok": 1511,
      "Ġvont": 1512,
      "ĠeuropÃ©enne": 1513,
      "ib": 1514,
      "ĠeuropÃ©en": 1515,
      "Ġville": 1516,
      "ada": 1517,
      "Ġnature": 1518,
      "omb": 1519,
      "Ġcours": 1520,
      "Ġmus": 1521,
      "Ġdonner": 1522,
      "Ġrenc": 1523,
      "sions": 1524,
      "ĠdÃ©f": 1525,
      "ratÃ©g": 1526,
      "oritÃ©": 1527,
      "Ġappar": 1528,
      "embres": 1529,
      "Ġsituation": 1530,
      "antÃ©": 1531,
      "Ġquoi": 1532,
      "),": 1533,
      "erci": 1534,
      "ĠmarchÃ©": 1535,
      "Ġfaci": 1536,
      "Ġsep": 1537,
      "Ġmont": 1538,
      "Ġacti": 1539,
      "Ġregard": 1540,
      "int": 1541,
      "Ou": 1542,
      "ĠEurope": 1543,
      "Ġaider": 1544,
      "enf": 1545,
      "ĠstratÃ©g": 1546,
      "oh": 1547,
      "ĠMais": 1548,
      "ĠreprÃ©s": 1549,
      "Ġmembres": 1550,
      "Ġno": 1551,
      "ĠEn": 1552,
      "Ġparten": 1553,
      "Ġorganis": 1554,
      "Ġchangement": 1555,
      "Ġ15": 1556,
      "ienne": 1557,
      "11": 1558,
      "az": 1559,
      "temp": 1560,
      "Ġutiliser": 1561,
      "ran": 1562,
      "ĠamÃ©ric": 1563,
      "Ġmari": 1564,
      "are": 1565,
      "he": 1566,
      "Ġaucun": 1567,
      "ĠnÃ©cessaire": 1568,
      ".)": 1569,
      "Ġsp": 1570,
      "Ġtravailler": 1571,
      "Ġvoulez": 1572,
      "avant": 1573,
      "lÃ¨mes": 1574,
      "Ã©rÃ©": 1575,
      "rique": 1576,
      "Ġconcer": 1577,
      "Maintenant": 1578,
      "ĠproblÃ¨mes": 1579,
      "trer": 1580,
      "ĠChine": 1581,
      "ĠAm": 1582,
      "avez": 1583,
      "Ġcri": 1584,
      "Ġrapide": 1585,
      "Ġcelui": 1586,
      "autÃ©": 1587,
      "Ġven": 1588,
      "fier": 1589,
      "ec": 1590,
      "ĠlÃ©g": 1591,
      "pect": 1592,
      "Ġ199": 1593,
      "ention": 1594,
      "Ġfils": 1595,
      "ĠâĢĶ": 1596,
      "Ġmeilleur": 1597,
      "Ġsait": 1598,
      "Ġmesure": 1599,
      "ose": 1600,
      "ug": 1601,
      "Ġdou": 1602,
      "prit": 1603,
      "ĠmÃ©di": 1604,
      "Ġguerre": 1605,
      "eut": 1606,
      "10": 1607,
      "Ġaccep": 1608,
      "Â».": 1609,
      "ĠAn": 1610,
      "Ġsemb": 1611,
      "quelle": 1612,
      "Åĵu": 1613,
      "Ã©rique": 1614,
      "Ġpetit": 1615,
      "Ġcause": 1616,
      "ribu": 1617,
      "Ãī": 1618,
      "Ġquestions": 1619,
      "Ġfinanci": 1620,
      "Ġint": 1621,
      "Ġ000": 1622,
      "Ġachet": 1623,
      "cteur": 1624,
      "Ġcombien": 1625,
      "Ġlaquelle": 1626,
      "uses": 1627,
      "ak": 1628,
      "Ã©rer": 1629,
      "adi": 1630,
      "ton": 1631,
      "ĠÃ¢": 1632,
      "ĠsantÃ©": 1633,
      "Ġnombreux": 1634,
      "Ġcommencer": 1635,
      "lic": 1636,
      "ĠsÃ©ri": 1637,
      "oris": 1638,
      "Ġ/": 1639,
      "Ġsoi": 1640,
      "ĠÃ©crit": 1641,
      "Ġcertaines": 1642,
      "Que": 1643,
      "ili": 1644,
      "vement": 1645,
      "sement": 1646,
      "man": 1647,
      "Ġpra": 1648,
      "amp": 1649,
      "Bien": 1650,
      "In": 1651,
      "annÃ©e": 1652,
      "ĠrÃ¨g": 1653,
      "Ġexiste": 1654,
      "Ġvais": 1655,
      "aÃ¯": 1656,
      "Ġcorps": 1657,
      "Ġop": 1658,
      "ĠPour": 1659,
      "Ġouv": 1660,
      "Ġallons": 1661,
      "arm": 1662,
      "Ġdernier": 1663,
      "Ġminu": 1664,
      "ourn": 1665,
      "orme": 1666,
      "Ġresp": 1667,
      "Ġraisons": 1668,
      "Ġobjecti": 1669,
      "Qui": 1670,
      "Ġmoy": 1671,
      "Ġrapport": 1672,
      "Ġpati": 1673,
      "Ġmati": 1674,
      "Ġfond": 1675,
      "Ġlaiss": 1676,
      "ĠdeuxiÃ¨me": 1677,
      "Ġlivre": 1678,
      "ĠGr": 1679,
      "On": 1680,
      "ĠU": 1681,
      "ission": 1682,
      "Ġexac": 1683,
      "Ġtoi": 1684,
      "Ġtrait": 1685,
      "avoir": 1686,
      "Ġdevenir": 1687,
      "Ġdisent": 1688,
      "temps": 1689,
      "Ġsix": 1690,
      "Ġatte": 1691,
      "Ġunique": 1692,
      "Ġparmi": 1693,
      "Ġdevraient": 1694,
      "quipe": 1695,
      "ett": 1696,
      "ĠFrance": 1697,
      "Ces": 1698,
      "Ġcomprendre": 1699,
      "Ġassez": 1700,
      "Ã©ment": 1701,
      "ind": 1702,
      "Ġend": 1703,
      "ĠrÃ©sult": 1704,
      "Ġcompte": 1705,
      "ense": 1706,
      "airement": 1707,
      "Ġmenti": 1708,
      "ĠrÃ©c": 1709,
      "Ne": 1710,
      "ĠreÃ§": 1711,
      "ĠprÃ©sident": 1712,
      "Ġfonction": 1713,
      "onnement": 1714,
      "lah": 1715,
      "outer": 1716,
      "endra": 1717,
      "Ã¢ce": 1718,
      "Ġval": 1719,
      "ĠcommunautÃ©": 1720,
      "ĠdÃ©t": 1721,
      "Ã©sus": 1722,
      "quÃ©": 1723,
      "ĠdÃ©veloppement": 1724,
      "Aujourd": 1725,
      "Ġsent": 1726,
      "Ġfaut": 1727,
      "quer": 1728,
      "Ġchanger": 1729,
      "acun": 1730,
      "importe": 1731,
      "tÃ©rieur": 1732,
      "Ġprocessus": 1733,
      "Ġprogramme": 1734,
      "Ġrecher": 1735,
      "Ġproduits": 1736,
      "Ġculture": 1737,
      "mÃ©": 1738,
      "cident": 1739,
      "Ã®": 1740,
      "Ġmen": 1741,
      "Ġton": 1742,
      "avenir": 1743,
      "Ġpourraient": 1744,
      "Ġremp": 1745,
      "Ġcompris": 1746,
      "apon": 1747,
      "ĠtÃ©lÃ©": 1748,
      "onnÃ©": 1749,
      "ĠÃ©tu": 1750,
      "Ġentendu": 1751,
      "Ġcependant": 1752,
      "ĠsociÃ©tÃ©": 1753,
      "Ġrelig": 1754,
      "Ġeffet": 1755,
      "Ġheures": 1756,
      "frique": 1757,
      "ocra": 1758,
      "ĠdÃ©but": 1759,
      "ĠcÅĵur": 1760,
      "anti": 1761,
      "ĠrÃ©alitÃ©": 1762,
      "lise": 1763,
      "ĠcomplÃ¨": 1764,
      "AprÃ¨s": 1765,
      "Ġis": 1766,
      "abord": 1767,
      "Ġsuff": 1768,
      "ĠdemandÃ©": 1769,
      "].": 1770,
      "ris": 1771,
      "Ġvivre": 1772,
      "Ġrespons": 1773,
      "ser": 1774,
      "lÃł": 1775,
      "Ġaller": 1776,
      "Ġaucune": 1777,
      "Oui": 1778,
      "ĠvÃ©rit": 1779,
      "Ġtot": 1780,
      "Ġsoutien": 1781,
      "uction": 1782,
      "asse": 1783,
      "ub": 1784,
      "Ġlang": 1785,
      "Ġbi": 1786,
      "aise": 1787,
      "Ġexactement": 1788,
      "ira": 1789,
      "Ġjeunes": 1790,
      "Ġceci": 1791,
      "ĠComm": 1792,
      "ĠcrÃ©Ã©": 1793,
      "19": 1794,
      "ov": 1795,
      "Ġimm": 1796,
      "Ġdom": 1797,
      "amour": 1798,
      "Ġcond": 1799,
      "ĠsÃ©": 1800,
      "ĠmÃ©": 1801,
      "ĠcrÃ©er": 1802,
      "Ġnouveaux": 1803,
      "tant": 1804,
      "iles": 1805,
      "orter": 1806,
      "vir": 1807,
      "Ġpolitiques": 1808,
      "ĠdÃ©cid": 1809,
      "ĠrÃ©alis": 1810,
      "Ġvo": 1811,
      "Ġmondi": 1812,
      "ĠCanada": 1813,
      "MÃªme": 1814,
      "ĠÃ©ch": 1815,
      "Ġrem": 1816,
      "per": 1817,
      "Ġz": 1818,
      "Ġpay": 1819,
      "Ġta": 1820,
      "Ġenvoy": 1821,
      "Avec": 1822,
      "ĠNe": 1823,
      "Ġaccord": 1824,
      "Ġman": 1825,
      "Am": 1826,
      "lam": 1827,
      "Ġenfant": 1828,
      "ĠrÃ©gion": 1829,
      "Ġplace": 1830,
      "riÃ¨re": 1831,
      "fique": 1832,
      "Ġdisc": 1833,
      "nolog": 1834,
      "ow": 1835,
      "Ãªte": 1836,
      "abilitÃ©": 1837,
      "ĠpÃ©ri": 1838,
      "Ġlu": 1839,
      "Ġsex": 1840,
      "Ġinf": 1841,
      "ĠintÃ©ress": 1842,
      "ack": 1843,
      "Ġexc": 1844,
      "tout": 1845,
      "Ġpasse": 1846,
      "ĠQu": 1847,
      "avid": 1848,
      "atis": 1849,
      "Ġempl": 1850,
      "des": 1851,
      "quel": 1852,
      "amment": 1853,
      "ĠutilisÃ©": 1854,
      "Ġlim": 1855,
      "Ġ12": 1856,
      "Ġ100": 1857,
      "Ġfaites": 1858,
      "Ġ30": 1859,
      "aume": 1860,
      "Ġ11": 1861,
      "son": 1862,
      "ĠnÃ©g": 1863,
      "Ġdemander": 1864,
      "estion": 1865,
      "ĠtroisiÃ¨me": 1866,
      "ĠreprÃ©sent": 1867,
      "Ġvois": 1868,
      "Ainsi": 1869,
      "cev": 1870,
      "Ġ18": 1871,
      "iennent": 1872,
      "Ġref": 1873,
      "ype": 1874,
      "Ġw": 1875,
      "Ġvenir": 1876,
      "ergie": 1877,
      "Ġtel": 1878,
      "Ġmauv": 1879,
      "Ã¨le": 1880,
      "heure": 1881,
      "ĠprÃ©f": 1882,
      "Ġami": 1883,
      "Ġsci": 1884,
      "Ġnuit": 1885,
      "accord": 1886,
      "Ġcertainement": 1887,
      "anÃ§": 1888,
      "usement": 1889,
      "Ġcit": 1890,
      "ital": 1891,
      "Ġconfi": 1892,
      "alesti": 1893,
      "Ġvoud": 1894,
      "Ġmessage": 1895,
      "Ġselon": 1896,
      "Ġcommence": 1897,
      "Ġnouvelles": 1898,
      "Ġconsomm": 1899,
      "Ġensemble": 1900,
      "ohn": 1901,
      "Ġpartir": 1902,
      "Ġpetite": 1903,
      "Åĵuvre": 1904,
      "gn": 1905,
      "Ġmaj": 1906,
      "Union": 1907,
      "Ġprix": 1908,
      "ĠÃ©tr": 1909,
      "Ġendroit": 1910,
      "Ã©nergie": 1911,
      "lex": 1912,
      "orts": 1913,
      "gÃ©": 1914,
      "Ġvoiture": 1915,
      "ĠconsÃ©quent": 1916,
      "ras": 1917,
      "ĠCe": 1918,
      "vÃ©nement": 1919,
      "Ġloc": 1920,
      "ines": 1921,
      "Ġmeilleure": 1922,
      "ĠbÃ©n": 1923,
      "ĠtÃ©m": 1924,
      "Ġsens": 1925,
      "ell": 1926,
      "atique": 1927,
      "igne": 1928,
      "Ġcertain": 1929,
      "Ġnour": 1930,
      "Ġreconnaiss": 1931,
      "leurs": 1932,
      "rec": 1933,
      "ĠdÃ©couv": 1934,
      "Ã»t": 1935,
      "Ġperdu": 1936,
      "oix": 1937,
      "agin": 1938,
      "Ġdix": 1939,
      "Ġtechnolog": 1940,
      "Ġk": 1941,
      "Ġdonne": 1942,
      "ret": 1943,
      "Ġrend": 1944,
      "Ġgl": 1945,
      "ĠJÃ©sus": 1946,
      "Ġjouer": 1947,
      "ĠprotÃ©g": 1948,
      "ath": 1949,
      "ĠdÃ©fin": 1950,
      "gment": 1951,
      "ss": 1952,
      "Ġsour": 1953,
      "istes": 1954,
      "Ġparticulier": 1955,
      "Ġquelle": 1956,
      "Ġsoir": 1957,
      "lie": 1958,
      "Ġlongtemps": 1959,
      "ĠdÃ©mocra": 1960,
      "Ġsor": 1961,
      "exp": 1962,
      "Ġvient": 1963,
      "Ġheureux": 1964,
      "Ġminutes": 1965,
      "Ġquit": 1966,
      "rab": 1967,
      "Ġfil": 1968,
      "raph": 1969,
      "opul": 1970,
      "Ġmots": 1971,
      "aide": 1972,
      "15": 1973,
      "Ġform": 1974,
      "Ġcontinuer": 1975,
      "Ġpublic": 1976,
      "Ġmag": 1977,
      "Ġcitoy": 1978,
      "mÃªmes": 1979,
      "grÃ©": 1980,
      "Ġanim": 1981,
      "bo": 1982,
      "Ġmer": 1983,
      "Ġth": 1984,
      "Ġdispon": 1985,
      "del": 1986,
      "Ã¨rent": 1987,
      "ysi": 1988,
      "ĠpÃ¨re": 1989,
      "atri": 1990,
      "ument": 1991,
      "Ġchacun": 1992,
      "Ġpouvait": 1993,
      "Ġtrain": 1994,
      "Peut": 1995,
      "Ġentreprises": 1996,
      "ĠdÃ©cision": 1997,
      "ĠcÃ´": 1998,
      "Ġrester": 1999,
      "delÃł": 2000,
      "Ġfi": 2001,
      "Ġfacile": 2002,
      "ĠdÃ»": 2003,
      "Ġhab": 2004,
      "miÃ¨re": 2005,
      "ON": 2006,
      "aime": 2007,
      "Ġtype": 2008,
      "Ġabs": 2009,
      "ctions": 2010,
      "Ġpopul": 2011,
      "onde": 2012,
      "Ġtelle": 2013,
      "Ġinform": 2014,
      "Ã©cu": 2015,
      "ges": 2016,
      "Ã©tais": 2017,
      "Ġmilliers": 2018,
      "Ġminis": 2019,
      "ontÃ©": 2020,
      "Ġord": 2021,
      "ĠFils": 2022,
      "ann": 2023,
      "nique": 2024,
      "ĠtrouvÃ©": 2025,
      "Puis": 2026,
      "Ã¯": 2027,
      "tir": 2028,
      "Ġtour": 2029,
      "Ġfourn": 2030,
      "ĠÂ»,": 2031,
      "Tu": 2032,
      "Ġsc": 2033,
      "Ġphysi": 2034,
      "oyez": 2035,
      "Ġsept": 2036,
      "Ġavions": 2037,
      "Ġrapidement": 2038,
      "tie": 2039,
      "ash": 2040,
      "Ġoubli": 2041,
      "ĠpÃ©riode": 2042,
      "Ġbat": 2043,
      "Parce": 2044,
      "oici": 2045,
      "ĠCor": 2046,
      "ore": 2047,
      "orer": 2048,
      "Ġnombreuses": 2049,
      "Ġnum": 2050,
      "ĠmÃ¨re": 2051,
      "Ġdur": 2052,
      "enre": 2053,
      "Ġense": 2054,
      "ade": 2055,
      "Ġpeur": 2056,
      "Ġsy": 2057,
      "ĠdÃ©tr": 2058,
      "erts": 2059,
      "fiÃ©": 2060,
      "Ġpropres": 2061,
      "ĠÃ©tudi": 2062,
      "ertÃ©": 2063,
      "ĠgrÃ¢ce": 2064,
      "Ġsal": 2065,
      "ends": 2066,
      "Notre": 2067,
      "ls": 2068,
      "ĠmÃªmes": 2069,
      "Ġmettre": 2070,
      "llem": 2071,
      "Ġir": 2072,
      "Ġloi": 2073,
      "Ġchoix": 2074,
      "Ġcondi": 2075,
      "ĠSi": 2076,
      "Ġmilit": 2077,
      "Ġvoyez": 2078,
      "pÃ©rience": 2079,
      "ach": 2080,
      "Ġres": 2081,
      "Ġjusti": 2082,
      "ĠdonnÃ©es": 2083,
      "Ġservice": 2084,
      "fication": 2085,
      "eb": 2086,
      "Ġple": 2087,
      "antes": 2088,
      "Ġgra": 2089,
      "Ġ50": 2090,
      "Ġmatin": 2091,
      "sionn": 2092,
      "Ġoc": 2093,
      "Ġmains": 2094,
      "ets": 2095,
      "Ġban": 2096,
      "erreur": 2097,
      "ali": 2098,
      "Ã©rence": 2099,
      "Ġsimple": 2100,
      "Ġdir": 2101,
      "Ġaime": 2102,
      "Ġsurpr": 2103,
      "Ġsucc": 2104,
      "Ġtrouve": 2105,
      "Ġclair": 2106,
      "Ġjeune": 2107,
      "ĠrÃ©un": 2108,
      "idÃ©": 2109,
      "nÃ©": 2110,
      "action": 2111,
      "Ġrencon": 2112,
      "utÃ´t": 2113,
      "Ġche": 2114,
      "th": 2115,
      "vitÃ©": 2116,
      "ĠÃ©p": 2117,
      "Ġservices": 2118,
      "Ġparle": 2119,
      "ticle": 2120,
      "dec": 2121,
      "Ġrecev": 2122,
      "lÃ©ment": 2123,
      "Ġforme": 2124,
      "Cert": 2125,
      "Non": 2126,
      "inter": 2127,
      "ome": 2128,
      "Ġrep": 2129,
      "dit": 2130,
      "Ġsub": 2131,
      "ĠcÃ´tÃ©": 2132,
      "ron": 2133,
      "Ġterr": 2134,
      "Ġprochaine": 2135,
      "aul": 2136,
      "Ġlibre": 2137,
      "ivers": 2138,
      "pÃ©ration": 2139,
      "Ġphot": 2140,
      "ĠlibertÃ©": 2141,
      "vision": 2142,
      "Ġsouhait": 2143,
      "ĠPalesti": 2144,
      "fiques": 2145,
      "Ġrecomm": 2146,
      "mis": 2147,
      "tient": 2148,
      "chÃ©s": 2149,
      "Toute": 2150,
      "Ġfoi": 2151,
      "Ġ14": 2152,
      "riture": 2153,
      "Ġconfiance": 2154,
      "oque": 2155,
      "vÃ©e": 2156,
      "Ġlesqu": 2157,
      "Ġ25": 2158,
      "Ġrus": 2159,
      "Ġpenser": 2160,
      "ardez": 2161,
      "Ġparf": 2162,
      "histoire": 2163,
      "Ġait": 2164,
      "oupes": 2165,
      "Ġnorm": 2166,
      "Plus": 2167,
      "Ġprote": 2168,
      "ĠÃ©conomique": 2169,
      "hi": 2170,
      "Ġfille": 2171,
      "ĠRe": 2172,
      "Ġeffic": 2173,
      "Ġrou": 2174,
      "onnes": 2175,
      "Ġparticip": 2176,
      "ĠrÃ©seau": 2177,
      "liquer": 2178,
      "Ġbase": 2179,
      "Ġimportante": 2180,
      "ĠTur": 2181,
      "ĠfrÃ¨re": 2182,
      "12": 2183,
      "ĠmÃ©dec": 2184,
      "Ġgenre": 2185,
      "Ġ13": 2186,
      "Ġadop": 2187,
      "hum": 2188,
      "Ġmain": 2189,
      "âĢ¢": 2190,
      "ĠrÃ´le": 2191,
      "lir": 2192,
      "atives": 2193,
      "Ġenviron": 2194,
      "Lors": 2195,
      "Ġdoute": 2196,
      "Ġsouff": 2197,
      "fric": 2198,
      "ĠCom": 2199,
      "Ġaccomp": 2200,
      "Ġmour": 2201,
      "aint": 2202,
      "ches": 2203,
      "ĠdiffÃ©rents": 2204,
      "An": 2205,
      "tiens": 2206,
      "ĠchrÃ©": 2207,
      "Ġcroire": 2208,
      "Es": 2209,
      "ĠIls": 2210,
      "ĠrÃ©v": 2211,
      "Ġsuffis": 2212,
      "ĠvÃ©ritable": 2213,
      "leur": 2214,
      "ollar": 2215,
      "Ġdroits": 2216,
      "avais": 2217,
      "ĠGo": 2218,
      "AN": 2219,
      "Ã©h": 2220,
      "Ġsim": 2221,
      "Ġsol": 2222,
      "Ġtest": 2223,
      "ĠparlÃ©": 2224,
      "vestis": 2225,
      "ger": 2226,
      "ĠZ": 2227,
      "Ġchem": 2228,
      "Ġgard": 2229,
      "Ġautour": 2230,
      "ĠprÃªt": 2231,
      "ĠdiffÃ©rentes": 2232,
      "Voici": 2233,
      "ast": 2234,
      "Ġconse": 2235,
      "Ġrelation": 2236,
      "Ġloin": 2237,
      "Quel": 2238,
      "moi": 2239,
      "Ġsorte": 2240,
      "atan": 2241,
      "Ġperd": 2242,
      "ternet": 2243,
      "Ġment": 2244,
      "sible": 2245,
      "ĠJohn": 2246,
      "Ġfutur": 2247,
      "ĠdÃ©clarÃ©": 2248,
      "Dieu": 2249,
      "lique": 2250,
      "Ġterme": 2251,
      "ĠplutÃ´t": 2252,
      "cteurs": 2253,
      "Ġfaisons": 2254,
      "ke": 2255,
      "oles": 2256,
      "Ġ$": 2257,
      "Ġsolution": 2258,
      "ĠcomplÃ¨tement": 2259,
      "bas": 2260,
      "ctive": 2261,
      "Ġdois": 2262,
      "ĠstratÃ©gie": 2263,
      "Ġdiri": 2264,
      "Ġdevrions": 2265,
      "Ġbr": 2266,
      "Ġtermes": 2267,
      "Ġgrands": 2268,
      "Chaque": 2269,
      "cles": 2270,
      "lait": 2271,
      "Ġyeux": 2272,
      "Ġcan": 2273,
      "Ġfai": 2274,
      "Ġtuer": 2275,
      "ven": 2276,
      "Ã©b": 2277,
      "Ġlit": 2278,
      "ĠÃ©vÃ©nement": 2279,
      "ĠrÃ©ellement": 2280,
      "ĠcrÃ©ation": 2281,
      "ĠimmÃ©di": 2282,
      "ĠÃ©ner": 2283,
      "ogle": 2284,
      "dam": 2285,
      "Ġexist": 2286,
      "Ġposs": 2287,
      "con": 2288,
      "tal": 2289,
      "Ġrendre": 2290,
      "Ġenti": 2291,
      "ĠcontrÃ´le": 2292,
      "Ġdollar": 2293,
      "Ġmens": 2294,
      "ĠderniÃ¨res": 2295,
      "dessus": 2296,
      "inc": 2297,
      "ĠsuccÃ¨s": 2298,
      "Ã¨ne": 2299,
      "Ġobtenir": 2300,
      "Ġvoulait": 2301,
      "llemagne": 2302,
      "Des": 2303,
      "inois": 2304,
      "Seu": 2305,
      "aus": 2306,
      "Ġsemaines": 2307,
      "lande": 2308,
      "rÃ¨s": 2309,
      "vres": 2310,
      "alys": 2311,
      "Ġ17": 2312,
      "tiÃ©": 2313,
      "tÃ©e": 2314,
      "Ġattend": 2315,
      "agner": 2316,
      "ĠJapon": 2317,
      "itions": 2318,
      "intÃ©rieur": 2319,
      "Ġdevenu": 2320,
      "ĠÃ©cri": 2321,
      "anÃ§ais": 2322,
      "Ġpot": 2323,
      "ĠjournÃ©e": 2324,
      "ustrie": 2325,
      "Ġtellement": 2326,
      "Ġ198": 2327,
      "lac": 2328,
      "ry": 2329,
      "Ġmanger": 2330,
      "Ġiniti": 2331,
      "Ġsurtout": 2332,
      "ĠPourquoi": 2333,
      "Ġcoup": 2334,
      "Ġsavent": 2335,
      "Mon": 2336,
      "Ġligne": 2337,
      "Ġsoient": 2338,
      "ĠprÃ¨s": 2339,
      "Ġvoyons": 2340,
      "vit": 2341,
      "Ġtent": 2342,
      "Ã¨mes": 2343,
      "Ġris": 2344,
      "ersonne": 2345,
      "ĠamÃ©li": 2346,
      "Ġcontribu": 2347,
      "ĠParole": 2348,
      "cemment": 2349,
      "acitÃ©": 2350,
      "Ġdevriez": 2351,
      "Ġdemain": 2352,
      "Ġgrandes": 2353,
      "Ġnourriture": 2354,
      "Ġprotection": 2355,
      "Ġerreur": 2356,
      "isme": 2357,
      "Tous": 2358,
      "Ġ%": 2359,
      "Ġvoix": 2360,
      "ĠÅĵuvre": 2361,
      "Ġviv": 2362,
      "Ġactuellement": 2363,
      "indre": 2364,
      "Ġmauvais": 2365,
      "ĠrÃª": 2366,
      "Ġchez": 2367,
      "Ġsite": 2368,
      "Ġvenu": 2369,
      "oritÃ©s": 2370,
      "roy": 2371,
      "ĠOui": 2372,
      "cup": 2373,
      "ours": 2374,
      "Ġfilles": 2375,
      "Ġaugment": 2376,
      "avait": 2377,
      "Ġvue": 2378,
      "Ġrappel": 2379,
      "Ġinstitu": 2380,
      "Ġpratique": 2381,
      "Ã©ro": 2382,
      "Ã¨ce": 2383,
      "ama": 2384,
      "Ġlorsqu": 2385,
      "Ġaide": 2386,
      "Ã©pend": 2387,
      "Ãīt": 2388,
      "tez": 2389,
      "demment": 2390,
      "ĠMon": 2391,
      "Ġhistoire": 2392,
      "ĠarrivÃ©": 2393,
      "Ġoutre": 2394,
      "14": 2395,
      "vitÃ©s": 2396,
      "Ġopp": 2397,
      "ĠPro": 2398,
      "Ġclairement": 2399,
      "ia": 2400,
      "euse": 2401,
      "Ġimpos": 2402,
      "Ġ16": 2403,
      "merci": 2404,
      "Depuis": 2405,
      "ĠeuropÃ©ens": 2406,
      "vÃ©s": 2407,
      "Ġcelle": 2408,
      "Ġdeven": 2409,
      "ĠarrÃª": 2410,
      "Ġmoyen": 2411,
      "ĠCommission": 2412,
      "Ġpotenti": 2413,
      "18": 2414,
      "land": 2415,
      "Ġdoc": 2416,
      "ĠrÃ©vÃ©": 2417,
      "Ġpensez": 2418,
      "Ġregarder": 2419,
      "Ġmontrer": 2420,
      "Ġpi": 2421,
      "Ġlut": 2422,
      "quie": 2423,
      "Ġface": 2424,
      "Ġposition": 2425,
      "Ġministre": 2426,
      "Beaucoup": 2427,
      "ĠTh": 2428,
      "Mal": 2429,
      "vid": 2430,
      "Ġcer": 2431,
      "Ã©ritÃ©": 2432,
      "niens": 2433,
      "Ġciel": 2434,
      "ĠparticuliÃ¨rement": 2435,
      "nant": 2436,
      "ĠUn": 2437,
      "Ġlequel": 2438,
      "Ġallez": 2439,
      "truc": 2440,
      "Ġ40": 2441,
      "Ġrecherche": 2442,
      "Pas": 2443,
      "ĠÃ©quipe": 2444,
      "Ġpositi": 2445,
      "Ġoffici": 2446,
      "ĠvolontÃ©": 2447,
      "elez": 2448,
      "Ġremerci": 2449,
      "ĠDavid": 2450,
      "ĠÃ©trang": 2451,
      "Ġrelations": 2452,
      "ĠmodÃ¨le": 2453,
      "ĠlumiÃ¨re": 2454,
      "ament": 2455,
      "lem": 2456,
      "Ġri": 2457,
      "ĠdiffÃ©rence": 2458,
      "ĠdÃ©sir": 2459,
      "Ġcrise": 2460,
      "13": 2461,
      "Ġviol": 2462,
      "Ġsauver": 2463,
      "Ġhumains": 2464,
      "ientÃ´t": 2465,
      "udg": 2466,
      "Ġfilm": 2467,
      "gement": 2468,
      "ĠsiÃ¨": 2469,
      "Ġdites": 2470,
      "Ġfav": 2471,
      "raine": 2472,
      "Ġsenti": 2473,
      "art": 2474,
      "veill": 2475,
      "amb": 2476,
      "Ceci": 2477,
      "Ġtermin": 2478,
      "ĠrÃ¨gles": 2479,
      "ĠdÃ©cidÃ©": 2480,
      "Ġcitoyens": 2481,
      "Ġenseign": 2482,
      "Ġexig": 2483,
      "ĠLui": 2484,
      "ĠmoitiÃ©": 2485,
      "Ġcapable": 2486,
      "Ġphysique": 2487,
      "Ġchemin": 2488,
      "ĠDe": 2489,
      "ĠSa": 2490,
      "ru": 2491,
      "ĠmÃ©t": 2492,
      "Ġren": 2493,
      "ĠRoy": 2494,
      "Ġprojets": 2495,
      "Ġclients": 2496,
      "book": 2497,
      "ression": 2498,
      "Ġpropri": 2499,
      "âĢĿ.": 2500,
      "ĠreÃ§u": 2501,
      "agit": 2502,
      "Ġdirec": 2503,
      "ĠrÃ©sultats": 2504,
      "Ar": 2505,
      "Ġafin": 2506,
      "ĠTerre": 2507,
      "bilitÃ©": 2508,
      "17": 2509,
      "cul": 2510,
      "Ġliste": 2511,
      "ara": 2512,
      "kraine": 2513,
      "enn": 2514,
      "Ġchance": 2515,
      "Ġconst": 2516,
      "Ġdispar": 2517,
      "Ġsac": 2518,
      "ori": 2519,
      "Ġenfin": 2520,
      "Ġforce": 2521,
      "Ġinternationale": 2522,
      "Ġproph": 2523,
      "Ġsuiv": 2524,
      "Ġaimer": 2525,
      "Ġjustice": 2526,
      "entes": 2527,
      "ormes": 2528,
      "Ġparfois": 2529,
      "ĠgÃ©nÃ©ral": 2530,
      "Ġrecommand": 2531,
      "termin": 2532,
      "ilÃł": 2533,
      "ĠplanÃ¨te": 2534,
      "Ġscienti": 2535,
      "Ġbudg": 2536,
      "ĠcontrÃ´": 2537,
      "lit": 2538,
      "Ã©rons": 2539,
      "Ġtradi": 2540,
      "Ã¢ti": 2541,
      "atisf": 2542,
      "ĠTurquie": 2543,
      "anitÃ©": 2544,
      "Ġrich": 2545,
      "Ġgroupes": 2546,
      "ĠrÃ©ussi": 2547,
      "Ġconv": 2548,
      "aille": 2549,
      "Ġsecond": 2550,
      "Ġensuite": 2551,
      "Ġdollars": 2552,
      "Deux": 2553,
      "ĠrÃ©cemment": 2554,
      "ulti": 2555,
      "Ġconsci": 2556,
      "Ġconstitu": 2557,
      "Question": 2558,
      "ds": 2559,
      "Ġanci": 2560,
      "Ġpasser": 2561,
      "Re": 2562,
      "ĠSt": 2563,
      "appel": 2564,
      "ograph": 2565,
      "der": 2566,
      "Ġporte": 2567,
      "Ġautant": 2568,
      "Ġenvironnement": 2569,
      "ĠtÃ´t": 2570,
      "Ġbonnes": 2571,
      "tru": 2572,
      "Ġcherch": 2573,
      "Ġsouhaite": 2574,
      "Ġsimil": 2575,
      "ones": 2576,
      "Ġgagner": 2577,
      "Ã©an": 2578,
      "ĠPh": 2579,
      "Ġdevant": 2580,
      "Ġappro": 2581,
      "Ġdist": 2582,
      "Ġroy": 2583,
      "Ġmusul": 2584,
      "avantage": 2585,
      "Ġisra": 2586,
      "ĠchangÃ©": 2587,
      "Ãªtes": 2588,
      "ensemble": 2589,
      "Ġremar": 2590,
      "ĠX": 2591,
      "Ġcou": 2592,
      "let": 2593,
      "Ġpatients": 2594,
      "Ġfort": 2595,
      "ortÃ©": 2596,
      "ĠderriÃ¨re": 2597,
      "Ġconcerne": 2598,
      "lles": 2599,
      "Ġpourriez": 2600,
      "Ġdiffic": 2601,
      "ĠappelÃ©": 2602,
      "Ġconditions": 2603,
      "Ã©l": 2604,
      "Ġeng": 2605,
      "tÃ©ra": 2606,
      "Ġperdre": 2607,
      "issent": 2608,
      "onseil": 2609,
      "Ġapprendre": 2610,
      "Ġanimaux": 2611,
      "osition": 2612,
      "Ġhist": 2613,
      "suite": 2614,
      "ĠSatan": 2615,
      "Ġserez": 2616,
      "ĠmÃ©dic": 2617,
      "gu": 2618,
      "ze": 2619,
      "Ġdim": 2620,
      "Ġobjectifs": 2621,
      "rat": 2622,
      "ĠAr": 2623,
      "ĠBl": 2624,
      "ĠBar": 2625,
      "ubli": 2626,
      "Ġ,": 2627,
      "âĢĵ": 2628,
      "tine": 2629,
      "ĠSy": 2630,
      "Ġamb": 2631,
      "titude": 2632,
      "Ġacheter": 2633,
      "acebook": 2634,
      "Ġconstruire": 2635,
      "ES": 2636,
      "ibles": 2637,
      "Ġtechnologie": 2638,
      "gyp": 2639,
      "ension": 2640,
      "ancer": 2641,
      "ĠprÃ©cÃ©d": 2642,
      "16": 2643,
      "Votre": 2644,
      "ĠMaintenant": 2645,
      "Ġmontre": 2646,
      "ards": 2647,
      "Ġcombat": 2648,
      "Ġparents": 2649,
      "Ġprend": 2650,
      "ĠConseil": 2651,
      "Ġcontinue": 2652,
      "AmÃ©rique": 2653,
      "Personne": 2654,
      "Ġsatisf": 2655,
      "ortun": 2656,
      "ington": 2657,
      "ĠEtats": 2658,
      "Ġajouter": 2659,
      "50": 2660,
      "Sur": 2661,
      "ham": 2662,
      "uropÃ©": 2663,
      "onti": 2664,
      "aces": 2665,
      "Ġactions": 2666,
      "ustra": 2667,
      "Ġpuissance": 2668,
      "Lorsque": 2669,
      "heur": 2670,
      "hab": 2671,
      "ĠpÃ©": 2672,
      "onner": 2673,
      "Ġhuit": 2674,
      "ĠGoogle": 2675,
      "envir": 2676,
      "ĠprÃ©sence": 2677,
      "bien": 2678,
      "rÃ©e": 2679,
      "vin": 2680,
      "Ġsang": 2681,
      "Ġnations": 2682,
      "enons": 2683,
      "Ġfera": 2684,
      "Ġentier": 2685,
      "Ġ2015": 2686,
      "ĠParlement": 2687,
      "oubli": 2688,
      "ĠPaul": 2689,
      "vier": 2690,
      "ĠmentionnÃ©": 2691,
      "atement": 2692,
      "Ġpartout": 2693,
      "Eh": 2694,
      "Ġport": 2695,
      "cept": 2696,
      "Ġressour": 2697,
      "Ġefficace": 2698,
      "ĠisraÃ©li": 2699,
      "oie": 2700,
      "ĠbientÃ´t": 2701,
      "amin": 2702,
      "Ġroi": 2703,
      "Ġuniquement": 2704,
      "Afrique": 2705,
      "ime": 2706,
      "oÃ¯": 2707,
      "Ġlog": 2708,
      "tenu": 2709,
      "Ġpoints": 2710,
      "Ġrencont": 2711,
      "Ġpayer": 2712,
      "Car": 2713,
      "ule": 2714,
      "val": 2715,
      "Ġ24": 2716,
      "ĠEst": 2717,
      "Ġcoo": 2718,
      "ĠprÃ©cis": 2719,
      "ĠtÃ©lÃ©ph": 2720,
      "Ġplein": 2721,
      "ĠmÃ©th": 2722,
      "ieur": 2723,
      "ĠÃī": 2724,
      "Ġradi": 2725,
      "Ġbut": 2726,
      "cole": 2727,
      "ashington": 2728,
      "hors": 2729,
      "aitement": 2730,
      "Ġdestin": 2731,
      "Ġprot": 2732,
      "Ġderniers": 2733,
      "Ġversion": 2734,
      "Ġconcernant": 2735,
      "Toutefois": 2736,
      "Ġcam": 2737,
      "ĠvÃ©ri": 2738,
      "onsieur": 2739,
      "Ġchinois": 2740,
      "Ġali": 2741,
      "asion": 2742,
      "vention": 2743,
      "Ġrestau": 2744,
      "Ġpartenaire": 2745,
      "atif": 2746,
      "Ġseraient": 2747,
      "espÃ¨re": 2748,
      "alistes": 2749,
      "Ġchoisi": 2750,
      "uel": 2751,
      "Ġdavantage": 2752,
      "ĠSon": 2753,
      "ĠÃ©tab": 2754,
      "Ġobser": 2755,
      "ĠfranÃ§ais": 2756,
      "Ġpartager": 2757,
      "glise": 2758,
      "pl": 2759,
      "Ġtyp": 2760,
      "Ã¨de": 2761,
      "ĠPrÃ©s": 2762,
      "Ġrevenir": 2763,
      "industrie": 2764,
      "reu": 2765,
      "ister": 2766,
      "rog": 2767,
      "oires": 2768,
      "aujourd": 2769,
      "embre": 2770,
      "ĠRoyaume": 2771,
      "aff": 2772,
      "ĠÃ©tions": 2773,
      "Ġgagn": 2774,
      "ĠÃ©tat": 2775,
      "Ġ#": 2776,
      "Ġdehors": 2777,
      "Ġdevient": 2778,
      "Ġcommerci": 2779,
      "Ġvraie": 2780,
      "Ġpartenaires": 2781,
      "ĠnÃ©goci": 2782,
      "conque": 2783,
      "oud": 2784,
      "outÃ©": 2785,
      "\",": 2786,
      "mÃ©e": 2787,
      "Ġrac": 2788,
      "ĠsystÃ¨mes": 2789,
      "Ġconfir": 2790,
      "ĠNew": 2791,
      "ĠMa": 2792,
      "Ġallem": 2793,
      "Ġfinalement": 2794,
      "ĠidÃ©e": 2795,
      "Iran": 2796,
      "fest": 2797,
      "Ġemploy": 2798,
      "Ġouver": 2799,
      "Ġmeilleurs": 2800,
      "Ġobjectif": 2801,
      "ĠdÃ¨s": 2802,
      "eront": 2803,
      "Ġmor": 2804,
      "iritu": 2805,
      "istan": 2806,
      "Ã§ons": 2807,
      "Ġfronti": 2808,
      "ĠessayÃ©": 2809,
      "ĠComment": 2810,
      "ane": 2811,
      "Ã¨tes": 2812,
      "Ġinst": 2813,
      "ĠsÃ©rieux": 2814,
      "ĠimmÃ©diatement": 2815,
      "ile": 2816,
      "anvier": 2817,
      "Ġmembre": 2818,
      "Ġtomb": 2819,
      "ĠAu": 2820,
      "Ensuite": 2821,
      "Ġmoder": 2822,
      "heureusement": 2823,
      "join": 2824,
      "ilis": 2825,
      "rier": 2826,
      "Ġessayer": 2827,
      "ĠprotÃ©ger": 2828,
      "uits": 2829,
      "iquement": 2830,
      "Ġchoisir": 2831,
      "Ġchangements": 2832,
      "Allah": 2833,
      "Ġprofes": 2834,
      "Ġclim": 2835,
      "alestin": 2836,
      "ĠconnaÃ®tre": 2837,
      "Ġcroiss": 2838,
      "humanitÃ©": 2839,
      "utiliser": 2840,
      "ĠÃ©lect": 2841,
      "Ġcal": 2842,
      "ana": 2843,
      "niques": 2844,
      "lÃ©g": 2845,
      "Ġcapit": 2846,
      "uifs": 2847,
      "Ġsug": 2848,
      "ĠNo": 2849,
      "tim": 2850,
      "ĠCar": 2851,
      "ĠAfrique": 2852,
      "Ġtechnique": 2853,
      "Ġmondiale": 2854,
      "Ġpire": 2855,
      "Ġcad": 2856,
      "Ġdiscu": 2857,
      "Ġjourn": 2858,
      "ĠWashington": 2859,
      "iÃ¨mement": 2860,
      "Ġtransform": 2861,
      "Ġvilles": 2862,
      "Ġtelles": 2863,
      "ĠdÃ©termin": 2864,
      "ĠSud": 2865,
      "ĠrÃ©pondre": 2866,
      "lÃ©e": 2867,
      "ĠqualitÃ©": 2868,
      "ĠvidÃ©": 2869,
      "Ġinvestis": 2870,
      "Ġattendre": 2871,
      "Ġvoyage": 2872,
      "Ġzone": 2873,
      "Ġpourrions": 2874,
      "Ġbou": 2875,
      "Ġpremiers": 2876,
      "ormais": 2877,
      "Ġforces": 2878,
      "Ġspiritu": 2879,
      "ĠbÃ©b": 2880,
      "ĠEuropÃ©": 2881,
      "Ġ2020": 2882,
      "Ã©ration": 2883,
      "lication": 2884,
      "iller": 2885,
      "tex": 2886,
      "cembre": 2887,
      "Ġbeau": 2888,
      "ĠcompÃ©": 2889,
      "Ġdisponible": 2890,
      "atriÃ¨me": 2891,
      "Ġmourir": 2892,
      "Ġneu": 2893,
      "Ġclasse": 2894,
      "Ġdirige": 2895,
      "US": 2896,
      "Ġfra": 2897,
      "aliste": 2898,
      "ĠSu": 2899,
      "ĠdiffÃ©rente": 2900,
      "Ġmalad": 2901,
      "Ġarrive": 2902,
      "Ġappris": 2903,
      "ĠmÃ©dias": 2904,
      "Ġlangue": 2905,
      "Certains": 2906,
      "reux": 2907,
      "Ġviennent": 2908,
      "Ġmanifest": 2909,
      "Ġhumain": 2910,
      "Ġidenti": 2911,
      "Ġindivid": 2912,
      "Ġuti": 2913,
      "orc": 2914,
      "Ġavenir": 2915,
      "Ã©ricains": 2916,
      "Ġtels": 2917,
      "Ġenne": 2918,
      "ĠFacebook": 2919,
      "Ġimagin": 2920,
      "talie": 2921,
      "gypte": 2922,
      "Ġmesures": 2923,
      "Ġvision": 2924,
      "ĠcollÃ¨": 2925,
      "liquÃ©": 2926,
      "__": 2927,
      "Ġlois": 2928,
      "Ġmouve": 2929,
      "ĠÃ©n": 2930,
      "Ġseuls": 2931,
      "duction": 2932,
      "Ġvit": 2933,
      "rÃ©ci": 2934,
      "Ġvoulais": 2935,
      "Ġenvers": 2936,
      "ĠmajoritÃ©": 2937,
      "lin": 2938,
      "lant": 2939,
      "rant": 2940,
      "Ġcamp": 2941,
      "Ġafric": 2942,
      "Ġmille": 2943,
      "arde": 2944,
      "Ġdesc": 2945,
      "ĠplaÃ®t": 2946,
      "ĠexpÃ©rience": 2947,
      "Ġsoutenir": 2948,
      "Pourtant": 2949,
      "Ġpetits": 2950,
      "ĠmalgrÃ©": 2951,
      "Ġcolle": 2952,
      "Ġremplac": 2953,
      "vembre": 2954,
      "ĠPÃ¨re": 2955,
      "Ġsecteur": 2956,
      "apit": 2957,
      "Ġcru": 2958,
      "Ġpol": 2959,
      "aie": 2960,
      "Ġgros": 2961,
      "ĠâĢĺ": 2962,
      "Ġpensent": 2963,
      "Ġproduction": 2964,
      "Ġhumaine": 2965,
      "ĠgÃ©nÃ©ration": 2966,
      "Ġouvert": 2967,
      "ĠrÃ©sultat": 2968,
      "ende": 2969,
      "oign": 2970,
      "ĠrÃ©el": 2971,
      "pec": 2972,
      "urer": 2973,
      "Ġprodu": 2974,
      "Ġrefus": 2975,
      "ĠrÃ©volution": 2976,
      "Jus": 2977,
      "Ġlesquelles": 2978,
      "tent": 2979,
      "Ġ'": 2980,
      "Ġlead": 2981,
      "Ġsein": 2982,
      "ĠsupplÃ©ment": 2983,
      "Ġsentir": 2984,
      "ĠenvoyÃ©": 2985,
      "rist": 2986,
      "Ġay": 2987,
      "tence": 2988,
      "Ġentreprise": 2989,
      "Ġmariage": 2990,
      "Ġatteindre": 2991,
      "ennent": 2992,
      "ĠprÃªts": 2993,
      "ĠgÃ©": 2994,
      "ĠrÃ©d": 2995,
      "Ġdivers": 2996,
      "Ġobli": 2997,
      "Ġaspect": 2998,
      "Ġatta": 2999,
      "ape": 3000,
      "ĠDi": 3001,
      "Ġsociale": 3002,
      "Combien": 3003,
      "uclÃ©": 3004,
      "Ġquitter": 3005,
      "Ġressources": 3006,
      "200": 3007,
      "Ġtex": 3008,
      "ork": 3009,
      "cipe": 3010,
      "ĠâĢĿ": 3011,
      "ĠdÃ©tail": 3012,
      "lation": 3013,
      "Ã©tu": 3014,
      "Ã©quipe": 3015,
      "Ġcir": 3016,
      "orde": 3017,
      "ĠprÃ©par": 3018,
      "Ġpuisse": 3019,
      "Ġfamilles": 3020,
      "Ġnationale": 3021,
      "Ġfacilement": 3022,
      "tructure": 3023,
      "ĠDr": 3024,
      "illet": 3025,
      "ĠParis": 3026,
      "ĠdÃ©cisions": 3027,
      "Ġreligion": 3028,
      "Ġdirectement": 3029,
      "Ġbudget": 3030,
      "Ġpreu": 3031,
      "onge": 3032,
      "ĠmÃ©c": 3033,
      "Ġproche": 3034,
      "Ã©conom": 3035,
      "ĠJu": 3036,
      "videmment": 3037,
      "ĠcoÃ»t": 3038,
      "olutions": 3039,
      "ĠnumÃ©ro": 3040,
      "Ġrusse": 3041,
      "30": 3042,
      "sp": 3043,
      "ĠCrÃ©": 3044,
      "Ġessenti": 3045,
      "Ġrecevoir": 3046,
      "ber": 3047,
      "Ġfeu": 3048,
      "Ġbons": 3049,
      "ock": 3050,
      "espace": 3051,
      "ĠindÃ©pend": 3052,
      "bama": 3053,
      "Ġauraient": 3054,
      "rak": 3055,
      "Ġhaut": 3056,
      "ĠAb": 3057,
      "import": 3058,
      "ception": 3059,
      "ĠcapacitÃ©": 3060,
      "RA": 3061,
      "moins": 3062,
      "Ġmai": 3063,
      "rod": 3064,
      "auvre": 3065,
      "Ġanalys": 3066,
      "Ġextr": 3067,
      "nies": 3068,
      "ĠtuÃ©": 3069,
      "Ġexpl": 3070,
      "ĠGrÃ¨ce": 3071,
      "Dem": 3072,
      "Ã©rÃ©s": 3073,
      "Enfin": 3074,
      "ĠRome": 3075,
      "ĠdÃ©sormais": 3076,
      "Ġprogrammes": 3077,
      "Ġvendre": 3078,
      "Ġunivers": 3079,
      "Ġconne": 3080,
      "Ġsign": 3081,
      "Ġtes": 3082,
      "Ġpard": 3083,
      "Ġouti": 3084,
      "Ã¢ge": 3085,
      "Ġ2008": 3086,
      "Ġconflit": 3087,
      "ĠnuclÃ©": 3088,
      "Ġvicti": 3089,
      "Ġlivres": 3090,
      "Ġimportants": 3091,
      "Ġvoitures": 3092,
      "Ġinternational": 3093,
      "vie": 3094,
      "Ġlar": 3095,
      "alu": 3096,
      "ĠcoÃ»": 3097,
      "Ġdispos": 3098,
      "Im": 3099,
      "gh": 3100,
      "Ġfab": 3101,
      "Ġpartag": 3102,
      "Ġpalestin": 3103,
      "oration": 3104,
      "Ġparoles": 3105,
      "ĠSh": 3106,
      "gique": 3107,
      "port": 3108,
      "Ġsuite": 3109,
      "ensez": 3110,
      "Ã´p": 3111,
      "occup": 3112,
      "Ġprofessionn": 3113,
      "ĠmÃ©r": 3114,
      "Ġmodi": 3115,
      "ĠfrÃ¨res": 3116,
      "Ġconsommateurs": 3117,
      "Ġsource": 3118,
      "Ġmensonge": 3119,
      "Ġconvain": 3120,
      "alog": 3121,
      "ĠBel": 3122,
      "Ġsemblent": 3123,
      "Ġpopulation": 3124,
      "ox": 3125,
      "anche": 3126,
      "Ġnav": 3127,
      "ridi": 3128,
      "Ġparole": 3129,
      "ĠMich": 3130,
      "ĠNord": 3131,
      "Ġarmes": 3132,
      "Ġactuelle": 3133,
      "Ġfondament": 3134,
      "Ġarab": 3135,
      "Ġinn": 3136,
      "ĠDans": 3137,
      "Ġcontex": 3138,
      "ĠTout": 3139,
      "minist": 3140,
      "Ġterroris": 3141,
      "ĠpropriÃ©t": 3142,
      "25": 3143,
      "Ġe": 3144,
      "tembre": 3145,
      "mig": 3146,
      "Ġfonctionne": 3147,
      "Ã©anmoins": 3148,
      "cun": 3149,
      "aimer": 3150,
      "entrer": 3151,
      "Ġmulti": 3152,
      "Ġjanvier": 3153,
      "Ġconvers": 3154,
      "ĠThe": 3155,
      "Ġcinqu": 3156,
      "Ġgaranti": 3157,
      "Ġtitre": 3158,
      "Ġconnaissance": 3159,
      "Ġnaturel": 3160,
      "Ġtotalement": 3161,
      "ĠcollÃ¨g": 3162,
      "endront": 3163,
      "Ġrejet": 3164,
      "ĠÃ©tant": 3165,
      "ĠTu": 3166,
      "Ġsuper": 3167,
      "Ġarriver": 3168,
      "Ġjugement": 3169,
      "Ġ60": 3170,
      "Ġgars": 3171,
      "tra": 3172,
      "Ġpil": 3173,
      "Ġvieux": 3174,
      "Ã©taient": 3175,
      "Ġtravaille": 3176,
      "Ġlire": 3177,
      "Ġproduire": 3178,
      "Ġconstruit": 3179,
      "ĠthÃ©": 3180,
      "ĠPalestiniens": 3181,
      "Ġhistor": 3182,
      "Allemagne": 3183,
      "arer": 3184,
      "arri": 3185,
      "ĠMal": 3186,
      "ĠrÃ©solution": 3187,
      "Ã§on": 3188,
      "ĠprÃ©v": 3189,
      "Ġautoris": 3190,
      "Ġjuridi": 3191,
      "ĠAllah": 3192,
      "ĠsÃ©par": 3193,
      "Ġtypes": 3194,
      "Ġcadre": 3195,
      "oilÃł": 3196,
      "Ġpauvre": 3197,
      "ank": 3198,
      "atiques": 3199,
      "Ġamour": 3200,
      "Ġ196": 3201,
      "Ġconcur": 3202,
      "ĠgÃ©nÃ©ralement": 3203,
      "ĠspÃ©cifique": 3204,
      "Ġaffir": 3205,
      "ĠÃ¢ge": 3206,
      "bres": 3207,
      "Ġsoli": 3208,
      "oig": 3209,
      "acti": 3210,
      "ĠLib": 3211,
      "ucation": 3212,
      "Ġvaleur": 3213,
      "Ġsexu": 3214,
      "Ġabsolu": 3215,
      "Mar": 3216,
      "Ġdange": 3217,
      "Ġchar": 3218,
      "ĠLi": 3219,
      "ĠsÃ»re": 3220,
      "Ġgouvernements": 3221,
      "ĠmontrÃ©": 3222,
      "ĠÃ©vÃ©nements": 3223,
      "Ġimpossible": 3224,
      "ee": 3225,
      "pt": 3226,
      "Ġplais": 3227,
      "Ġparties": 3228,
      "ectu": 3229,
      "ĠfinanciÃ¨re": 3230,
      "Ġlaisser": 3231,
      "Ġsugg": 3232,
      "UR": 3233,
      "ik": 3234,
      "outes": 3235,
      "ĠquatriÃ¨me": 3236,
      "ĠamÃ©ricain": 3237,
      "Ġpor": 3238,
      "Ġcy": 3239,
      "Ġmainten": 3240,
      "ĠHam": 3241,
      "ĠspÃ©cial": 3242,
      "Ġcroissance": 3243,
      "Ġauront": 3244,
      "Ġbure": 3245,
      "Ġaltern": 3246,
      "ĠactivitÃ©s": 3247,
      "Ġatteint": 3248,
      "IS": 3249,
      "erce": 3250,
      "illi": 3251,
      "ith": 3252,
      "Ġgui": 3253,
      "Ġgarder": 3254,
      "....": 3255,
      "iennes": 3256,
      "ĠJack": 3257,
      "ĠRob": 3258,
      "Ġdisons": 3259,
      "Ġconnais": 3260,
      "ĠpriÃ¨re": 3261,
      "Ġsuivre": 3262,
      "ĠdÃ©pens": 3263,
      "Ġopportun": 3264,
      "abb": 3265,
      "Ġsoulig": 3266,
      "Ġcorrec": 3267,
      "environnement": 3268,
      "EN": 3269,
      "ael": 3270,
      "ĠtÃ¢": 3271,
      "assi": 3272,
      "illeurs": 3273,
      "Ġcroient": 3274,
      "ĠresponsabilitÃ©": 3275,
      "Ġsurvi": 3276,
      "Ġentendre": 3277,
      "Ġimportantes": 3278,
      "rÃªt": 3279,
      "Ġdevi": 3280,
      "Ġciv": 3281,
      "ĠconsidÃ©rÃ©": 3282,
      "Ġprofond": 3283,
      "Ġroyaume": 3284,
      "],": 3285,
      "istence": 3286,
      "Ġrenf": 3287,
      "ĠconnaÃ®t": 3288,
      "Ġvoient": 3289,
      "ĠcoopÃ©ration": 3290,
      "tiez": 3291,
      "Ġnommer": 3292,
      "Ġargent": 3293,
      "Ġorig": 3294,
      "Ġmilitaire": 3295,
      "Ġrencontre": 3296,
      "ĠchrÃ©tiens": 3297,
      "mans": 3298,
      "Ġterrit": 3299,
      "Ġ197": 3300,
      "Ġpolice": 3301,
      "Ġniveaux": 3302,
      "Ġcentaines": 3303,
      "Ġnovembre": 3304,
      "ĠbÃ©nÃ©": 3305,
      "ĠdÃ©mocratie": 3306,
      "pour": 3307,
      "ĠUne": 3308,
      "esprit": 3309,
      "Ã©ch": 3310,
      "outine": 3311,
      "Ġaurez": 3312,
      "ĠIsra": 3313,
      "ritan": 3314,
      "Ġdiscussi": 3315,
      "Ġoccident": 3316,
      "Esprit": 3317,
      "forme": 3318,
      "lais": 3319,
      "ĠÃ©qui": 3320,
      "agement": 3321,
      "Ġprochain": 3322,
      "Pendant": 3323,
      "io": 3324,
      "lab": 3325,
      "ase": 3326,
      "ĠdÃ©cembre": 3327,
      "esses": 3328,
      "fici": 3329,
      "Ġnoms": 3330,
      "ĠpremiÃ¨res": 3331,
      "Ġprison": 3332,
      "ĠtraitÃ©": 3333,
      "Ġinformations": 3334,
      "avec": 3335,
      "aud": 3336,
      "paravant": 3337,
      "ctivement": 3338,
      "Ġattention": 3339,
      "ĠajoutÃ©": 3340,
      "Ã©hic": 3341,
      "ĠtÃ©lÃ©phone": 3342,
      "cre": 3343,
      "Ġcouv": 3344,
      "urg": 3345,
      "ĠtravaillÃ©": 3346,
      "tements": 3347,
      "ĠaccÃ¨s": 3348,
      "Ġprincipe": 3349,
      "Ġdurant": 3350,
      "26": 3351,
      "Ġpours": 3352,
      "Ġconser": 3353,
      "cto": 3354,
      "Ġactuel": 3355,
      "ĠintÃ©ressant": 3356,
      "ĠPrÃ©sident": 3357,
      "ĠextrÃªme": 3358,
      "Son": 3359,
      "uk": 3360,
      "Ġailleurs": 3361,
      "ĠvÃ©hic": 3362,
      "Ġtable": 3363,
      "Ġparlons": 3364,
      "Ġvies": 3365,
      "Ġconnu": 3366,
      "Ġcommunaut": 3367,
      "Ġvoudrais": 3368,
      "Ġhabitu": 3369,
      "Ġrencontrer": 3370,
      "Ġcontexte": 3371,
      "Is": 3372,
      "oudre": 3373,
      "Ġsus": 3374,
      "oth": 3375,
      "Ġvivant": 3376,
      "ĠVÃ©ritÃ©": 3377,
      "Ġvisite": 3378,
      "ublique": 3379,
      "ctobre": 3380,
      "eng": 3381,
      "inst": 3382,
      "Ġpouvaient": 3383,
      "armÃ©e": 3384,
      "Ã¢timent": 3385,
      "Ceux": 3386,
      "Ġ0": 3387,
      "Ġcommande": 3388,
      "ĠÃ©levÃ©": 3389,
      "Ġordin": 3390,
      "ĠSyrie": 3391,
      "Ġallemand": 3392,
      "AM": 3393,
      "ĠSaint": 3394,
      "Ġnouvel": 3395,
      "Ġjuin": 3396,
      "oleil": 3397,
      "ĠidÃ©": 3398,
      "ĠInternet": 3399,
      "Ġcentra": 3400,
      "Ġdocument": 3401,
      "Ukraine": 3402,
      "aprÃ¨s": 3403,
      "oun": 3404,
      "Ġsoyez": 3405,
      "ination": 3406,
      "coles": 3407,
      "Ġpetites": 3408,
      "Ġ2012": 3409,
      "ropri": 3410,
      "cons": 3411,
      "ĠÃ©tern": 3412,
      "Ġchien": 3413,
      "Ġpersonnel": 3414,
      "Ġcommunic": 3415,
      "ĠrÃ©gime": 3416,
      "Ġblog": 3417,
      "iers": 3418,
      "Ġnot": 3419,
      "ĠautoritÃ©s": 3420,
      "Ġ2013": 3421,
      "?\"": 3422,
      "Ma": 3423,
      "VoilÃł": 3424,
      "ote": 3425,
      "yn": 3426,
      "ĠprocÃ©d": 3427,
      "ĠsiÃ¨cle": 3428,
      "oÃ¯se": 3429,
      "Avez": 3430,
      "Ġmira": 3431,
      "ĠdÃ©fi": 3432,
      "Ġpensons": 3433,
      "Â»,": 3434,
      "Ġvoulu": 3435,
      "ĠdÃ©velopper": 3436,
      "Ġvoici": 3437,
      "ĠaimÃ©": 3438,
      "ĠdÃ©test": 3439,
      "ĠÃ©chou": 3440,
      "Ãītat": 3441,
      "oe": 3442,
      "off": 3443,
      "Ġmise": 3444,
      "inf": 3445,
      "ilitÃ©s": 3446,
      "ush": 3447,
      "idence": 3448,
      "Ġsocial": 3449,
      "ĠAmÃ©rique": 3450,
      "Ġrisque": 3451,
      "Ġmaladie": 3452,
      "orÃ©": 3453,
      "ĠMes": 3454,
      "Ġ28": 3455,
      "Ġ2014": 3456,
      "Ġmanque": 3457,
      "ix": 3458,
      "ĠnÃ©": 3459,
      "ĠfÃ©d": 3460,
      "Ġrendu": 3461,
      "ainte": 3462,
      "Ġrespec": 3463,
      "itaire": 3464,
      "Ġalli": 3465,
      "Ġregardez": 3466,
      "Ġlangues": 3467,
      "Ġpotentiel": 3468,
      "Ex": 3469,
      "ĠsÃ©n": 3470,
      "etÃ©": 3471,
      "ĠrÃ©pÃ©": 3472,
      "empl": 3473,
      "ĠmisÃ©ric": 3474,
      "ĠrÃ©pondu": 3475,
      "Ġscientifiques": 3476,
      "Ġrejoin": 3477,
      "Ġmars": 3478,
      "Ġ90": 3479,
      "Ġmusique": 3480,
      "ugi": 3481,
      "Ġdomaine": 3482,
      "Ġmouvement": 3483,
      "ril": 3484,
      "ern": 3485,
      "ĠCela": 3486,
      "ĠPort": 3487,
      "ĠpensÃ©": 3488,
      "Ġarticle": 3489,
      "ĠChrist": 3490,
      "Ġexpliquer": 3491,
      "Ġmorts": 3492,
      "Ġmission": 3493,
      "Selon": 3494,
      "uli": 3495,
      "Ġdate": 3496,
      "Ġcroit": 3497,
      "inform": 3498,
      "Ġfaite": 3499,
      "ĠrÃ©elle": 3500,
      "ĠTr": 3501,
      "Ġinstitutions": 3502,
      "28": 3503,
      "cour": 3504,
      "Ġmeur": 3505,
      "Ġanti": 3506,
      "Ġpromesse": 3507,
      "Ġprincipes": 3508,
      "29": 3509,
      "eusement": 3510,
      "Ġmach": 3511,
      "ĠnÃ©cessaires": 3512,
      "ĠsÃ©rie": 3513,
      "Ġtotal": 3514,
      "ĠentiÃ¨rement": 3515,
      "gle": 3516,
      "onie": 3517,
      "ĠMe": 3518,
      "Ġassoci": 3519,
      "Ġ2010": 3520,
      "ER": 3521,
      "Ġforte": 3522,
      "Ġinflu": 3523,
      "Ġconcurr": 3524,
      "AS": 3525,
      "organis": 3526,
      "ĠCon": 3527,
      "Ġservit": 3528,
      "Ġmilliards": 3529,
      "Ġorganisations": 3530,
      "ĠlÃ©gis": 3531,
      "ĠÃ¢me": 3532,
      "ĠtÃ©moign": 3533,
      "ĠvidÃ©o": 3534,
      "ption": 3535,
      "Ġlettre": 3536,
      "erb": 3537,
      "âĢĶ": 3538,
      "aritÃ©": 3539,
      "Ġdiv": 3540,
      "Ġ21": 3541,
      "ĠapprÃ©ci": 3542,
      "Ġutilisateurs": 3543,
      "Ġcoeur": 3544,
      "ĠidÃ©es": 3545,
      "ĠrÃ©fugi": 3546,
      "ĠrÃ©union": 3547,
      "23": 3548,
      "oti": 3549,
      "oÃ»t": 3550,
      "xim": 3551,
      "article": 3552,
      "ĠÃ©videmment": 3553,
      "raham": 3554,
      "ames": 3555,
      "Ġsty": 3556,
      "Ġaiment": 3557,
      "Ġvoie": 3558,
      "Ġsacri": 3559,
      "ĠbÃ©bÃ©": 3560,
      "Ġutile": 3561,
      "AR": 3562,
      "OT": 3563,
      "Ġmic": 3564,
      "ĠÃ©lÃ©": 3565,
      "Ġsavait": 3566,
      "rÃ©sil": 3567,
      "Ġcroyons": 3568,
      "ĠAmÃ©ricains": 3569,
      "ĠCrÃ©ateur": 3570,
      "Ġem": 3571,
      "Ġital": 3572,
      "org": 3573,
      "ĠJuifs": 3574,
      "ĠrÃ©soudre": 3575,
      "Ġeffectu": 3576,
      "Ġseconde": 3577,
      "Ġnational": 3578,
      "ustralie": 3579,
      "cel": 3580,
      "Ġjapon": 3581,
      "ennes": 3582,
      "Ġtort": 3583,
      "Ġfact": 3584,
      "ĠintÃ©g": 3585,
      "...]": 3586,
      "Ġvict": 3587,
      "oph": 3588,
      "ancÃ©": 3589,
      "Ġmenace": 3590,
      "Ġsexe": 3591,
      "jus": 3592,
      "mb": 3593,
      "esti": 3594,
      "Ġhon": 3595,
      "ĠPoutine": 3596,
      "Ġentrer": 3597,
      "Ġutilise": 3598,
      "ĠamÃ©ricains": 3599,
      "Ġcrimin": 3600,
      "Ġvaleurs": 3601,
      "ĠCoran": 3602,
      "ĠÃ©tudiants": 3603,
      "apitre": 3604,
      "Ġrevi": 3605,
      "Ġvisiter": 3606,
      "Ġjuillet": 3607,
      "lusion": 3608,
      "ustri": 3609,
      "Ġfonctionn": 3610,
      "ĠlimitÃ©": 3611,
      "Ġrappeler": 3612,
      "Ã©conomie": 3613,
      "CO": 3614,
      "David": 3615,
      "cl": 3616,
      "lan": 3617,
      "Ġ22": 3618,
      "Ġdevoir": 3619,
      "ĠmarchÃ©s": 3620,
      "Ġincroy": 3621,
      "ĠPalestine": 3622,
      "onses": 3623,
      "Ġhonn": 3624,
      "Ġocc": 3625,
      "ĠPremi": 3626,
      "Ġsigne": 3627,
      "ingt": 3628,
      "Ġseptembre": 3629,
      "Ġbureau": 3630,
      "ame": 3631,
      "ma": 3632,
      "ener": 3633,
      "Ġfaux": 3634,
      "ĠMad": 3635,
      "idÃ©e": 3636,
      "ĠBr": 3637,
      "Ġartis": 3638,
      "Ġmilieu": 3639,
      "ĠpossibilitÃ©": 3640,
      "Ġtransf": 3641,
      "Ġsuivant": 3642,
      "Ġ80": 3643,
      "Ġpermet": 3644,
      "Ġabsolument": 3645,
      "ĠQ": 3646,
      "Ġdon": 3647,
      "Ġvill": 3648,
      "Ġchamp": 3649,
      "Ġserons": 3650,
      "Ġcommen": 3651,
      "istance": 3652,
      "aissance": 3653,
      "Ġorganisation": 3654,
      "ĠachetÃ©": 3655,
      "Ġsimilaire": 3656,
      "Ġso": 3657,
      "Ġtend": 3658,
      "ĠII": 3659,
      "Ġmillion": 3660,
      "Ġpuisque": 3661,
      "Ġsociaux": 3662,
      "Ġblanc": 3663,
      "ĠacceptÃ©": 3664,
      "Ġpois": 3665,
      "Ġstu": 3666,
      "Ġmang": 3667,
      "uss": 3668,
      "oyer": 3669,
      "Ġminim": 3670,
      "ĠrÃ©gions": 3671,
      "Ã©poque": 3672,
      "Ġsecret": 3673,
      "Ġvenue": 3674,
      "landais": 3675,
      "Ġaliment": 3676,
      "rants": 3677,
      "erait": 3678,
      "Ġvite": 3679,
      "Ġfl": 3680,
      "Ġvouli": 3681,
      "Ġtravailleurs": 3682,
      "Ġcontac": 3683,
      "Ġefforts": 3684,
      "Ġ2009": 3685,
      "odes": 3686,
      "Ġsortir": 3687,
      "Avant": 3688,
      "tÃ©s": 3689,
      "Ġdo": 3690,
      "Ã©ros": 3691,
      "Ã©rÃ©e": 3692,
      "ĠdÃ©fis": 3693,
      "alogue": 3694,
      "Or": 3695,
      "Ġjure": 3696,
      "Ġauparavant": 3697,
      "expÃ©rience": 3698,
      "ĠRÃ©p": 3699,
      "Ġall": 3700,
      "ĠNig": 3701,
      "ĠrÃ©ponses": 3702,
      "entrepr": 3703,
      "ĠsauvÃ©": 3704,
      "habitu": 3705,
      "ĠHamas": 3706,
      "Pensez": 3707,
      "ires": 3708,
      "rain": 3709,
      "ules": 3710,
      "Ġvin": 3711,
      "Ġvend": 3712,
      "Ġpourtant": 3713,
      "ettez": 3714,
      "dire": 3715,
      "Ġcoord": 3716,
      "ĠaidÃ©": 3717,
      "Ġpermis": 3718,
      "Ġrob": 3719,
      "Ġbanques": 3720,
      "ĠmÃ©decin": 3721,
      "Ġdirigeants": 3722,
      "Dis": 3723,
      "vons": 3724,
      "ĠcÃ©lÃ©": 3725,
      "inn": 3726,
      "Ġfac": 3727,
      "ĠÃ©qu": 3728,
      "Ġplate": 3729,
      "sie": 3730,
      "ĠSal": 3731,
      "Ġ26": 3732,
      "Ġproduis": 3733,
      "Ġpartage": 3734,
      "ĠbÃ©nÃ©di": 3735,
      "ĠdÃ©couvert": 3736,
      "ĠextrÃªmement": 3737,
      "vÃ©es": 3738,
      "intÃ©": 3739,
      "rire": 3740,
      "Ġretr": 3741,
      "Ġeffe": 3742,
      "Ġ2006": 3743,
      "Ġoffrir": 3744,
      "enfant": 3745,
      "Ass": 3746,
      "ionn": 3747,
      "iff": 3748,
      "ates": 3749,
      "Ġ23": 3750,
      "Ġsauf": 3751,
      "Ġproposition": 3752,
      "Ġdisponibles": 3753,
      "dÃ©": 3754,
      "Ġuns": 3755,
      "Ġpourrais": 3756,
      "aurais": 3757,
      "ides": 3758,
      "Ġ2011": 3759,
      "Ġperman": 3760,
      "Ġretourner": 3761,
      "ĠeuropÃ©ennes": 3762,
      "Ab": 3763,
      "Ã©ral": 3764,
      "aniel": 3765,
      "Ġlutte": 3766,
      "aider": 3767,
      "lection": 3768,
      "aller": 3769,
      "ĠSuis": 3770,
      "pÃ©ra": 3771,
      "Ġsaison": 3772,
      "ĠreprÃ©sente": 3773,
      "Ġresponsable": 3774,
      "ĠÃ©crire": 3775,
      "Ġmusulmans": 3776,
      "Ġorigin": 3777,
      "ych": 3778,
      "Ġ&": 3779,
      "Ġvir": 3780,
      "euses": 3781,
      "rid": 3782,
      "Ġbles": 3783,
      "osÃ©": 3784,
      "ĠLond": 3785,
      "Ġdistin": 3786,
      "Quelle": 3787,
      "Ġespace": 3788,
      "Ġendroits": 3789,
      "Ġfaveur": 3790,
      "Ġmoderne": 3791,
      "24": 3792,
      "we": 3793,
      "ity": 3794,
      "Ã©cole": 3795,
      "Ġappropri": 3796,
      "Ġ500": 3797,
      "Ġvoulaient": 3798,
      "alisme": 3799,
      "Ġmalheur": 3800,
      "Ġ70": 3801,
      "ĠcrÃ©e": 3802,
      "Ġchercher": 3803,
      "Ġaccepter": 3804,
      "Ġmerveill": 3805,
      "ĠlittÃ©ra": 3806,
      "ĠÃ©nergie": 3807,
      "ĠcinquiÃ¨me": 3808,
      "CE": 3809,
      "Ġcentre": 3810,
      "ĠsÅĵur": 3811,
      "rob": 3812,
      "ĠMoÃ¯se": 3813,
      "Ġ27": 3814,
      "Ġbesoins": 3815,
      "annÃ©es": 3816,
      "Ġoblig": 3817,
      "importance": 3818,
      "ĠcollÃ¨gues": 3819,
      "Ġstructure": 3820,
      "ĠvÃ©cu": 3821,
      "ĠBible": 3822,
      "ĠEh": 3823,
      "Ġ2007": 3824,
      "Ġclient": 3825,
      "ĠamÃ©ricaine": 3826,
      "ĠrÃªve": 3827,
      "venir": 3828,
      "Ġpage": 3829,
      "Ġtaux": 3830,
      "Ġhier": 3831,
      "ĠBe": 3832,
      "Ġapporter": 3833,
      "ĠEx": 3834,
      "Ġcontraire": 3835,
      "ĠdÃ©couvrir": 3836,
      "Ġrespect": 3837,
      "ĠadoptÃ©": 3838,
      "Ġsold": 3839,
      "Rapp": 3840,
      "Ġcess": 3841,
      "Ġquanti": 3842,
      "ĠÃ©tiez": 3843,
      "Ġparlent": 3844,
      "oser": 3845,
      "Ġdipl": 3846,
      "ĠexpÃ©ri": 3847,
      "Ġcompar": 3848,
      "Ġutilisent": 3849,
      "ĠOn": 3850,
      "Ġautom": 3851,
      "Ġverrez": 3852,
      "Ġprochaines": 3853,
      "ĠÃ©conomiques": 3854,
      "ĠtÃ©lÃ©vision": 3855,
      "Ġpleinement": 3856,
      "Ġpoursui": 3857,
      "App": 3858,
      "Elles": 3859,
      "NÃ©anmoins": 3860,
      "Ġcontact": 3861,
      "ĠObama": 3862,
      "asser": 3863,
      "anisme": 3864,
      "ĠdÃ©pend": 3865,
      "Ġindividu": 3866,
      "cs": 3867,
      "ood": 3868,
      "Ġparlement": 3869,
      "Ġdevait": 3870,
      "ĠTom": 3871,
      "ueil": 3872,
      "Ġimporte": 3873,
      "Ġamus": 3874,
      "Ġcollab": 3875,
      "Ġesprit": 3876,
      "Ġfinancier": 3877,
      "Ġsurpris": 3878,
      "Toutes": 3879,
      "lure": 3880,
      "sons": 3881,
      "vation": 3882,
      "univers": 3883,
      "Ġbois": 3884,
      "Ġinvent": 3885,
      "Ġof": 3886,
      "pÃ©rer": 3887,
      "Ġdemeure": 3888,
      "Ġterri": 3889,
      "ĠdÃ©bat": 3890,
      "Ġmessages": 3891,
      "ĠfrontiÃ¨res": 3892,
      "TI": 3893,
      "tif": 3894,
      "tici": 3895,
      "Ġboire": 3896,
      "Ġvivent": 3897,
      "appar": 3898,
      "Ġstat": 3899,
      "ologne": 3900,
      "tiennent": 3901,
      "ĠdÃ©claration": 3902,
      "ĠrÃ©comp": 3903,
      "Ġscience": 3904,
      "Reg": 3905,
      "Ġaspects": 3906,
      "ĠrÃ©fugiÃ©s": 3907,
      "ĠpÃª": 3908,
      "Ġang": 3909,
      "Ġexamin": 3910,
      "Ġarti": 3911,
      "ĠprioritÃ©": 3912,
      "Ġpermettre": 3913,
      "oseph": 3914,
      "Ġoption": 3915,
      "Ġsuffisamment": 3916,
      "Nos": 3917,
      "ya": 3918,
      "rection": 3919,
      "Ġmat": 3920,
      "ina": 3921,
      "ĠWh": 3922,
      "ĠrÃ©guli": 3923,
      "Ġpublique": 3924,
      "Ġaimons": 3925,
      "DeuxiÃ¨mement": 3926,
      "Ġplaisir": 3927,
      "22": 3928,
      "Ġps": 3929,
      "orce": 3930,
      "Ġjeux": 3931,
      "Ġfaits": 3932,
      "Ġlongue": 3933,
      "ĠdÃ©truire": 3934,
      "Ġtrouverez": 3935,
      "ĠÃ©poque": 3936,
      "ĠcompÃ©ti": 3937,
      "dis": 3938,
      "ĠQue": 3939,
      "Ġencour": 3940,
      "Ġcompagn": 3941,
      "ĠHar": 3942,
      "ĠChar": 3943,
      "alisation": 3944,
      "Ġmeilleures": 3945,
      "ĠprogrÃ¨s": 3946,
      "Ġbataille": 3947,
      ".[": 3948,
      "fÃ©": 3949,
      "oÃ¹": 3950,
      "reg": 3951,
      "iner": 3952,
      "ĠGu": 3953,
      "Ġorg": 3954,
      "Ġoffre": 3955,
      "Ġaband": 3956,
      "Ġneuf": 3957,
      "Demande": 3958,
      "Ġmig": 3959,
      "Ġdirection": 3960,
      "eek": 3961,
      "ĠÃ©lÃ©ments": 3962,
      "**": 3963,
      "33": 3964,
      "Se": 3965,
      "urÃ©": 3966,
      "ulg": 3967,
      "Ã©tend": 3968,
      "utri": 3969,
      "Ã¢me": 3970,
      "Ã©ducation": 3971,
      "tionnel": 3972,
      "Ġlesquels": 3973,
      "ĠmÃ©thode": 3974,
      "ĠÃ©norme": 3975,
      "aimerais": 3976,
      "ĠtÃ©moignage": 3977,
      "ĠRÃ©publique": 3978,
      "RÃ©p": 3979,
      "Sans": 3980,
      "oo": 3981,
      "eter": 3982,
      "Ġinqui": 3983,
      "ĠrÃ©glement": 3984,
      "Ġvenus": 3985,
      "ĠrencontrÃ©": 3986,
      "Ġconversation": 3987,
      "ĠmisÃ©ricorde": 3988,
      "Cet": 3989,
      "dans": 3990,
      "ta": 3991,
      "roph": 3992,
      "alitÃ©s": 3993,
      "Ġdura": 3994,
      "ĠCons": 3995,
      "Ġcommerce": 3996,
      "Ġdiscip": 3997,
      "ĠNon": 3998,
      "Ġ35": 3999,
      "Ġinclus": 4000,
      "ativement": 4001,
      "Ġfournir": 4002,
      "Ġgratu": 4003,
      "ĠprÃ©cisÃ©ment": 4004,
      "Ġvictimes": 4005,
      "ĠBelgique": 4006,
      "Gr": 4007,
      "quis": 4008,
      "Ġsolutions": 4009,
      "Ġvari": 4010,
      "Ġbritan": 4011,
      "Ġhau": 4012,
      "Ã©tÃ©s": 4013,
      "ĠprÃ©occup": 4014,
      "Ġ2005": 4015,
      "ĠrÃ©fÃ©rence": 4016,
      "Ġressent": 4017,
      "adiens": 4018,
      "rlande": 4019,
      "Ġi": 4020,
      "ony": 4021,
      "Ġsoleil": 4022,
      "ĠtÃªte": 4023,
      "Ġfro": 4024,
      "ressi": 4025,
      "Ġconcept": 4026,
      "ĠSam": 4027,
      "Ġviens": 4028,
      "ainement": 4029,
      "Ġexpri": 4030,
      "ĠcolÃ¨re": 4031,
      "ĠYork": 4032,
      "Ġpermett": 4033,
      "Ġdemandez": 4034,
      "Ġparfait": 4035,
      "ĠmÃ©decins": 4036,
      "Ġcommunication": 4037,
      "Heure": 4038,
      "ly": 4039,
      "sh": 4040,
      "stitu": 4041,
      "tte": 4042,
      "Ġdieu": 4043,
      "quÃ©e": 4044,
      "Ġvrais": 4045,
      "Ġtrib": 4046,
      "Ġpourra": 4047,
      "Ġbar": 4048,
      "Ġentend": 4049,
      "Ã©tat": 4050,
      "Ġ\".": 4051,
      "utilisation": 4052,
      "Ġ194": 4053,
      "Ġvisit": 4054,
      "Ġfonds": 4055,
      "ĠcomplÃ¨te": 4056,
      "Ġmondial": 4057,
      "Ġchev": 4058,
      "Ġriche": 4059,
      "Jusqu": 4060,
      "Oh": 4061,
      "rin": 4062,
      "uments": 4063,
      "Ġroute": 4064,
      "aurait": 4065,
      "Ġplans": 4066,
      "ĠÃ©couter": 4067,
      "Ġchange": 4068,
      "Ġmauvaise": 4069,
      "Ġbanque": 4070,
      "ĠentiÃ¨re": 4071,
      "Ġapproche": 4072,
      "Ã©re": 4073,
      "ĠpÃ©n": 4074,
      "Ġrare": 4075,
      "Ġplani": 4076,
      "Ġsuivi": 4077,
      "ĠspÃ©ciale": 4078,
      "ĠYou": 4079,
      "Ġrusses": 4080,
      "Ġleaders": 4081,
      "Ġpreuve": 4082,
      "Ã´pital": 4083,
      "ĠLondres": 4084,
      "Trois": 4085,
      "quent": 4086,
      "Ġbate": 4087,
      "sements": 4088,
      "Ġ2000": 4089,
      "Ġexperts": 4090,
      "Ġaffec": 4091,
      "Ġindustri": 4092,
      "Ġbless": 4093,
      "ays": 4094,
      "ĠQui": 4095,
      "unis": 4096,
      "Ġgrec": 4097,
      "Ġservir": 4098,
      "ĠLu": 4099,
      "ĠNotre": 4100,
      "ĠutilisÃ©s": 4101,
      "Ġcontenu": 4102,
      "Ġcommencent": 4103,
      "ĠgÃ©nÃ©rations": 4104,
      "Ġoptions": 4105,
      "Ġpatient": 4106,
      "Ġfourniss": 4107,
      "Ġphotos": 4108,
      "Ġstyle": 4109,
      "Ġeffectivement": 4110,
      "Ġdiplom": 4111,
      "aj": 4112,
      "achet": 4113,
      "ctu": 4114,
      "Ġcat": 4115,
      "Ġsites": 4116,
      "iser": 4117,
      "Ã¨ge": 4118,
      "Ġaurons": 4119,
      "Ġdialogue": 4120,
      "Ġtravaillent": 4121,
      "Ġcourt": 4122,
      "Ġpromis": 4123,
      "Ġdra": 4124,
      "Ã©tique": 4125,
      "erons": 4126,
      "ombre": 4127,
      "Ã¨ve": 4128,
      "Ã¨les": 4129,
      "Ġbelle": 4130,
      "ĠillÃ©g": 4131,
      "ĠPologne": 4132,
      "Ġquelles": 4133,
      "eaux": 4134,
      "ĠNouv": 4135,
      "Ġ45": 4136,
      "Ġpression": 4137,
      "Ġhabit": 4138,
      "ĠÃ©quip": 4139,
      "IT": 4140,
      "Ġdanger": 4141,
      "âĢĺ": 4142,
      "aisse": 4143,
      "Ġquiconque": 4144,
      "existence": 4145,
      "Ġconver": 4146,
      "Ġtraitement": 4147,
      "Ġdevrais": 4148,
      "Ġpouvais": 4149,
      "ĠprÃ©p": 4150,
      "Ġpeine": 4151,
      "tÃ©gor": 4152,
      "ĠconfÃ©rence": 4153,
      "Ãīglise": 4154,
      "Malheureusement": 4155,
      "Rappelez": 4156,
      "ennies": 4157,
      "Ġquoti": 4158,
      "Ġinv": 4159,
      "atifs": 4160,
      "ĠallÃ©": 4161,
      "Ġmob": 4162,
      "Ġpolitici": 4163,
      "Ġressemb": 4164,
      "Ġintel": 4165,
      "Esp": 4166,
      "truct": 4167,
      "Ġennemis": 4168,
      "ĠsÃ©nateur": 4169,
      "fe": 4170,
      "enant": 4171,
      "Ġnoir": 4172,
      "ourg": 4173,
      "ignement": 4174,
      "Ġannonc": 4175,
      "Ġagir": 4176,
      "Ġinternationaux": 4177,
      "ĠempÃª": 4178,
      "Ġfaible": 4179,
      "Ġremercier": 4180,
      "Ġtexte": 4181,
      "Ġcircons": 4182,
      "IN": 4183,
      "Sa": 4184,
      "mÃ©s": 4185,
      "orge": 4186,
      "ouvÃ©": 4187,
      "ancement": 4188,
      "Ġperspe": 4189,
      "Ã´tre": 4190,
      "ardin": 4191,
      "ĠdÃ©cennies": 4192,
      "Ã©rable": 4193,
      "ĠWeb": 4194,
      "Ġpossibles": 4195,
      "Ġvisage": 4196,
      "Ġtechniques": 4197,
      "Ġtiers": 4198,
      "ĠpossÃ¨de": 4199,
      "ĠMichael": 4200,
      "ccident": 4201,
      "fgh": 4202,
      "Ġign": 4203,
      "Ġcop": 4204,
      "Ġ?\"": 4205,
      "esseur": 4206,
      "fiÃ©s": 4207,
      "ĠJac": 4208,
      "Ġ[...]": 4209,
      "ĠespÃ©rons": 4210,
      "Ġmoyens": 4211,
      "ĠrÃ©alisÃ©": 4212,
      "ĠdÃ©mocratique": 4213,
      "ĠQuand": 4214,
      "Ġsoin": 4215,
      "Ġfier": 4216,
      "Ġbomb": 4217,
      "ĠCol": 4218,
      "Ġact": 4219,
      "Ġviendra": 4220,
      "ĠdÃ©crit": 4221,
      "ĠmatÃ©ri": 4222,
      "Ã§u": 4223,
      "ĠcatÃ©gor": 4224,
      "Ġconfront": 4225,
      "enfants": 4226,
      "IE": 4227,
      "ĠUni": 4228,
      "rets": 4229,
      "onstr": 4230,
      "Ġram": 4231,
      "ĠgÃ©rer": 4232,
      "Ġavril": 4233,
      "ĠMos": 4234,
      "Ġdiscours": 4235,
      "Ġconscience": 4236,
      "Demandez": 4237,
      "!\"": 4238,
      "AD": 4239,
      "ĠvÃª": 4240,
      "Ġaver": 4241,
      "Ġprobable": 4242,
      "Ġobten": 4243,
      "Ġexplique": 4244,
      "ĠsociÃ©tÃ©s": 4245,
      "ĠreconnaÃ®tre": 4246,
      "ĠÃ©valu": 4247,
      "Ġprincipal": 4248,
      "auvres": 4249,
      "aza": 4250,
      "Ġmentionn": 4251,
      "ĠbrÃ»": 4252,
      "ĠamÃ©liorer": 4253,
      "ĠprophÃ¨te": 4254,
      "Ġrenforc": 4255,
      "Islam": 4256,
      "60": 4257,
      "Merci": 4258,
      "OÃ¹": 4259,
      "dy": 4260,
      "ĠCette": 4261,
      "ĠMonsieur": 4262,
      "Ġsouten": 4263,
      "Ġ300": 4264,
      "Ġcode": 4265,
      "issez": 4266,
      "ĠÃ©viter": 4267,
      "Ġnoter": 4268,
      "Ġtax": 4269,
      "Ġmilitaires": 4270,
      "auss": 4271,
      "ĠarrÃªter": 4272,
      "Ġoutils": 4273,
      "Ã©lÃ¨": 4274,
      "arch": 4275,
      "ila": 4276,
      "itaires": 4277,
      "Ġchiens": 4278,
      "ague": 4279,
      "Ġdivis": 4280,
      "Ġhors": 4281,
      "ĠAllemagne": 4282,
      "ĠBer": 4283,
      "Ã©glise": 4284,
      "Ġhuman": 4285,
      "ĠÃ©lections": 4286,
      "Ġsembl": 4287,
      "lications": 4288,
      "Ġminute": 4289,
      "Ġsources": 4290,
      "Ġconseil": 4291,
      "ĠgagnÃ©": 4292,
      "Ġpauvres": 4293,
      "arrÃª": 4294,
      "Ġjui": 4295,
      "andid": 4296,
      "ĠMex": 4297,
      "Ġanges": 4298,
      "Ġmaisons": 4299,
      "ĠrÃ©ser": 4300,
      "rÃªts": 4301,
      "Ġreconnaissant": 4302,
      "Ġoublier": 4303,
      "Ġphoto": 4304,
      "Ġerreurs": 4305,
      "Ġsatisfait": 4306,
      "Ġvictoire": 4307,
      "Ġquotid": 4308,
      "40": 4309,
      "Ġporter": 4310,
      "Ġvingt": 4311,
      "orig": 4312,
      "ral": 4313,
      "Ġchim": 4314,
      "Ġgestion": 4315,
      "atoire": 4316,
      "ĠÃ©tape": 4317,
      "uxelles": 4318,
      "ĠGe": 4319,
      "appelle": 4320,
      "occ": 4321,
      "Ġcapables": 4322,
      "Ġprincipale": 4323,
      "Ġconnaissons": 4324,
      "Ġvote": 4325,
      "ĠoubliÃ©": 4326,
      "ĠpossÃ©d": 4327,
      "Ġsentiment": 4328,
      "RÃ©ponse": 4329,
      "Mes": 4330,
      "cune": 4331,
      "Ġnaissance": 4332,
      "Ġrass": 4333,
      "urent": 4334,
      "atures": 4335,
      "Ġserai": 4336,
      "Ġ29": 4337,
      "ĠNations": 4338,
      "ĠprÃ©sente": 4339,
      "Ġobtenu": 4340,
      "Ġcomprend": 4341,
      "ĠcafÃ©": 4342,
      "ĠfaÃ§ons": 4343,
      "ĠspÃ©cifiques": 4344,
      "Ġjaponais": 4345,
      "ĠlittÃ©ralement": 4346,
      "iel": 4347,
      "ĠpÃ©t": 4348,
      "Ġchiff": 4349,
      "ĠAss": 4350,
      "aliser": 4351,
      "ĠÃ©vident": 4352,
      "tionnelle": 4353,
      "Ġdevenus": 4354,
      "Ġdevenue": 4355,
      "ĠPortug": 4356,
      "ĠSuisse": 4357,
      "27": 4358,
      "nÃ©s": 4359,
      "Ġcandid": 4360,
      "Ġmur": 4361,
      "inon": 4362,
      "Ġbre": 4363,
      "amÃ©li": 4364,
      "ĠCl": 4365,
      "accep": 4366,
      "Ġoctobre": 4367,
      "ick": 4368,
      "Ġcomprends": 4369,
      "Ġclub": 4370,
      "ĠcarriÃ¨re": 4371,
      "Ġadminist": 4372,
      "Ġcroyez": 4373,
      "ĠmatiÃ¨re": 4374,
      "Ġglob": 4375,
      "Ġcruci": 4376,
      "log": 4377,
      "oot": 4378,
      "Ġpie": 4379,
      "ĠfrÃ©": 4380,
      "agÃ©": 4381,
      "Ġsoud": 4382,
      "Ã´tel": 4383,
      "ologique": 4384,
      "Ġprisonn": 4385,
      "Ã©vrier": 4386,
      "Ġislam": 4387,
      "ĠvotÃ©": 4388,
      "Ġjuridique": 4389,
      "Ġsolid": 4390,
      "Ġvillage": 4391,
      "ive": 4392,
      "quÃªte": 4393,
      "asc": 4394,
      "ĠDonc": 4395,
      "ĠBrÃ©sil": 4396,
      "Ġappelle": 4397,
      "ailleurs": 4398,
      "Ġpartis": 4399,
      "Ġeuros": 4400,
      "ĠconsidÃ©rer": 4401,
      "Ġappeler": 4402,
      "ĠdÃ©fense": 4403,
      "Ġbattre": 4404,
      "ĠnuclÃ©aire": 4405,
      "Ġpsych": 4406,
      "Celui": 4407,
      "Ġdest": 4408,
      "ĠDaniel": 4409,
      "ĠAdam": 4410,
      "Ġtrad": 4411,
      "Ġdisait": 4412,
      "ordre": 4413,
      "Ġmoments": 4414,
      "ignes": 4415,
      "versaire": 4416,
      "Ġsignific": 4417,
      "ariat": 4418,
      "Ġviolence": 4419,
      "Ġsecondes": 4420,
      "Ġmusulman": 4421,
      "Peu": 4422,
      "voir": 4423,
      "ye": 4424,
      "Ġsil": 4425,
      "ortement": 4426,
      "ĠComme": 4427,
      "ulation": 4428,
      "Encore": 4429,
      "oyons": 4430,
      "ĠsupÃ©ri": 4431,
      "Ġpap": 4432,
      "adis": 4433,
      "Ġimpliqu": 4434,
      "Ġperte": 4435,
      "Ġaient": 4436,
      "Ġconnaissent": 4437,
      "Ġintrod": 4438,
      "Ġdangereux": 4439,
      "Ġvoulions": 4440,
      "Ġcirconst": 4441,
      "ĠpÃ©tro": 4442,
      "LE": 4443,
      "Pr": 4444,
      "ball": 4445,
      "vera": 4446,
      "Ġsain": 4447,
      "emar": 4448,
      "Ġreti": 4449,
      "ĠMi": 4450,
      "ĠBien": 4451,
      "ĠTe": 4452,
      "Ġallait": 4453,
      "ades": 4454,
      "Ġconduit": 4455,
      "ĠÃ©trangers": 4456,
      "env": 4457,
      "Ġjoie": 4458,
      "Ġgaz": 4459,
      "ĠMme": 4460,
      "identi": 4461,
      "Ġaction": 4462,
      "fiÃ©e": 4463,
      "Ġ99": 4464,
      "ĠnÃ©cessitÃ©": 4465,
      "Ġfiers": 4466,
      "Ġinvestiss": 4467,
      "Ġimaginer": 4468,
      "35": 4469,
      "go": 4470,
      "Ġdemi": 4471,
      "Ġchans": 4472,
      "Ġchapitre": 4473,
      "ĠRou": 4474,
      "Ġsouci": 4475,
      "ĠHong": 4476,
      "Aucun": 4477,
      "Ġcontinent": 4478,
      "Ġexclus": 4479,
      "Ġdocuments": 4480,
      "lo": 4481,
      "Ġcrai": 4482,
      "intÃ©g": 4483,
      "Ã¨que": 4484,
      "Ã¨nes": 4485,
      "ĠSm": 4486,
      "ĠItalie": 4487,
      "Ġcomplet": 4488,
      "Ġsouvenir": 4489,
      "Ġjoueurs": 4490,
      "Ġdomaines": 4491,
      "ĠtÃ©moin": 4492,
      "37": 4493,
      "Irak": 4494,
      "âĢĭ": 4495,
      "Ġchant": 4496,
      "chent": 4497,
      "ĠMÃ¨re": 4498,
      "ĠSes": 4499,
      "fice": 4500,
      "ĠJoseph": 4501,
      "ĠEsp": 4502,
      "option": 4503,
      "Ġcoh": 4504,
      "Ġvouloir": 4505,
      "Ġassis": 4506,
      "ologie": 4507,
      "Ġaffaires": 4508,
      "Ġemb": 4509,
      "Ġquar": 4510,
      "Ġmett": 4511,
      "ray": 4512,
      "raÃ®": 4513,
      "ĠIs": 4514,
      "Ġweb": 4515,
      "Ġgloire": 4516,
      "Ġparfaitement": 4517,
      "Ġdifficiles": 4518,
      "Ġradic": 4519,
      "ĠemployÃ©s": 4520,
      "Ġclimatique": 4521,
      "Ġdurable": 4522,
      "Ġdr": 4523,
      "Ġnormes": 4524,
      "Ġmu": 4525,
      "ĠÃ©coles": 4526,
      "ĠDon": 4527,
      "Ġsituations": 4528,
      "Ġprincipalement": 4529,
      "ĠdÃ©cider": 4530,
      "ĠÃ©nergÃ©": 4531,
      "ĠPortugal": 4532,
      "39": 4533,
      "ky": 4534,
      "Ġus": 4535,
      "ensi": 4536,
      "Ġcelles": 4537,
      "ley": 4538,
      "ares": 4539,
      "Ġaurions": 4540,
      "aura": 4541,
      "Ġchauss": 4542,
      "ĠRus": 4543,
      "Ġ!\"": 4544,
      "ĠGaza": 4545,
      "Ġcomplex": 4546,
      "Ġdemandent": 4547,
      "Ġtoutefois": 4548,
      "Ġpropositions": 4549,
      "Ġregarde": 4550,
      "attend": 4551,
      "ĠCorÃ©e": 4552,
      "Ġexistent": 4553,
      "Ġdiscuter": 4554,
      "celone": 4555,
      "lor": 4556,
      "ambre": 4557,
      "ĠEl": 4558,
      "vient": 4559,
      "ĠcrÃ©dit": 4560,
      "ĠprÃ©ser": 4561,
      "Ġespagn": 4562,
      "Ġcondam": 4563,
      "Ġenvoyer": 4564,
      "Ġaccords": 4565,
      "Ġriches": 4566,
      "ukrain": 4567,
      "mar": 4568,
      "Ġcens": 4569,
      "Ġru": 4570,
      "tÃ©es": 4571,
      "trument": 4572,
      "ĠjouÃ©": 4573,
      "ĠMartin": 4574,
      "Ġprincipaux": 4575,
      "ĠAlors": 4576,
      "ĠapparaÃ®t": 4577,
      "Ġfonctionner": 4578,
      "Ġweek": 4579,
      "ĠcontrÃ´ler": 4580,
      "Ġradio": 4581,
      "migration": 4582,
      "Ġdos": 4583,
      "Ġtri": 4584,
      "arr": 4585,
      "ĠÃ©cole": 4586,
      "Ġavis": 4587,
      "agraph": 4588,
      "avaient": 4589,
      "Ġdevra": 4590,
      "ĠBill": 4591,
      "alem": 4592,
      "Ġpersonnelle": 4593,
      "Ġfaisait": 4594,
      "Ġinternationales": 4595,
      "ĠintÃ©rÃªts": 4596,
      "ĠrÃ¨glement": 4597,
      "ĠsÃ©lection": 4598,
      "ĠtÃ¢che": 4599,
      "Ġsoldats": 4600,
      "Ġ+": 4601,
      "Ġâ": 4602,
      "ĠclÃ©": 4603,
      "ĠaÃ©ri": 4604,
      "erc": 4605,
      "Ġvas": 4606,
      "Ġvaut": 4607,
      "itable": 4608,
      "auche": 4609,
      "Ġprise": 4610,
      "ulture": 4611,
      "lises": 4612,
      "Ã©liens": 4613,
      "ĠgarÃ§on": 4614,
      "ilipp": 4615,
      "ĠvÃ©rifier": 4616,
      "Ġterritoire": 4617,
      "ĠBruxelles": 4618,
      "Heureusement": 4619,
      "SA": 4620,
      "Ġukrain": 4621,
      "Ġpo": 4622,
      "Ġlis": 4623,
      "Ġmange": 4624,
      "inion": 4625,
      "ĠMan": 4626,
      "Ġquels": 4627,
      "igh": 4628,
      "ots": 4629,
      "lÃ©ch": 4630,
      "ĠVi": 4631,
      "Ġ2004": 4632,
      "Ġreconnu": 4633,
      "Ġlaissez": 4634,
      "Ġcampagne": 4635,
      "Ġremplacer": 4636,
      "ĠbÃ©nÃ©fici": 4637,
      "wit": 4638,
      "ensions": 4639,
      "erm": 4640,
      "Ġvain": 4641,
      "ouse": 4642,
      "resp": 4643,
      "agir": 4644,
      "ĠÃ©tonn": 4645,
      "essay": 4646,
      "Ġcontra": 4647,
      "ĠdÃ©veloppÃ©": 4648,
      "Ġfaisant": 4649,
      "ĠstratÃ©gique": 4650,
      "Ġaccept": 4651,
      "Ġsubst": 4652,
      "ĠpÃ©chÃ©s": 4653,
      "ĠEuropÃ©ens": 4654,
      "ĠsupplÃ©mentaires": 4655,
      "Ġmaintenir": 4656,
      "ck": 4657,
      "Ġsouver": 4658,
      "ĠÃĢ": 4659,
      "usalem": 4660,
      "ĠÃ©li": 4661,
      "Ġprov": 4662,
      "appr": 4663,
      "Ġatti": 4664,
      "Ġ2003": 4665,
      "ĠÃ©tude": 4666,
      "Italie": 4667,
      "Pouvez": 4668,
      "UN": 4669,
      "cture": 4670,
      "Ã©le": 4671,
      "oids": 4672,
      "Ã©rusalem": 4673,
      "Ġdeviennent": 4674,
      "ĠstabilitÃ©": 4675,
      "ĠcomprÃ©h": 4676,
      "Ġcontinuent": 4677,
      "Ġsuppose": 4678,
      "ĠBarcelone": 4679,
      "Ġarabe": 4680,
      "Ġcorrectement": 4681,
      "ĠsolidaritÃ©": 4682,
      "Ġcirconstances": 4683,
      "OM": 4684,
      "lut": 4685,
      "Ġsanc": 4686,
      "tienne": 4687,
      "itent": 4688,
      "Ġhor": 4689,
      "Ġappare": 4690,
      "ĠElle": 4691,
      "istÃ¨re": 4692,
      "ctives": 4693,
      "ĠprÃ©sentÃ©": 4694,
      "Ġconnaissez": 4695,
      "ovation": 4696,
      "Ġreconnaissants": 4697,
      "Ġnormal": 4698,
      "Ġscientifique": 4699,
      "ĠÃ©tabli": 4700,
      "ĠRobert": 4701,
      "ĠquantitÃ©": 4702,
      "ĠvÃªtements": 4703,
      "tiÃ¨me": 4704,
      "ellent": 4705,
      "Ãªt": 4706,
      "Ġinves": 4707,
      "abs": 4708,
      "Ġcarte": 4709,
      "attention": 4710,
      "Ġsujets": 4711,
      "Ġcroyants": 4712,
      "Ġprati": 4713,
      "ĠdÃ©truit": 4714,
      "ĠterminÃ©": 4715,
      "da": 4716,
      "mo": 4717,
      "anim": 4718,
      "actions": 4719,
      "Ġfinal": 4720,
      "Ġutilisant": 4721,
      "Ġclaire": 4722,
      "Parfois": 4723,
      "Ġpeuples": 4724,
      "Ġpuissant": 4725,
      "Ġexcellent": 4726,
      "Ġaimez": 4727,
      "Regardez": 4728,
      "Ġgratuit": 4729,
      "occasion": 4730,
      "RE": 4731,
      "Ġpun": 4732,
      "Ġnul": 4733,
      "investis": 4734,
      "ĠfÃ©vrier": 4735,
      "Ġdesign": 4736,
      "ĠrÃ©uss": 4737,
      "Ġand": 4738,
      "ĠBush": 4739,
      "Ġperform": 4740,
      "Ġstand": 4741,
      "ultÃ©s": 4742,
      "ĠconsidÃ¨re": 4743,
      "Ġsport": 4744,
      "ĠquittÃ©": 4745,
      "Ġpardon": 4746,
      "ĠcommunautÃ©s": 4747,
      "21": 4748,
      "AC": 4749,
      "cent": 4750,
      "Ã©rop": 4751,
      "Ġsort": 4752,
      "Ġsuit": 4753,
      "Ġtur": 4754,
      "Ġfid": 4755,
      "Ã¨tres": 4756,
      "Ġdess": 4757,
      "ĠdÃ©n": 4758,
      "ĠSp": 4759,
      "acune": 4760,
      "ĠArab": 4761,
      "ĠÃ©glise": 4762,
      "ting": 4763,
      "Ġcomprennent": 4764,
      "Ġcaus": 4765,
      "ĠindÃ©": 4766,
      "ĠconsÃ©quences": 4767,
      "Ġmoyenne": 4768,
      "Ġreligieux": 4769,
      "Ġpleine": 4770,
      "Ġconseils": 4771,
      "ĠbeautÃ©": 4772,
      "Ġalternative": 4773,
      "bilitÃ©s": 4774,
      "if": 4775,
      "Ġlignes": 4776,
      "Ġvacc": 4777,
      "itation": 4778,
      "Ġprouver": 4779,
      "ĠÃªtres": 4780,
      "Ġsouvenez": 4781,
      "ĠgÃ©nÃ©rale": 4782,
      "ĠGrande": 4783,
      "ĠUkraine": 4784,
      "Ġrichesse": 4785,
      "Ġhistorique": 4786,
      "ÃĬ": 4787,
      "Ġpoids": 4788,
      "Ġfou": 4789,
      "nez": 4790,
      "urance": 4791,
      "Ġchau": 4792,
      "tendez": 4793,
      "Ġsud": 4794,
      "ĠprÃ©ci": 4795,
      "Ġprier": 4796,
      "Ġphase": 4797,
      "ĠCanadiens": 4798,
      "Ġdouble": 4799,
      "ĠGrand": 4800,
      "199": 4801,
      "Ġlocal": 4802,
      "ONU": 4803,
      "ĠrÃ©unions": 4804,
      "Ġrouge": 4805,
      "Ġnotamment": 4806,
      "Ġcompagnie": 4807,
      "be": 4808,
      "ĠcÃ©lÃ¨": 4809,
      "Ġspect": 4810,
      "anes": 4811,
      "anie": 4812,
      "Ġmerci": 4813,
      "inq": 4814,
      "ĠDes": 4815,
      "ĠopÃ©ration": 4816,
      "niversaire": 4817,
      "ĠÃ©gard": 4818,
      "Ġreconstr": 4819,
      "ĠexpliquÃ©": 4820,
      "ĠparticuliÃ¨re": 4821,
      "ĠconsÃ©quence": 4822,
      "Ġtraiter": 4823,
      "Ġanimal": 4824,
      "Ġsuivante": 4825,
      "ilisation": 4826,
      "ĠopportunitÃ©": 4827,
      "cou": 4828,
      "Ġpous": 4829,
      "Ġtenir": 4830,
      "agers": 4831,
      "ĠMont": 4832,
      "ĠSch": 4833,
      "ĠBob": 4834,
      "ĠJÃ©rusalem": 4835,
      "Ġvia": 4836,
      "ĠJean": 4837,
      "asses": 4838,
      "Ġpuissent": 4839,
      "manie": 4840,
      "ĠrÃ¨gle": 4841,
      "Certaines": 4842,
      "Ġfaim": 4843,
      "Seulement": 4844,
      "Ġbateau": 4845,
      "gnent": 4846,
      "nie": 4847,
      "inÃ©": 4848,
      "rient": 4849,
      "ĠrÃ©t": 4850,
      "ĠCam": 4851,
      "existe": 4852,
      "extÃ©rieur": 4853,
      "dition": 4854,
      "Etat": 4855,
      "Ġcommand": 4856,
      "Ġposer": 4857,
      "Ġ48": 4858,
      "issons": 4859,
      "Ġconstruction": 4860,
      "jectif": 4861,
      "Ġcherche": 4862,
      "ĠtÃ©moins": 4863,
      "aginez": 4864,
      "Ġchef": 4865,
      "Ġaccompli": 4866,
      "Ġguide": 4867,
      "OTAN": 4868,
      "entreprise": 4869,
      "GrÃ¢ce": 4870,
      "ĠMexique": 4871,
      "ootball": 4872,
      "mais": 4873,
      "Ġlet": 4874,
      "Ġcos": 4875,
      "ilos": 4876,
      "Ġparagraph": 4877,
      "ĠdÃ©part": 4878,
      "aviez": 4879,
      "apes": 4880,
      "Ġconcent": 4881,
      "Ġassurer": 4882,
      "Ġverrons": 4883,
      "ĠMarie": 4884,
      "Ġesti": 4885,
      "Ġsemblait": 4886,
      "Ġpatience": 4887,
      "Ġsortes": 4888,
      "ĠscÃ¨ne": 4889,
      "Ġsimilaires": 4890,
      "Ã©tude": 4891,
      "Ġdiscussion": 4892,
      "Ġtendance": 4893,
      "ĠbÃ©nÃ©diction": 4894,
      "Ġstatut": 4895,
      "ĠÃ©quipes": 4896,
      "AL": 4897,
      "Dites": 4898,
      "vil": 4899,
      "eth": 4900,
      "Ġbus": 4901,
      "ĠdÃ©li": 4902,
      "ĠMac": 4903,
      "ĠSte": 4904,
      "tera": 4905,
      "Ã©rit": 4906,
      "Ã©tr": 4907,
      "Ġtravaillons": 4908,
      "Ġcompos": 4909,
      "ĠHe": 4910,
      "Ġtransport": 4911,
      "Ġinsp": 4912,
      "ĠdÃ©pl": 4913,
      "ĠrÃ©pondit": 4914,
      "Ġzones": 4915,
      "ĠnumÃ©rique": 4916,
      "Ġsouffr": 4917,
      "Ġouverte": 4918,
      "Ġterroristes": 4919,
      "Ġterrible": 4920,
      "fghan": 4921,
      "by": 4922,
      "ice": 4923,
      "ierre": 4924,
      "tic": 4925,
      "Ġgauche": 4926,
      "Ġprovin": 4927,
      "Ġsection": 4928,
      "ĠJames": 4929,
      "Ġdirective": 4930,
      "appro": 4931,
      "Ġmarcher": 4932,
      "Ġmaxim": 4933,
      "Ġimage": 4934,
      "Ġbonheur": 4935,
      "Ġinstru": 4936,
      "Ġpromesses": 4937,
      "Ġcondition": 4938,
      "ĠrÃ©seaux": 4939,
      "ĠremarquÃ©": 4940,
      "ĠnÃ©gociations": 4941,
      "Ġayant": 4942,
      "view": 4943,
      ".]": 4944,
      "IC": 4945,
      "mettre": 4946,
      "enus": 4947,
      "Ġplac": 4948,
      "agesse": 4949,
      "ĠCes": 4950,
      "ĠCub": 4951,
      "utÃ©s": 4952,
      "Ġinterpr": 4953,
      "intention": 4954,
      "Ġfinanciers": 4955,
      "Ġrisques": 4956,
      "ĠPremier": 4957,
      "Ġpoliticiens": 4958,
      "aw": 4959,
      "Ġur": 4960,
      "tive": 4961,
      "Ġfour": 4962,
      "Ġaviez": 4963,
      "ami": 4964,
      "Ġdig": 4965,
      "Ã©rance": 4966,
      "Ġ31": 4967,
      "Ġtransition": 4968,
      "Ġrevenu": 4969,
      "Inde": 4970,
      "Ġpopulaire": 4971,
      "Ġdisparu": 4972,
      "ĠsÃ»rement": 4973,
      "Ġmachine": 4974,
      "ĠMadrid": 4975,
      "Leur": 4976,
      "sc": 4977,
      "Ġcuis": 4978,
      "quet": 4979,
      "Ġvenez": 4980,
      "Ã¨ces": 4981,
      "onter": 4982,
      "oss": 4983,
      "ĠPlus": 4984,
      "idents": 4985,
      "Ã©raux": 4986,
      "ĠapportÃ©": 4987,
      "ordin": 4988,
      "Ġ33": 4989,
      "Ġespoir": 4990,
      "ilibre": 4991,
      "ĠQuel": 4992,
      "Ġcanad": 4993,
      "Ġexige": 4994,
      "ruption": 4995,
      "Ġterrorisme": 4996,
      "ĠÃ©chouÃ©": 4997,
      "ĠJacob": 4998,
      "Adam": 4999,
      "Con": 5000,
      "Ici": 5001,
      "Ġtaille": 5002,
      "ars": 5003,
      "Ġfaus": 5004,
      "Ġfootball": 5005,
      "roite": 5006,
      "accept": 5007,
      "Ġmode": 5008,
      "Ġstade": 5009,
      "Ġcomprom": 5010,
      "Ġadul": 5011,
      "identitÃ©": 5012,
      "ĠÃītat": 5013,
      "Ġformation": 5014,
      "Ġfix": 5015,
      "Ġphotograph": 5016,
      "Ġparticipants": 5017,
      "ennie": 5018,
      "Ġanciens": 5019,
      "Ġdistribu": 5020,
      "Ġfrapp": 5021,
      "Ġafricains": 5022,
      "Ġdescend": 5023,
      "Ġpolon": 5024,
      "clav": 5025,
      "Ġmutu": 5026,
      "Ph": 5027,
      "ĠmÃ©m": 5028,
      "Ġtenu": 5029,
      "Ġthe": 5030,
      "ĠDÃ©": 5031,
      "ieuse": 5032,
      "ĠAlex": 5033,
      "igu": 5034,
      "oncer": 5035,
      "ĠarmÃ©e": 5036,
      "Ġpost": 5037,
      "utilise": 5038,
      "Ġpersonnellement": 5039,
      "ĠVenez": 5040,
      "Ġfruits": 5041,
      "Ġcible": 5042,
      "Ġbloc": 5043,
      "ĠprÃ©senter": 5044,
      "ĠpropriÃ©taire": 5045,
      "Ġportes": 5046,
      "intÃ©rÃªt": 5047,
      "acheter": 5048,
      "tructures": 5049,
      "Ġlettres": 5050,
      "rou": 5051,
      "ĠÅĵu": 5052,
      "Ġsaint": 5053,
      "Ġquant": 5054,
      "Ġmonn": 5055,
      "Ġtol": 5056,
      "ĠÃ®": 5057,
      "ĠMin": 5058,
      "ĠÃ©tats": 5059,
      "Ġ--": 5060,
      "applique": 5061,
      "Ġcontrat": 5062,
      "Ġ195": 5063,
      "ĠVI": 5064,
      "Ġdemandons": 5065,
      "tissement": 5066,
      "accÃ¨s": 5067,
      "ĠrÃ©flÃ©ch": 5068,
      "Ġouvrir": 5069,
      "ĠrÃ©aliser": 5070,
      "Ġemploi": 5071,
      "Ġlimites": 5072,
      "venue": 5073,
      "Ġpositif": 5074,
      "Ġtransformer": 5075,
      "ĠsupplÃ©mentaire": 5076,
      "Ġconnec": 5077,
      "ĠvÃ©hicules": 5078,
      "Ġstup": 5079,
      "Ġminimum": 5080,
      "ĠRusses": 5081,
      "crit": 5082,
      "mine": 5083,
      "Ġenreg": 5084,
      "Ġparlez": 5085,
      "Ġbel": 5086,
      "ĠDo": 5087,
      "Ġ1000": 5088,
      "Ġextra": 5089,
      "ĠFin": 5090,
      "ĠdÃ©cennie": 5091,
      "obtenir": 5092,
      "Ġforc": 5093,
      "gentine": 5094,
      "Ġcolon": 5095,
      "accomp": 5096,
      "ĠappelÃ©s": 5097,
      "fications": 5098,
      "arma": 5099,
      "Ġeffets": 5100,
      "atiquement": 5101,
      "Ġfaibles": 5102,
      "Ġvivons": 5103,
      "Ġtradition": 5104,
      "ĠfrontiÃ¨re": 5105,
      "ĠrÃ©duire": 5106,
      "Ġmicro": 5107,
      "Ġmerveilleux": 5108,
      "Savez": 5109,
      "oiles": 5110,
      "uri": 5111,
      "Ġpat": 5112,
      "entendre": 5113,
      "Ġvendu": 5114,
      "unitÃ©": 5115,
      "indi": 5116,
      "chez": 5117,
      "immigration": 5118,
      "Ã©rir": 5119,
      "Ġauxqu": 5120,
      "Ġsavais": 5121,
      "ĠutilisÃ©e": 5122,
      "ĠcrÃ©Ã©s": 5123,
      "ĠcrÃ©atures": 5124,
      "Ġsignes": 5125,
      "Ġavantages": 5126,
      "emblÃ©e": 5127,
      "Ġfamili": 5128,
      "Ġsouviens": 5129,
      "Ġemplois": 5130,
      "ĠchrÃ©tien": 5131,
      "Ġpositive": 5132,
      "Ġambiti": 5133,
      "Ġinstant": 5134,
      "Ġnaturellement": 5135,
      "ĠpauvretÃ©": 5136,
      "Ġsexuelle": 5137,
      "Ġperspective": 5138,
      "ĠpÃ©trole": 5139,
      "!Â»": 5140,
      "31": 5141,
      "aments": 5142,
      "dess": 5143,
      "mÃ©es": 5144,
      "otes": 5145,
      "oquÃ©": 5146,
      "Ġpages": 5147,
      "roduction": 5148,
      "cide": 5149,
      "ater": 5150,
      "ouvoir": 5151,
      "Ġprises": 5152,
      "Ġinjus": 5153,
      "aman": 5154,
      "ĠCong": 5155,
      "ĠÃ©tud": 5156,
      "Ġutilisez": 5157,
      "ĠOr": 5158,
      "ĠsignÃ©": 5159,
      "Ġjoue": 5160,
      "Ġcontinuera": 5161,
      "Ġappartient": 5162,
      "ĠlaissÃ©": 5163,
      "Ġparticiper": 5164,
      "ĠamÃ©lior": 5165,
      "ĠdifficultÃ©s": 5166,
      "ĠNoÃ«l": 5167,
      "Ġfabric": 5168,
      "ĠmÃ©rite": 5169,
      "ĠIsraÃ©liens": 5170,
      "ĠprocÃ©dure": 5171,
      "information": 5172,
      "ĠlÃ©gisl": 5173,
      "Ġbritannique": 5174,
      "ĠSmith": 5175,
      "Ġsouverain": 5176,
      "At": 5177,
      "ha": 5178,
      "ty": 5179,
      "uela": 5180,
      "Â°": 5181,
      "Ã©vÃ©nement": 5182,
      "old": 5183,
      "idi": 5184,
      "illez": 5185,
      "Ġsoutenu": 5186,
      "ĠpossibilitÃ©s": 5187,
      "Ġsimples": 5188,
      "Ġabord": 5189,
      "Ġferme": 5190,
      "Ġguer": 5191,
      "ĠpayÃ©": 5192,
      "Ġsymb": 5193,
      "Ġdimension": 5194,
      "Ġpalestinien": 5195,
      "Ġalimentaire": 5196,
      "ĠcomprÃ©hension": 5197,
      "65": 5198,
      "dent": 5199,
      "ed": 5200,
      "Ġfal": 5201,
      "Ġfurent": 5202,
      "agnes": 5203,
      "ĠCiel": 5204,
      "anda": 5205,
      "ĠhaÃ¯": 5206,
      "ola": 5207,
      "ĠBos": 5208,
      "espoir": 5209,
      "Ġferait": 5210,
      "Ġagric": 5211,
      "astroph": 5212,
      "Ġcontribution": 5213,
      "Ġfilms": 5214,
      "ĠdÃ©tails": 5215,
      "Imaginez": 5216,
      "Ġfabri": 5217,
      "Ġoccasion": 5218,
      "Ġprisonniers": 5219,
      "OS": 5220,
      "mos": 5221,
      "to": 5222,
      "Ġsomme": 5223,
      "Ġnord": 5224,
      "Ġtal": 5225,
      "Ġrire": 5226,
      "ĠÃ©d": 5227,
      "ĠpensÃ©e": 5228,
      "cts": 5229,
      "olique": 5230,
      "cupÃ©": 5231,
      "ctif": 5232,
      "Ġenvis": 5233,
      "Ġattaque": 5234,
      "Ġrappelez": 5235,
      "Ġsecrets": 5236,
      "Ġnationaux": 5237,
      "Ġbibli": 5238,
      "Ġconduire": 5239,
      "Ġcouleur": 5240,
      "ĠmÃ©dicaments": 5241,
      "illiam": 5242,
      "Ġcentrale": 5243,
      "fghanistan": 5244,
      "Egypte": 5245,
      "comme": 5246,
      "Ġcath": 5247,
      "ost": 5248,
      "Ġred": 5249,
      "Ġexcep": 5250,
      "ĠJon": 5251,
      "Ġutilisons": 5252,
      "ĠOh": 5253,
      "ommet": 5254,
      "Ġtranspar": 5255,
      "ĠproposÃ©": 5256,
      "Ġcivi": 5257,
      "ĠcÅĵurs": 5258,
      "ĠrÃªves": 5259,
      "ĠprÃ©cÃ©dent": 5260,
      "Ġlogique": 5261,
      "ĠNouvelle": 5262,
      "origine": 5263,
      "Ġchacune": 5264,
      "olÃ©": 5265,
      "acle": 5266,
      "ultÃ©": 5267,
      "Ã©couv": 5268,
      "Ġcommune": 5269,
      "aissez": 5270,
      "objectif": 5271,
      "Ġmalade": 5272,
      "outez": 5273,
      "titution": 5274,
      "ĠAng": 5275,
      "Ġmenac": 5276,
      "Ġsyri": 5277,
      "Ġinitiatives": 5278,
      "ĠmÃ©thodes": 5279,
      "ĠthÃ©or": 5280,
      "instant": 5281,
      "ĠVenezuela": 5282,
      "ax": 5283,
      "ctes": 5284,
      "za": 5285,
      "ĠaoÃ»t": 5286,
      "Ġsagesse": 5287,
      "ĠÃ©lÃ©ment": 5288,
      "Ġjardin": 5289,
      "ĠbÃ¢timent": 5290,
      "ĠchÃ¢timent": 5291,
      "ĠMc": 5292,
      "ĠhÃ©ros": 5293,
      "Ġserais": 5294,
      "ĠIran": 5295,
      "Ġfinir": 5296,
      "Ġraisonn": 5297,
      "ĠChris": 5298,
      "Ġferont": 5299,
      "ĠMaroc": 5300,
      "ĠÃ©conomie": 5301,
      "Ġcritique": 5302,
      "Ġsuffit": 5303,
      "Ġsurprise": 5304,
      "Ġparfaite": 5305,
      "Ġnormale": 5306,
      "royez": 5307,
      "Ġcerve": 5308,
      "Ġdeviendra": 5309,
      "Espagne": 5310,
      "Ã©ritage": 5311,
      "Ġinstruments": 5312,
      "48": 5313,
      "John": 5314,
      "Ġlien": 5315,
      "Ġsh": 5316,
      "Ġtourn": 5317,
      "Ġrom": 5318,
      "atte": 5319,
      "uira": 5320,
      "ĠMy": 5321,
      "ĠMaÃ®tre": 5322,
      "ĠSer": 5323,
      "Ġhi": 5324,
      "ĠÃ©tapes": 5325,
      "dio": 5326,
      "ĠBan": 5327,
      "Ġconsult": 5328,
      "Ġviande": 5329,
      "ĠdonnÃ©e": 5330,
      "Ġrappelle": 5331,
      "Ã©lic": 5332,
      "tÃ©rieure": 5333,
      "ĠdÃ©clarations": 5334,
      "ibilitÃ©": 5335,
      "ĠlÃ©giti": 5336,
      "Internet": 5337,
      "ĠÃ©trange": 5338,
      "Ġdirais": 5339,
      "Ġennemi": 5340,
      "urgence": 5341,
      "Ġserviteurs": 5342,
      "Ġrassemb": 5343,
      "dessous": 5344,
      "EM": 5345,
      "uture": 5346,
      "ĠÌ": 5347,
      "Ġcancer": 5348,
      "ĠmaÃ®tre": 5349,
      "Ġlab": 5350,
      "Ġflex": 5351,
      "Ġprennent": 5352,
      "imm": 5353,
      "Ġdira": 5354,
      "Ġtrente": 5355,
      "terre": 5356,
      "Ã©rÃ©es": 5357,
      "Ġarbres": 5358,
      "ĠGre": 5359,
      "Ġrestent": 5360,
      "Ġauth": 5361,
      "Ġsociales": 5362,
      "ĠParce": 5363,
      "Ġsauv": 5364,
      "Ġappelons": 5365,
      "ĠdÃ©mar": 5366,
      "Ġpratiques": 5367,
      "Ġexigences": 5368,
      "ĠprophÃ¨tes": 5369,
      "Ġinnoc": 5370,
      "Ġmultip": 5371,
      "Ġsurvivre": 5372,
      "Ġcatastroph": 5373,
      "ĠMoscou": 5374,
      "JÃ©sus": 5375,
      "ld": 5376,
      "mÃ©n": 5377,
      "ruction": 5378,
      "Ã©demment": 5379,
      "ĠlancÃ©": 5380,
      "anique": 5381,
      "istre": 5382,
      "ino": 5383,
      "rav": 5384,
      "urant": 5385,
      "ĠMoi": 5386,
      "ĠÃ©toiles": 5387,
      "oyen": 5388,
      "Ġcommis": 5389,
      "Ġactes": 5390,
      "Ġappliqu": 5391,
      "umer": 5392,
      "Ġpertin": 5393,
      "Ġfini": 5394,
      "ĠOu": 5395,
      "Ġcorri": 5396,
      "Ġinstrument": 5397,
      "akistan": 5398,
      "Ġtechnologies": 5399,
      "Ġglori": 5400,
      "Ġterrain": 5401,
      "Ġaugmenter": 5402,
      "Ġsouhaitez": 5403,
      "Ġsignal": 5404,
      "Ġanglais": 5405,
      "witter": 5406,
      "No": 5407,
      "Orient": 5408,
      "Ses": 5409,
      "Ġcel": 5410,
      "reur": 5411,
      "isc": 5412,
      "Ġeuro": 5413,
      "Ġformes": 5414,
      "Ġconclusion": 5415,
      "Ġassass": 5416,
      "Ġcourte": 5417,
      "Ġproches": 5418,
      "ĠactivitÃ©": 5419,
      "Ġcrime": 5420,
      "Ġofficiellement": 5421,
      "Ġrestaurant": 5422,
      "ĠrÃ©guliÃ¨rement": 5423,
      "ĠGeorge": 5424,
      "ĠÌģ": 5425,
      "44": 5426,
      "AT": 5427,
      "na": 5428,
      "quÃ©s": 5429,
      "Ġmand": 5430,
      "isation": 5431,
      "arie": 5432,
      "initi": 5433,
      "ĠbÃ¢ti": 5434,
      "Ġchambre": 5435,
      "ago": 5436,
      "uler": 5437,
      "aissent": 5438,
      "Ġimportance": 5439,
      "ĠdiffÃ©rences": 5440,
      "Ġindic": 5441,
      "Ġsorti": 5442,
      "Ġministres": 5443,
      "Ġsuffisant": 5444,
      "Ġcouple": 5445,
      "Ġarabes": 5446,
      "Ġdiscussions": 5447,
      "Ġhonte": 5448,
      "Ġarticles": 5449,
      "ĠBerlin": 5450,
      "accepter": 5451,
      "Ġcivile": 5452,
      "Aussi": 5453,
      "cus": 5454,
      "once": 5455,
      "Ġsat": 5456,
      "Ġsinc": 5457,
      "Ġmonsieur": 5458,
      "usion": 5459,
      "urrection": 5460,
      "Ġchat": 5461,
      "uie": 5462,
      "ĠJus": 5463,
      "ĠJoe": 5464,
      "ĠIrak": 5465,
      "Ġcomportement": 5466,
      "Ġmoti": 5467,
      "Ġrestera": 5468,
      "Ġ400": 5469,
      "ĠVotre": 5470,
      "Ġsignification": 5471,
      "ĠarrivÃ©e": 5472,
      "ichard": 5473,
      "Ġprincipales": 5474,
      "ĠmodÃ¨les": 5475,
      "Ġlimite": 5476,
      "Ġlocaux": 5477,
      "Ġiran": 5478,
      "Ã©pendance": 5479,
      "ĠrÃ©vÃ©lÃ©": 5480,
      "ĠpropriÃ©tÃ©": 5481,
      "appeler": 5482,
      "Ġengagement": 5483,
      "Ġclimat": 5484,
      "ĠnuclÃ©aires": 5485,
      "ĠvÃ©hicule": 5486,
      "gleterre": 5487,
      "Ġincroyable": 5488,
      "ĠcÃ©lÃ©b": 5489,
      "Ġpieds": 5490,
      "Ġcraignent": 5491,
      "ĠÃ©limin": 5492,
      "!)": 5493,
      "IL": 5494,
      "omin": 5495,
      "Ġexemp": 5496,
      "Ã©rant": 5497,
      "ĠBen": 5498,
      "Ġconsac": 5499,
      "Ã©taire": 5500,
      "ĠpensÃ©es": 5501,
      "Ġcompter": 5502,
      "effic": 5503,
      "ĠprivÃ©e": 5504,
      "ĠprioritÃ©s": 5505,
      "Ġcommuni": 5506,
      "Ġrelativement": 5507,
      "ĠpubliÃ©": 5508,
      "ĠprÃ©cÃ©demment": 5509,
      "ĠamÃ©ricaines": 5510,
      "Ġvoter": 5511,
      "Ġdiront": 5512,
      "Ġmauvaises": 5513,
      "Ġproto": 5514,
      "Ġbouche": 5515,
      "Ġproducteurs": 5516,
      "ĠcommenÃ§": 5517,
      ".âĢĻ": 5518,
      "41": 5519,
      "naire": 5520,
      "Ġto": 5521,
      "Ġboute": 5522,
      "ĠAustralie": 5523,
      "ĠBulg": 5524,
      "Entre": 5525,
      "Ġpaci": 5526,
      "Ã©galitÃ©": 5527,
      "Ġadap": 5528,
      "Ġbleu": 5529,
      "ĠInternation": 5530,
      "Ġcentres": 5531,
      "Ġpartenariat": 5532,
      "Ġ150": 5533,
      "Ġresponsables": 5534,
      "Ġsyn": 5535,
      "Ġsalut": 5536,
      "Ġlargement": 5537,
      "Ġartistes": 5538,
      "Ġsuivantes": 5539,
      "Ġdisciples": 5540,
      "Ġintellig": 5541,
      "ĠRoumanie": 5542,
      "respond": 5543,
      "Ġcellu": 5544,
      "?Â»": 5545,
      "lÃ©es": 5546,
      "nam": 5547,
      "Ġcieux": 5548,
      "anch": 5549,
      "Ġmys": 5550,
      "Ġauquel": 5551,
      "Ġbris": 5552,
      "Ãªtres": 5553,
      "ĠrÃ©action": 5554,
      "ĠMo": 5555,
      "Ġdiver": 5556,
      "acitÃ©s": 5557,
      "ements": 5558,
      "Ġvieille": 5559,
      "Ġsession": 5560,
      "Ġsaviez": 5561,
      "ĠcrÃ©Ã©e": 5562,
      "Ġobjet": 5563,
      "ĠministÃ¨re": 5564,
      "alisÃ©": 5565,
      "assad": 5566,
      "Ġcorruption": 5567,
      "Ġgarde": 5568,
      "ĠbasÃ©": 5569,
      "Ġressemble": 5570,
      "ĠdÃ©fendre": 5571,
      "ĠstratÃ©gies": 5572,
      "Ġspati": 5573,
      "Ġsembler": 5574,
      "ĠfinanciÃ¨res": 5575,
      "ĠvoilÃł": 5576,
      "ĠdÃ©finition": 5577,
      "ĠisraÃ©lien": 5578,
      "Ġleader": 5579,
      "ĠmÃ©canisme": 5580,
      "Ġlarge": 5581,
      "Ġcommandement": 5582,
      "Ġfacteurs": 5583,
      "Ġfroid": 5584,
      "ĠEspagne": 5585,
      "Paul": 5586,
      "Soyez": 5587,
      "zaines": 5588,
      "Ġcrit": 5589,
      "aites": 5590,
      "ĠMoyen": 5591,
      "rÃ©es": 5592,
      "Ġcorrespond": 5593,
      "Ġsignifi": 5594,
      "ĠFrÃ¨re": 5595,
      "Ġactif": 5596,
      "Ġordre": 5597,
      "ĠsiÃ¨cles": 5598,
      "Ġcycle": 5599,
      "Ġdestruction": 5600,
      "Ġchaussures": 5601,
      "90": 5602,
      "Fr": 5603,
      "Ġ*": 5604,
      "Ġlune": 5605,
      "Ġach": 5606,
      "eria": 5607,
      "Ġmy": 5608,
      "Ġmet": 5609,
      "Ġbo": 5610,
      "endroit": 5611,
      "Ġsurveill": 5612,
      "lissement": 5613,
      "ĠcrÃ©di": 5614,
      "Ġcomprenons": 5615,
      "Ġmalheureusement": 5616,
      "Ġreprises": 5617,
      "Ġvoisins": 5618,
      "Ġcombattre": 5619,
      "ustrali": 5620,
      "oubliez": 5621,
      "Ġjournalistes": 5622,
      "ĠgÃ©ograph": 5623,
      "Ġoutil": 5624,
      "Ġpalestinienne": 5625,
      "IA": 5626,
      "erai": 5627,
      "Ġanniversaire": 5628,
      "ĠÃ©glises": 5629,
      "ĠdÃ©cla": 5630,
      "Ġsavaient": 5631,
      "ĠOne": 5632,
      "Ġconcentrer": 5633,
      "Ã©dois": 5634,
      "ĠcapacitÃ©s": 5635,
      "Ġferons": 5636,
      "ĠInde": 5637,
      "ĠrÃ©forme": 5638,
      "Ġsuppri": 5639,
      "Ġlocale": 5640,
      "Ġrenouv": 5641,
      "Ġconstamment": 5642,
      "ĠAujourd": 5643,
      "Ġdiverses": 5644,
      "ĠÃ©ternelle": 5645,
      "Ġmiracles": 5646,
      "Ġrejoindre": 5647,
      "Abraham": 5648,
      "ĠprÃ©parer": 5649,
      "99": 5650,
      "Cons": 5651,
      "ID": 5652,
      "Irlande": 5653,
      "gi": 5654,
      "lÃ©s": 5655,
      "litÃ©": 5656,
      "main": 5657,
      "unn": 5658,
      "ĠÃ©l": 5659,
      "ĠrÃ©ve": 5660,
      "exist": 5661,
      "ĠPas": 5662,
      "ĠPays": 5663,
      "ĠPakistan": 5664,
      "dic": 5665,
      "ĠRÃ©s": 5666,
      "Ġpensais": 5667,
      "Ġpouvions": 5668,
      "Ġfinale": 5669,
      "Ġfinancement": 5670,
      "Ġdemandes": 5671,
      "assÃ©": 5672,
      "Ġphilos": 5673,
      "ĠSec": 5674,
      "Ġmenaces": 5675,
      "Ġconsommateur": 5676,
      "Ġmensong": 5677,
      "araon": 5678,
      "Ġdistance": 5679,
      "ĠLiban": 5680,
      "Ġmiracle": 5681,
      "pÃ©rations": 5682,
      "ĠexpÃ©riment": 5683,
      "ĠpÃªche": 5684,
      "intÃ©gration": 5685,
      "ĠÃ©nergÃ©tique": 5686,
      "Ġsanctions": 5687,
      "Fin": 5688,
      "cri": 5689,
      "do": 5690,
      "hÃ´pital": 5691,
      "uy": 5692,
      "lim": 5693,
      "ĠCo": 5694,
      "ĠCert": 5695,
      "Ġsurv": 5696,
      "ĠMus": 5697,
      "Ġharm": 5698,
      "atie": 5699,
      "Ã©rences": 5700,
      "ĠBab": 5701,
      "Ã©rie": 5702,
      "ĠFor": 5703,
      "ĠdiffÃ©re": 5704,
      "Ġstatis": 5705,
      "autoritÃ©": 5706,
      "ĠvisitÃ©": 5707,
      "Ġvoyag": 5708,
      "ĠgarÃ§ons": 5709,
      "Ġesc": 5710,
      "adame": 5711,
      "enfer": 5712,
      "ĠreprÃ©sentants": 5713,
      "hip": 5714,
      "Seul": 5715,
      "Ġanalyse": 5716,
      "Ġpoisson": 5717,
      "ĠrÃ©compense": 5718,
      "ĠindÃ©pendant": 5719,
      "38": 5720,
      "Euro": 5721,
      "LÃł": 5722,
      "Souv": 5723,
      "ect": 5724,
      "oquer": 5725,
      "Ġdieux": 5726,
      "Ġdrog": 5727,
      "ĠcÃ´t": 5728,
      "any": 5729,
      "Ġfaud": 5730,
      "aison": 5731,
      "Ġpourront": 5732,
      "Ġexister": 5733,
      "ĠTwitter": 5734,
      "Ġseules": 5735,
      "Ã©nom": 5736,
      "Ġenfer": 5737,
      "ica": 5738,
      "ternes": 5739,
      "ĠpriÃ¨res": 5740,
      "Ġfruit": 5741,
      "Ġforum": 5742,
      "Ġcade": 5743,
      "Ġconform": 5744,
      "Ġpresse": 5745,
      "Ġsuivent": 5746,
      "ĠJackson": 5747,
      "ynam": 5748,
      "ĠfÃ©dÃ©ral": 5749,
      "organisation": 5750,
      "Ġtribun": 5751,
      "Ġrarement": 5752,
      "Ġsoudainement": 5753,
      "Ġinvestisseurs": 5754,
      "Ġagricult": 5755,
      "ĠdiffÃ©remment": 5756,
      "34": 5757,
      "Australie": 5758,
      "Rien": 5759,
      "Ġois": 5760,
      "entement": 5761,
      "Ġfans": 5762,
      "ĠCro": 5763,
      "ĠBang": 5764,
      "ĠTunis": 5765,
      "oto": 5766,
      "Ġarbre": 5767,
      "Ġdonnent": 5768,
      "ĠobÃ©": 5769,
      "Ġgouvern": 5770,
      "ĠdÃ©mon": 5771,
      "Ġ1995": 5772,
      "Ġpreuves": 5773,
      "ĠspÃ©cifiquement": 5774,
      "ĠtÃ¢ches": 5775,
      "ĠcÃ©lÃ¨bre": 5776,
      "jou": 5777,
      "ka": 5778,
      "Ġdorm": 5779,
      "enci": 5780,
      "Ġpain": 5781,
      "Ġsoins": 5782,
      "ano": 5783,
      "ĠleÃ§on": 5784,
      "imagin": 5785,
      "Ġdevront": 5786,
      "ĠAir": 5787,
      "Ġcool": 5788,
      "Ġcarb": 5789,
      "Ġvoyager": 5790,
      "Chacun": 5791,
      "Ġconstruis": 5792,
      "Ġentrepren": 5793,
      "Ġnaturelle": 5794,
      "ĠvÃ©ritablement": 5795,
      "Ġsalle": 5796,
      "Ġefficaces": 5797,
      "ĠÃ©criv": 5798,
      "Ġfavor": 5799,
      "ĠPhilipp": 5800,
      "Ġouvertement": 5801,
      "Ġcapitale": 5802,
      "Ġconnex": 5803,
      "ĠcoÃ»ts": 5804,
      "ĠCuba": 5805,
      "66": 5806,
      "RÃ©": 5807,
      "Vos": 5808,
      "no": 5809,
      "nation": 5810,
      "tice": 5811,
      "Ġbanc": 5812,
      "ĠinÃ©v": 5813,
      "ĠSan": 5814,
      "Ġdiable": 5815,
      "Ġarch": 5816,
      "Ġsoutient": 5817,
      "Ġamen": 5818,
      "Ġsavions": 5819,
      "ĠHol": 5820,
      "Ġprivil": 5821,
      "Ġ2002": 5822,
      "ĠlibÃ©rer": 5823,
      "ĠcontinuÃ©": 5824,
      "Ġinterdit": 5825,
      "Ġpouvoirs": 5826,
      "Ġsouhaitons": 5827,
      "tructions": 5828,
      "ĠdiscutÃ©": 5829,
      "Ġspirituelle": 5830,
      "ĠEuropÃ©enne": 5831,
      "ĠrefusÃ©": 5832,
      "ĠpartagÃ©": 5833,
      "Ġdangere": 5834,
      "ĠprofondÃ©ment": 5835,
      "Ġserviteur": 5836,
      "Ġacteurs": 5837,
      "Ġcompromis": 5838,
      "ĠBanque": 5839,
      "ĠcÃ´tÃ©s": 5840,
      "70": 5841,
      "IF": 5842,
      "Premi": 5843,
      "gies": 5844,
      "mation": 5845,
      "Ġvente": 5846,
      "resque": 5847,
      "ĠSE": 5848,
      "Ġdivision": 5849,
      "Ġtromp": 5850,
      "Ġoh": 5851,
      "diens": 5852,
      "Ġdevaient": 5853,
      "uxemb": 5854,
      "Ġdisant": 5855,
      "Ġcommentaires": 5856,
      "uck": 5857,
      "Ġlibres": 5858,
      "Ġprofesseur": 5859,
      "ĠrÃ©vÃ©lation": 5860,
      "____": 5861,
      "Ġconcurrence": 5862,
      "Cont": 5863,
      "Tr": 5864,
      "Tom": 5865,
      "erez": 5866,
      "fer": 5867,
      "uff": 5868,
      "analys": 5869,
      "ĠauprÃ¨s": 5870,
      "Ġavoc": 5871,
      "Ġtraite": 5872,
      "uln": 5873,
      "cessi": 5874,
      "ĠEuro": 5875,
      "Ġ34": 5876,
      "ĠprÃªte": 5877,
      "Ġvolont": 5878,
      "Ġgrave": 5879,
      "Ġcheval": 5880,
      "Ġinitiative": 5881,
      "Ġancien": 5882,
      "Ġcherchent": 5883,
      "oudite": 5884,
      "Ã©tudi": 5885,
      "Ġconvaincu": 5886,
      "activitÃ©": 5887,
      "Ġamusant": 5888,
      "Ġexclusi": 5889,
      "ĠÃ©tudes": 5890,
      "Ġmensonges": 5891,
      "36": 5892,
      "Occident": 5893,
      "af": 5894,
      "Ġdette": 5895,
      "Ġmas": 5896,
      "Ġfen": 5897,
      "cipÃ©": 5898,
      "cheurs": 5899,
      "ĠinvitÃ©s": 5900,
      "ĠMis": 5901,
      "ĠPri": 5902,
      "ĠPeut": 5903,
      "ĠJour": 5904,
      "onnez": 5905,
      "ĠWilliam": 5906,
      "Ġassur": 5907,
      "Ġjuge": 5908,
      "Ġessaie": 5909,
      "Ġheureuse": 5910,
      "Ġajoute": 5911,
      "ĠstratÃ©giques": 5912,
      "Ġoccup": 5913,
      "Ġattendons": 5914,
      "Ġterminer": 5915,
      "Ġrecommandations": 5916,
      "Surtout": 5917,
      "Ġcalcul": 5918,
      "ĠAbraham": 5919,
      "habitude": 5920,
      "Ġhaute": 5921,
      "Ġvisiteurs": 5922,
      "Ġmonnaie": 5923,
      "Ġsatell": 5924,
      "%.": 5925,
      "Croyez": 5926,
      "Mich": 5927,
      "PE": 5928,
      "Saviez": 5929,
      "cte": 5930,
      "len": 5931,
      "mission": 5932,
      "ĠmÃ©d": 5933,
      "Ġvuln": 5934,
      "euner": 5935,
      "Ġtre": 5936,
      "etnam": 5937,
      "Ġinvit": 5938,
      "Ġdizaines": 5939,
      "avis": 5940,
      "ĠPlan": 5941,
      "Ġcommission": 5942,
      "ĠFond": 5943,
      "cool": 5944,
      "ayez": 5945,
      "aÃ®tr": 5946,
      "Ġphras": 5947,
      "Ġprintemps": 5948,
      "Ġcombatt": 5949,
      "Ġinconn": 5950,
      "visible": 5951,
      "Ġaffaire": 5952,
      "ĠtraitÃ©s": 5953,
      "Ġreligions": 5954,
      "ĠbiÃ¨re": 5955,
      "Ġlocales": 5956,
      "Ġcitoyen": 5957,
      "ĠisraÃ©lienne": 5958,
      "ĠLivre": 5959,
      "ĠlÃ©gislation": 5960,
      "Ġcheveux": 5961,
      "Ġsaints": 5962,
      "hommes": 5963,
      "jan": 5964,
      "va": 5965,
      "Â·": 5966,
      "ĩa": 5967,
      "Ã©ni": 5968,
      "ertes": 5969,
      "Ġvert": 5970,
      "arc": 5971,
      "itler": 5972,
      "itaux": 5973,
      "Ã©sion": 5974,
      "agric": 5975,
      "Ġpron": 5976,
      "exemple": 5977,
      "abri": 5978,
      "Ġdiam": 5979,
      "ĠexÃ©cu": 5980,
      "ĠentraÃ®": 5981,
      "Ġtrag": 5982,
      "fiÃ©es": 5983,
      "Ġimpres": 5984,
      "Ġarme": 5985,
      "Ġmarque": 5986,
      "Ġregret": 5987,
      "ĠconsidÃ©rÃ©s": 5988,
      "ancien": 5989,
      "ĠindiquÃ©": 5990,
      "Ġculti": 5991,
      "Ġdouze": 5992,
      "ĠsÃ©rieusement": 5993,
      "iliation": 5994,
      "aÃ¯ti": 5995,
      "Ġrapports": 5996,
      "anÃ§aise": 5997,
      "ĠdÃ©finiti": 5998,
      "ĠthÃ¨me": 5999,
      "Seuls": 6000,
      "Ġattaques": 6001,
      "Ġinfluenc": 6002,
      "Ġfourni": 6003,
      "Ġfallu": 6004,
      "gence": 6005,
      "tons": 6006,
      "toi": 6007,
      "oulez": 6008,
      "Ġsan": 6009,
      "Ġmyst": 6010,
      "este": 6011,
      "Ġchers": 6012,
      "acte": 6013,
      "avions": 6014,
      "ĠLis": 6015,
      "rÃ©t": 6016,
      "ĠTous": 6017,
      "Ġimpact": 6018,
      "ĠEs": 6019,
      "ĠprÃ©sents": 6020,
      "Ġenvoie": 6021,
      "issait": 6022,
      "Ġtrouvent": 6023,
      "Ġdouleur": 6024,
      "ĠAnd": 6025,
      "Ġrepent": 6026,
      "ĠReg": 6027,
      "ĠThaÃ¯": 6028,
      "Ġaimerions": 6029,
      "Ġessentiellement": 6030,
      "Ġnavires": 6031,
      "ĠopportunitÃ©s": 6032,
      "ĠsÅĵurs": 6033,
      "Ġhabitants": 6034,
      "ĠfrÃ©qu": 6035,
      "Ġstandard": 6036,
      "Ġparagraphe": 6037,
      "vateurs": 6038,
      "ĠcitÃ©": 6039,
      "Ġsommet": 6040,
      "ĠdegrÃ©": 6041,
      "ester": 6042,
      "Ġparadis": 6043,
      "Ġgagne": 6044,
      "siez": 6045,
      "irent": 6046,
      "idente": 6047,
      "ĠAd": 6048,
      "ĠrÃ©solu": 6049,
      "aniens": 6050,
      "Ġattra": 6051,
      "Ġcourse": 6052,
      "Ġ75": 6053,
      "Ġfaisaient": 6054,
      "ĠFranÃ§ais": 6055,
      "ario": 6056,
      "Ġlangage": 6057,
      "Ġbiais": 6058,
      "alestiniens": 6059,
      "ĠÃ©tudier": 6060,
      "Ġcerti": 6061,
      "Ġremercie": 6062,
      "ĠSuÃ¨de": 6063,
      "Ġprofessionnels": 6064,
      "Ġsacrifice": 6065,
      "Ġressembler": 6066,
      "ĠÃ©tonnant": 6067,
      "essayer": 6068,
      "investissement": 6069,
      "ĠCamer": 6070,
      "Ġcerveau": 6071,
      "sant": 6072,
      "Ġfant": 6073,
      "Ġfuture": 6074,
      "Ġrace": 6075,
      "Ġproven": 6076,
      "ĠPe": 6077,
      "ĠAfric": 6078,
      "Ġya": 6079,
      "ĠÃ©gyp": 6080,
      "chec": 6081,
      "Ġsignifier": 6082,
      "Ġtransp": 6083,
      "Ġimages": 6084,
      "Ġcontrairement": 6085,
      "Ġpromouvoir": 6086,
      "Ġcrimes": 6087,
      "enseignement": 6088,
      "ĠÃ©change": 6089,
      "Ġparticipation": 6090,
      "Ġaccomplir": 6091,
      "Ġlutter": 6092,
      "Ġenseigner": 6093,
      "Ġcommercial": 6094,
      "Ġgarantie": 6095,
      "Ġrejoint": 6096,
      "ĠNigeria": 6097,
      "Ġhumanitaire": 6098,
      "Ġchiffres": 6099,
      "Ġadministra": 6100,
      "Ġsouffrance": 6101,
      "Ġphilosoph": 6102,
      "Aut": 6103,
      "ÂĴ": 6104,
      "erry": 6105,
      "isÃ©": 6106,
      "ison": 6107,
      "ĠfÃ©lic": 6108,
      "Ġuni": 6109,
      "Ġrue": 6110,
      "Ġchoc": 6111,
      "avi": 6112,
      "ĠPr": 6113,
      "ĠBal": 6114,
      "ott": 6115,
      "Ġlic": 6116,
      "Ġcomptes": 6117,
      "Ġstation": 6118,
      "Ġfront": 6119,
      "ĠfranÃ§aise": 6120,
      "Aucune": 6121,
      "ĠdÃ©plac": 6122,
      "Ġinclure": 6123,
      "Ġoffert": 6124,
      "Ġouverts": 6125,
      "ĠÃ©chapp": 6126,
      "Ġvoudrait": 6127,
      "Ġlibrement": 6128,
      "Ġspirituel": 6129,
      "Image": 6130,
      "32": 6131,
      "42": 6132,
      "oogle": 6133,
      "Ġira": 6134,
      "Ġlaisse": 6135,
      "Ġsinon": 6136,
      "isp": 6137,
      "omas": 6138,
      "endrait": 6139,
      "actÃ©": 6140,
      "ĠPuis": 6141,
      "anges": 6142,
      "Ġacte": 6143,
      "Ġapporte": 6144,
      "ventions": 6145,
      "ails": 6146,
      "ĠNi": 6147,
      "opposition": 6148,
      "Ġmanip": 6149,
      "Ġaidera": 6150,
      "Ġverra": 6151,
      "Ġagri": 6152,
      "ĠÃ©volu": 6153,
      "Ġessayez": 6154,
      "Ã©valu": 6155,
      "ĠreprÃ©senter": 6156,
      "Ġcouleurs": 6157,
      "ĠdiversitÃ©": 6158,
      "Ġrespecter": 6159,
      "Ġsovi": 6160,
      "ĠLumiÃ¨re": 6161,
      "IEU": 6162,
      "arrÃªter": 6163,
      "Ġapparemment": 6164,
      "Ã©couvrez": 6165,
      "ĠThaÃ¯lande": 6166,
      "Lui": 6167,
      "Ob": 6168,
      "ave": 6169,
      "cra": 6170,
      "face": 6171,
      "Ġdynam": 6172,
      "Ã©rez": 6173,
      "Ġcents": 6174,
      "Ġquali": 6175,
      "tit": 6176,
      "Ġvac": 6177,
      "Ġetc": 6178,
      "row": 6179,
      "aucun": 6180,
      "ney": 6181,
      "ĠCO": 6182,
      "ĠCelui": 6183,
      "ĠMess": 6184,
      "dia": 6185,
      "ĠAli": 6186,
      "ailles": 6187,
      "ĠparticipÃ©": 6188,
      "Quoi": 6189,
      "Quelles": 6190,
      "Ġamende": 6191,
      "ĠVie": 6192,
      "Ġeffort": 6193,
      "Ġ2001": 6194,
      "assurer": 6195,
      "Ġcorre": 6196,
      "ĠreconnaÃ®t": 6197,
      "ĠintÃ©rÃªt": 6198,
      "Ġmontagne": 6199,
      "ĠMaison": 6200,
      "Ġnote": 6201,
      "Ġ1999": 6202,
      "Ġmajeure": 6203,
      "Ġmagique": 6204,
      "Ġtourisme": 6205,
      "Ġphysiques": 6206,
      "Ġnormalement": 6207,
      "Quelque": 6208,
      "ĠÃ©trangÃ¨re": 6209,
      "Ġtomber": 6210,
      "Juste": 6211,
      "Ã´pitaux": 6212,
      "Ġnavire": 6213,
      "ĠcÃ©lÃ©bre": 6214,
      "ĠempÃªcher": 6215,
      "ĠUnies": 6216,
      "Ġcuisine": 6217,
      "Ġmandat": 6218,
      "Ġexemples": 6219,
      "Pro": 6220,
      "pro": 6221,
      "Ġ....": 6222,
      "Ã©qui": 6223,
      "endez": 6224,
      "quant": 6225,
      "Ġmi": 6226,
      "tifs": 6227,
      "Ġtab": 6228,
      "inte": 6229,
      "Ġparlant": 6230,
      "resse": 6231,
      "ĠdÃ©te": 6232,
      "Ġaveu": 6233,
      "exc": 6234,
      "andis": 6235,
      "ĠtrÃ©s": 6236,
      "ĠRÃ©": 6237,
      "endrez": 6238,
      "huile": 6239,
      "olie": 6240,
      "ternel": 6241,
      "Ġstric": 6242,
      "ĠChic": 6243,
      "ĠWe": 6244,
      "issance": 6245,
      "Ġrappro": 6246,
      "ĠdÃ©sire": 6247,
      "ribut": 6248,
      "ĠguÃ©r": 6249,
      "ĠMars": 6250,
      "Ġrevenus": 6251,
      "ombien": 6252,
      "Ġ1993": 6253,
      "indÃ©pendance": 6254,
      "Ã®le": 6255,
      "retagne": 6256,
      "Ġphysiquement": 6257,
      "ĠÃ©lectron": 6258,
      "ĠprÃ©parÃ©": 6259,
      "abbat": 6260,
      "ĠsoulignÃ©": 6261,
      "Ġempr": 6262,
      "ĠallÃ©s": 6263,
      "innovation": 6264,
      "Ġproduisent": 6265,
      "Ġmatch": 6266,
      "Ġobtenez": 6267,
      "envoyer": 6268,
      "Ġespagnol": 6269,
      "ĠsouverainetÃ©": 6270,
      "EL": 6271,
      "II": 6272,
      "MI": 6273,
      "bert": 6274,
      "gument": 6275,
      "kin": 6276,
      "mÃ©di": 6277,
      "ster": 6278,
      "oureux": 6279,
      "Ġmiss": 6280,
      "Ġmention": 6281,
      "Ġforts": 6282,
      "Ġpourrons": 6283,
      "rimin": 6284,
      "ĠopÃ©rations": 6285,
      "ĠAvec": 6286,
      "ouveau": 6287,
      "ulaire": 6288,
      "Ġtraduction": 6289,
      "...)": 6290,
      "adoption": 6291,
      "ĠChyp": 6292,
      "âĢĿ,": 6293,
      "ĠprivÃ©": 6294,
      "issant": 6295,
      "tionnelles": 6296,
      "Quelqu": 6297,
      "ĠconfirmÃ©": 6298,
      "ĠdÃ©terminer": 6299,
      "Ġprofessionnel": 6300,
      "ĠprÃ©vu": 6301,
      "ueillir": 6302,
      "Ã©lect": 6303,
      "Ġadultes": 6304,
      "Ġguerres": 6305,
      "ĠmystÃ©ri": 6306,
      "Ni": 6307,
      "gÃ©s": 6308,
      "rs": 6309,
      "Ġnorme": 6310,
      "Ġvus": 6311,
      "lever": 6312,
      "onnÃ©s": 6313,
      "ĠCour": 6314,
      "ĠhÃ´pitaux": 6315,
      "diction": 6316,
      "Ġ!)": 6317,
      "Ġpape": 6318,
      "olitique": 6319,
      "Ġ44": 6320,
      "ĠKim": 6321,
      "ennemi": 6322,
      "Ġexpliqu": 6323,
      "Ġaccus": 6324,
      "Åĵil": 6325,
      "attendre": 6326,
      "Ã©volution": 6327,
      "ĠregardÃ©": 6328,
      "ĠsixiÃ¨me": 6329,
      "ĠrÃ©conc": 6330,
      "ĠinfÃ©ri": 6331,
      "Ġcommencez": 6332,
      "expl": 6333,
      "MalgrÃ©": 6334,
      "Ġhistoires": 6335,
      "ĠindÃ©pendante": 6336,
      "Ġvictime": 6337,
      "ĠautorisÃ©s": 6338,
      "ĠLibye": 6339,
      "influ": 6340,
      "ĠalliÃ©s": 6341,
      "ĠHarry": 6342,
      "ilatÃ©ra": 6343,
      "ĠBulgarie": 6344,
      "Th": 6345,
      "ao": 6346,
      "atÃ©": 6347,
      "don": 6348,
      "gr": 6349,
      "ki": 6350,
      "ttes": 6351,
      "wan": 6352,
      "ĠdÃ®": 6353,
      "onique": 6354,
      "Ġfit": 6355,
      "ĠunitÃ©": 6356,
      "ĠÃ©mer": 6357,
      "Ġbal": 6358,
      "ĠprÃ©tend": 6359,
      "ĠDan": 6360,
      "olue": 6361,
      "Ġdevrez": 6362,
      "Ġquelconque": 6363,
      "ĠNet": 6364,
      "Ġarr": 6365,
      "umÃ©": 6366,
      "Ġtemple": 6367,
      "Ġ49": 6368,
      "ĠcaractÃ©": 6369,
      "Ġorient": 6370,
      "Ġnationales": 6371,
      "Ġfutures": 6372,
      "Ġindustrie": 6373,
      "Ġsuppos": 6374,
      "Ġconsommation": 6375,
      "Ġinformation": 6376,
      "Ġmentir": 6377,
      "Ã©lites": 6378,
      "Ġaliments": 6379,
      "iki": 6380,
      "informations": 6381,
      "Ġcriminels": 6382,
      "Ġcontacts": 6383,
      "ĠexpÃ©riences": 6384,
      "Ġpoursuivre": 6385,
      "Ġdrape": 6386,
      "Ġsemblable": 6387,
      "Ġislamique": 6388,
      "Ġchanson": 6389,
      "Ġquarante": 6390,
      "Ġagriculteurs": 6391,
      "NE": 6392,
      "rite": 6393,
      "sur": 6394,
      "anÃ©ment": 6395,
      "Ġrati": 6396,
      "ralis": 6397,
      "Ġparc": 6398,
      "Ġchal": 6399,
      "Ġprosp": 6400,
      "char": 6401,
      "ĠMonde": 6402,
      "ĠAsie": 6403,
      "Ġpensait": 6404,
      "ĠIr": 6405,
      "Ġdirect": 6406,
      "Ġtempor": 6407,
      "ĠrÃ©surrection": 6408,
      "Ġcartes": 6409,
      "obser": 6410,
      "Ġagents": 6411,
      "Ġagences": 6412,
      "Ġtiens": 6413,
      "tionnels": 6414,
      "Ġvoler": 6415,
      "Ġtotale": 6416,
      "Ġmagas": 6417,
      "Ġpratiquement": 6418,
      "Ġsentiments": 6419,
      "ministration": 6420,
      "Ã©change": 6421,
      "utriche": 6422,
      "Ġquotidien": 6423,
      "Ġsilence": 6424,
      "ĠHongrie": 6425,
      "Ã©tranger": 6426,
      "ĠcritÃ¨res": 6427,
      "Ġvacances": 6428,
      "ĠChicago": 6429,
      "80": 6430,
      ">>": 6431,
      "DÃ©couvrez": 6432,
      "Voyez": 6433,
      "iration": 6434,
      "plus": 6435,
      "utÃ©": 6436,
      "Ã©min": 6437,
      "Ġpure": 6438,
      "Ġlancer": 6439,
      "ĠvÃ´tre": 6440,
      "euros": 6441,
      "iness": 6442,
      "its": 6443,
      "Ġfasse": 6444,
      "ĠÃ©mo": 6445,
      "ouvrir": 6446,
      "Ġrequ": 6447,
      "Ġprendra": 6448,
      "imes": 6449,
      "ĠinvitÃ©": 6450,
      "Ġinhabitu": 6451,
      "ands": 6452,
      "ĠMag": 6453,
      "ĠApp": 6454,
      "ouverture": 6455,
      "Quant": 6456,
      "ĠdÃ©crire": 6457,
      "Ġcontro": 6458,
      "Ġclin": 6459,
      "Ġclassi": 6460,
      "ĠdÃ©sign": 6461,
      "ĠsÃ»rs": 6462,
      "Ġprogress": 6463,
      "ĠspÃ©ciaux": 6464,
      "ĠdÃ©mont": 6465,
      "Ġconnaissances": 6466,
      "Ġessayons": 6467,
      "Ġreconnaissance": 6468,
      "ĠprotÃ©gÃ©": 6469,
      "Ġsymp": 6470,
      "Ġsolaire": 6471,
      "ĠJohnson": 6472,
      "environ": 6473,
      "Ġconflits": 6474,
      "Ġvirtu": 6475,
      "amÃ©liorer": 6476,
      "Ã©roport": 6477,
      "ĠmÃ©moire": 6478,
      "Ġrenouvel": 6479,
      "Alex": 6480,
      "Dr": 6481,
      "OR": 6482,
      "PS": 6483,
      "Voir": 6484,
      "ft": 6485,
      "non": 6486,
      "nesse": 6487,
      "ritÃ©": 6488,
      "romp": 6489,
      "teur": 6490,
      "Ġ=": 6491,
      "Ġdroite": 6492,
      "Ġpalestiniens": 6493,
      "Ġlieux": 6494,
      "Ġsois": 6495,
      "err": 6496,
      "undi": 6497,
      "illÃ©": 6498,
      "Ġrent": 6499,
      "rich": 6500,
      "riers": 6501,
      "Ġdict": 6502,
      "ĠPeter": 6503,
      "ĠLuxemb": 6504,
      "ĠJord": 6505,
      "ĠJones": 6506,
      "Ġvraies": 6507,
      "Ġamie": 6508,
      "Ġ32": 6509,
      "Ġmarier": 6510,
      "ĠChinois": 6511,
      "Ġpuri": 6512,
      "Ġconcr": 6513,
      "Ġhumaines": 6514,
      "ologiques": 6515,
      "Ġcib": 6516,
      "Ġversions": 6517,
      "Ġsecr": 6518,
      "Ġinterne": 6519,
      "Ã¨ges": 6520,
      "Ġvenait": 6521,
      "ĠÃ¢mes": 6522,
      "Ġsouhaitent": 6523,
      "Ġrecommande": 6524,
      "Ġattendent": 6525,
      "ĠÃ©trangÃ¨res": 6526,
      "Ġmorce": 6527,
      "Ġhabituellement": 6528,
      "Ġdoct": 6529,
      "ĠrÃ©compens": 6530,
      "apprendre": 6531,
      "Ġbiblioth": 6532,
      "--": 6533,
      "Obama": 6534,
      "Ġdame": 6535,
      "Ġmoin": 6536,
      "Ġlecture": 6537,
      "Ġpourcent": 6538,
      "aintes": 6539,
      "endrons": 6540,
      "Ġsurm": 6541,
      "ĠSur": 6542,
      "ĠSerb": 6543,
      "Ġserions": 6544,
      "orth": 6545,
      "ĠAt": 6546,
      "ĠsuÃ©dois": 6547,
      "ordieux": 6548,
      "Ġattendez": 6549,
      "Ġ36": 6550,
      "Ġ42": 6551,
      "Ġavantage": 6552,
      "Ġvisa": 6553,
      "Ġvisible": 6554,
      "Ġadm": 6555,
      "ĠphÃ©nom": 6556,
      "Ġprofiter": 6557,
      "Ġmontagnes": 6558,
      "Ġintenti": 6559,
      "adies": 6560,
      "Ġmentionner": 6561,
      "Ġmagie": 6562,
      "ĠrÃ©pÃ©ter": 6563,
      "Ġcollaboration": 6564,
      "ĠcatÃ©gorie": 6565,
      "ĠdrÃ´le": 6566,
      "claves": 6567,
      "initiative": 6568,
      "ĠbÃ¢timents": 6569,
      "Ġdormir": 6570,
      "Ġimpressionn": 6571,
      "Faites": 6572,
      "ji": 6573,
      "islam": 6574,
      "Ġpourrez": 6575,
      "rag": 6576,
      "Ġavion": 6577,
      "enda": 6578,
      "image": 6579,
      "ĠDIEU": 6580,
      "ellectu": 6581,
      "Ġcontient": 6582,
      "dici": 6583,
      "Ã©crire": 6584,
      "ĠpersÃ©cu": 6585,
      "oliques": 6586,
      "ĠtuÃ©s": 6587,
      "ommage": 6588,
      "Autre": 6589,
      "obÃ©": 6590,
      "ĠautoritÃ©": 6591,
      "assurance": 6592,
      "Ġjuger": 6593,
      "Ġconfort": 6594,
      "Ġactifs": 6595,
      "ĠnÃ©cessairement": 6596,
      "Ġcriti": 6597,
      "Ġ1998": 6598,
      "ake": 6599,
      "ĠUS": 6600,
      "enseign": 6601,
      "Ġfonctionnent": 6602,
      "Ġsentez": 6603,
      "ĠCommun": 6604,
      "ĠprÃ©fÃ©rable": 6605,
      "Ġmagni": 6606,
      "Ġfournit": 6607,
      "Ġfuturs": 6608,
      "Ġcontribuer": 6609,
      "Ġinstitution": 6610,
      "Ġdirecte": 6611,
      "oriz": 6612,
      "Ġcapitaine": 6613,
      "ĠbÃ©bÃ©s": 6614,
      "Ġcollection": 6615,
      "Ġpollu": 6616,
      "ĠdÃ©penser": 6617,
      "Ġmachines": 6618,
      "Ġinfluence": 6619,
      "Ġoccas": 6620,
      "ĠcommenÃ§ons": 6621,
      "Ġcandidats": 6622,
      "Ġperformance": 6623,
      "ĠrÃ©tab": 6624,
      "Ġinspir": 6625,
      "Ġpolonais": 6626,
      "efficacitÃ©": 6627,
      "ĠTunisie": 6628,
      "agriculture": 6629,
      "ĠcÃ©lÃ©brer": 6630,
      "49": 6631,
      "Moi": 6632,
      "com": 6633,
      "mad": 6634,
      "up": 6635,
      "Ġdons": 6636,
      "tilis": 6637,
      "istÃ©": 6638,
      "omon": 6639,
      "chÃ©e": 6640,
      "ĠBi": 6641,
      "Ġliv": 6642,
      "ĠutilisÃ©es": 6643,
      "ĠVol": 6644,
      "llez": 6645,
      "Ġattribu": 6646,
      "Ã©der": 6647,
      "Ġcourage": 6648,
      "ĠappelÃ©e": 6649,
      "Ġprofonde": 6650,
      "Ġajout": 6651,
      "Ġpuissante": 6652,
      "aÃ¯d": 6653,
      "Ġdiscrimin": 6654,
      "ĠprÃ©fÃ¨re": 6655,
      "ĠprÃ©fÃ©rÃ©": 6656,
      "Ġrepas": 6657,
      "Ġmenteur": 6658,
      "keting": 6659,
      "Ġtentative": 6660,
      "Ġengage": 6661,
      "ĠisraÃ©liens": 6662,
      "ĠrejetÃ©": 6663,
      "Ġjuif": 6664,
      "ĠInternational": 6665,
      "ĠLuxembourg": 6666,
      "45": 6667,
      "Bretagne": 6668,
      "The": 6669,
      "bum": 6670,
      "lui": 6671,
      "yo": 6672,
      "enait": 6673,
      "Ġsoup": 6674,
      "Ġnu": 6675,
      "uns": 6676,
      "inqu": 6677,
      "itez": 6678,
      "orld": 6679,
      "Ã¨dent": 6680,
      "rig": 6681,
      "Ġparvenir": 6682,
      "Ġbelles": 6683,
      "ĠchaÃ®": 6684,
      "Ġprenez": 6685,
      "abilitÃ©s": 6686,
      "ĠBig": 6687,
      "uth": 6688,
      "ĠGen": 6689,
      "Ġautonom": 6690,
      "phÃ¨re": 6691,
      "Ġmaladies": 6692,
      "ĠEtat": 6693,
      "lusions": 6694,
      "Ġinstructions": 6695,
      "Ġcrainte": 6696,
      "ricitÃ©": 6697,
      "Ġcontinuons": 6698,
      "ĠorganisÃ©": 6699,
      "Ġ1990": 6700,
      "Ãīgypte": 6701,
      "Ġsentent": 6702,
      "ĠdÃ©finir": 6703,
      "Ġtests": 6704,
      "ĠarrÃªtÃ©": 6705,
      "Ġsuivants": 6706,
      "ĠrÃ©ussir": 6707,
      "Ġcivilisation": 6708,
      "ĠappropriÃ©": 6709,
      "ĠÅĵuvres": 6710,
      "Ġambitieux": 6711,
      "Ġraisonnable": 6712,
      "Ġlabor": 6713,
      "ĠglorifiÃ©": 6714,
      "mon": 6715,
      "Ġlou": 6716,
      "uni": 6717,
      "inqui": 6718,
      "ora": 6719,
      "Ġrid": 6720,
      "Ġjuifs": 6721,
      "Ġauriez": 6722,
      "atar": 6723,
      "ĠCity": 6724,
      "ĠMÃªme": 6725,
      "ĠMay": 6726,
      "Ġtriste": 6727,
      "acles": 6728,
      "Ġore": 6729,
      "Ã©tab": 6730,
      "cession": 6731,
      "ĠliÃ©": 6732,
      "Ġdonnera": 6733,
      "Ġfranch": 6734,
      "Ġpassera": 6735,
      "ĠParti": 6736,
      "ĠsauvÃ©s": 6737,
      "Ġpropose": 6738,
      "ĠnÃ©cessite": 6739,
      "ercice": 6740,
      "ĠreÃ§oit": 6741,
      "Ġdomin": 6742,
      "ĠintÃ©ressÃ©": 6743,
      "ĠrÃ©vÃ¨le": 6744,
      "ĠProph": 6745,
      "ĠprophÃ©": 6746,
      "Ġconscient": 6747,
      "Ġancienne": 6748,
      "Ġdestination": 6749,
      "ĠSuper": 6750,
      "ĠpropriÃ©taires": 6751,
      "ĠConvention": 6752,
      "erbaÃ¯d": 6753,
      "Ġcoordination": 6754,
      "Ġchimiques": 6755,
      "Ġinvestir": 6756,
      "ĠsurvÃ©cu": 6757,
      "ĠMisÃ©ric": 6758,
      "Ġcontrovers": 6759,
      "erbaÃ¯djan": 6760,
      "Asie": 6761,
      "TE": 6762,
      "for": 6763,
      "mons": 6764,
      "midi": 6765,
      "rairement": 6766,
      "zerbaÃ¯djan": 6767,
      "rement": 6768,
      "ark": 6769,
      "Ġbatt": 6770,
      "Ġchances": 6771,
      "Ã©sie": 6772,
      "lier": 6773,
      "chant": 6774,
      "ĠMer": 6775,
      "ĠStre": 6776,
      "Ġdivin": 6777,
      "Ġtroupes": 6778,
      "ĠGl": 6779,
      "Ġ38": 6780,
      "Ã´tels": 6781,
      "Ġprochains": 6782,
      "ĠseptiÃ¨me": 6783,
      "Ġculturelle": 6784,
      "Ġinfras": 6785,
      "Ġvoisin": 6786,
      "Ġkarma": 6787,
      "ĠrÃ©vÃ©ler": 6788,
      "Ġremarqu": 6789,
      "Ġsouligner": 6790,
      "ĠlimitÃ©e": 6791,
      "TION": 6792,
      "Finalement": 6793,
      "ĠcaractÃ©ris": 6794,
      "):": 6795,
      "47": 6796,
      "57": 6797,
      "63": 6798,
      "DÃ¨s": 6799,
      "Ãĩa": 6800,
      "ĠidentitÃ©": 6801,
      "Ġscep": 6802,
      "Ġmos": 6803,
      "inu": 6804,
      "asi": 6805,
      "ald": 6806,
      "ĠMu": 6807,
      "Ġconvient": 6808,
      "ĠLoi": 6809,
      "mique": 6810,
      "ĠEd": 6811,
      "Ġath": 6812,
      "Ã¢te": 6813,
      "auteur": 6814,
      "Ġcacher": 6815,
      "versitÃ©": 6816,
      "Ġarrivent": 6817,
      "Ġcritiques": 6818,
      "ĠdÃ©fini": 6819,
      "Ġdirait": 6820,
      "ĠchrÃ©tienne": 6821,
      "Ġ1989": 6822,
      "ublic": 6823,
      "Ġlogici": 6824,
      "Ġallemande": 6825,
      "Ġinstall": 6826,
      "ĠvidÃ©os": 6827,
      "ĠidentifiÃ©": 6828,
      "Ġayons": 6829,
      "Ġinnov": 6830,
      "ĠdÃ©penses": 6831,
      "Ġsusp": 6832,
      "ight": 6833,
      "ĠArabes": 6834,
      "Ġroman": 6835,
      "atteindre": 6836,
      "46": 6837,
      "51": 6838,
      "TA": 6839,
      "the": 6840,
      "oui": 6841,
      "Ġcig": 6842,
      "Ġstres": 6843,
      "anne": 6844,
      "Ġnoire": 6845,
      "ĠmÃ¨res": 6846,
      "Ġve": 6847,
      "Ġfig": 6848,
      "Ġfall": 6849,
      "ĠunitÃ©s": 6850,
      "astique": 6851,
      "alcool": 6852,
      "ĠrÃ©els": 6853,
      "ĠSir": 6854,
      "Ġoeu": 6855,
      "ĠAvez": 6856,
      "urez": 6857,
      "iciens": 6858,
      "ĠNation": 6859,
      "Ġstable": 6860,
      "ĠforÃªt": 6861,
      "Ġcroix": 6862,
      "opportun": 6863,
      "uctions": 6864,
      "Ġactuelles": 6865,
      "Ġsupport": 6866,
      "Ġvenant": 6867,
      "Ġrempli": 6868,
      "ĠÃ©chelle": 6869,
      "Ġpublics": 6870,
      "interro": 6871,
      "endemain": 6872,
      "Ġcommandements": 6873,
      "ĠcompÃ©tition": 6874,
      "Ġintroduit": 6875,
      "Ġcomplexe": 6876,
      "Ġacceptable": 6877,
      "ĠprÃ©cieux": 6878,
      "Ġmaximum": 6879,
      "ordinaire": 6880,
      "Ġsurveillance": 6881,
      "ĠmystÃ¨re": 6882,
      "bon": 6883,
      "ey": 6884,
      "gÃ©es": 6885,
      "Ġnett": 6886,
      "ary": 6887,
      "Ġfui": 6888,
      "Ġbras": 6889,
      "uritÃ©": 6890,
      "Ġreb": 6891,
      "agÃ©s": 6892,
      "ĠrÃ©jou": 6893,
      "Ġcontemp": 6894,
      "ĠSo": 6895,
      "ĠhÃ©ritage": 6896,
      "ĠAg": 6897,
      "Ġaccident": 6898,
      "Ã´ne": 6899,
      "Ġvieil": 6900,
      "ĠChaque": 6901,
      "Ġobst": 6902,
      "lÃ¨te": 6903,
      "ĠclÃ©s": 6904,
      "Ġcaract": 6905,
      "Ġattenti": 6906,
      "ĠdÃ©barr": 6907,
      "Ġretard": 6908,
      "Ġdisposition": 6909,
      "Ġdoul": 6910,
      "Inter": 6911,
      "ĠvÃ©ritables": 6912,
      "ĠscÃ©n": 6913,
      "Ġrichesses": 6914,
      "Ġchinoise": 6915,
      "affir": 6916,
      "Ġessentiel": 6917,
      "Ġcharge": 6918,
      "ĠsuggÃ¨re": 6919,
      "ĠIsraÃ©lites": 6920,
      "emploi": 6921,
      "Ġconcurrents": 6922,
      "Ġitalien": 6923,
      "ĠeffectuÃ©": 6924,
      "Ġretrouver": 6925,
      "Ġbref": 6926,
      "Ġpapier": 6927,
      "ĠboÃ®": 6928,
      "ĠfenÃªtre": 6929,
      "ĠChypre": 6930,
      "Ġridic": 6931,
      "Rob": 6932,
      "TrÃ¨s": 6933,
      "naires": 6934,
      "wa": 6935,
      "yl": 6936,
      "Ĥ¬": 6937,
      "enue": 6938,
      "oure": 6939,
      "Ġlendemain": 6940,
      "euro": 6941,
      "itations": 6942,
      "Ġfisc": 6943,
      "auf": 6944,
      "ĠchÃ¨re": 6945,
      "ĠrÃ©par": 6946,
      "avance": 6947,
      "avion": 6948,
      "Ġanc": 6949,
      "ĠâĢĭ": 6950,
      "impact": 6951,
      "ulÃ©": 6952,
      "administration": 6953,
      "Ġeut": 6954,
      "application": 6955,
      "obile": 6956,
      "Ã©dÃ©ration": 6957,
      "Ġaccue": 6958,
      "Ġpolitiquement": 6959,
      "ĠarrivÃ©s": 6960,
      "Ġ95": 6961,
      "Ġjoueur": 6962,
      "ĠÃ©levÃ©e": 6963,
      "session": 6964,
      "Ġintellectu": 6965,
      "Ã®tre": 6966,
      "Ġmajeur": 6967,
      "Ġtouristes": 6968,
      "ĠdifficultÃ©": 6969,
      "ĠÃ©lectrique": 6970,
      "ĠrÃ©duit": 6971,
      "Ġjuridiques": 6972,
      "Ġallemands": 6973,
      "ĠfÃ©dÃ©ra": 6974,
      "Ġbureaucra": 6975,
      "Ġpermanente": 6976,
      "Ġvirus": 6977,
      "ĠConstitution": 6978,
      "ĠcatÃ©gories": 6979,
      "Ġchauff": 6980,
      "Ġbancaire": 6981,
      "PremiÃ¨rement": 6982,
      "Ġmissiles": 6983,
      "75": 6984,
      "DE": 6985,
      "ME": 6986,
      "ii": 6987,
      "matique": 6988,
      "nera": 6989,
      "Ã©tiques": 6990,
      "Ġtwe": 6991,
      "rage": 6992,
      "Ġprenons": 6993,
      "ĠPrin": 6994,
      "ĠRi": 6995,
      "raite": 6996,
      "Ġpare": 6997,
      "ĠFre": 6998,
      "ĠNor": 6999,
      "Ġpose": 7000,
      "Ġpositions": 7001,
      "ĠcrÃ©ateur": 7002,
      "stan": 7003,
      "ĠminoritÃ©": 7004,
      "ĠdÃ©pit": 7005,
      "Ġinclut": 7006,
      "Ġpubliques": 7007,
      "ĠespÃ¨ces": 7008,
      "Ġtirer": 7009,
      "Ġopinion": 7010,
      "ĠrÃ©cent": 7011,
      "ĠaugmentÃ©": 7012,
      "ĠprÃ©paration": 7013,
      "ĠdÃ©teste": 7014,
      "Ġmeurent": 7015,
      "Ġblancs": 7016,
      "Ġleadership": 7017,
      "TroisiÃ¨mement": 7018,
      "ĠannoncÃ©": 7019,
      "Ġrenforcer": 7020,
      "ĠdÃ®ner": 7021,
      "BRA": 7022,
      "Google": 7023,
      "Homme": 7024,
      "OUS": 7025,
      "bonne": 7026,
      "laient": 7027,
      "venu": 7028,
      "Ġpont": 7029,
      "Ġpatri": 7030,
      "Ġsoyons": 7031,
      "Ġmaman": 7032,
      "âĢĻ.": 7033,
      "ĠfÃ©min": 7034,
      "estre": 7035,
      "ligent": 7036,
      "ĠdÃ©rou": 7037,
      "ĠCombien": 7038,
      "Ġdign": 7039,
      "ĠTok": 7040,
      "ĠJud": 7041,
      "Ġapplication": 7042,
      "ĠNos": 7043,
      "Ġvivez": 7044,
      "ĠnommÃ©": 7045,
      "ĠIrlande": 7046,
      "Ġutilisation": 7047,
      "ĠOK": 7048,
      "Ġ55": 7049,
      "lÃ¨ve": 7050,
      "Ġattendu": 7051,
      "Ã©gard": 7052,
      "Ã©die": 7053,
      "Ġexplication": 7054,
      "Ġassist": 7055,
      "Ġpharm": 7056,
      "ĠspÃ©ciales": 7057,
      "ĠlibÃ©ration": 7058,
      "Ġchoisis": 7059,
      "risti": 7060,
      "ĠresponsabilitÃ©s": 7061,
      "Ġtester": 7062,
      "ĠenseignÃ©": 7063,
      "Ġcalend": 7064,
      "Ġafricain": 7065,
      "Ġtextes": 7066,
      "ĠautorisÃ©": 7067,
      "Ġcorrecte": 7068,
      "ENT": 7069,
      "Ġmeurt": 7070,
      "Ġsoeur": 7071,
      "Ġplateforme": 7072,
      "Ġignor": 7073,
      "Ġcadeau": 7074,
      "influence": 7075,
      ")?": 7076,
      "Arab": 7077,
      "Comm": 7078,
      "El": 7079,
      "PA": 7080,
      "aos": 7081,
      "rine": 7082,
      "vateur": 7083,
      "Ã©ter": 7084,
      "quÃ©rir": 7085,
      "aiment": 7086,
      "entique": 7087,
      "Ġmons": 7088,
      "ĠÃ©lu": 7089,
      "Ġbap": 7090,
      "ĠDis": 7091,
      "ĠDub": 7092,
      "Ġconjoin": 7093,
      "Ġhaine": 7094,
      "ĠhÃ´tel": 7095,
      "Ġliens": 7096,
      "Ġtermine": 7097,
      "Ġmarche": 7098,
      "Ġ190": 7099,
      "ĠChrÃ©": 7100,
      "Ġprim": 7101,
      "lave": 7102,
      "larg": 7103,
      "Ġvertu": 7104,
      "Ġinterview": 7105,
      "Ġconstru": 7106,
      "Ġfonctions": 7107,
      "Ġindique": 7108,
      "Ġvenons": 7109,
      "Ġculturel": 7110,
      "Ġmener": 7111,
      "Ġdonnez": 7112,
      "ĠoccupÃ©": 7113,
      "ĠmÃ©decine": 7114,
      "Ġbrill": 7115,
      "Ġtentatives": 7116,
      "Ġdimanche": 7117,
      "ĠMax": 7118,
      "ĠdÃ©terminÃ©": 7119,
      "Demain": 7120,
      "Ġpartagent": 7121,
      "Ġconversations": 7122,
      "Ġaffirme": 7123,
      "ĠCharles": 7124,
      "Ġhorri": 7125,
      "Ġfausse": 7126,
      "ĠrÃ©flÃ©chir": 7127,
      "ĠGreen": 7128,
      "Ġprotocole": 7129,
      "Ġpourcentage": 7130,
      "Ad": 7131,
      "Bas": 7132,
      "Ess": 7133,
      "St": 7134,
      "cter": 7135,
      "uels": 7136,
      "quÃ©es": 7137,
      "tition": 7138,
      "Ġtch": 7139,
      "oile": 7140,
      "rale": 7141,
      "Ġbu": 7142,
      "Ġbout": 7143,
      "allÃ¨": 7144,
      "ĠdÃ©lÃ©g": 7145,
      "Ġavanc": 7146,
      "Ġhom": 7147,
      "ĠLors": 7148,
      "ĠTor": 7149,
      "oyÃ©": 7150,
      "Ã´te": 7151,
      "Ġsoumis": 7152,
      "ĠliÃ©s": 7153,
      "ĠdÃ©couver": 7154,
      "Ġattitude": 7155,
      "Ġ39": 7156,
      "Ġmarketing": 7157,
      "Ġattentes": 7158,
      "ystÃ¨me": 7159,
      "Ġprogressi": 7160,
      "Ġcombin": 7161,
      "ultures": 7162,
      "ĠconsidÃ©ra": 7163,
      "Ġferai": 7164,
      "Ã©quilibre": 7165,
      "Ġdispose": 7166,
      "Ã©viter": 7167,
      "ĠintÃ©ressÃ©s": 7168,
      "ĠintÃ©ressante": 7169,
      "Ġconscients": 7170,
      "Ġconfirmer": 7171,
      "Ġmorale": 7172,
      "Ġindividus": 7173,
      "Ġpilotes": 7174,
      "anks": 7175,
      "Ġalternatives": 7176,
      "Ġdocteur": 7177,
      "AssemblÃ©e": 7178,
      "Ġpermanent": 7179,
      "Ġautomatiquement": 7180,
      "Ġinvite": 7181,
      "Ġmobile": 7182,
      "ĠconfrontÃ©s": 7183,
      "Ġavertis": 7184,
      "Prenez": 7185,
      "Ġstupide": 7186,
      "ĠdignitÃ©": 7187,
      "%,": 7188,
      "56": 7189,
      "CP": 7190,
      "irer": 7191,
      "line": 7192,
      "pa": 7193,
      "ple": 7194,
      "Ġ)": 7195,
      "ero": 7196,
      "arme": 7197,
      "ĠprotÃ©": 7198,
      "Ġrece": 7199,
      "Ġinternes": 7200,
      "Ġcong": 7201,
      "Ġhyp": 7202,
      "ĠAmer": 7203,
      "Quels": 7204,
      "Ġgrandi": 7205,
      "Ġstock": 7206,
      "Ġconnus": 7207,
      "Parmi": 7208,
      "Ġpassagers": 7209,
      "ramme": 7210,
      "Ġincap": 7211,
      "ĠconsidÃ©rons": 7212,
      "ĠconsidÃ©rÃ©e": 7213,
      "Ġactuels": 7214,
      "ĠplanÃ¨tes": 7215,
      "iterran": 7216,
      "ĠÃ©levÃ©s": 7217,
      "Ġrevend": 7218,
      "Ġcroyance": 7219,
      "Ġapparten": 7220,
      "ovo": 7221,
      "own": 7222,
      "Ġpasseport": 7223,
      "ĠdurÃ©e": 7224,
      "ĠÃ©pous": 7225,
      "ĠComitÃ©": 7226,
      "Ġenseignants": 7227,
      "ĠPharaon": 7228,
      "Ġefficacement": 7229,
      "Ġcircul": 7230,
      "ĠindÃ©pendamment": 7231,
      "ĠprocÃ©dures": 7232,
      "ĠhonnÃªte": 7233,
      "ĠVietnam": 7234,
      "absence": 7235,
      "acceptable": 7236,
      "ĠdÃ©clare": 7237,
      "Ġexclusivement": 7238,
      "Bon": 7239,
      "Du": 7240,
      "OU": 7241,
      "nel": 7242,
      "Ġvolu": 7243,
      "unes": 7244,
      "arah": 7245,
      "Ġration": 7246,
      "ĠbÃ¢": 7247,
      "Ġpluie": 7248,
      "Ġdanse": 7249,
      "ator": 7250,
      "Ġtoucher": 7251,
      "ĠComp": 7252,
      "ĠMor": 7253,
      "ĠSc": 7254,
      "ĠhÃ´tels": 7255,
      "ĠPierre": 7256,
      "ĠTrois": 7257,
      "Ã©couter": 7258,
      "ige": 7259,
      "Ġdisaient": 7260,
      "Ġmarty": 7261,
      "ĠprÃ©sidence": 7262,
      "ĠdÃ©jeuner": 7263,
      "Ġmilliard": 7264,
      "ĠprÃ©d": 7265,
      "Ġclasses": 7266,
      "Ġfortement": 7267,
      "Ġjeunesse": 7268,
      "Ġ2019": 7269,
      "Ġjudici": 7270,
      "ĠblÃ¢": 7271,
      "Ġmoteur": 7272,
      "Ġagence": 7273,
      "Ġcroyait": 7274,
      "Ġmontant": 7275,
      "Ġactive": 7276,
      "Ġsalaire": 7277,
      "Ġconseill": 7278,
      "ĠpossÃ¨dent": 7279,
      "Ġpositifs": 7280,
      "Ġconstitution": 7281,
      "Ġdiminu": 7282,
      "ĠprÃ©cÃ©dentes": 7283,
      "Ġvitesse": 7284,
      "Ġoccidentale": 7285,
      "Ġemm": 7286,
      "Ġpoissons": 7287,
      "Ġpermettra": 7288,
      "analyse": 7289,
      "ĠrÃ©conciliation": 7290,
      "Presque": 7291,
      "feu": 7292,
      "formes": 7293,
      "ll": 7294,
      "otion": 7295,
      "sent": 7296,
      "zz": 7297,
      "ðŁ": 7298,
      "ensible": 7299,
      "Ġpur": 7300,
      "aix": 7301,
      "ĠleÃ§ons": 7302,
      "Ġpassion": 7303,
      "atch": 7304,
      "ouvons": 7305,
      "agnies": 7306,
      "ĠprÃªtre": 7307,
      "ĠprouvÃ©": 7308,
      "erson": 7309,
      "ĠrÃ©aliste": 7310,
      "iront": 7311,
      "ĠÃ©troit": 7312,
      "Ġsecteurs": 7313,
      "ĠBri": 7314,
      "Ġtrafic": 7315,
      "Ġapplications": 7316,
      "Ã©tation": 7317,
      "ĠposÃ©": 7318,
      "Ġ37": 7319,
      "acement": 7320,
      "Ġsigner": 7321,
      "Ġcourant": 7322,
      "Ã©ricain": 7323,
      "ĠarriÃ¨re": 7324,
      "Ġ600": 7325,
      "tÃ©rieures": 7326,
      "Ġfermer": 7327,
      "ĠreprÃ©sentent": 7328,
      "ĠCeci": 7329,
      "Ġirlandais": 7330,
      "achat": 7331,
      "Ġadopter": 7332,
      "ĠdisparaÃ®tre": 7333,
      "ĠcamÃ©ra": 7334,
      "Ġrestaurants": 7335,
      "Ġpilote": 7336,
      "Ġsolide": 7337,
      "Ġmigrants": 7338,
      "Ġnulle": 7339,
      "Ġconnexion": 7340,
      "ĠvulnÃ©ra": 7341,
      "ĠCameroun": 7342,
      "55": 7343,
      "85": 7344,
      "BA": 7345,
      "Eglise": 7346,
      "QUE": 7347,
      "blement": 7348,
      "odi": 7349,
      "pas": 7350,
      "Ġx": 7351,
      "Ġeaux": 7352,
      "Ġasi": 7353,
      "ini": 7354,
      "inions": 7355,
      "Ġfus": 7356,
      "Ġlecteurs": 7357,
      "Ã¨bres": 7358,
      "rad": 7359,
      "osti": 7360,
      "Ġchats": 7361,
      "ĠrÃ©elles": 7362,
      "ĠSah": 7363,
      "Ġhui": 7364,
      "prÃ©s": 7365,
      "ĠTib": 7366,
      "ĠJim": 7367,
      "ĠRoi": 7368,
      "ĠRichard": 7369,
      "oncle": 7370,
      "utation": 7371,
      "utilisateur": 7372,
      "ĠGÃ©": 7373,
      "Ġcompas": 7374,
      "Ġcompagnies": 7375,
      "Ġfinancer": 7376,
      "ĠHaÃ¯ti": 7377,
      "ĠOccident": 7378,
      "Ġclari": 7379,
      "Ġpuissions": 7380,
      "ĠKos": 7381,
      "Ġconclu": 7382,
      "Ġarrivera": 7383,
      "Ġprince": 7384,
      "Ġjouent": 7385,
      "Ġ72": 7386,
      "rictions": 7387,
      "ĠYÃ©m": 7388,
      "ĠprÃªtres": 7389,
      "Ġesclaves": 7390,
      "Ġactivement": 7391,
      "Ãīc": 7392,
      "Ġrecherches": 7393,
      "expliquer": 7394,
      "affaires": 7395,
      "Ġayez": 7396,
      "Ġfacteur": 7397,
      "ĠIII": 7398,
      "ĠmangÃ©": 7399,
      "ĠinventÃ©": 7400,
      "ADAM": 7401,
      "ĠmentionnÃ©s": 7402,
      "ĠimpliquÃ©s": 7403,
      "ĠSteve": 7404,
      "ĠâĢĭâĢĭ": 7405,
      "100": 7406,
      "43": 7407,
      "Acc": 7408,
      "MA": 7409,
      "RI": 7410,
      "bit": 7411,
      "ms": 7412,
      "ym": 7413,
      "Ġdoig": 7414,
      "Ġlour": 7415,
      "Ġsys": 7416,
      "Ġtop": 7417,
      "inv": 7418,
      "oriste": 7419,
      "aute": 7420,
      "augment": 7421,
      "Ãªts": 7422,
      "chons": 7423,
      "imon": 7424,
      "ĠDeux": 7425,
      "Ġconvi": 7426,
      "ĠSoci": 7427,
      "Ġtrouvez": 7428,
      "ĠRom": 7429,
      "Ġapport": 7430,
      "Ġtravaux": 7431,
      "Ġtravaillez": 7432,
      "Ġfins": 7433,
      "Ġvisages": 7434,
      "uctu": 7435,
      "Ã©mie": 7436,
      "Ġpaiement": 7437,
      "Ġindisp": 7438,
      "Ouest": 7439,
      "ĠlÃ©gal": 7440,
      "Ġ1996": 7441,
      "ĠrÃ©cente": 7442,
      "ĠreÃ§oivent": 7443,
      "ĠnÃ©glig": 7444,
      "Ġkil": 7445,
      "expression": 7446,
      "Ġmenteurs": 7447,
      "Ġpires": 7448,
      "Ġcommerciales": 7449,
      "occupation": 7450,
      "Ġoccidentaux": 7451,
      "ĠidÃ©al": 7452,
      "ĠbÃ©nÃ©dictions": 7453,
      "Ġboissons": 7454,
      "disant": 7455,
      "ĠabandonnÃ©": 7456,
      "ĠprÃ©occupations": 7457,
      "Ġressentir": 7458,
      "ÃĬtre": 7459,
      "igueur": 7460,
      "Ġauxquels": 7461,
      "Ġcommuniquer": 7462,
      "Ġoiseaux": 7463,
      "Ġgouvernance": 7464,
      "Ġcorrect": 7465,
      "ADAMUS": 7466,
      "68": 7467,
      "DÃ©": 7468,
      "Mme": 7469,
      "Tant": 7470,
      "ias": 7471,
      "lai": 7472,
      "ook": 7473,
      "uellement": 7474,
      "Ġ{": 7475,
      "Ġpeau": 7476,
      "Ġcous": 7477,
      "Ġstructures": 7478,
      "Ġnutri": 7479,
      "Ġmorte": 7480,
      "Ġmises": 7481,
      "Ġmassi": 7482,
      "tier": 7483,
      "euillez": 7484,
      "ild": 7485,
      "ilib": 7486,
      "ĠÃĬ": 7487,
      "asile": 7488,
      "rice": 7489,
      "Ġprol": 7490,
      "ĠdÃ©par": 7491,
      "abilis": 7492,
      "ĠhÃ´pital": 7493,
      "terr": 7494,
      "Ġdevais": 7495,
      "ĠAfghanistan": 7496,
      "ĠJane": 7497,
      "icien": 7498,
      "ump": 7499,
      "Ġannuel": 7500,
      "ĠrestÃ©": 7501,
      "Ġrestrictions": 7502,
      "effet": 7503,
      "Ġconclusions": 7504,
      "Ġcorrection": 7505,
      "Ġjuges": 7506,
      "Ġcapital": 7507,
      "Ġ85": 7508,
      "ĠconsidÃ¨rent": 7509,
      "ĠrÃ©formes": 7510,
      "Ġregardent": 7511,
      "Ġregardons": 7512,
      "inton": 7513,
      "azon": 7514,
      "Ġ1997": 7515,
      "Ġdoutes": 7516,
      "Ġreligieuse": 7517,
      "Ġsoutiennent": 7518,
      "Ġrendent": 7519,
      "ĠirrÃ©": 7520,
      "Ġdirent": 7521,
      "Ġsurprenant": 7522,
      "ĠadoptÃ©e": 7523,
      "ĠStar": 7524,
      "Ġmalades": 7525,
      "Ġmouvements": 7526,
      "Ġfondamentalement": 7527,
      "ĠcollÃ¨gue": 7528,
      "arrive": 7529,
      "Ġchevaux": 7530,
      "ctuellement": 7531,
      "Ġsatisfaits": 7532,
      "Ġchiffre": 7533,
      "Ġpatron": 7534,
      "ravail": 7535,
      "Ġcellules": 7536,
      "ĠtragÃ©die": 7537,
      "ĠsoviÃ©tique": 7538,
      "Ġengagements": 7539,
      "EC": 7540,
      "Prob": 7541,
      "bes": 7542,
      "bourg": 7543,
      "his": 7544,
      "harm": 7545,
      "page": 7546,
      "Ġpou": 7547,
      "Ġpal": 7548,
      "Ġcultures": 7549,
      "entrÃ©e": 7550,
      "ĠqualitÃ©s": 7551,
      "tives": 7552,
      "ettes": 7553,
      "artis": 7554,
      "Ġfleurs": 7555,
      "Ã¨nement": 7556,
      "ason": 7557,
      "ĠÃ©vent": 7558,
      "aude": 7559,
      "aucune": 7560,
      "riques": 7561,
      "Ġinacceptable": 7562,
      "onnÃ©e": 7563,
      "ĠCent": 7564,
      "exception": 7565,
      "ĠMr": 7566,
      "ĠconÃ§u": 7567,
      "atigu": 7568,
      "Ġviendront": 7569,
      "Ġpouviez": 7570,
      "apprÃ©ci": 7571,
      "Ġpolici": 7572,
      "Ġobti": 7573,
      "cuper": 7574,
      "Ġessaient": 7575,
      "Ġproposer": 7576,
      "Ġmissions": 7577,
      "tionnaires": 7578,
      "Ġversets": 7579,
      "ĠprÃ©fÃ¨rent": 7580,
      "ĠÃ©tranger": 7581,
      "Ġcontinuerons": 7582,
      "Ġrecevons": 7583,
      "interpr": 7584,
      "intervention": 7585,
      "venus": 7586,
      "Ġofficielle": 7587,
      "ĠrecommandÃ©": 7588,
      "Ġprotest": 7589,
      "ĠprotÃ¨ge": 7590,
      "ĠÃ©tablir": 7591,
      "Ġidentifier": 7592,
      "Ġafricaine": 7593,
      "berg": 7594,
      "Ġfondamentaux": 7595,
      "Ġhistoriques": 7596,
      "ĠappropriÃ©e": 7597,
      "Ġboisson": 7598,
      "ĠcohÃ©r": 7599,
      "ĠprÃ©server": 7600,
      "Ġhiver": 7601,
      "Ġpacifique": 7602,
      "Ġoreilles": 7603,
      "Ġcompassion": 7604,
      "''": 7605,
      "DA": 7606,
      "OI": 7607,
      "Perm": 7608,
      "Voulez": 7609,
      "citÃ©": 7610,
      "ks": 7611,
      "ker": 7612,
      "yan": 7613,
      "Ġ|": 7614,
      "Ġlait": 7615,
      "Ġloy": 7616,
      "Ġcuri": 7617,
      "antis": 7618,
      "Ġfasc": 7619,
      "medi": 7620,
      "auraient": 7621,
      "Ġparent": 7622,
      "Ġchanc": 7623,
      "Ġgal": 7624,
      "Ġavais": 7625,
      "ĠprÃ©t": 7626,
      "amis": 7627,
      "amme": 7628,
      "ĠSeu": 7629,
      "Ġexistence": 7630,
      "Ġdevions": 7631,
      "ĠBur": 7632,
      "ĠTony": 7633,
      "Ã©nÃ¨bres": 7634,
      "objet": 7635,
      "Ġadress": 7636,
      "Ã©curitÃ©": 7637,
      "Ġ800": 7638,
      "ĠprocÃ¨s": 7639,
      "Ġbases": 7640,
      "Ġtient": 7641,
      "Ġpromett": 7642,
      "ancienne": 7643,
      "ĠÃ©crits": 7644,
      "Ġfiable": 7645,
      "Ġsouffre": 7646,
      "Ġcanal": 7647,
      "Ġdimensions": 7648,
      "Ġinvestissement": 7649,
      "Ġmanifestation": 7650,
      "ĠremplacÃ©": 7651,
      "Ġconvaincre": 7652,
      "Ġeh": 7653,
      "Ġgarantir": 7654,
      "Ġordinaire": 7655,
      "Ġordinateur": 7656,
      "ĠNigÃ©ri": 7657,
      "Ġrobots": 7658,
      "Ġexaminer": 7659,
      "Ġartifici": 7660,
      "Seigneur": 7661,
      "Ġchansons": 7662,
      "ĠlÃ©gitime": 7663,
      "Ġcatastrophe": 7664,
      "Notez": 7665,
      "Michael": 7666,
      "Ġphrase": 7667,
      "rÃ©taire": 7668,
      "mÃ©diaire": 7669,
      "ĠProphÃ¨te": 7670,
      "Ġcalendrier": 7671,
      "?âĢĿ": 7672,
      "Ah": 7673,
      "EB": 7674,
      "car": 7675,
      "gÃ©e": 7676,
      "kel": 7677,
      "Ġaustrali": 7678,
      "Ġsensi": 7679,
      "ĠnÃ©s": 7680,
      "Ġmass": 7681,
      "Ġmasse": 7682,
      "aron": 7683,
      "invent": 7684,
      "ita": 7685,
      "Ġunion": 7686,
      "Ġparlait": 7687,
      "agissait": 7688,
      "exister": 7689,
      "Ġsurvie": 7690,
      "ĠSant": 7691,
      "Ġ?!": 7692,
      "olf": 7693,
      "Ã©cri": 7694,
      "ĠFÃ©dÃ©ration": 7695,
      "Ġargument": 7696,
      "Ġtravaillant": 7697,
      "ĠÃ©coutÃ©": 7698,
      "ĠrÃ©sidence": 7699,
      "Ġpuisqu": 7700,
      "ĠdÃ©sas": 7701,
      "ĠlibÃ©raux": 7702,
      "Ġoffrent": 7703,
      "Ġinterro": 7704,
      "Ġmontrent": 7705,
      "Ġoptim": 7706,
      "Ġrefuse": 7707,
      "ĠÃ©nergies": 7708,
      "ĠcontribuÃ©": 7709,
      "Ġaugmentation": 7710,
      "ĠBarb": 7711,
      "Ġracines": 7712,
      "ĠÃ©lector": 7713,
      "Ġsurviv": 7714,
      "Ġterritoires": 7715,
      "organ": 7716,
      "Ġcontacter": 7717,
      "emarque": 7718,
      "ĠcensÃ©": 7719,
      "Ġmutuellement": 7720,
      "ĠÃ®le": 7721,
      "Contrairement": 7722,
      "ĠguÃ©rison": 7723,
      "52": 7724,
      "58": 7725,
      "Laissez": 7726,
      "OC": 7727,
      "Vi": 7728,
      "ban": 7729,
      "ute": 7730,
      "Ġache": 7731,
      "ish": 7732,
      "isse": 7733,
      "union": 7734,
      "arbre": 7735,
      "orgie": 7736,
      "Ġchaos": 7737,
      "liance": 7738,
      "Ġprostitu": 7739,
      "ĠdÃ©cide": 7740,
      "Ġrej": 7741,
      "Ġinuti": 7742,
      "oly": 7743,
      "ĠPersonne": 7744,
      "ĠBeaucoup": 7745,
      "Ġenter": 7746,
      "fices": 7747,
      "ventionn": 7748,
      "Ã´tres": 7749,
      "ĠimpliquÃ©": 7750,
      "appliqu": 7751,
      "ociation": 7752,
      "Ġ41": 7753,
      "ĠWest": 7754,
      "Ġauto": 7755,
      "ĠKar": 7756,
      "Ġconclure": 7757,
      "cidents": 7758,
      "Ġferaient": 7759,
      "atta": 7760,
      "Ġretraite": 7761,
      "ĠÃ©vidence": 7762,
      "Ġconnaissait": 7763,
      "Ġpuissants": 7764,
      "azine": 7765,
      "ĠmariÃ©": 7766,
      "ĠbÃ©nÃ©v": 7767,
      "ĠprotÃ©gÃ©s": 7768,
      "athÃ©m": 7769,
      "alifor": 7770,
      "Ġroutes": 7771,
      "Ġrenv": 7772,
      "Argentine": 7773,
      "Ġconstitue": 7774,
      "Ġremarque": 7775,
      "Ġjournaliste": 7776,
      "Ġ1967": 7777,
      "ĠTrans": 7778,
      "ĠConf": 7779,
      "Ġfacil": 7780,
      "Ġfournisseurs": 7781,
      "fection": 7782,
      "ĠsupÃ©rieur": 7783,
      "Ġretirer": 7784,
      "Ġpratiquer": 7785,
      "ÃĬtes": 7786,
      "Ġestime": 7787,
      "ĠthÃ©orie": 7788,
      "Ġfaudra": 7789,
      "Ġphilosophie": 7790,
      "Ġdynamique": 7791,
      "Ã©lectricitÃ©": 7792,
      "Ġsurmonter": 7793,
      "74": 7794,
      "Ġap": 7795,
      "Ġagent": 7796,
      "Ġmul": 7797,
      "levÃ©": 7798,
      "Ġfatigu": 7799,
      "Ġjal": 7800,
      "rah": 7801,
      "Ġplage": 7802,
      "ersonn": 7803,
      "ĠrÃ©cu": 7804,
      "ĠClar": 7805,
      "Ġsurface": 7806,
      "avie": 7807,
      "ĠAllem": 7808,
      "Ġconsul": 7809,
      "Envir": 7810,
      "Ġappelez": 7811,
      "ĠFerr": 7812,
      "Ġterres": 7813,
      "Ġpersonnelles": 7814,
      "ĠHitler": 7815,
      "ĠrÃ©sistance": 7816,
      "Ġ51": 7817,
      "alisÃ©s": 7818,
      "ĠLee": 7819,
      "Ġ65": 7820,
      "Ġcibles": 7821,
      "fiez": 7822,
      "ĠdÃ©bats": 7823,
      "Ġconstruite": 7824,
      "Ġapprend": 7825,
      "Ġtrouvons": 7826,
      "Ġrapides": 7827,
      "ĠdÃ©fend": 7828,
      "Ġvaisse": 7829,
      "ova": 7830,
      "Ġnourrir": 7831,
      "Ġsourire": 7832,
      "Ġgratitude": 7833,
      "Ġchefs": 7834,
      "Ġrepos": 7835,
      "Lorsqu": 7836,
      "Ġperdus": 7837,
      "Ġpotentiels": 7838,
      "ĠThomas": 7839,
      "Ġofficiel": 7840,
      "Ġconstater": 7841,
      "ĠSyri": 7842,
      "ESCO": 7843,
      "Ġcommerciale": 7844,
      "Ġutiles": 7845,
      "Ġexploit": 7846,
      "ĠmÃ©ritent": 7847,
      "Ġrevient": 7848,
      "ĠfidÃ¨le": 7849,
      "Ġauthentique": 7850,
      "mÃ©nie": 7851,
      "ĠEsprit": 7852,
      "ĠtrÃ©sor": 7853,
      "Ġmagasin": 7854,
      "ĠStreet": 7855,
      "Ġcigare": 7856,
      "Ġstress": 7857,
      "ĠKosovo": 7858,
      "ĠYÃ©men": 7859,
      "Allez": 7860,
      "Satan": 7861,
      "gos": 7862,
      "ĠUnion": 7863,
      "Ġulti": 7864,
      "ĠsÃ©v": 7865,
      "erg": 7866,
      "ĠnÃ´tre": 7867,
      "tise": 7868,
      "Ġtente": 7869,
      "und": 7870,
      "Ġrentrer": 7871,
      "aises": 7872,
      "oient": 7873,
      "rations": 7874,
      "iev": 7875,
      "Ġinternet": 7876,
      "ĠrÃ©vis": 7877,
      "ieuses": 7878,
      "Ġdiagn": 7879,
      "Ġsert": 7880,
      "pÃ©rat": 7881,
      "Ã´mes": 7882,
      "Ġsamedi": 7883,
      "oga": 7884,
      "Ġsoum": 7885,
      "Ġmarch": 7886,
      "opinion": 7887,
      "ĠWal": 7888,
      "Ġprie": 7889,
      "ĠprivÃ©s": 7890,
      "Ġeffray": 7891,
      "ancs": 7892,
      "Ġtransg": 7893,
      "Ġimmig": 7894,
      "ĠagrÃ©": 7895,
      "ĠdÃ©mons": 7896,
      "Ġ1992": 7897,
      "ĠCommande": 7898,
      "Ġremb": 7899,
      "ower": 7900,
      "Ġenseignement": 7901,
      "ĠÃ©tudiant": 7902,
      "Ġgraves": 7903,
      "ĠÃ©pouse": 7904,
      "Plusieurs": 7905,
      "Ġexistants": 7906,
      "Ġcouples": 7907,
      "Ġtraditions": 7908,
      "ĠBlack": 7909,
      "ĠJuan": 7910,
      "Ġmodifications": 7911,
      "Ġintelligent": 7912,
      "Ġquotidienne": 7913,
      "ĠMike": 7914,
      "ĠCongrÃ¨s": 7915,
      "Ġsommeil": 7916,
      "ĠAngel": 7917,
      "Ġtribunal": 7918,
      "Ġtremb": 7919,
      "ĠLisbonne": 7920,
      "sterdam": 7921,
      "ĠphÃ©nomÃ¨ne": 7922,
      "Ġoccasions": 7923,
      "Ġfallait": 7924,
      "ĠcaractÃ¨re": 7925,
      "!âĢĿ": 7926,
      "59": 7927,
      "76": 7928,
      "86": 7929,
      "?)": 7930,
      "Sinon": 7931,
      "aÃ©roport": 7932,
      "ba": 7933,
      "can": 7934,
      "gin": 7935,
      "ove": 7936,
      "oux": 7937,
      "Ġlanc": 7938,
      "Ġstim": 7939,
      "aid": 7940,
      "Ġtunn": 7941,
      "Ġlever": 7942,
      "Ã¨tent": 7943,
      "Ġjoin": 7944,
      "ĠparallÃ¨": 7945,
      "Ġbord": 7946,
      "alition": 7947,
      "aindre": 7948,
      "ĠdÃ©g": 7949,
      "Ġprends": 7950,
      "Ġdure": 7951,
      "ĠrÃ©vision": 7952,
      "ĠrÃ©duction": 7953,
      "oine": 7954,
      "ĠAprÃ¨s": 7955,
      "...\"": 7956,
      "Ã©riques": 7957,
      "otte": 7958,
      "ĠFord": 7959,
      "ĠNouveau": 7960,
      "copt": 7961,
      "Ġpensaient": 7962,
      "ĠarmÃ©es": 7963,
      "ctor": 7964,
      "ĠIS": 7965,
      "cessible": 7966,
      "Ġcompt": 7967,
      "Ġamener": 7968,
      "ĠmobilitÃ©": 7969,
      "Ġutilisateur": 7970,
      "Ġmini": 7971,
      "ĠKong": 7972,
      "Ġsouvient": 7973,
      "ĠlibÃ©ra": 7974,
      "Ġorganiser": 7975,
      "inda": 7976,
      "Ġconduite": 7977,
      "Ġmanquer": 7978,
      "atrice": 7979,
      "Ġenseigne": 7980,
      "Ġsubstitu": 7981,
      "Ġ250": 7982,
      "Ġsuffisante": 7983,
      "ĠArgentine": 7984,
      "ĠcoÃ»teux": 7985,
      "ĠcoÃ»te": 7986,
      "credi": 7987,
      "ĠSalomon": 7988,
      "Ġencourage": 7989,
      "ĠrÃ©glementation": 7990,
      "ajouter": 7991,
      "Ġbrev": 7992,
      "Ġcrucial": 7993,
      "ĠaÃ©rienne": 7994,
      "ĠrÃ©ussite": 7995,
      "individ": 7996,
      "Ġtransparence": 7997,
      "Ġstatistiques": 7998,
      "imaginer": 7999,
      "ĠinÃ©vitable": 8000,
      "Ġmorceau": 8001,
      ".,": 8002,
      "BC": 8003,
      "Don": 8004,
      "EA": 8005,
      "Ed": 8006,
      "lad": 8007,
      "yb": 8008,
      "onte": 8009,
      "Ġaident": 8010,
      "eraient": 8011,
      "Ġquin": 8012,
      "Ġvigueur": 8013,
      "Ġtue": 8014,
      "Ġtonnes": 8015,
      "ĠtÃ©nÃ¨bres": 8016,
      "ĠbÃªte": 8017,
      "ala": 8018,
      "Ġpleure": 8019,
      "Ġchair": 8020,
      "atoires": 8021,
      "Ġtouche": 8022,
      "ĠtouchÃ©": 8023,
      "ĠrÃ©ag": 8024,
      "Ġsurve": 8025,
      "Ġ?âĢĿ": 8026,
      "Ã¨se": 8027,
      "ĠmonÃ©taire": 8028,
      "Ġange": 8029,
      "Ġ(...)": 8030,
      "Ġalbum": 8031,
      "Ġappels": 8032,
      "Ã´ts": 8033,
      "adÃ©": 8034,
      "ĠItal": 8035,
      "Ġcompati": 8036,
      "ĠÃ©cout": 8037,
      "ĠprivÃ©es": 8038,
      "Ġclaires": 8039,
      "obra": 8040,
      "Ġ2017": 8041,
      "Ġprinc": 8042,
      "ĠdÃ©sesp": 8043,
      "ĠspÃ©cialement": 8044,
      "ĠlibÃ©rÃ©": 8045,
      "Ġverront": 8046,
      "Ġblague": 8047,
      "attaque": 8048,
      "Ġchoisissent": 8049,
      "Ġaimait": 8050,
      "Ġnaturels": 8051,
      "Ġappartement": 8052,
      "ĠnotÃ©": 8053,
      "Ġrechercher": 8054,
      "Ġremplir": 8055,
      "ather": 8056,
      "Ã¯n": 8057,
      "Ġtourner": 8058,
      "ĠmÃ©dicale": 8059,
      "ĠpÃ©cheurs": 8060,
      "Ġcalme": 8061,
      "Ġinvestissements": 8062,
      "arrivÃ©e": 8063,
      "Ġcollabor": 8064,
      "Ġexprimer": 8065,
      "Ġbombe": 8066,
      "Ġhumanitaires": 8067,
      "ĠClinton": 8068,
      "Ġglobale": 8069,
      "Ġsubstances": 8070,
      "Ġurgent": 8071,
      "Ġenregist": 8072,
      "Ġavocats": 8073,
      "ĠdÃ©montrÃ©": 8074,
      "Ġdoctrine": 8075,
      "ĠdÃ©barrasser": 8076,
      "ĠTokyo": 8077,
      "Arabie": 8078,
      "Cinq": 8079,
      "NG": 8080,
      "coin": 8081,
      "Ã©kin": 8082,
      "ĠnÃ©anmoins": 8083,
      "ĠmathÃ©m": 8084,
      "Ġeth": 8085,
      "Ġrues": 8086,
      "Ġenqu": 8087,
      "aurez": 8088,
      "emment": 8089,
      "ensable": 8090,
      "agues": 8091,
      "ĠrÃ©form": 8092,
      "ĠDu": 8093,
      "ĠMoh": 8094,
      "Ġcondu": 8095,
      "Ġtrom": 8096,
      "aver": 8097,
      "ĠPan": 8098,
      "Ġexception": 8099,
      "tension": 8100,
      "ĠTai": 8101,
      "ĠTex": 8102,
      "ĠentrÃ©": 8103,
      "oncÃ©": 8104,
      "ota": 8105,
      "Ġpossession": 8106,
      "Ġcomparer": 8107,
      "ĠOÃ¹": 8108,
      "Ġ46": 8109,
      "ĠVis": 8110,
      "ĠKen": 8111,
      "ĠforÃªts": 8112,
      "ĠpassÃ©es": 8113,
      "Ġpassage": 8114,
      "cepti": 8115,
      "Ġtransm": 8116,
      "Ġjouets": 8117,
      "anismes": 8118,
      "Ã©licopt": 8119,
      "Ġblanche": 8120,
      "ĠconsidÃ©ration": 8121,
      "ĠapprouvÃ©": 8122,
      "ĠprÃ©cise": 8123,
      "tionnellement": 8124,
      "Ġressenti": 8125,
      "ĠAll": 8126,
      "Ġnaturelles": 8127,
      "Ġapparu": 8128,
      "Ã©rÃ©ment": 8129,
      "AmÃ©ricains": 8130,
      "Ġnuits": 8131,
      "gÃ©ni": 8132,
      "Ġperdue": 8133,
      "Ġpotentiellement": 8134,
      "ĠdisparaÃ®t": 8135,
      "Ġmodernes": 8136,
      "ĠgÃ©op": 8137,
      "ĠindÃ©pendants": 8138,
      "Ġcommunautaire": 8139,
      "Ġblogu": 8140,
      "Ġdessus": 8141,
      "Ġvaccin": 8142,
      "ĠVIH": 8143,
      "Ġbelge": 8144,
      "Ġiranien": 8145,
      "Ġcarbone": 8146,
      "Ġentrepreneurs": 8147,
      "ĠsystÃ©": 8148,
      "91": 8149,
      "?!": 8150,
      "IM": 8151,
      "Pierre": 8152,
      "oz": 8153,
      "pÃ¨re": 8154,
      "pol": 8155,
      "ume": 8156,
      "uelle": 8157,
      "wood": 8158,
      "Ã¡": 8159,
      "enh": 8160,
      "oul": 8161,
      "Ġenver": 8162,
      "eurent": 8163,
      "ensus": 8164,
      "Ġrequis": 8165,
      "Ġinfin": 8166,
      "abe": 8167,
      "Ġserv": 8168,
      "tences": 8169,
      "ĠTV": 8170,
      "ĠentitÃ©s": 8171,
      "ĠRam": 8172,
      "lera": 8173,
      "ĠEgypte": 8174,
      "Ġpropor": 8175,
      "ĠGal": 8176,
      "Ġasp": 8177,
      "ĠrestÃ©s": 8178,
      "Ã§us": 8179,
      "Ġconnue": 8180,
      "Ġchangent": 8181,
      "ĠKur": 8182,
      "Ġpassent": 8183,
      "Ġlibert": 8184,
      "ĠFrank": 8185,
      "aturel": 8186,
      "ĠfermÃ©": 8187,
      "Ġprofit": 8188,
      "allen": 8189,
      "Ġappartiennent": 8190,
      "Ġopinions": 8191,
      "Ġmanqu": 8192,
      "Amour": 8193,
      "ĠrÃ©gional": 8194,
      "Ġabsolue": 8195,
      "Ġsimult": 8196,
      "ĠamÃ©liorÃ©": 8197,
      "ĠprÃ©cÃ©dents": 8198,
      "ĠpÃ©chÃ©": 8199,
      "Ġcommerciaux": 8200,
      "Ġtombe": 8201,
      "Ġvendredi": 8202,
      "ĠpropriÃ©tÃ©s": 8203,
      "Ġcouvrir": 8204,
      "estival": 8205,
      "ĠfonctionnÃ©": 8206,
      "ĠexprimÃ©": 8207,
      "Ġramener": 8208,
      "Ġcandidat": 8209,
      "ĠBilly": 8210,
      "ĠcausÃ©": 8211,
      "Ġextraordinaire": 8212,
      "assadeur": 8213,
      "Ġsatellite": 8214,
      "ĠSerbie": 8215,
      "ĠGÃ©orgie": 8216,
      "96": 8217,
      "Actuellement": 8218,
      "Bl": 8219,
      "Cl": 8220,
      "Leurs": 8221,
      "Sh": 8222,
      "gÃ©rie": 8223,
      "mÃ¨re": 8224,
      "Ġpensions": 8225,
      "erte": 8226,
      "Ġner": 8227,
      "ung": 8228,
      "asp": 8229,
      "ĠingÃ©ni": 8230,
      "ĠDel": 8231,
      "ĠDem": 8232,
      "Ġ110": 8233,
      "ĠPl": 8234,
      "ĠPouvez": 8235,
      "Ġexerc": 8236,
      "ĠLou": 8237,
      "ĠLad": 8238,
      "Ġappliquer": 8239,
      "appliquer": 8240,
      "ĠmillÃ©": 8241,
      "ĠcinÃ©m": 8242,
      "Ġ98": 8243,
      "ĠdÃ©putÃ©s": 8244,
      "Ġinclu": 8245,
      "ĠMary": 8246,
      "Ġheureusement": 8247,
      "Ġestim": 8248,
      "Ġspor": 8249,
      "ĠAngleterre": 8250,
      "ĠUSA": 8251,
      "Ġrempl": 8252,
      "ĠrÃ©gionale": 8253,
      "cevoir": 8254,
      "Ġsouffrir": 8255,
      "Ġvivants": 8256,
      "Ġconstante": 8257,
      "Ġchercheurs": 8258,
      "Ġsatisfaction": 8259,
      "Ġraconter": 8260,
      "ĠCarl": 8261,
      "Ġtransformation": 8262,
      "Ġproducteur": 8263,
      "ĠmÃ©canismes": 8264,
      "Ġcinquante": 8265,
      "Ġoccidental": 8266,
      "engagement": 8267,
      "ĠdÃ©testent": 8268,
      "COBRA": 8269,
      "Ġalimentaires": 8270,
      "Ġrobot": 8271,
      "Ġdistinction": 8272,
      "ĠcessÃ©": 8273,
      "Ġabandonner": 8274,
      "Ġbritanniques": 8275,
      "ĠÃ©valuation": 8276,
      "Ġjuive": 8277,
      "Ġprovinces": 8278,
      "ĠÃ®les": 8279,
      "ĠDocteur": 8280,
      "ĠBoston": 8281,
      "ĠÃ©duc": 8282,
      "Ġdrogue": 8283,
      "ĠamenÃ©": 8284,
      "ĠFonds": 8285,
      "Ġchaleur": 8286,
      "Ġintentions": 8287,
      "Ġdiscrimination": 8288,
      "ĠchaÃ®ne": 8289,
      "ĠboÃ®te": 8290,
      "ĠdÃ©sastre": 8291,
      "ĠFerrari": 8292,
      ");": 8293,
      "02": 8294,
      "67": 8295,
      "Me": 8296,
      "bi": 8297,
      "bab": 8298,
      "hÃ´tel": 8299,
      "neur": 8300,
      "ving": 8301,
      "Ã©ens": 8302,
      "Ġcab": 8303,
      "Ġdeg": 8304,
      "Ġmun": 8305,
      "armes": 8306,
      "itt": 8307,
      "Ġence": 8308,
      "rires": 8309,
      "ĠcomitÃ©": 8310,
      "amen": 8311,
      "ĠrÃ©agir": 8312,
      "ĠStu": 8313,
      "Ġ120": 8314,
      "Ġdevenez": 8315,
      "esseurs": 8316,
      "ĠTri": 8317,
      "Ġentrent": 8318,
      "Ġdissi": 8319,
      "Ġsaoudite": 8320,
      "ouvernement": 8321,
      "ocÃ©an": 8322,
      "ĠcrÃ©ature": 8323,
      "ĠHum": 8324,
      "ĠÃ©coutez": 8325,
      "ĠrÃ©pand": 8326,
      "ĠWorld": 8327,
      "ĠKiev": 8328,
      "Ġcourag": 8329,
      "Ġcontinuez": 8330,
      "ĠMark": 8331,
      "ahu": 8332,
      "akh": 8333,
      "ĠdÃ©mocratiques": 8334,
      "Ġterroriste": 8335,
      "Ġaccompagn": 8336,
      "Ġrivi": 8337,
      "hammad": 8338,
      "ĠÃīglise": 8339,
      "Ġmodern": 8340,
      "Ġtechniquement": 8341,
      "Ġdescendre": 8342,
      "ĠsÃ©paration": 8343,
      "Ġsouligne": 8344,
      "Ġdivorce": 8345,
      "Ġitalienne": 8346,
      "Ġstudio": 8347,
      "Ġfaciles": 8348,
      "Ġmigration": 8349,
      "ĠillÃ©gal": 8350,
      "Ġconversion": 8351,
      "UNESCO": 8352,
      "Ġcatholique": 8353,
      "Ġassassin": 8354,
      "Ġbouteille": 8355,
      "ĠCertains": 8356,
      "Ġharmon": 8357,
      "ĠPhilippines": 8358,
      "Ġrepentance": 8359,
      "Ġdrapeau": 8360,
      "73": 8361,
      "Certes": 8362,
      "OUR": 8363,
      "fait": 8364,
      "vations": 8365,
      "Ġeau": 8366,
      "ĠsÃ©p": 8367,
      "erie": 8368,
      "ĠnÃ©e": 8369,
      "ilier": 8370,
      "Ġfarde": 8371,
      "Ġuniques": 8372,
      "Ġjet": 8373,
      "Ġpassi": 8374,
      "ĠbilatÃ©ra": 8375,
      "ensitÃ©": 8376,
      "Ġprud": 8377,
      "Ġ?)": 8378,
      "ĠÃ©th": 8379,
      "Ġ!âĢĿ": 8380,
      "Ġpersu": 8381,
      "ĠFlor": 8382,
      "ĠGold": 8383,
      "ĠÃ©cou": 8384,
      "Ġcommentaire": 8385,
      "Ġ52": 8386,
      "lÃ¨tes": 8387,
      "Ġfortes": 8388,
      "Ġcommuniste": 8389,
      "Ġcourir": 8390,
      "Ġadh": 8391,
      "Ġparlera": 8392,
      "ĠlibÃ©ral": 8393,
      "Char": 8394,
      "ĠÃ©vidente": 8395,
      "ĠmusÃ©e": 8396,
      "Ġmusic": 8397,
      "Ġ180": 8398,
      "Ġamic": 8399,
      "Ġreconnaissent": 8400,
      "athan": 8401,
      "Ġordres": 8402,
      "Puisque": 8403,
      "Ġperdent": 8404,
      "Ġcanaux": 8405,
      "Seule": 8406,
      "ĠJaponais": 8407,
      "Ġaugmente": 8408,
      "ennis": 8409,
      "ĠconstatÃ©": 8410,
      "Ġanciennes": 8411,
      "ĠBlanche": 8412,
      "oudan": 8413,
      "Ġjournal": 8414,
      "ĠMichel": 8415,
      "Ġmultila": 8416,
      "Marie": 8417,
      "Ġrenforce": 8418,
      "Ã©chelle": 8419,
      "Ġsuscepti": 8420,
      "Ġoriginale": 8421,
      "ĠCharlie": 8422,
      "ĠprÃ©occupation": 8423,
      "ĠColomb": 8424,
      "Ġacteur": 8425,
      "Ġsignificative": 8426,
      "Ġchanter": 8427,
      "Ġattirer": 8428,
      "Ġdigne": 8429,
      "Ġauxquelles": 8430,
      "Ġspatiale": 8431,
      "Ġdangereuse": 8432,
      "ĠbibliothÃ¨que": 8433,
      "obÃ©issance": 8434,
      "Ġkilom": 8435,
      "54": 8436,
      "500": 8437,
      "87": 8438,
      "BI": 8439,
      "Pl": 8440,
      "honn": 8441,
      "iÃ©": 8442,
      "pel": 8443,
      "ena": 8444,
      "enquÃªte": 8445,
      "Ġpier": 8446,
      "outi": 8447,
      "Ġsel": 8448,
      "Ġquasi": 8449,
      "Ġmac": 8450,
      "Ġvamp": 8451,
      "auront": 8452,
      "ĠbrÃ©sil": 8453,
      "urde": 8454,
      "Ãªtement": 8455,
      "ĠdÃ©Ã§u": 8456,
      "Ġreine": 8457,
      "ima": 8458,
      "ĠCalifor": 8459,
      "ĠDay": 8460,
      "ĠMah": 8461,
      "Ġconvention": 8462,
      "ĠSl": 8463,
      "olat": 8464,
      "Ġmondes": 8465,
      "ativitÃ©": 8466,
      "ĠPeu": 8467,
      "Ġseriez": 8468,
      "ĠAh": 8469,
      "angement": 8470,
      "ĠTon": 8471,
      "Ġentendez": 8472,
      "Ġtrah": 8473,
      "ĠRw": 8474,
      "ĠRose": 8475,
      "adap": 8476,
      "ĠEr": 8477,
      "tras": 8478,
      "Ġpersonnages": 8479,
      "ĠrÃ©sister": 8480,
      "Ġstar": 8481,
      "ĠVoici": 8482,
      "Ġobs": 8483,
      "Ġfrais": 8484,
      "Ġauteurs": 8485,
      "Ġexpos": 8486,
      "assistance": 8487,
      "ronter": 8488,
      "Ġincor": 8489,
      "Ġretrait": 8490,
      "ĠrÃ©flex": 8491,
      "ĠenvoyÃ©s": 8492,
      "ĠreprÃ©sentant": 8493,
      "Ġcommencement": 8494,
      "ĠtÃ©moig": 8495,
      "ĠdÃ©truis": 8496,
      "ĠÃ©tudiÃ©": 8497,
      "Angleterre": 8498,
      "ĠZim": 8499,
      "Ġ1980": 8500,
      "Ġcertitude": 8501,
      "ĠterminÃ©e": 8502,
      "ĠsacrÃ©": 8503,
      "Ġaimerait": 8504,
      "Ġrecommandation": 8505,
      "rogez": 8506,
      "Ġouvertes": 8507,
      "Ġcapitalisme": 8508,
      "ĠrÃ©volutionnaire": 8509,
      "Ġconvaincus": 8510,
      "ĠaffirmÃ©": 8511,
      "Ġordinaires": 8512,
      "Ġdivine": 8513,
      "Ġhonneur": 8514,
      "Ġartiste": 8515,
      "Ġallaient": 8516,
      "ĠÃ©quilibre": 8517,
      "Ġfournisseur": 8518,
      "Ġdiplomatique": 8519,
      "Ġtaxe": 8520,
      "Ġexcellente": 8521,
      "Ġreconstruire": 8522,
      "scuritÃ©": 8523,
      "Ġarchite": 8524,
      "aÃ®tront": 8525,
      "ĠÃ©lectronique": 8526,
      "donÃ©sie": 8527,
      "ĠprospÃ©ritÃ©": 8528,
      "Ġmagnifique": 8529,
      "Ġlogiciel": 8530,
      "ĠancÃªtres": 8531,
      "Probablement": 8532,
      "53": 8533,
      "Veuillez": 8534,
      "iz": 8535,
      "Ġsainte": 8536,
      "Ġtandis": 8537,
      "ete": 8538,
      "arti": 8539,
      "ink": 8540,
      "roir": 8541,
      "alors": 8542,
      "Ġgay": 8543,
      "ĠDE": 8544,
      "ander": 8545,
      "Ġot": 8546,
      "rÃ©al": 8547,
      "ĠentitÃ©": 8548,
      "Ġaccessible": 8549,
      "ĠFMI": 8550,
      "Ġvide": 8551,
      "Ġperfection": 8552,
      "parce": 8553,
      "Ġsuisse": 8554,
      "Ġautrement": 8555,
      "ĠrÃ©pÃ¨te": 8556,
      "ternitÃ©": 8557,
      "effond": 8558,
      "ctifs": 8559,
      "ctivitÃ©": 8560,
      "ĠprÃ©oc": 8561,
      "Ġattribut": 8562,
      "Ã©dÃ©": 8563,
      "ĠmaniÃ¨res": 8564,
      "Ġ96": 8565,
      "Ġsauve": 8566,
      "Ġrevoir": 8567,
      "Ġ1991": 8568,
      "ĠsÃ©jour": 8569,
      "Ġlimiter": 8570,
      "Ġsym": 8571,
      "hiver": 8572,
      "ĠpiÃ¨ce": 8573,
      "Ġremarquer": 8574,
      "Ã©lor": 8575,
      "ĠprÃ©cÃ©dente": 8576,
      "ĠattaquÃ©": 8577,
      "ĠindÃ©pendance": 8578,
      "ĠuniversitÃ©s": 8579,
      "ĠÃ©ternel": 8580,
      "ASA": 8581,
      "Ġitaliens": 8582,
      "Ġhonor": 8583,
      "Ġtendances": 8584,
      "ĠÃ©quilib": 8585,
      "ĠfidÃ¨les": 8586,
      "Ġprovince": 8587,
      "ĠconnectÃ©": 8588,
      "ĠamÃ©liorations": 8589,
      "Ġbouteilles": 8590,
      "rown": 8591,
      "Ã©quipage": 8592,
      "ĠdegrÃ©s": 8593,
      "01": 8594,
      "94": 8595,
      "95": 8596,
      "AH": 8597,
      "Afghanistan": 8598,
      "MS": 8599,
      "Su": 8600,
      "Utilis": 8601,
      "Venez": 8602,
      "mat": 8603,
      "opÃ©ration": 8604,
      "pent": 8605,
      "ptembre": 8606,
      "tain": 8607,
      "ville": 8608,
      "ĠðŁ": 8609,
      "Ġlentement": 8610,
      "ref": 8611,
      "Ġsombre": 8612,
      "istique": 8613,
      "itablement": 8614,
      "ory": 8615,
      "Ġressus": 8616,
      "Ġjur": 8617,
      "Ġpros": 8618,
      "ata": 8619,
      "ĠDÃ©c": 8620,
      "ĠMil": 8621,
      "actique": 8622,
      "tensi": 8623,
      "Ġdevienne": 8624,
      "ĠAv": 8625,
      "ĠTra": 8626,
      "ĠNom": 8627,
      "Ġvice": 8628,
      "ĠEm": 8629,
      "ocation": 8630,
      "Ġrestri": 8631,
      "Ġ43": 8632,
      "Ġcomprenez": 8633,
      "Ġcoalition": 8634,
      "Ġenvie": 8635,
      "Ġpuissiez": 8636,
      "ĠKir": 8637,
      "Ġaddi": 8638,
      "issaire": 8639,
      "Ġ77": 8640,
      "Ġapprouv": 8641,
      "ĠespÃ©rer": 8642,
      "Ġregardant": 8643,
      "Ġreligieuses": 8644,
      "Ġtechnologique": 8645,
      "idÃ©litÃ©": 8646,
      "Ġsouffrent": 8647,
      "Ġtraditionnelle": 8648,
      "ĠÃ©tablis": 8649,
      "Ġobserver": 8650,
      "ĠcompÃ©tences": 8651,
      "Ġexplos": 8652,
      "Ġcouvre": 8653,
      "offrir": 8654,
      "Ġorganes": 8655,
      "ĠcohÃ©sion": 8656,
      "Ġvaste": 8657,
      "Ġukrainien": 8658,
      "animaux": 8659,
      "Ġfoule": 8660,
      "Ġspectacle": 8661,
      "Ġdescendants": 8662,
      "Att": 8663,
      "Ġsymbole": 8664,
      "ĠServi": 8665,
      "immy": 8666,
      "ĠÃ©gyptien": 8667,
      "ĠLorsque": 8668,
      "ĠblÃ¢mer": 8669,
      "Ġprolong": 8670,
      "ĠlibertÃ©s": 8671,
      "88": 8672,
      "Donnez": 8673,
      "ET": 8674,
      "Remarque": 8675,
      "Sauf": 8676,
      "fants": 8677,
      "lades": 8678,
      "anz": 8679,
      "erni": 8680,
      "erlandais": 8681,
      "itcoin": 8682,
      "ĠfÃªte": 8683,
      "Ġfolie": 8684,
      "user": 8685,
      "Ã¨ques": 8686,
      "Ġgo": 8687,
      "sieurs": 8688,
      "chnolog": 8689,
      "ĠCap": 8690,
      "ĠDire": 8691,
      "abeth": 8692,
      "ĠSw": 8693,
      "ĠSoleil": 8694,
      "ĠPÃ©kin": 8695,
      "Ã©ras": 8696,
      "Ã©rÃ©m": 8697,
      "essaie": 8698,
      "pereur": 8699,
      "Ġconsensus": 8700,
      "ĠToute": 8701,
      "ĠappliquÃ©": 8702,
      "Ġsuc": 8703,
      "Ġsucre": 8704,
      "Ġpaquet": 8705,
      "Quatre": 8706,
      "Ġvieilles": 8707,
      "vrez": 8708,
      "ĠcrÃ©ent": 8709,
      "ĠHow": 8710,
      "ĠprÃ©sidents": 8711,
      "Ã§ue": 8712,
      "ĠChe": 8713,
      "Ġobtient": 8714,
      "effort": 8715,
      "obby": 8716,
      "autom": 8717,
      "Ġador": 8718,
      "ĠadÃ©qu": 8719,
      "Ġsouvi": 8720,
      "itiÃ©": 8721,
      "drew": 8722,
      "ĠaidÃ©s": 8723,
      "ĠconsidÃ©rez": 8724,
      "ĠdÃ©mÃ©n": 8725,
      "Ġaffect": 8726,
      "Ġprisons": 8727,
      "introduction": 8728,
      "Quiconque": 8729,
      "Ġconduis": 8730,
      "ĠpÃ©riodes": 8731,
      "ĠQuelle": 8732,
      "ĠordonnÃ©": 8733,
      "Ġscand": 8734,
      "ĠSix": 8735,
      "Ġclairs": 8736,
      "intermÃ©diaire": 8737,
      "visionnement": 8738,
      "ĠReal": 8739,
      "ĠtestÃ©": 8740,
      "Ġ$.": 8741,
      "ĠimmÃ©diate": 8742,
      "Ġexistait": 8743,
      "Ġcontributions": 8744,
      "Ġrecommandons": 8745,
      "ĠBlair": 8746,
      "Ġportug": 8747,
      "ĠobservÃ©": 8748,
      "ĠnÃ©gocier": 8749,
      "Ġconfirme": 8750,
      "ĠemployÃ©": 8751,
      "ĠEuropÃ©en": 8752,
      "Ġmanifestations": 8753,
      "Ġexplorer": 8754,
      "Ġmodifier": 8755,
      "arriver": 8756,
      "ĠsuggÃ©rÃ©": 8757,
      "Ġconserver": 8758,
      "Ġhabitudes": 8759,
      "ĠÃ©quitable": 8760,
      "ĠWhite": 8761,
      "ĠGuerre": 8762,
      "Ġplanification": 8763,
      "Ġaffecter": 8764,
      "Ġindustries": 8765,
      "ĠmatÃ©riel": 8766,
      "animal": 8767,
      "Ġpunition": 8768,
      "Ã©roports": 8769,
      "Ġcanadien": 8770,
      "mosphÃ¨re": 8771,
      "ĠÃ©ducation": 8772,
      "Ġlicence": 8773,
      "Ġamendements": 8774,
      "Ġlaboratoire": 8775,
      "ĠmosquÃ©e": 8776,
      "ĠTexas": 8777,
      "Ġpierres": 8778,
      "ĠCalifornie": 8779,
      "Ay": 8780,
      "IB": 8781,
      "Iron": 8782,
      "Lis": 8783,
      "Note": 8784,
      "OL": 8785,
      "bol": 8786,
      "ives": 8787,
      "tta": 8788,
      "yd": 8789,
      "ĠcÃ©rÃ©m": 8790,
      "Ġsage": 8791,
      "tian": 8792,
      "time": 8793,
      "Ġvent": 8794,
      "Ġfum": 8795,
      "omination": 8796,
      "rimer": 8797,
      "Ġparam": 8798,
      "Ġbiens": 8799,
      "osp": 8800,
      "osex": 8801,
      "altern": 8802,
      "ĠgoÃ»t": 8803,
      "ĠÂ°": 8804,
      "ĠdÃ©di": 8805,
      "agent": 8806,
      "ĠintÃ©rieur": 8807,
      "prÃªme": 8808,
      "actu": 8809,
      "ĠAcc": 8810,
      "impression": 8811,
      "ĠBon": 8812,
      "ĠToutes": 8813,
      "sein": 8814,
      "Ġtragique": 8815,
      "ĠRos": 8816,
      "Ġsache": 8817,
      "ĠIm": 8818,
      "encer": 8819,
      "Ġcontent": 8820,
      "Ġdonnons": 8821,
      "Ġ47": 8822,
      "Ġobtiennent": 8823,
      "ĠminoritÃ©s": 8824,
      "Ġexport": 8825,
      "Ġsimpli": 8826,
      "Ġcauses": 8827,
      "Ã©mocra": 8828,
      "attends": 8829,
      "Ġprofil": 8830,
      "lub": 8831,
      "ĠbasÃ©e": 8832,
      "Ġrevanche": 8833,
      "Ġaffai": 8834,
      "Ġapparaissent": 8835,
      "Ġfondation": 8836,
      "Ġculturelles": 8837,
      "ĠaccordÃ©": 8838,
      "ĠdÃ©couvri": 8839,
      "Ġglace": 8840,
      "And": 8841,
      "Ġdiriger": 8842,
      "ĠtentÃ©": 8843,
      "ĠrappelÃ©": 8844,
      "Ġenvironnementale": 8845,
      "Ġdirigeant": 8846,
      "Ġcivils": 8847,
      "Ã©chapp": 8848,
      "ĠapprÃ©ciÃ©": 8849,
      "Ġeffectuer": 8850,
      "lantique": 8851,
      "Ġoriginal": 8852,
      "Ġobligatoire": 8853,
      "universitÃ©": 8854,
      "Ġblessures": 8855,
      "archie": 8856,
      "ĠrÃ©serve": 8857,
      "ĠMontrÃ©al": 8858,
      "Ġtalent": 8859,
      "ĠmenacÃ©": 8860,
      "Ġconsultation": 8861,
      "Ġvoyageurs": 8862,
      "Ġdiamants": 8863,
      "ĠpersÃ©cution": 8864,
      "Autrement": 8865,
      "Ġavertissements": 8866,
      "ĠdÃ©partement": 8867,
      "Ġmassac": 8868,
      "Ġtremblement": 8869,
      "atherine": 8870,
      "ttawa": 8871,
      ".'": 8872,
      "64": 8873,
      "92": 8874,
      "AzerbaÃ¯djan": 8875,
      "Facebook": 8876,
      "Tub": 8877,
      "ep": 8878,
      "hor": 8879,
      "ny": 8880,
      "ports": 8881,
      "van": 8882,
      "yth": 8883,
      "Ġdents": 8884,
      "enry": 8885,
      "Ġnaz": 8886,
      "euf": 8887,
      "Ġfol": 8888,
      "estÃ©": 8889,
      "Ġrares": 8890,
      "ĠenquÃªte": 8891,
      "ressions": 8892,
      "agine": 8893,
      "ĠCos": 8894,
      "ĠCop": 8895,
      "Ġtrou": 8896,
      "ĠÃ©tais": 8897,
      "Ġexact": 8898,
      "ĠexistÃ©": 8899,
      "ĠTay": 8900,
      "oyÃ©s": 8901,
      "Ġapplic": 8902,
      "raiment": 8903,
      "aill": 8904,
      "Ġpartiellement": 8905,
      "Ġvib": 8906,
      "utilisateurs": 8907,
      "ĠGh": 8908,
      "ĠdÃ©cri": 8909,
      "Ġmaroc": 8910,
      "Ġgrandir": 8911,
      "ĠWall": 8912,
      "ĠKing": 8913,
      "Ġjeudi": 8914,
      "ĠjugÃ©": 8915,
      "cides": 8916,
      "Ġonze": 8917,
      "ribue": 8918,
      "2015": 8919,
      "ĠÃ©vÃ¨nement": 8920,
      "Ġpromotion": 8921,
      "Ġvols": 8922,
      "Ġindirec": 8923,
      "ĠapparaÃ®tre": 8924,
      "Ġ1994": 8925,
      "Ġdoub": 8926,
      "ĠdÃ©veloppements": 8927,
      "Ġimmense": 8928,
      "ĠrÃ©gionales": 8929,
      "Ġcontinueront": 8930,
      "ĠRed": 8931,
      "Ġsouffert": 8932,
      "ĠgardÃ©": 8933,
      "ĠMondi": 8934,
      "ĠmÃ©dical": 8935,
      "guer": 8936,
      "Ġsatisfaire": 8937,
      "Ġgagnant": 8938,
      "ĠtransformÃ©": 8939,
      "ĠJuli": 8940,
      "Ġcouvert": 8941,
      "Ġordinateurs": 8942,
      "ound": 8943,
      "Ġmeurtre": 8944,
      "Ġvouliez": 8945,
      "Ġindividuellement": 8946,
      "Ġparlementaire": 8947,
      "Ġfroide": 8948,
      "Ġtaxi": 8949,
      "ĠAssad": 8950,
      "Ġdossi": 8951,
      "Ġlisez": 8952,
      "approche": 8953,
      "Ġfausses": 8954,
      "Ġfabricant": 8955,
      "Ġsignifiait": 8956,
      "FrÃ¨re": 8957,
      "ĠBanglades": 8958,
      "ĠdÃ©placer": 8959,
      "Ã©valuation": 8960,
      "Ġmentionne": 8961,
      "ĠGenÃ¨ve": 8962,
      "ĠtchÃ¨que": 8963,
      "ĠdÃ©lÃ©gation": 8964,
      "Ġdoigts": 8965,
      "Environ": 8966,
      "ĠkilomÃ¨tres": 8967,
      "ĠRwanda": 8968,
      "Ġattributs": 8969,
      "Gardez": 8970,
      "HA": 8971,
      "SS": 8972,
      "cinq": 8973,
      "gne": 8974,
      "ju": 8975,
      "mus": 8976,
      "ool": 8977,
      "su": 8978,
      "trÃ©": 8979,
      "Ġ..": 8980,
      "Ġoncle": 8981,
      "oujours": 8982,
      "ĠaÃ©roports": 8983,
      "Ġvienne": 8984,
      "Ġventes": 8985,
      "elli": 8986,
      "tein": 8987,
      "als": 8988,
      "urb": 8989,
      "ĠdÃ©ci": 8990,
      "endum": 8991,
      "agence": 8992,
      "ĠrÃ©ch": 8993,
      "ĠCIA": 8994,
      "examin": 8995,
      "ĠPC": 8996,
      "Ġdevrons": 8997,
      "ĠLune": 8998,
      "rÃ©d": 8999,
      "ĠBus": 9000,
      "ĠTer": 9001,
      "ĠTimes": 9002,
      "ĠJam": 9003,
      "ĠFam": 9004,
      "adop": 9005,
      "adox": 9006,
      "ĠNorm": 9007,
      "ĠfinancÃ©": 9008,
      "Ġpersonnage": 9009,
      "ican": 9010,
      "ĠONG": 9011,
      "Ġvisites": 9012,
      "ĠaccÃ©lÃ©": 9013,
      "alisÃ©e": 9014,
      "titudes": 9015,
      "Ġsaura": 9016,
      "Ġappellent": 9017,
      "Ġproclam": 9018,
      "Ġgarantis": 9019,
      "ĠÃ©lecteurs": 9020,
      "Ġespaces": 9021,
      "ĠrÃ©fÃ©r": 9022,
      "Ġmariages": 9023,
      "eck": 9024,
      "Ġprag": 9025,
      "ĠrÃ©gionaux": 9026,
      "Ġpopulaires": 9027,
      "ĠinformÃ©": 9028,
      "Ġsalu": 9029,
      "Ġ1985": 9030,
      "ĠPhil": 9031,
      "Ġressource": 9032,
      "Ġcamar": 9033,
      "ĠcamÃ©ras": 9034,
      "Ġfrag": 9035,
      "Ġimaginez": 9036,
      "Ġrefuser": 9037,
      "Ġdispositions": 9038,
      "Ġrespecte": 9039,
      "Ġjaponaise": 9040,
      "Ġmangent": 9041,
      "Ġpartageons": 9042,
[...]
